<pad>	0
<s>	0
</s>	0
<unk>	0
[SEP]	0
▁	-1.29397
▁.	-2.34769
▁거예요	-4.93392
이	-5.01171
지	-5.26454
▁수	-5.31857
는	-5.36798
▁너무	-5.37839
가	-5.42048
▁좋아하는	-5.463
도	-5.5274
▁더	-5.52798
을	-5.59383
▁거	-5.62198
요	-5.65769
▁것	-5.69526
어	-5.7217
고	-5.72225
다	-5.72363
게	-5.77077
에	-5.84058
▁많이	-5.87547
▁나	-5.88598
▁사람	-5.88741
은	-5.89248
▁좋은	-5.94123
▁같아요	-5.99367
▁있어요	-6.09486
▁싶어	-6.11452
▁있을	-6.13383
▁같아	-6.16243
▁사람이	-6.17302
해	-6.20019
서	-6.21513
▁그	-6.22289
▁게	-6.2481
네	-6.25968
한	-6.26128
만	-6.30404
나	-6.32716
▁건	-6.32783
기	-6.35159
▁마세요	-6.38359
▁내가	-6.38745
면	-6.39043
거	-6.39146
의	-6.44617
▁마음이	-6.46257
▁이제	-6.46858
하	-6.48727
▁다른	-6.49346
▁이별	-6.49753
▁해보세요	-6.52212
▁어떻게	-6.53076
▁싶다	-6.57292
▁있는	-6.58306
▁다	-6.59505
아	-6.59934
▁다시	-6.60755
는데	-6.62032
▁시간이	-6.66364
를	-6.66778
야	-6.67384
▁오늘	-6.674
하고	-6.70075
▁수도	-6.70351
▁좋을	-6.70574
할	-6.71455
▁하는	-6.71691
▁정말	-6.73963
▁한	-6.74224
까	-6.74527
▁걸	-6.80694
▁없어	-6.82321
▁같이	-6.83283
▁것도	-6.83347
▁될	-6.83793
데	-6.87723
▁있어	-6.88417
▁자꾸	-6.88549
로	-6.89375
▁하고	-6.912
▁그런	-6.91765
▁전	-6.92062
라	-6.95234
네요	-6.95355
▁연락	-6.96014
▁연애	-6.96238
▁있을까	-6.99557
▁해	-6.99791
▁할	-6.99841
▁때	-7.00205
▁없어요	-7.00408
▁마음	-7.02539
▁말	-7.03709
▁사랑	-7.03911
▁진짜	-7.03989
▁제가	-7.0421
▁나를	-7.04854
▁년	-7.05187
일	-7.06813
보	-7.0928
▁바랄게요	-7.09324
▁돼요	-7.09552
▁좋아요	-7.10024
죠	-7.10229
▁여자친구가	-7.1027
▁마음을	-7.12103
▁될까	-7.12199
▁헤어진지	-7.12911
▁남자친구가	-7.13073
▁혼자	-7.1368
▁없는	-7.14422
▁힘든	-7.16497
길	-7.17737
▁아	-7.18407
▁저도	-7.18832
하면	-7.19332
▁먹고	-7.20931
▁않아요	-7.21926
▁좋아	-7.22744
리	-7.2297
▁하세요	-7.23604
▁날	-7.25208
▁일이	-7.2522
▁그럴	-7.26459
▁짝사랑	-7.26886
자	-7.28245
▁시간	-7.28563
려	-7.28798
▁이	-7.29804
▁일	-7.3088
대	-7.30914
으로	-7.31305
▁보고	-7.32681
▁드세요	-7.33067
▁말해보세요	-7.33076
▁중	-7.33678
었	-7.35249
▁사랑이	-7.35273
▁좋죠	-7.3558
▁어떤	-7.3609
▁생각해요	-7.36277
니	-7.36521
▁방법	-7.37655
▁생각	-7.37723
▁많은	-7.38522
▁사람은	-7.38852
▁바랍니다	-7.39207
▁그냥	-7.39736
▁보세요	-7.40251
▁친구가	-7.40588
▁이렇게	-7.40803
▁좋겠어요	-7.41029
▁사람을	-7.41943
▁아직	-7.42307
▁남자	-7.42331
과	-7.42589
▁있으면	-7.42971
▁어떨까요	-7.43007
▁술	-7.44018
▁여자	-7.44093
에서	-7.44421
수	-7.44605
▁해요	-7.44898
▁있는데	-7.46001
▁선물	-7.47084
▁자신을	-7.48135
들	-7.48289
하지	-7.48485
▁사랑하는	-7.48719
▁데이트	-7.49671
▁새로운	-7.50954
▁사랑은	-7.51389
▁타는	-7.52642
▁힘드네	-7.52749
진	-7.53259
인데	-7.54089
▁할까	-7.54135
▁바	-7.54891
▁몰라요	-7.55866
으	-7.56273
▁줄	-7.57652
▁나한테	-7.58151
▁돼	-7.58578
▁짝남이	-7.58941
▁생각해보세요	-7.59005
▁지금	-7.5942
▁싫어	-7.60758
▁말고	-7.62197
▁같은데	-7.62343
▁힘들	-7.62624
▁나만	-7.62685
여	-7.63495
▁헤어진	-7.63585
▁좋겠네요	-7.63587
▁하지	-7.64458
▁연락이	-7.64869
▁만날	-7.6565
▁생각이	-7.65742
▁가고	-7.65747
▁함께	-7.66614
습니다	-7.67012
▁이젠	-7.67017
보세요	-7.67131
▁해도	-7.67291
▁많아	-7.67854
했어	-7.68112
▁안돼	-7.68768
건	-7.69472
▁마음에	-7.69476
▁듯	-7.69795
▁비	-7.69995
▁힘들어	-7.70223
▁싶은	-7.70454
▁그렇게	-7.70559
▁만큼	-7.70559
▁좋겠다	-7.70559
▁아니에요	-7.70559
▁이별을	-7.71064
▁친구	-7.71363
겠죠	-7.71389
▁후	-7.71533
▁모르겠어	-7.71661
줄	-7.72105
▁주	-7.72114
▁주세요	-7.72407
▁생각을	-7.7327
간	-7.73618
▁서로	-7.73622
▁같은	-7.7413
▁않는	-7.74564
▁오래	-7.74981
▁카톡	-7.7527
▁그게	-7.76273
주	-7.76487
▁이별은	-7.77484
▁연락을	-7.79678
걸	-7.79837
▁쉽지	-7.80761
치	-7.81092
▁항상	-7.81215
▁직접	-7.82022
▁가는	-7.82162
할까	-7.82643
랑	-7.82798
▁않을	-7.83026
▁돈	-7.83622
▁때가	-7.83895
▁이야기	-7.83965
▁따라	-7.8448
▁나는	-7.84507
▁좋겠어	-7.84962
▁사랑을	-7.85302
▁말을	-7.8535
적	-7.85603
▁저는	-7.86154
▁번	-7.86917
▁들어	-7.8738
▁충분히	-7.87857
니다	-7.88196
▁중요한	-7.8861
질	-7.88701
▁대화를	-7.88719
▁싶은데	-7.88736
이에요	-7.89011
던	-7.89501
▁때문에	-7.89588
▁하나	-7.89767
었어	-7.8997
▁도움이	-7.90465
라고	-7.9128
▁그만	-7.91347
▁제	-7.91465
입니다	-7.91742
▁있죠	-7.92243
▁말아요	-7.92244
▁물어보세요	-7.92252
▁하면	-7.92917
▁찾아보세요	-7.93168
▁짝녀가	-7.93434
거예요	-7.94045
▁우리	-7.94053
▁가보세요	-7.94186
하네	-7.94781
▁남자가	-7.94785
▁열심히	-7.94971
▁바라요	-7.94971
▁좋을까	-7.95021
▁기분	-7.9513
상	-7.95646
▁여행	-7.95763
▁연락해보세요	-7.96849
하다	-7.96924
▁마음의	-7.97237
▁요즘	-7.97486
▁아직도	-7.9752
구	-7.97609
시	-7.98538
▁고민	-7.98988
▁집	-7.99412
▁집에	-7.99798
▁괜찮아요	-7.99892
래	-7.99986
▁않은	-8.00644
▁내일	-8.00939
▁와	-8.00967
▁어때	-8.01314
▁시간을	-8.01418
▁달	-8.01968
▁얼른	-8.0263
▁이런	-8.0263
▁잘할	-8.0263
▁제일	-8.02733
▁대한	-8.02861
▁볼	-8.0358
▁조금씩	-8.0363
▁해야	-8.03685
▁여친	-8.03934
나봐	-8.04131
▁오늘도	-8.0519
▁갑자기	-8.0566
▁살고	-8.0566
▁그래도	-8.05782
▁사람이랑	-8.05927
▁한달	-8.06043
해도	-8.06461
▁차	-8.06582
소	-8.06634
▁당신의	-8.06747
▁덜	-8.08222
▁모르는	-8.08505
▁여자가	-8.08558
▁오	-8.08598
▁되나	-8.08783
▁되는	-8.08811
▁자주	-8.08848
▁하루	-8.09143
▁사랑의	-8.09236
함	-8.09824
▁했는데	-8.09849
▁불	-8.09947
봐	-8.09984
해야	-8.10107
▁여자친구	-8.10133
봐요	-8.1031
▁아파	-8.1081
▁사람한테	-8.10925
▁머리	-8.1094
▁있나봐요	-8.10948
▁어제	-8.10957
▁자신의	-8.11011
▁가장	-8.11026
▁남자친구	-8.11219
▁아닌	-8.11249
▁사람들이	-8.11661
▁조금만	-8.12012
▁헤어지고	-8.12053
▁생각해	-8.12358
전	-8.12749
져	-8.12928
것	-8.13068
▁매일	-8.13111
▁알았는데	-8.13111
장	-8.1373
▁해볼까	-8.13932
▁뭘까	-8.14222
▁짝남한테	-8.14222
▁중요해요	-8.15367
▁만나고	-8.15566
▁준비	-8.15872
▁시작	-8.16046
▁자	-8.16247
▁기억	-8.16267
다면	-8.16467
▁당신이	-8.16617
▁언제	-8.1696
▁보는	-8.17573
▁어떡해	-8.17631
▁너	-8.17998
터	-8.18784
▁왔어	-8.18794
▁있다면	-8.18794
▁한번	-8.18829
하기	-8.19032
▁모르겠어요	-8.19359
감	-8.19792
해요	-8.20224
거라	-8.20806
지도	-8.2101
겠어요	-8.21109
▁뭐가	-8.21161
▁천천히	-8.21161
▁핸드폰	-8.21161
▁합니다	-8.21313
▁정리가	-8.21512
▁지금도	-8.21901
▁거라	-8.21934
▁없네	-8.22011
▁오세요	-8.22366
▁저랑	-8.22366
▁오늘은	-8.22446
▁노래	-8.22498
▁걸까	-8.22945
▁관심	-8.23831
▁잔	-8.24167
▁맞는	-8.2432
▁없을	-8.24779
▁스트레스	-8.25185
니까	-8.25366
▁날이	-8.25703
▁이별이	-8.25775
▁사는	-8.25787
생	-8.25925
▁친구랑	-8.26139
▁잘하는	-8.2705
▁영화	-8.27199
▁쉬운	-8.27335
▁확신이	-8.27335
▁빨리	-8.27337
▁점점	-8.27338
▁인연이	-8.27448
이야	-8.27487
▁기분이	-8.28004
▁운동	-8.28058
▁있나	-8.28236
심	-8.28335
긴	-8.2846
▁잘하고	-8.28618
▁개월	-8.29271
▁하는데	-8.29469
▁사랑에	-8.29814
▁생각보다	-8.29917
▁자신이	-8.30166
차	-8.31255
마	-8.31971
▁조심하세요	-8.32565
지만	-8.33015
날	-8.33208
▁이유가	-8.33917
려고	-8.34456
▁짝녀	-8.34653
▁아무	-8.34808
▁커피	-8.34824
▁사진	-8.34908
▁상	-8.35015
▁하나씩	-8.35287
▁아무래도	-8.35287
▁하죠	-8.35515
▁않아	-8.35717
▁대	-8.36557
▁바람	-8.3664
▁위해	-8.36674
▁사귀고	-8.36675
▁서로에게	-8.36677
▁만나는	-8.36678
▁아닌데	-8.36812
▁당신을	-8.36852
▁아는	-8.37623
▁알아	-8.3787
어요	-8.38004
▁믿어요	-8.38084
▁거죠	-8.38194
▁좋아할	-8.39156
▁필요한	-8.39322
▁모두	-8.39375
▁언젠간	-8.39513
▁된	-8.40887
▁괜찮은	-8.40962
▁좋아하면	-8.4118
▁마지막	-8.41729
▁물	-8.4182
이나	-8.41849
▁여친이	-8.4194
▁어디	-8.42075
▁사귀는	-8.42318
▁아픈	-8.4243
▁사세요	-8.42432
▁아무것도	-8.42432
▁좋아하게	-8.42434
건가	-8.42451
듯	-8.42485
▁그녀를	-8.42531
▁나서	-8.42543
▁두	-8.4344
▁받아	-8.43505
▁모든	-8.43605
▁정리	-8.43635
▁없이	-8.43925
▁일찍	-8.43925
▁나와	-8.44204
▁것이	-8.44309
▁사람도	-8.44478
▁싶어요	-8.44505
러	-8.4512
▁끝이	-8.4544
▁알게	-8.4544
▁나도	-8.45561
▁자기	-8.45616
▁아니라	-8.46053
▁찾아	-8.46306
▁전에	-8.46947
▁되지	-8.46978
▁많았어요	-8.46978
▁받고	-8.46978
▁신경쓰지	-8.46978
스	-8.48002
▁가서	-8.48103
▁가끔	-8.48258
하는게	-8.48343
▁스스로	-8.4854
▁않죠	-8.48541
▁애가	-8.48541
▁짝녀한테	-8.48541
▁헤어짐	-8.48816
▁연락하고	-8.49032
▁신경	-8.49121
제	-8.49475
▁보통	-8.50128
▁중요하지	-8.50129
와	-8.50133
▁해주세요	-8.50227
▁중에	-8.51113
나요	-8.51436
▁소개팅	-8.51557
우	-8.51612
▁맛있게	-8.51741
▁있었나봐요	-8.51741
▁관심이	-8.52555
▁지	-8.52668
드	-8.52908
▁고백	-8.53299
▁남자애가	-8.53381
▁눈을	-8.53381
▁못하겠어	-8.53381
▁뭐야	-8.53381
▁잠시	-8.53381
▁당신은	-8.53536
▁안해	-8.54627
▁갈	-8.5463
▁괜찮아	-8.54647
▁좋아해	-8.54953
▁보면	-8.5503
▁완전	-8.5503
르	-8.55032
된	-8.55045
▁확실한	-8.55047
나봅니다	-8.55054
▁원하는	-8.55065
▁사랑했던	-8.55106
▁상처	-8.55268
▁고민이	-8.55684
든	-8.56354
▁이상	-8.56671
▁만나	-8.56689
▁곳으로	-8.56742
▁받는	-8.56742
▁뿐이에요	-8.56742
▁상관	-8.56742
▁주는	-8.57096
▁좋아하는데	-8.57385
▁많아요	-8.57604
▁생각나	-8.57643
▁꿈에	-8.58263
신	-8.58281
건지	-8.58298
▁받을	-8.58466
▁타고	-8.58466
▁괜찮을까	-8.58635
▁말이	-8.59554
▁가능	-8.59636
▁기	-8.60026
오	-8.60038
▁눈이	-8.60221
▁예쁘게	-8.60221
▁잠이	-8.60221
군요	-8.60331
▁없다면	-8.60345
▁고민이야	-8.60404
▁않아도	-8.60732
▁앞에	-8.61803
▁시	-8.61831
▁남편이	-8.6186
▁힘이	-8.62006
▁귀찮아	-8.62006
▁금방	-8.62006
▁늦지	-8.62006
▁되길	-8.62006
▁시험	-8.62006
▁않고	-8.62006
▁없죠	-8.62006
▁절대	-8.62006
▁좋겠죠	-8.62006
▁친구한테	-8.62006
▁오는	-8.6204
▁감기	-8.62097
▁싶네요	-8.62163
▁감정	-8.62215
▁가슴	-8.63207
▁날씨	-8.63395
합니다	-8.63415
임	-8.63441
본	-8.6362
▁다를	-8.63774
▁작은	-8.63824
▁맨날	-8.63825
▁죽을	-8.63825
▁나중에	-8.63825
▁때까지	-8.63828
▁누구나	-8.6389
▁않는다면	-8.63895
▁긴	-8.63901
▁중인데	-8.64032
▁대로	-8.64085
▁친구를	-8.64147
▁힘들게	-8.64576
▁힘들다	-8.64617
▁간다	-8.64758
운	-8.65299
▁알고	-8.65676
▁되네	-8.65676
▁알려줘	-8.6568
▁이별한지	-8.65684
▁생길	-8.65707
▁이별후	-8.65791
▁만나지	-8.6663
▁보지	-8.66756
▁행복해	-8.67525
▁편이	-8.67562
▁살펴보세요	-8.67563
▁여자애가	-8.67563
▁사랑해주세요	-8.6757
▁짝남이랑	-8.67683
갈	-8.67787
▁필요해요	-8.67865
▁그녀	-8.67888
줘	-8.68219
▁후회	-8.68356
▁아닌지	-8.68429
▁사람들	-8.68725
▁돈이	-8.68959
▁이별의	-8.6897
볼까	-8.69023
▁학교	-8.69114
▁얼마	-8.6933
학	-8.69382
▁같습니다	-8.69486
▁힘내세요	-8.69486
▁가져보세요	-8.69503
▁있는지	-8.69608
▁일을	-8.69652
▁사람에	-8.70071
▁법	-8.70501
▁재미	-8.70999
▁좋은데	-8.71163
▁물어보는	-8.71168
▁봐요	-8.71247
일까	-8.71311
▁척	-8.71357
▁만났어	-8.71447
▁맛있는	-8.71447
▁봅니다	-8.71447
▁있습니다	-8.71447
▁즐거운	-8.71447
▁문자	-8.71458
▁해서	-8.71466
▁자신	-8.71659
▁감정을	-8.71853
▁지금은	-8.72298
▁순간	-8.72389
▁못해	-8.7288
▁끝나	-8.72932
워	-8.72969
▁안되는	-8.73336
▁알바	-8.73374
히	-8.73407
▁되어	-8.73446
▁변화가	-8.73447
▁어느	-8.73447
▁주무세요	-8.73447
▁헤어졌습니다	-8.73447
▁확인해보세요	-8.73447
▁그러면	-8.73448
▁미련	-8.73501
▁하	-8.73668
▁바로	-8.73787
▁이제는	-8.73872
방	-8.73876
▁연락해도	-8.7399
▁만들어	-8.75002
▁못하는	-8.75088
인가봐요	-8.75231
실	-8.7537
▁곳이	-8.75401
▁받아들이는	-8.75488
▁쉬고	-8.75488
▁그래요	-8.75705
▁언제나	-8.75766
▁해봐요	-8.75774
▁좋아하는게	-8.76663
▁됐어	-8.77207
냐	-8.77344
▁가기	-8.7748
▁비싸	-8.77544
▁뭔지	-8.77571
▁예의가	-8.77571
▁좋다	-8.77571
▁사람마다	-8.77572
▁뭐라고	-8.77728
▁방법이	-8.77847
▁관심을	-8.78208
후	-8.7853
▁나을	-8.78549
▁정도	-8.78667
▁힘들어요	-8.78688
▁차단	-8.78783
▁말해	-8.79327
▁들	-8.79346
▁연락해	-8.79517
▁남친이	-8.79656
▁가세요	-8.79699
▁싶지	-8.79699
▁썸이	-8.79699
▁멋진	-8.79701
▁미리	-8.79717
▁잊고	-8.79732
▁먹어야지	-8.79811
▁아닐까요	-8.79817
▁문제가	-8.79991
▁마요	-8.80239
▁사랑하고	-8.80317
▁사람과	-8.808
▁가면	-8.81007
▁필요	-8.81154
▁드는	-8.81171
▁입	-8.81222
▁일은	-8.81459
했던	-8.81513
▁싫다	-8.81536
▁추천	-8.81832
▁편지	-8.81872
▁그리고	-8.81876
▁용기를	-8.81945
▁같네요	-8.82119
▁가지고	-8.82208
▁때도	-8.8227
▁있나요	-8.8248
▁없네요	-8.82519
기도	-8.83052
▁사람이네요	-8.83244
▁눈물	-8.83475
▁마음은	-8.83536
▁만난	-8.83567
▁마	-8.83672
▁것을	-8.83697
▁먹을	-8.83974
▁프사	-8.84051
▁뭔가	-8.84095
▁애랑	-8.84095
▁자연스러운	-8.84095
▁저를	-8.84095
▁조언	-8.84095
▁어려운	-8.84095
▁군대	-8.84102
▁잊는	-8.84143
▁않을까요	-8.84245
▁마음도	-8.84288
▁미련이	-8.84671
▁첫사랑	-8.84743
주세요	-8.8482
▁나이	-8.85121
▁시간은	-8.85406
▁배	-8.8579
▁어려워	-8.86009
기가	-8.86186
▁분위기	-8.86234
▁직장	-8.86311
▁썸남이	-8.86327
▁꿈을	-8.86368
▁끝을	-8.86368
▁드디어	-8.86368
▁떨려	-8.86368
▁말하세요	-8.86368
▁상황을	-8.86368
▁저에게	-8.86368
▁적당히	-8.86368
▁성격이	-8.86387
▁보러	-8.86402
▁잊을	-8.86408
▁힘들죠	-8.86653
▁사람에게	-8.86713
▁생각할	-8.86714
때	-8.86977
▁가슴이	-8.87147
▁하나도	-8.87434
▁사이	-8.87728
미	-8.88331
▁궁금해	-8.88429
▁먹으면	-8.88482
▁먹는	-8.88583
외	-8.88693
▁되고	-8.88693
▁있잖아요	-8.88693
▁누가	-8.88728
▁만나보세요	-8.8875
▁힘들겠어요	-8.8879
▁만나자고	-8.88829
▁있네요	-8.8889
▁사랑하면	-8.89117
▁후폭풍이	-8.8917
▁없다	-8.90109
가봐요	-8.90206
▁좋지	-8.90514
▁필요해	-8.90918
▁정신	-8.90965
망	-8.90995
▁카페	-8.91012
▁해보는	-8.91035
▁기다리고	-8.91074
▁안하고	-8.91074
▁진심으로	-8.91083
▁잊지	-8.91131
▁힘들겠지만	-8.91193
▁이상한	-8.91314
▁호감이	-8.91521
▁그녀가	-8.91631
▁그건	-8.91676
▁머리가	-8.92058
▁나랑	-8.92088
말	-8.92506
▁짝사랑하는	-8.92532
까요	-8.93024
였	-8.93141
프	-8.9351
▁안나	-8.93512
▁갖고	-8.93513
▁뭐든	-8.93513
▁않길	-8.93513
▁자책하지	-8.93513
▁축하해요	-8.93513
▁생각하고	-8.94021
▁사람의	-8.94371
▁추억	-8.94729
▁좋아할까	-8.94861
▁화장	-8.94987
▁의미	-8.95454
▁있지	-8.95469
▁속이	-8.96013
▁연예인	-8.96013
▁있겠어요	-8.96013
▁잠을	-8.96013
▁행복한	-8.96013
▁것보다	-8.9602
▁후회하지	-8.9608
▁모르겠네요	-8.96117
▁다음에는	-8.96163
▁대해	-8.96241
▁서로를	-8.96452
▁소리	-8.97002
▁괜찮을	-8.98177
▁눈에	-8.98369
▁능력이	-8.98528
▁꾸준히	-8.98577
▁못하고	-8.98577
▁무서워	-8.98577
▁쉽게	-8.98577
▁스킨십	-8.98577
▁썸타는	-8.98577
▁위한	-8.98577
▁충분한	-8.98577
▁원래	-8.9858
▁게임	-8.98636
▁그런가봐요	-8.98689
▁좋아하는지	-8.98781
▁만나면	-8.9884
▁만나서	-8.98891
▁바보	-8.98932
▁남자를	-8.99188
까봐	-8.99993
▁주고	-9.00129
▁전남친	-9.00578
▁후회할	-9.0059
▁아니	-9.00653
▁없나	-9.01176
▁끝은	-9.01209
▁만나세요	-9.01209
▁있고	-9.01209
▁장난	-9.01209
▁지켜보세요	-9.01209
▁여자친구와	-9.01254
▁주지	-9.02203
▁휴	-9.02513
▁우산	-9.03218
▁별로	-9.03622
▁느낌이	-9.03783
▁전여친	-9.03911
▁기다릴	-9.03911
▁동거	-9.03911
▁꿈이	-9.03912
▁않았으면	-9.03912
▁어느덧	-9.03912
▁자연스럽게	-9.03912
▁어쩔	-9.03913
▁시작해보세요	-9.03918
▁화장실	-9.03929
▁년이	-9.04087
▁자신에게	-9.0409
▁일이에요	-9.04226
하려고	-9.04256
▁주면	-9.04543
▁사랑할	-9.04573
▁스	-9.04853
▁준비가	-9.04979
▁사랑한	-9.05116
달	-9.05684
영	-9.0614
근	-9.06548
짐	-9.06584
▁내려	-9.06676
▁다행이에요	-9.06689
▁되겠네요	-9.06689
▁따로	-9.06689
▁많죠	-9.06689
▁받았어	-9.06689
▁붙잡고	-9.06689
▁안들어	-9.06689
▁오랜만에	-9.06689
▁헤어졌어	-9.06689
▁가자고	-9.06692
▁완전히	-9.06717
▁대학	-9.06752
▁짜증나	-9.06771
▁자신감을	-9.06811
▁아무리	-9.06841
▁갈까	-9.06958
▁되는데	-9.06973
▁앞에서	-9.07008
▁일도	-9.07171
▁있어도	-9.07425
▁감정이	-9.07457
▁눈물이	-9.07472
▁걸로	-9.0781
▁차이	-9.08467
당	-9.09415
▁생각나네	-9.09418
▁상황이	-9.09447
▁부담	-9.09534
▁노력해보세요	-9.09547
▁놓아주세요	-9.09547
▁몸이	-9.09547
▁못한	-9.09547
▁생각하세요	-9.09547
▁쓰는	-9.09547
▁않으면	-9.09547
▁왔는데	-9.09547
▁제대로	-9.09547
▁여러	-9.09555
▁선물이	-9.09654
▁기운	-9.09666
▁고생	-9.09752
▁연	-9.09876
▁말도	-9.0992
▁연락하지	-9.09984
▁당신	-9.10393
더	-9.11201
▁생각나는	-9.11371
▁필요할	-9.12169
▁볼까	-9.12169
▁연락하는	-9.12205
문	-9.12361
▁두려워	-9.1243
▁소개	-9.12488
▁듣고	-9.12488
▁만났는데	-9.12488
▁안하는	-9.12488
▁여유를	-9.12488
▁지쳤나봐요	-9.12488
▁축하드려요	-9.12488
▁크리스마스	-9.12488
▁했으면	-9.12488
▁헷갈리게	-9.12488
▁현상이에요	-9.12488
▁이야기해보세요	-9.12504
▁남자들은	-9.12701
▁상처를	-9.12716
▁호감을	-9.12786
▁타는데	-9.13017
▁좋아하고	-9.13208
▁좋아해도	-9.13395
▁목	-9.14089
▁생각하는	-9.14188
피	-9.14348
그	-9.14437
▁후폭풍	-9.14613
▁말하는	-9.15234
린	-9.15265
▁못할	-9.15392
▁했어	-9.15408
▁걱정돼	-9.15518
▁남을	-9.15518
▁되면	-9.15518
▁앞으로	-9.15518
▁편한	-9.15518
▁확실히	-9.15518
두	-9.15647
▁있지만	-9.15745
▁달라고	-9.1587
▁엄마가	-9.15909
▁사랑하는데	-9.16087
▁만나는게	-9.1613
▁나이가	-9.1624
▁안해도	-9.16259
▁자고	-9.17123
▁만남	-9.17356
▁거야	-9.17505
야지	-9.17568
▁지나	-9.18027
▁같네	-9.18288
▁말할	-9.18347
▁기대	-9.18381
▁될까요	-9.18413
▁옆에	-9.18434
▁시켜	-9.18626
▁괜히	-9.18643
▁맘고생	-9.18643
▁보고싶어	-9.18643
▁소중한	-9.18643
▁썸남한테	-9.18643
▁않네	-9.18643
▁이유를	-9.18643
▁잡고	-9.18643
▁하다보면	-9.18643
▁사랑한다고	-9.18644
▁한잔	-9.18654
▁지나갈	-9.18659
▁괜찮아질	-9.1871
▁있으니까요	-9.18749
▁얼마나	-9.18899
▁이상해	-9.18981
▁친구로	-9.19091
▁가지	-9.19287
▁이거	-9.19329
▁서로의	-9.1933
▁날씨가	-9.19415
▁추억이	-9.19431
▁없는데	-9.19469
▁사람이에요	-9.19695
▁연애를	-9.19834
▁힘들지	-9.19991
▁하는게	-9.20116
▁문제	-9.20345
▁현실	-9.21196
▁그사람	-9.21233
▁운명	-9.21242
▁기다려	-9.21262
성	-9.21553
▁기다리는	-9.21588
▁그대로	-9.21735
디	-9.21759
▁떠난	-9.21867
▁내는	-9.21869
▁됐으면	-9.21869
▁들어드릴게요	-9.21869
▁말씀해보세요	-9.21869
▁받지	-9.21869
▁부모님이	-9.21869
▁쉬는	-9.21869
▁아침에	-9.21869
▁안와	-9.21869
▁않으니까요	-9.21869
▁있겠지	-9.21869
▁진정한	-9.21869
▁장거리	-9.21869
▁필요하죠	-9.21869
▁이해해주세요	-9.21875
▁전해보세요	-9.21889
▁짝녀랑	-9.21966
▁위로해	-9.22003
▁건지	-9.22071
▁심해	-9.22133
▁줘도	-9.22339
▁남자친구의	-9.22355
▁여자친구의	-9.22361
▁꽃	-9.22374
▁이야기를	-9.22388
▁감정에	-9.22402
▁장	-9.22571
▁짝사랑이	-9.22889
▁돈을	-9.23395
▁주말	-9.24292
▁질	-9.245
연	-9.24678
▁그래	-9.2496
▁기념일	-9.25202
▁놀고	-9.25202
▁되죠	-9.25202
▁변화를	-9.25202
▁생겼는데	-9.25202
▁안됐는데	-9.25202
▁않았어요	-9.25202
▁어쩌지	-9.25202
▁인형	-9.25202
▁있길	-9.25202
▁적극적으로	-9.25202
▁지내고	-9.25202
▁했습니다	-9.25202
▁편할	-9.25202
▁기다려보세요	-9.25245
▁회사에서	-9.25282
▁정리하는게	-9.254
▁그래서	-9.25408
▁해줘	-9.25419
▁그녀의	-9.25487
▁이야기네요	-9.25599
▁사랑하지	-9.25666
▁있는게	-9.25765
▁연락하면	-9.2587
▁필요는	-9.25935
▁아니라고	-9.25981
▁여행을	-9.26569
▁싫은	-9.26847
▁얘기	-9.27198
▁나의	-9.27378
▁울	-9.27401
▁세상	-9.27459
▁상대	-9.27795
▁거짓말	-9.27888
▁엄마	-9.28164
▁없으면	-9.28435
노	-9.28488
▁잘해	-9.28614
렸	-9.28649
▁커플	-9.2865
▁놓고	-9.2865
▁않게	-9.2865
▁여자애한테	-9.2865
▁있겠죠	-9.2865
▁있다는	-9.2865
▁텐데	-9.2865
▁편하게	-9.2865
▁상대방을	-9.28651
▁궁금하네요	-9.28651
▁잊어	-9.28724
▁그렇지만	-9.28824
▁했던	-9.28883
이라도	-9.2904
▁고민하고	-9.29045
▁용기가	-9.2905
였어	-9.29126
▁당신도	-9.29133
▁내일은	-9.29654
▁가야	-9.29697
▁사람으로	-9.30692
▁보내	-9.3083
▁사랑해	-9.3086
비	-9.3155
▁부러워	-9.31863
▁극복	-9.31994
▁출근	-9.32137
형	-9.32199
▁가지세요	-9.32222
▁그동안	-9.32222
▁드라마	-9.32222
▁말씀해주세요	-9.32222
▁무서운	-9.32222
▁부담스럽지	-9.32222
▁살까	-9.32222
▁선택을	-9.32222
▁예뻐요	-9.32222
▁왔다	-9.32222
▁용기내서	-9.32222
▁친한	-9.32222
▁상대방이	-9.32222
▁좋아하던	-9.32222
▁데려다	-9.32223
▁당당하게	-9.32247
▁생일	-9.32251
▁크게	-9.32283
▁꿨어	-9.32289
▁이번	-9.3242
▁일상	-9.32428
▁혼자가	-9.32478
▁방법이에요	-9.32491
▁인기가	-9.32555
▁꿈에서	-9.32649
물	-9.3277
해야지	-9.33117
▁때는	-9.33601
지고	-9.33909
▁맛	-9.33962
▁인생	-9.34362
▁산	-9.34676
▁호감	-9.34854
▁다가가	-9.35143
▁연락은	-9.35189
▁두달	-9.35327
▁언젠가	-9.35438
중	-9.35517
▁달라지는	-9.35646
▁그렇지	-9.35739
▁힘들겠지	-9.3574
▁담배	-9.35788
▁부족한	-9.35911
▁알면	-9.35925
▁관리	-9.35925
▁끝까지	-9.35926
▁나왔어	-9.35926
▁남의	-9.35926
▁다이어트	-9.35926
▁되기도	-9.35926
▁모르고	-9.35926
▁모습이	-9.35926
▁뭐하지	-9.35926
▁사고	-9.35926
▁애한테	-9.35926
▁어떡하지	-9.35926
▁중요하죠	-9.35926
▁할텐데	-9.35926
▁혹시	-9.35926
▁헤어졌는데	-9.35926
▁이성으로	-9.35953
▁만들어보세요	-9.36001
▁진심을	-9.36005
돼	-9.36023
▁헤어지자고	-9.36039
▁먹을까	-9.36129
▁사랑해서	-9.36145
울	-9.36159
▁인생은	-9.36209
▁말이에요	-9.36336
▁아니라면	-9.36344
▁노력하는	-9.36563
▁사이가	-9.36644
▁스타일	-9.36652
▁많은데	-9.36699
▁그녀는	-9.36859
▁상처가	-9.3692
▁힘들어서	-9.37003
▁이건	-9.37232
▁생각만	-9.37242
▁연애는	-9.3726
▁아는데	-9.37712
▁거겠죠	-9.38181
▁드네	-9.38194
▁선물을	-9.38404
▁비가	-9.38433
▁인연	-9.38553
▁연인	-9.38703
▁연애에	-9.39181
▁용기	-9.39199
▁글	-9.3924
점	-9.39327
직	-9.39341
▁생겼어	-9.39401
▁상담	-9.39422
▁밖에	-9.39561
▁후련하	-9.39693
▁결심	-9.39771
▁걱정하지	-9.39772
▁결정을	-9.39772
▁관계를	-9.39772
▁느려	-9.39772
▁늦게	-9.39772
▁떨어져	-9.39772
▁떨어졌어	-9.39772
▁믿음이	-9.39772
▁버리세요	-9.39772
▁쉬세요	-9.39772
▁연습을	-9.39772
▁최고죠	-9.39772
▁통해	-9.39772
▁평생	-9.39772
▁필요하겠네요	-9.39772
▁행복하게	-9.39772
▁맞는걸까	-9.39772
▁배우는	-9.39772
▁여자들은	-9.39773
▁보이고	-9.39777
▁친구들과	-9.39799
▁헤어져야	-9.39813
▁지금이라도	-9.39829
▁남자친구와	-9.39837
▁들어와	-9.39855
▁남자들	-9.39859
▁상대를	-9.39918
▁여자친구랑	-9.3992
년	-9.39966
▁아니면	-9.40026
▁자존감이	-9.40105
▁자신만	-9.40139
▁생각하지	-9.40167
▁글을	-9.4025
▁다가	-9.403
▁어디서	-9.40314
▁만들	-9.40398
▁가야지	-9.40491
기를	-9.40541
▁후회가	-9.40676
▁여자를	-9.40684
▁봐도	-9.40685
▁아무도	-9.40929
▁봐	-9.41056
▁어때요	-9.41206
▁안돼요	-9.4176
ᅲ	-9.42444
▁없어서	-9.42474
▁집이	-9.42506
▁저도요	-9.43063
▁보여	-9.43064
▁싶네	-9.43418
▁돌아가	-9.43434
▁떠나	-9.43449
▁면접	-9.43572
가봅니다	-9.43692
▁물어	-9.437
▁미워	-9.43725
각	-9.43746
▁그리워	-9.4377
▁무엇이든	-9.43772
▁저한테	-9.43772
▁졸려	-9.43772
▁짧은	-9.43772
▁충분해요	-9.43772
▁취업	-9.43772
▁실감이	-9.43772
▁이겨낼	-9.43772
▁사람들에게	-9.43774
▁때론	-9.43774
▁생긴	-9.43789
▁보니	-9.43822
▁싫어하는	-9.43863
▁커	-9.43881
▁가능할	-9.43883
▁알아보세요	-9.4389
▁아니야	-9.4397
▁친구들이	-9.44027
▁여자랑	-9.4407
▁아프네요	-9.44087
▁좋지만	-9.4409
▁이별에는	-9.44237
▁라면	-9.44323
▁없다고	-9.44338
▁있을거예요	-9.44604
▁만난지	-9.44682
▁나이는	-9.44796
▁좋아해요	-9.44866
▁말까	-9.45171
▁하면서	-9.45395
▁선물은	-9.45774
번	-9.46013
▁한달이	-9.46165
▁생각에	-9.46428
▁하늘	-9.46969
▁적응	-9.47286
▁버스	-9.47472
▁있네	-9.47583
▁궁금	-9.47661
땐	-9.47721
▁주변에	-9.47731
▁곳에	-9.47734
▁좋겠지	-9.47751
▁역시	-9.47771
▁사귀기	-9.47826
▁부담스러워	-9.47845
▁키	-9.47858
▁도서관	-9.47872
월	-9.47888
▁부분이	-9.47937
▁고백했는데	-9.47938
▁관계가	-9.47938
▁기회가	-9.47938
▁놀아요	-9.47938
▁됐는데	-9.47938
▁됩니다	-9.47938
▁똑같은	-9.47938
▁모습을	-9.47938
▁몰래	-9.47938
▁무시하세요	-9.47938
▁바쁘거나	-9.47938
▁사소한	-9.47938
▁샀어	-9.47938
▁싶습니다	-9.47938
▁아름다운	-9.47938
▁오랫동안	-9.47938
▁외로워	-9.47938
▁있게	-9.47938
▁최선의	-9.47938
▁한동안은	-9.47938
▁헤어질	-9.47938
▁휴대폰	-9.47938
▁흘렀네요	-9.47938
▁좋아해주는	-9.47939
▁추워	-9.47942
▁마련이에요	-9.47969
▁좋아했던	-9.48064
▁남자친구랑	-9.48098
▁거의	-9.48143
▁일하는	-9.48217
▁자신에	-9.48293
▁표현이	-9.48405
▁자리	-9.48438
▁않는데	-9.48548
▁찾아가	-9.48672
▁마다	-9.48707
▁친구의	-9.48881
▁운동을	-9.49187
▁ᅲ	-9.49312
▁때를	-9.49576
▁시작이	-9.50115
▁생각은	-9.50222
▁있어서	-9.50702
▁ᅲᅲ	-9.50752
▁하기	-9.50838
▁나은	-9.51253
▁노력	-9.51275
▁누구	-9.51295
▁위로	-9.51522
▁거니	-9.51543
▁뭐라	-9.51548
▁가족	-9.51682
▁몰라	-9.51935
될	-9.51967
름	-9.51979
담	-9.52124
혀	-9.52171
크	-9.52193
놈	-9.52237
▁놀러	-9.52282
▁답답해	-9.52285
▁건강에	-9.52286
▁다르겠지만	-9.52286
▁따뜻한	-9.52286
▁로또	-9.52286
▁뭐하고	-9.52286
▁믿어보세요	-9.52286
▁바쁜가봐요	-9.52286
▁솔직하게	-9.52286
▁알다가도	-9.52286
▁어울리는	-9.52286
▁없겠네요	-9.52286
▁여자한테	-9.52286
▁이별통보	-9.52286
▁지금처럼	-9.52286
▁취향	-9.52286
▁그녀에게	-9.52288
▁향수	-9.52299
▁두번	-9.5231
▁피할	-9.52328
▁사랑한다면	-9.52334
▁다가가보세요	-9.52335
▁노래방	-9.5234
▁썸남이랑	-9.52365
▁좋겠지만	-9.52482
▁곳에서	-9.525
▁과거	-9.52605
▁정리할	-9.52608
▁주말에	-9.52678
▁부러워요	-9.52726
▁이해가	-9.52739
▁있지요	-9.52919
▁않아서	-9.52943
▁만들어요	-9.53092
▁집에서	-9.53105
▁마음으로	-9.53115
▁오면	-9.53123
▁이별에	-9.53316
▁가요	-9.53356
▁연애가	-9.53493
▁때네요	-9.53564
▁길이	-9.54026
▁바다	-9.5442
▁개월이	-9.54431
▁가는데	-9.55032
▁답장	-9.55806
▁남자는	-9.56153
▁과정	-9.56167
▁것은	-9.56184
▁썸녀	-9.5633
▁눈치	-9.56382
▁이상형	-9.56443
▁학원	-9.56451
▁생겼네	-9.56455
▁좋을텐데	-9.56458
▁지났네	-9.56468
▁아프네	-9.56474
▁달라	-9.56509
▁세상에	-9.56536
▁다녀	-9.56555
▁하는건	-9.56589
▁피곤해	-9.56616
늘	-9.56618
▁있으니	-9.56693
▁살아야	-9.56742
명	-9.5676
▁통보	-9.56831
▁졸업	-9.56832
▁공부는	-9.56832
▁기다리지	-9.56832
▁나쁘지	-9.56832
▁답답한	-9.56832
▁됐네	-9.56832
▁받으면	-9.56832
▁부럽네요	-9.56832
▁사용해보세요	-9.56832
▁새벽에	-9.56832
▁시원한	-9.56832
▁썸인데	-9.56832
▁썸인지	-9.56832
▁애들	-9.56832
▁온전히	-9.56832
▁외로운	-9.56832
▁우세요	-9.56832
▁인간	-9.56832
▁있다고	-9.56832
▁자격이	-9.56832
▁차분히	-9.56832
▁축구	-9.56832
▁현실적인	-9.56832
▁환승이별	-9.56832
▁힘들겠네요	-9.56832
▁있더라고요	-9.56832
▁가능성이	-9.56832
▁마시고	-9.56832
▁만나기로	-9.56832
▁알면서도	-9.56833
▁이러지	-9.56836
▁나보다	-9.56843
▁고백해보세요	-9.56844
▁적어보세요	-9.5685
▁나에게	-9.56871
▁친구들이랑	-9.56878
▁불러	-9.56917
▁헤어지면	-9.56924
▁은근	-9.5694
▁만든	-9.5697
▁잊어야	-9.57001
▁보기	-9.57041
▁표현을	-9.57141
▁생각이에요	-9.5718
▁있을까요	-9.57279
▁가져	-9.57285
▁보내는	-9.57445
▁우울해	-9.57495
구나	-9.576
▁사랑으로	-9.57685
집	-9.57709
▁보다	-9.57758
▁일이네요	-9.57832
▁이게	-9.57999
ᅲᅲ	-9.5848
▁다들	-9.587
▁어서	-9.59389
오네	-9.597
▁방	-9.59864
▁말은	-9.60542
▁경우	-9.6073
▁점	-9.60791
향	-9.61066
▁인기	-9.61149
▁집안일	-9.61212
▁고백하는	-9.61309
른	-9.61314
메	-9.61572
추	-9.61583
▁좋아하나	-9.61589
▁잘못이	-9.61593
▁솔직한	-9.61594
활	-9.61594
▁귀여워	-9.61594
▁끝났어	-9.61594
▁나눠보세요	-9.61594
▁남에게	-9.61594
▁내요	-9.61594
▁느끼는	-9.61594
▁돌려보세요	-9.61594
▁되었습니다	-9.61594
▁따뜻하게	-9.61594
▁로맨틱하네요	-9.61594
▁맥주	-9.61594
▁복잡하겠어요	-9.61594
▁본인의	-9.61594
▁써보세요	-9.61594
▁썸의	-9.61594
▁아침이	-9.61594
▁안되겠지	-9.61594
▁않나봐요	-9.61594
▁여전히	-9.61594
▁완벽한	-9.61594
▁우선	-9.61594
▁의사를	-9.61594
▁잊어버리세요	-9.61594
▁잘했어요	-9.61594
▁행복을	-9.61594
폭	-9.61594
▁힘들었겠어요	-9.61594
▁다르겠죠	-9.61594
▁준비해보세요	-9.61594
▁상대에게	-9.61595
▁집들이	-9.61595
▁하자고	-9.61596
▁여자친구에게	-9.61597
▁아니니까요	-9.61598
▁알려주세요	-9.61602
▁당장	-9.61606
▁보내주세요	-9.6161
▁표현해보세요	-9.61621
▁없나봐요	-9.61645
▁시기가	-9.61664
▁고민임	-9.61686
▁은연	-9.61687
▁타이밍이	-9.6172
▁하나봐요	-9.61752
▁고백하면	-9.61792
▁마지막으로	-9.61821
▁가능해요	-9.61933
▁생각하면	-9.62014
▁감정의	-9.6203
▁위로가	-9.62088
▁준비를	-9.62152
▁너를	-9.62153
▁과정이	-9.62253
▁물어보는게	-9.62284
▁어려워요	-9.6236
▁주말이	-9.62399
▁거면	-9.62433
▁넌	-9.62445
▁못해요	-9.62466
▁이해	-9.62587
▁고백을	-9.62695
▁나을까	-9.62801
▁혼자만	-9.63671
법	-9.63826
▁술이	-9.64329
▁이제야	-9.64612
▁나면	-9.652
▁실수	-9.66158
▁쓰레기	-9.6646
▁행복할	-9.6647
련	-9.66559
▁선택일	-9.66568
▁살기	-9.66592
▁남아	-9.66594
▁결혼할	-9.66594
▁관심사를	-9.66594
▁기대세요	-9.66594
▁내보세요	-9.66594
▁노력하겠습니다	-9.66594
▁뒤에서	-9.66594
▁맞았나봐요	-9.66594
▁멀리	-9.66594
▁메뉴	-9.66594
▁몇일	-9.66594
▁선생님이	-9.66594
▁습관을	-9.66594
▁싸워	-9.66594
▁썸은	-9.66594
▁왔네	-9.66594
▁왔으면	-9.66594
▁음식을	-9.66594
▁응원합니다	-9.66594
▁읽어보세요	-9.66594
▁있기	-9.66594
▁있나봅니다	-9.66594
▁있었으면	-9.66594
▁자체가	-9.66594
▁전화를	-9.66594
▁청첩장	-9.66594
▁피하세요	-9.66594
▁행복은	-9.66594
▁필요하겠어요	-9.66594
▁아까워	-9.66594
▁습관이에요	-9.66594
▁마음대로	-9.66595
▁어디까지	-9.66596
▁스스로에게	-9.66596
▁성향	-9.66597
▁누군가를	-9.66644
▁추천해요	-9.66651
▁말해볼까	-9.66699
▁글로	-9.66767
▁고백해도	-9.66812
▁해야할지	-9.66866
▁해야할까	-9.66903
▁남자랑	-9.66977
▁그것	-9.67012
▁정리를	-9.6704
▁보내고	-9.67069
▁인생을	-9.67114
▁표현하는	-9.67191
▁다가가는	-9.67246
▁기억해	-9.67408
▁데이트를	-9.67734
▁만나도	-9.67839
▁있을지도	-9.67934
▁없어도	-9.68409
▁데는	-9.68706
▁후에	-9.68961
▁건가	-9.69006
▁되는지	-9.69023
▁해야지	-9.69028
▁짝사랑은	-9.697
▁후가	-9.70161
▁월급	-9.70526
▁주가	-9.70751
▁우울	-9.70918
▁시간도	-9.71032
▁좋아하는거	-9.71141
▁이상형이	-9.71438
▁어떨까	-9.71505
▁해주는	-9.71571
▁과일	-9.71662
▁짜증	-9.71678
▁취미	-9.71735
글	-9.7175
▁처음이	-9.71751
▁스키	-9.71833
▁새로	-9.71839
▁마련	-9.71842
▁마스크	-9.71855
▁좋으면	-9.71856
▁마무리	-9.71857
▁흔들리지	-9.71857
▁결혼은	-9.71857
▁골라보세요	-9.71857
▁그렇다면	-9.71857
▁그렇죠	-9.71857
▁나가세요	-9.71857
▁나혼자	-9.71857
▁다녀오세요	-9.71857
▁다르겠지요	-9.71857
▁도움을	-9.71857
▁따뜻할	-9.71857
▁막말	-9.71857
▁매너	-9.71857
▁먹어보세요	-9.71857
▁문득	-9.71857
▁번호를	-9.71857
▁부탁해보세요	-9.71857
▁사정이	-9.71857
▁생각했나봐요	-9.71857
▁썸을	-9.71857
▁안전	-9.71857
▁오늘따라	-9.71857
▁용돈	-9.71857
▁조금이라도	-9.71857
▁종교가	-9.71857
▁좋아했는데	-9.71857
▁즐기세요	-9.71857
▁착한	-9.71857
▁파이팅	-9.71857
▁하셨네요	-9.71857
▁해야겠다	-9.71857
▁흐르고	-9.71857
▁흔적	-9.71857
했더니	-9.71857
▁고생했어요	-9.71857
▁마련이죠	-9.71857
▁울어도	-9.7186
▁짝녀에게	-9.7186
▁카드	-9.71861
▁너에게	-9.71861
▁사람이라면	-9.71863
▁거기까지인가봐요	-9.71868
▁보이지	-9.71868
▁누구든	-9.71881
▁없을까	-9.71896
▁걸어보세요	-9.71899
▁점심	-9.71899
▁별로라고	-9.71932
▁소식이네요	-9.71939
▁장소	-9.71966
▁했나봐요	-9.71984
▁모든걸	-9.71989
▁늘어요	-9.71991
▁직장에서	-9.72001
▁극복할	-9.72019
▁노는	-9.72055
▁물어봐요	-9.72213
▁만들고	-9.72315
▁사이에	-9.72338
▁일주일	-9.72433
▁봐서	-9.72496
▁답장이	-9.72591
▁가족이	-9.72624
▁사람들은	-9.72654
▁선물로	-9.72842
라니	-9.72891
▁많아서	-9.73445
▁같아서	-9.73597
▁수가	-9.73834
▁하루도	-9.73933
▁가도	-9.73984
▁들어가	-9.74503
▁한다	-9.74636
▁우리는	-9.7469
▁일만	-9.74857
▁표현	-9.74875
▁양	-9.75428
▁술을	-9.75662
잊	-9.76557
▁이별도	-9.76597
▁성격	-9.76937
군	-9.77041
인가봐	-9.77057
▁보고싶다	-9.77058
▁타이밍	-9.77101
▁취직	-9.77186
▁기다리면	-9.77194
▁여기	-9.7726
▁걱정이	-9.77278
▁만나자	-9.77301
▁기간	-9.77371
▁잘해줘	-9.77392
판	-9.77412
▁같다고	-9.77412
▁그럼요	-9.77412
▁그분이	-9.77412
▁나타날	-9.77412
▁남들이	-9.77412
▁낫죠	-9.77412
▁느껴져	-9.77412
▁당연하죠	-9.77412
▁맞을까	-9.77412
▁뭐할까	-9.77412
▁바쁘게	-9.77412
▁빼빼로	-9.77412
▁얼굴이	-9.77412
▁왔습니다	-9.77412
▁유지하는	-9.77412
▁잊으세요	-9.77412
▁잘못된	-9.77412
▁조건	-9.77412
▁증거를	-9.77412
▁취해보세요	-9.77412
▁화를	-9.77412
▁회사는	-9.77412
▁후유증이	-9.77412
▁마시면	-9.77413
▁생기면	-9.77413
▁차라리	-9.77413
▁여기까지	-9.77413
▁갔다	-9.77437
▁가능합니다	-9.77465
▁줘보세요	-9.77496
▁실수를	-9.77559
▁아니지만	-9.77601
▁들었어	-9.77651
▁나가기	-9.77706
▁헤어지지	-9.77747
▁세상에서	-9.77767
▁하늘을	-9.77926
▁뭐라도	-9.77941
▁눈치가	-9.77967
▁방학이	-9.78014
▁해야죠	-9.78059
▁현실을	-9.78076
▁이미	-9.78112
하러	-9.78192
▁사람인가봐요	-9.78207
▁말하지	-9.78251
▁사랑과	-9.78349
▁정도는	-9.78695
▁재미가	-9.78716
▁걸어	-9.78843
거지	-9.79058
▁줘	-9.79377
▁너도	-9.79474
▁싶다고	-9.79696
▁여행도	-9.79937
▁사람인데	-9.80096
소리가	-9.80175
▁다리	-9.80268
▁하게	-9.80587
해볼까	-9.81225
▁그는	-9.82256
▁이해해	-9.82686
▁처음에	-9.82808
▁정리하는	-9.82908
▁야근	-9.82922
▁준비하는	-9.83185
▁잊혀	-9.83256
▁동물	-9.83289
▁신뢰	-9.83294
▁신청	-9.83295
▁고쳐쓰는	-9.83295
▁공무원	-9.83295
▁괜찮지만	-9.83295
▁꽃다발	-9.83295
▁내세요	-9.83295
▁도시락	-9.83295
▁드릴게요	-9.83295
▁로맨틱한	-9.83295
▁무시하는	-9.83295
▁벚꽃	-9.83295
▁비교하지	-9.83295
▁생겼으면	-9.83295
▁성공할	-9.83295
▁시어머니가	-9.83295
▁실내	-9.83295
▁썸인가	-9.83295
▁않지만	-9.83295
▁앞두고	-9.83295
▁어렵네	-9.83295
▁업무	-9.83295
▁없애는	-9.83295
▁연락처를	-9.83295
▁이유는	-9.83295
▁종일	-9.83295
▁챙겨드세요	-9.83295
▁트라우마	-9.83295
▁포기하는	-9.83295
▁하지마세요	-9.83295
▁경험이	-9.83295
▁물어보면	-9.83295
▁신나는	-9.83295
▁맛나게	-9.83295
▁알아보고	-9.83296
▁놀러가고	-9.83297
▁힘들었을	-9.83297
▁여자들이	-9.83298
▁잊는다는	-9.83298
▁바라는	-9.83299
▁연습해보세요	-9.83306
▁이제라도	-9.83306
▁고칠	-9.83331
▁아무렇지도	-9.83432
▁병원에	-9.83449
▁듯합니다	-9.83456
▁받아보세요	-9.83462
▁하루에도	-9.83558
▁느낌이야	-9.83581
▁들어보세요	-9.8359
▁현실의	-9.83597
▁사이에서	-9.83684
▁사랑도	-9.83779
▁말라고	-9.83951
▁덜할	-9.83953
▁힘들지요	-9.83999
▁생각할까	-9.84033
▁좋아하지	-9.84042
▁물어봐	-9.84067
▁보게	-9.84446
▁그럴까	-9.84518
▁나아	-9.84688
▁헤어짐을	-9.84748
▁나만의	-9.84807
▁받아야	-9.84833
▁연애로	-9.8514
▁들고	-9.85435
▁신경이	-9.85707
▁들을	-9.85717
▁맞는지	-9.85766
▁하지만	-9.86022
▁자는	-9.86254
하거나	-9.86498
▁친구도	-9.8672
▁짓	-9.87331
▁한거	-9.87356
▁길어	-9.88257
▁결과	-9.89087
▁피부	-9.89087
▁배워	-9.89125
▁맛집	-9.89156
▁아닐까	-9.8919
▁치과	-9.89372
▁기억이	-9.89411
▁보낼	-9.89413
▁소식이	-9.89447
▁잊혀질	-9.89454
▁남사친이	-9.89501
▁버려야	-9.89543
▁강아지	-9.89545
▁겨우	-9.89545
▁결정은	-9.89545
▁결혼하면	-9.89545
▁결혼해도	-9.89545
▁꾸며보세요	-9.89545
▁나온다	-9.89545
▁남자한테	-9.89545
▁누구에게나	-9.89545
▁단단히	-9.89545
▁대화가	-9.89545
▁두근거리겠어요	-9.89545
▁드셔보세요	-9.89545
▁매주	-9.89545
▁먹었는데	-9.89545
▁모르게	-9.89545
▁못하면	-9.89545
▁받아들이기	-9.89545
▁발렌타인데이	-9.89545
▁벗어나세요	-9.89545
▁사업	-9.89545
▁상관없어요	-9.89545
▁셀카	-9.89545
▁속에서	-9.89545
▁썸일	-9.89545
▁아빠가	-9.89545
▁아픔을	-9.89545
▁안타깝네요	-9.89545
▁않았나봐요	-9.89545
▁알기	-9.89545
▁여유가	-9.89545
▁여자친구한테	-9.89545
▁위로봇입니다	-9.89545
▁있겠네요	-9.89545
▁전화하는	-9.89545
▁좋아한다고	-9.89545
▁좋았는데	-9.89545
▁중국어	-9.89545
▁지내는	-9.89545
▁집착해	-9.89545
▁하루종일	-9.89545
▁힘듭니다	-9.89545
▁달달한	-9.89545
▁이기적인	-9.89545
▁키우고	-9.89545
▁물리적	-9.89545
▁만드는	-9.89546
▁화장하는	-9.89546
▁그러고	-9.89548
▁힘드신가봐요	-9.89548
▁문신	-9.89556
▁보여주세요	-9.89565
▁운전	-9.89569
▁좋아하나봐요	-9.89582
▁빌려보세요	-9.89583
▁나아질	-9.89587
▁다르지	-9.89591
▁년을	-9.89613
▁지나간	-9.89641
▁힘든가봅니다	-9.89672
▁생각해봐요	-9.89711
▁많은가봐요	-9.89721
▁목소리	-9.89733
▁자신과	-9.89744
▁여자와	-9.89756
▁나가야	-9.89789
▁머리랑	-9.8979
▁가치관이	-9.89853
▁가능해	-9.89856
▁네	-9.89865
▁달라지는게	-9.90027
▁기다리는게	-9.901
▁보여요	-9.90119
▁이야기해도	-9.90126
▁기간이	-9.90264
▁추억은	-9.90275
▁키가	-9.90276
▁아니고	-9.90369
▁상대가	-9.90382
▁아닌거	-9.90422
▁인생이	-9.90549
▁입을	-9.90607
▁끝나고	-9.9062
▁사랑이네요	-9.90808
▁보는게	-9.91166
▁줄까	-9.91193
▁두고	-9.91264
▁모르는게	-9.91271
▁걸려	-9.9131
▁말해도	-9.91318
▁사진을	-9.91334
▁했어요	-9.91424
▁기분은	-9.91529
▁지는	-9.91555
▁술만	-9.91816
▁걸까요	-9.91841
▁너는	-9.92275
▁년의	-9.92448
▁마음만	-9.92888
▁몰랐	-9.9317
▁오네	-9.93284
▁시간에	-9.93623
▁도전	-9.94034
▁스타일이	-9.94294
▁그를	-9.94853
▁바지	-9.94871
▁일어나	-9.95223
▁거지	-9.95298
▁잊기	-9.95794
▁냉장고	-9.95899
림	-9.9599
▁소비	-9.96089
▁근처	-9.96101
급	-9.96141
▁빌려	-9.9617
▁겨울	-9.96209
▁감사합니다	-9.96211
▁계획을	-9.96211
▁공부해서	-9.96211
▁공시	-9.96211
▁공허함이	-9.96211
▁괴로워	-9.96211
▁교양	-9.96211
▁그랬나봐요	-9.96211
▁까먹었다	-9.96211
▁놀죠	-9.96211
▁당연히	-9.96211
▁되겠지	-9.96211
▁못자	-9.96211
▁반장	-9.96211
▁변하는	-9.96211
▁부자	-9.96211
▁불편해	-9.96211
▁선배가	-9.96211
▁선택할	-9.96211
▁센스있는	-9.96211
▁속상해	-9.96211
▁쉬어도	-9.96211
▁슬프네요	-9.96211
▁썸만	-9.96211
▁여드름	-9.96211
▁우연히	-9.96211
▁이용해주세요	-9.96211
▁일부터	-9.96211
▁잘못을	-9.96211
▁정해보세요	-9.96211
▁집착하는	-9.96211
▁취미생활	-9.96211
▁타던	-9.96211
▁헤아리는	-9.96211
▁헤어졌네	-9.96211
▁회사와	-9.96211
▁결정할	-9.96211
▁동성	-9.96211
▁않았을	-9.96211
딩	-9.96212
▁드라이	-9.96212
▁들으면	-9.96212
▁가만히	-9.96212
▁아프고	-9.96213
▁지금보다	-9.96214
▁이번에는	-9.96214
▁개월만에	-9.96214
▁언제까지	-9.96215
▁그러는	-9.96216
▁때문일	-9.96216
▁마셔야지	-9.96219
▁거리를	-9.9622
▁갔는데	-9.96225
▁말아야	-9.96229
▁정리해보세요	-9.96236
▁감히	-9.96238
▁에휴	-9.96246
▁노력하면	-9.96319
▁언제든	-9.9633
▁멋져요	-9.9635
▁아닌가봐요	-9.96366
▁사이인데	-9.96374
▁카페에서	-9.96387
▁전혀	-9.96388
▁헤어지는게	-9.96416
▁문제로	-9.96434
▁아니죠	-9.96435
▁혼자만의	-9.96445
▁말이네요	-9.96614
▁일차	-9.96656
▁그때	-9.96737
▁감고	-9.96741
▁집안일을	-9.96753
▁떠나고	-9.96783
▁대해서	-9.96787
▁경우도	-9.96797
▁점은	-9.96805
▁경우가	-9.96856
▁준비하고	-9.96879
▁될거예요	-9.96936
▁미련은	-9.97177
▁아주	-9.97214
▁궁금해요	-9.97321
▁두달이	-9.97373
▁가끔은	-9.97462
▁맛이	-9.975
▁운명이	-9.97549
▁후회는	-9.97928
▁와서	-9.98003
▁도전해	-9.9801
이면	-9.98166
▁말로	-9.98264
▁기억을	-9.98503
▁스트레스가	-9.98718
▁정리해야	-9.98798
▁사랑에는	-9.988
▁있는거	-9.98873
▁수다	-9.98886
▁그럴만	-9.99047
▁아직은	-9.99836
▁거랑	-9.99958
▁나지	-10.0006
▁어이	-10.0021
▁전해	-10.0045
▁옴	-10.0073
▁않을까	-10.0087
▁아기	-10.0197
▁여자는	-10.0218
▁자존감	-10.0234
▁사실	-10.0256
볼	-10.0281
녀	-10.0289
▁미세먼지	-10.0289
▁알았어	-10.0297
▁없겠지	-10.0298
▁원망	-10.03
며	-10.0305
▁아프지	-10.0316
술	-10.0322
능	-10.0324
▁진급	-10.0325
▁올려	-10.0331
▁알려	-10.0333
스러워	-10.0334
▁어색해	-10.0335
▁마침표	-10.0335
▁가벼운	-10.0335
▁간접적이든	-10.0335
▁거절의	-10.0335
▁곰곰히	-10.0335
▁괜찮아졌길	-10.0335
▁그분의	-10.0335
▁다양하게	-10.0335
▁달콤한	-10.0335
▁대중교통을	-10.0335
▁대화하는	-10.0335
▁도대체	-10.0335
▁되었네	-10.0335
▁많으면	-10.0335
▁매번	-10.0335
▁못했나봐요	-10.0335
▁무엇을	-10.0335
▁밝혀보세요	-10.0335
▁버텨보세요	-10.0335
▁벗어나	-10.0335
▁변하지	-10.0335
▁빠를수록	-10.0335
▁사랑했나봐요	-10.0335
▁사보세요	-10.0335
▁사야지	-10.0335
▁살아요	-10.0335
▁소화제	-10.0335
▁쉬어야	-10.0335
▁썸에서	-10.0335
▁아이스크림	-10.0335
▁안되네	-10.0335
▁않겠어요	-10.0335
▁않겠지만	-10.0335
▁연습이	-10.0335
▁웃어보세요	-10.0335
▁있었나요	-10.0335
▁잡으세요	-10.0335
▁좋습니다	-10.0335
▁직접적이든	-10.0335
▁참아보세요	-10.0335
▁청해보세요	-10.0335
▁축하합니다	-10.0335
▁풀어보세요	-10.0335
▁헤아리지	-10.0335
▁현재를	-10.0335
▁휴식을	-10.0335
▁힘내지	-10.0335
▁떠보는	-10.0335
▁미래에	-10.0335
▁미친듯이	-10.0335
▁소심해	-10.0335
▁들여보세요	-10.0335
▁줄여보세요	-10.0335
▁물어보고	-10.0335
▁차가워	-10.0335
▁가짐에	-10.0336
▁해주고	-10.0336
▁사람이니까요	-10.0336
▁일들이	-10.0336
▁예민한가봐요	-10.0337
▁선택일거라	-10.0339
▁생각만해도	-10.0341
▁그녀와	-10.0343
▁갈때	-10.0343
▁떠나보세요	-10.0343
▁실수하지	-10.0343
▁어린	-10.0346
▁나을지도	-10.0347
▁응원해요	-10.0348
▁일년	-10.0352
▁긴장	-10.0352
▁오래된	-10.0352
▁있을지	-10.0364
▁만나길	-10.037
▁주변에서	-10.0372
▁운동으로	-10.0375
▁운을	-10.0376
▁아니네요	-10.0389
▁하던	-10.0392
▁지났네요	-10.0394
▁싫어하지	-10.0395
▁상담을	-10.0408
▁연락해서	-10.0408
▁년간	-10.0411
▁될지도	-10.0412
▁입어	-10.0415
▁이야기해	-10.0415
▁아는데도	-10.0418
▁그만하고	-10.0428
▁싫다고	-10.045
▁입고	-10.0457
▁건가요	-10.0457
▁마음과	-10.046
▁점이	-10.0464
▁표현해	-10.0478
▁사는게	-10.0503
▁전남친이	-10.0508
▁니가	-10.051
▁입지	-10.0518
양	-10.0528
▁힘든데	-10.0529
▁자면	-10.0538
▁자기도	-10.0556
▁나한테만	-10.0557
▁하네요	-10.056
▁좋을거	-10.0565
▁말하고	-10.0567
▁아니라는	-10.0568
▁연애하고	-10.0573
산	-10.0585
▁있어야	-10.0641
▁만에	-10.067
▁좋을까요	-10.0672
▁하거나	-10.07
▁우리가	-10.0704
▁이별하고	-10.0715
▁순간이	-10.0723
▁병	-10.0745
▁오지	-10.0745
▁사람만	-10.0751
▁서로가	-10.079
▁나네	-10.0798
▁없는게	-10.0851
▁소문	-10.1043
▁집중	-10.1048
▁부담스러운	-10.1052
▁노후	-10.1055
▁다음에	-10.1058
▁권태기	-10.1059
▁미안	-10.1082
누	-10.1087
▁습관이	-10.109
▁헤어져	-10.1092
▁보이는	-10.1095
▁언니	-10.1101
▁있었을	-10.1102
셔	-10.1102
▁분명	-10.1103
▁복잡한	-10.1103
▁거기까지	-10.1103
▁그리운	-10.1103
뻔	-10.1103
카	-10.1104
▁사귀면	-10.1105
▁미친	-10.1105
곤	-10.1105
▁가사가	-10.1105
▁걱정되겠네요	-10.1105
▁걱정된다고	-10.1105
▁결정이었을텐데	-10.1105
▁공부하면	-10.1105
▁괜찮다면	-10.1105
▁귀엽게	-10.1105
▁남자애한테	-10.1105
▁낫겠지	-10.1105
▁내게	-10.1105
▁답답하네	-10.1105
▁동료가	-10.1105
▁두려움을	-10.1105
▁마주쳐보세요	-10.1105
▁막혀	-10.1105
▁말씀하세요	-10.1105
▁맞을거예요	-10.1105
▁믿음을	-10.1105
▁부드럽게	-10.1105
▁불안해	-10.1105
▁사귀어도	-10.1105
▁사라질	-10.1105
▁상처받지	-10.1105
▁새학기	-10.1105
▁생각했는데	-10.1105
▁슬쩍	-10.1105
▁시작하세요	-10.1105
▁신혼여행	-10.1105
▁심경의	-10.1105
▁아니랍니다	-10.1105
▁야경이	-10.1105
▁약속을	-10.1105
▁없지만	-10.1105
▁영원한	-10.1105
▁오토바이	-10.1105
▁올려달라고	-10.1105
▁인정받고	-10.1105
▁자세히	-10.1105
▁자체로	-10.1105
▁재회를	-10.1105
▁정류장에서	-10.1105
▁조카	-10.1105
▁존재를	-10.1105
▁좋아한다는	-10.1105
▁차리세요	-10.1105
▁최대한	-10.1105
▁충전하세요	-10.1105
▁컨디션	-10.1105
▁케이스	-10.1105
▁콩깍지가	-10.1105
▁타다가	-10.1105
▁편하겠죠	-10.1105
▁피크닉	-10.1105
▁필름	-10.1105
▁필요했을	-10.1105
▁드시고	-10.1105
▁오히려	-10.1105
▁월요일	-10.1105
▁멋지게	-10.1105
▁양해를	-10.1105
▁며칠	-10.1105
▁아프다	-10.1105
▁연락해보는	-10.1105
▁제주도	-10.1105
▁피곤한가봐요	-10.1105
▁당신에게	-10.1105
▁보아요	-10.1105
▁지우고	-10.1105
▁고민하게	-10.1105
▁하나라도	-10.1105
▁중요할	-10.1105
▁볼게요	-10.1105
줄게요	-10.1106
▁아닌가요	-10.1106
▁자다가	-10.1106
▁잘해주는	-10.1106
▁당했어	-10.1108
▁만들려고	-10.111
▁추천합니다	-10.1111
▁부담스러워할까	-10.1113
▁마실까	-10.1114
▁말해봐요	-10.1115
▁각자의	-10.1116
▁배려	-10.1116
▁당한	-10.1118
▁미안해	-10.1118
▁아름다워요	-10.1118
▁좋아할거예요	-10.1122
▁지울	-10.1125
▁수염	-10.1133
▁얘기를	-10.1135
▁길에서	-10.1136
▁하든	-10.1136
▁가능한	-10.1137
▁생각날	-10.1137
▁의미를	-10.1147
▁친구라고	-10.1147
▁거울	-10.1148
▁권태기가	-10.115
▁향기	-10.1156
▁고백하고	-10.1158
▁어디로	-10.1162
▁것들이	-10.1165
▁중입니다	-10.1169
▁좋아질	-10.1169
▁눈에서	-10.1169
▁세상은	-10.117
▁돌아가고	-10.1171
▁적게	-10.1177
▁후폭풍은	-10.118
▁만남에	-10.1181
▁세상에는	-10.1188
싶은데	-10.1205
▁기대가	-10.122
▁입에	-10.1222
▁게임을	-10.1223
▁감정은	-10.1231
▁만나는데	-10.1233
▁차이가	-10.1236
▁아니지	-10.124
▁고백은	-10.1241
▁됐어요	-10.1244
▁힘들지도	-10.1245
▁모든게	-10.1256
▁연애하는	-10.1285
▁신경을	-10.1298
▁이름이	-10.134
▁연락할	-10.135
▁여행은	-10.1351
짓	-10.1386
▁없는거	-10.1397
▁짝사랑만	-10.1433
▁생각해도	-10.1454
▁마음에서	-10.1485
▁힘들고	-10.1509
▁하는거	-10.1554
▁일에	-10.1585
▁충전	-10.1598
▁첫사랑이	-10.1691
▁남자도	-10.1716
▁헤어지	-10.1743
▁친구들	-10.1862
▁회사에	-10.1869
▁성적	-10.1876
▁뭐하는	-10.1886
▁평소	-10.189
▁모르겠네	-10.1902
▁고맙다	-10.1903
원	-10.191
▁자신감	-10.1913
▁익숙해	-10.1915
▁배고파	-10.1916
▁싸우면	-10.1917
▁지칠	-10.1929
▁여사친이	-10.1934
▁결혼해야	-10.1934
▁혼자도	-10.1935
▁예민한	-10.1937
▁택시	-10.1937
▁명절	-10.1938
▁앞머리	-10.1938
▁잠수이별	-10.1938
▁거기까지였나봐요	-10.1938
▁걱정은	-10.1938
▁건강이	-10.1938
▁관리하세요	-10.1938
▁괴롭게	-10.1938
▁군인	-10.1938
▁긁었어	-10.1938
▁기분전환을	-10.1938
▁깨끗하게	-10.1938
▁낚시	-10.1938
▁남겨서	-10.1938
▁내서	-10.1938
▁넘었네	-10.1938
▁노트북	-10.1938
▁능력을	-10.1938
▁당황했겠어요	-10.1938
▁맛있을	-10.1938
▁맞춤법	-10.1938
▁먹자고	-10.1938
▁면역이	-10.1938
▁명품	-10.1938
▁몸무게	-10.1938
▁무의식	-10.1938
▁뭐임	-10.1938
▁미화되기	-10.1938
▁바쁘면	-10.1938
▁비난하지	-10.1938
▁뿌린대로	-10.1938
▁사랑받고	-10.1938
▁살면서	-10.1938
▁선톡을	-10.1938
▁설레는	-10.1938
▁시간이겠네요	-10.1938
▁시계는	-10.1938
▁시원하게	-10.1938
▁싸우는	-10.1938
▁아픔의	-10.1938
▁안좋은	-10.1938
▁어색한	-10.1938
▁어젯밤	-10.1938
▁어필해보세요	-10.1938
▁외국인인데	-10.1938
▁의미있는	-10.1938
▁인정하고	-10.1938
▁재회는	-10.1938
▁전화가	-10.1938
▁점심시간에	-10.1938
▁정규직	-10.1938
▁정확하게	-10.1938
▁좋아했으면	-10.1938
▁좋았으면	-10.1938
▁주기적으로	-10.1938
▁지하철에	-10.1938
▁짝남에게	-10.1938
▁창업	-10.1938
▁특별한	-10.1938
▁행복하길	-10.1938
▁화가나	-10.1938
▁흐르는	-10.1938
▁추천해줘	-10.1938
▁행복해보여	-10.1938
▁가능하겠죠	-10.1938
▁드리고	-10.1938
▁연휴	-10.1939
▁담긴	-10.1939
▁년만에	-10.1939
▁여름	-10.1941
▁잘해주세요	-10.1941
▁바라지	-10.1941
▁결혼하는데	-10.1941
▁기다려주세요	-10.1941
▁말해주세요	-10.1943
▁과정이에요	-10.1946
▁푸는	-10.1947
▁필요한가봐요	-10.1947
▁습관이네요	-10.1949
▁만나러	-10.195
▁어디든	-10.195
▁다음부터는	-10.1953
▁어제와	-10.1953
▁연인으로	-10.1954
▁잊으려고	-10.1954
▁만남과	-10.1955
▁목소리를	-10.1956
▁연락해볼까	-10.1956
▁달라진게	-10.1957
▁행복할까	-10.1959
▁노력하고	-10.196
▁친구와	-10.196
▁추억으로	-10.1962
▁보자고	-10.1963
▁그러게요	-10.1968
▁평소에	-10.1968
▁혼자서도	-10.1969
▁가능하면	-10.1972
▁마셔도	-10.1972
▁걸린	-10.1975
▁것들을	-10.1977
▁학교에서	-10.1978
▁별로야	-10.198
▁지나면	-10.1988
▁진심이	-10.1996
▁정리하고	-10.2002
▁이직	-10.2003
▁주면서	-10.2005
▁학원을	-10.201
▁한다는	-10.2012
▁아마	-10.2013
▁누구도	-10.202
▁못해서	-10.2028
▁노래를	-10.2033
▁치고	-10.2037
▁중요한데	-10.2049
▁하다가	-10.2055
▁문제는	-10.2068
▁차이는	-10.2091
▁길은	-10.2094
▁의미가	-10.2096
▁들면	-10.2098
▁만남이	-10.2104
▁생각해서	-10.2105
▁생각나고	-10.2109
▁연애하면	-10.2114
▁미련도	-10.2116
▁되는게	-10.2172
▁오늘이	-10.2214
▁돈은	-10.2249
▁정말로	-10.2276
▁내일도	-10.2311
▁하루가	-10.2311
덜	-10.2315
▁것들	-10.2321
▁머리는	-10.2329
▁연애의	-10.2358
▁카톡을	-10.238
▁방법을	-10.2582
▁여자도	-10.2592
▁후회해	-10.2621
▁이름	-10.263
▁짝사랑을	-10.2658
▁방학	-10.2693
▁자괴감	-10.2781
▁먹어야	-10.2798
▁필요하다면	-10.281
꾸	-10.2826
▁피해	-10.283
▁돌아올	-10.2834
▁자격증	-10.2839
▁무관심	-10.2847
▁빠른	-10.2847
▁티나나	-10.2847
▁견디고	-10.2847
▁공부하기	-10.2847
▁관계의	-10.2847
▁귀여울	-10.2847
▁그렇겠죠	-10.2847
▁긍정적인	-10.2847
▁기회를	-10.2847
▁끝났네	-10.2847
▁끝났으면	-10.2847
▁끝내고	-10.2847
▁나아졌길	-10.2847
▁남자친구한테	-10.2847
▁낭비하지	-10.2847
▁너한테	-10.2847
▁단호하게	-10.2847
▁당연한	-10.2847
▁두셨네요	-10.2847
▁마주치는	-10.2847
▁막차	-10.2847
▁매일매일	-10.2847
▁모아서	-10.2847
▁발목	-10.2847
▁버리는	-10.2847
▁부디	-10.2847
▁분담해보세요	-10.2847
▁불편한	-10.2847
▁빠지는	-10.2847
▁사과할	-10.2847
▁사귀던	-10.2847
▁사냐	-10.2847
▁사랑할수록	-10.2847
▁삭제하세요	-10.2847
▁상사가	-10.2847
▁상황에	-10.2847
▁생겼을지도	-10.2847
▁서툴러	-10.2847
▁섬유유연제	-10.2847
▁성공하길	-10.2847
▁술먹고	-10.2847
▁슬프게	-10.2847
▁신경쓰는	-10.2847
▁신발	-10.2847
▁신중하게	-10.2847
▁심하겠네요	-10.2847
▁아이돌이	-10.2847
▁아픔은	-10.2847
▁아픔이	-10.2847
▁안녕히	-10.2847
▁안하지	-10.2847
▁오늘부터	-10.2847
▁오빠가	-10.2847
▁원한다면	-10.2847
▁이별했습니다	-10.2847
▁이유로	-10.2847
▁인내할	-10.2847
▁인정해주세요	-10.2847
▁인테리어	-10.2847
▁재밌을	-10.2847
▁조차	-10.2847
▁좋아해줬으면	-10.2847
▁즐기면서	-10.2847
▁진정으로	-10.2847
▁집중하세요	-10.2847
▁찾기를	-10.2847
▁최근에	-10.2847
▁추석	-10.2847
▁축의금	-10.2847
▁친해질	-10.2847
▁택배	-10.2847
▁통장	-10.2847
▁파먹기	-10.2847
▁포기가	-10.2847
▁프로필	-10.2847
▁한답니다	-10.2847
▁한숨만	-10.2847
▁함부로	-10.2847
▁현금영수증	-10.2847
▁확인하는	-10.2847
▁회원정보	-10.2847
▁드시면	-10.2847
▁만남이었길	-10.2847
▁상대방의	-10.2847
▁어려울	-10.2847
▁키우는	-10.2847
▁상대방도	-10.2847
▁받아들일	-10.2847
▁순간이었을	-10.2847
▁심장이	-10.2847
▁억지로라도	-10.2847
▁기술이	-10.2847
▁가능하죠	-10.2847
▁가까운	-10.2847
▁도전하는	-10.2847
▁바르고	-10.2847
▁다르죠	-10.2847
▁관리하는	-10.2847
▁말해보는	-10.2847
▁일어날	-10.2847
▁알아보는	-10.2847
▁줄어들	-10.2847
▁사랑한다는	-10.2848
▁생각하게	-10.2848
▁여친에게	-10.2848
▁택시비	-10.2848
▁여자에게	-10.2849
▁우린	-10.2849
해야하는	-10.2849
▁감성	-10.2849
▁감당	-10.285
▁보며	-10.285
▁이기적이	-10.2851
▁사랑하는지는	-10.2851
▁과연	-10.2851
▁갔어	-10.2852
▁준비중	-10.2854
▁해야돼	-10.2857
▁부담스러워하지	-10.2859
▁순간이네요	-10.286
▁인생이죠	-10.286
▁행복해질	-10.2862
▁대해보세요	-10.2863
▁찾아봐요	-10.2865
▁피해만	-10.2866
▁보이네요	-10.2867
▁맛있어요	-10.287
▁없을거예요	-10.2871
▁이해할	-10.2871
▁문제죠	-10.2872
▁헤어지는	-10.2873
▁마음이라도	-10.2874
▁실수한	-10.288
▁상황이네요	-10.288
▁힘든가봐요	-10.288
▁자신으로	-10.2881
▁필요하다면요	-10.2884
▁힘들거예요	-10.2892
▁먹는데	-10.2892
▁시작해도	-10.2893
▁입어도	-10.2901
▁해야하나	-10.2902
▁후회해도	-10.2905
▁이상형은	-10.2906
▁옆에서	-10.291
▁그럴지도	-10.291
▁일어나는	-10.2915
▁결과가	-10.2915
▁피부가	-10.2915
▁사랑하기	-10.2915
▁많은걸	-10.2915
▁인연은	-10.2917
▁연인은	-10.2918
▁소문이	-10.2923
▁집중이	-10.2924
▁처음에는	-10.2924
▁해야할	-10.2925
▁이성	-10.2925
▁어떻게든	-10.2933
▁카톡으로	-10.2935
▁대리	-10.2947
▁사랑이에요	-10.2949
▁한달하고	-10.295
▁월급이	-10.2961
▁남자친구를	-10.2964
▁여자친구를	-10.2965
▁하루를	-10.2966
▁보면서	-10.2967
▁생각으로	-10.2975
▁못하는게	-10.298
▁되는거	-10.2982
▁보내지	-10.2982
▁함께할	-10.2999
▁사랑이죠	-10.3012
▁좋은거	-10.3021
▁그사람이	-10.3034
▁필요한게	-10.3037
▁때려	-10.305
▁그걸	-10.3071
▁하루에	-10.3077
▁들어서	-10.3084
▁상처는	-10.3122
거려	-10.3147
▁생각한	-10.3162
▁얘기해	-10.3214
▁제게	-10.3218
▁언제가	-10.3226
▁말한	-10.3319
▁술은	-10.3359
▁내일이	-10.3452
▁친구는	-10.3489
▁생각도	-10.3623
▁하는지	-10.3632
▁어떻게해	-10.3658
▁카톡이	-10.3661
▁고고	-10.3698
불	-10.3703
▁거라고	-10.371
▁하지도	-10.3764
▁마셔	-10.3765
▁충격	-10.3781
▁의심	-10.3793
▁의미부여	-10.3797
▁자존심	-10.3807
▁그러게	-10.3811
▁기본	-10.3816
얘	-10.3816
▁이어나가는	-10.3818
▁도와줘	-10.3834
▁받아들여야	-10.3835
▁증오	-10.3836
씨	-10.3839
▁해결해	-10.3843
▁출퇴근	-10.3844
▁답답할	-10.3844
▁무시해	-10.3846
충	-10.3846
▁구멍이	-10.3847
▁변명	-10.3847
▁가볍게	-10.3847
▁간절히	-10.3847
▁갑작스러운	-10.3847
▁거겠지	-10.3847
▁거르세요	-10.3847
▁건강을	-10.3847
▁결혼을	-10.3847
▁결혼하고	-10.3847
▁계기가	-10.3847
▁글쎄요	-10.3847
▁기준이	-10.3847
▁깨닫다니	-10.3847
▁끝났습니다	-10.3847
▁나올거	-10.3847
▁남자분들	-10.3847
▁넓으신가봐요	-10.3847
▁놀이동산	-10.3847
▁놓아줄	-10.3847
▁다가가세요	-10.3847
▁다하세요	-10.3847
▁대단하시군요	-10.3847
▁대화로	-10.3847
▁도와달라고	-10.3847
▁되었나봐요	-10.3847
▁뒤통수	-10.3847
▁떠오르는	-10.3847
▁또한	-10.3847
▁똑똑해	-10.3847
▁마셨는데	-10.3847
▁막히는	-10.3847
▁만났든	-10.3847
▁말투가	-10.3847
▁망했다	-10.3847
▁맞아요	-10.3847
▁맞추세요	-10.3847
▁모르겠다	-10.3847
▁몸에는	-10.3847
▁못했던	-10.3847
▁무리하지	-10.3847
▁믿으세요	-10.3847
▁바꿀까	-10.3847
▁바뀌게	-10.3847
▁바뀌어	-10.3847
▁보냈네	-10.3847
▁부분을	-10.3847
▁붙여보세요	-10.3847
▁비밀을	-10.3847
▁사생활이	-10.3847
▁샌드위치	-10.3847
▁생리통	-10.3847
▁선택이었을	-10.3847
▁성공을	-10.3847
▁시선을	-10.3847
▁시켜달라고	-10.3847
▁신경쓰고	-10.3847
▁신경쓰면	-10.3847
▁신경쓰여	-10.3847
▁신고하세요	-10.3847
▁심호흡해보세요	-10.3847
▁싶으면	-10.3847
▁쓰면서	-10.3847
▁쓸데없는	-10.3847
▁안될	-10.3847
▁안부를	-10.3847
▁안타깝게	-10.3847
▁안해먹고	-10.3847
▁알아차려도	-10.3847
▁알아차리지	-10.3847
▁알콩달콩	-10.3847
▁어떡함	-10.3847
▁어렵죠	-10.3847
▁어플로	-10.3847
▁얼굴에	-10.3847
▁엄마한테	-10.3847
▁에너지가	-10.3847
▁에너지를	-10.3847
▁여쭤보세요	-10.3847
▁연락했는데	-10.3847
▁염탐하지	-10.3847
▁예의일	-10.3847
▁왔나봐요	-10.3847
▁운명적인	-10.3847
▁위험해	-10.3847
▁유난히	-10.3847
▁의욕이	-10.3847
▁이상적인	-10.3847
▁이왕이면	-10.3847
▁인상이	-10.3847
▁있냐고	-10.3847
▁있었는데	-10.3847
▁잡아보세요	-10.3847
▁재미없어	-10.3847
▁전여자친구	-10.3847
▁접는게	-10.3847
▁정해져	-10.3847
▁종교의	-10.3847
▁좋긴	-10.3847
▁좋으련만	-10.3847
▁준비하세요	-10.3847
▁즐거울	-10.3847
▁지극히	-10.3847
▁지나갔길	-10.3847
▁진실된	-10.3847
▁차갑게	-10.3847
▁차근차근	-10.3847
▁차별해	-10.3847
▁차분하게	-10.3847
▁처음부터	-10.3847
▁최고의	-10.3847
▁큰일이네요	-10.3847
▁클럽에서	-10.3847
▁퇴근길	-10.3847
▁퇴근하고	-10.3847
▁틀린	-10.3847
▁피곤했나봐요	-10.3847
▁해드릴게요	-10.3847
▁해야겠지	-10.3847
▁헤어지세요	-10.3847
▁호의를	-10.3847
▁혼술	-10.3847
▁확실해지면	-10.3847
▁환승은	-10.3847
▁흥미를	-10.3847
▁당첨	-10.3847
▁미래를	-10.3847
▁배터리	-10.3847
▁우연이	-10.3847
▁잊혀지기도	-10.3847
▁찌질한	-10.3847
▁프로포즈해보세요	-10.3847
▁구해보세요	-10.3847
▁의외로	-10.3847
▁기다림	-10.3847
▁졸업하는데	-10.3847
▁주제를	-10.3847
▁얼마든지	-10.3847
▁찾아오는	-10.3847
▁커플링	-10.3847
▁가능하다고	-10.3847
▁하지말고	-10.3847
▁힘들었죠	-10.3847
▁없는걸까	-10.3847
▁해보려고	-10.3847
▁마실	-10.3847
▁덜어보세요	-10.3847
▁직업	-10.3847
▁연락하라고	-10.3847
▁있는걸까	-10.3847
▁좋아한대	-10.3847
▁받아보는	-10.3847
▁한심해	-10.3847
▁생긴다는	-10.3847
▁후회하는	-10.3847
▁고치고	-10.3847
▁잊혀지지	-10.3848
▁존중해주세요	-10.3848
▁심해지는	-10.3848
▁남자친구에게	-10.3848
▁이야기하는	-10.3848
▁익숙해질	-10.3848
▁여러명	-10.385
▁양말	-10.385
▁다녀와	-10.3851
▁좋아지는	-10.3853
▁피자	-10.3853
▁원해	-10.3853
▁있을게요	-10.3854
▁나눠보는게	-10.3855
▁의미일까	-10.3855
▁드려	-10.3855
▁누구랑	-10.3857
▁떠나간	-10.3859
▁목적	-10.3862
▁연애하는데	-10.3862
▁피해를	-10.3862
▁가능할까	-10.3864
▁상대방에게	-10.3864
였던	-10.3864
▁달라져요	-10.3865
▁소원을	-10.387
▁친해지는게	-10.387
▁보일	-10.387
▁보기로	-10.3871
▁시작하기	-10.3872
▁질질	-10.3873
▁오니까	-10.3879
▁이해를	-10.3879
▁일어나서	-10.3879
▁짐을	-10.3886
▁아니네	-10.3888
▁들어가서	-10.3888
▁오라고	-10.3892
▁치과에	-10.3897
▁거울을	-10.3898
▁정도로	-10.39
▁그대로의	-10.3901
▁자존감을	-10.3903
▁기본이	-10.3903
▁밖에서	-10.3904
▁안되는데	-10.3905
▁회사에는	-10.3907
▁괜찮을거	-10.3908
▁분위기를	-10.3908
▁미세먼지가	-10.3913
▁적어	-10.3916
▁고백하는게	-10.3921
▁힘들어하지	-10.3925
▁친구인데	-10.3928
▁거짓말은	-10.3934
▁찾아야	-10.3937
▁만남은	-10.3944
▁짝녀를	-10.395
▁썸녀가	-10.3952
▁후회만	-10.3952
▁만들어서	-10.3956
▁스트레스야	-10.3958
▁언젠가는	-10.3984
▁울고	-10.3985
▁카톡할	-10.4002
▁할줄	-10.4026
▁전하지	-10.4036
▁길게	-10.4036
▁더워	-10.4049
▁일이죠	-10.405
▁거라면	-10.4059
▁번의	-10.4069
▁잘하는게	-10.4086
▁상처도	-10.4109
▁하기도	-10.4113
▁때죠	-10.4119
▁헤어지자	-10.412
▁가을	-10.4124
▁친구네	-10.4128
▁시작할	-10.4162
▁이래	-10.4167
▁요즘은	-10.4171
▁후회할까	-10.4175
▁나야	-10.4182
▁길지	-10.4184
▁만들기	-10.4191
▁힘들까	-10.4194
▁충전기	-10.4219
▁그대	-10.4247
▁노래는	-10.4273
▁것입니다	-10.4286
▁몰랐어	-10.4306
▁마지막이	-10.431
▁들어도	-10.4374
▁사랑만	-10.4389
▁달이	-10.4616
▁데이트가	-10.4679
▁나나	-10.4689
▁착각	-10.4838
바	-10.4841
▁고마워	-10.4908
▁베터리	-10.4911
▁염색	-10.4918
떠	-10.4921
▁병원	-10.4929
▁삭제하는	-10.4929
꿨	-10.4932
배	-10.494
▁누굴	-10.4945
▁각자	-10.4947
▁배울	-10.495
▁성형	-10.4951
▁기프트콘	-10.4951
더라고요	-10.4951
▁찜질방	-10.4952
▁있으니까	-10.4954
극	-10.4958
▁붙잡아	-10.4958
b	-10.4958
▁가족한테	-10.4958
▁각질제거	-10.4958
▁갈수록	-10.4958
▁강렬한	-10.4958
▁걱정되겠어요	-10.4958
▁걱정할	-10.4958
▁견디기	-10.4958
▁결정했나봐요	-10.4958
▁고민하느라	-10.4958
▁고백하세요	-10.4958
▁관심사에	-10.4958
▁군침이	-10.4958
▁그것만큼	-10.4958
▁금연	-10.4958
▁기원합니다	-10.4958
▁남았나봐요	-10.4958
▁남이니	-10.4958
▁넘었는데	-10.4958
▁놀랐겠어요	-10.4958
▁놀이공원	-10.4958
▁놓으세요	-10.4958
▁다릅니다	-10.4958
▁달려있겠죠	-10.4958
▁돌리는	-10.4958
▁돌아와	-10.4958
▁동감입니다	-10.4958
▁동영상	-10.4958
▁두근거림을	-10.4958
▁뒷감당	-10.4958
▁드립니다	-10.4958
▁들어왔어	-10.4958
▁들었겠네요	-10.4958
▁떨어지는	-10.4958
▁만났던	-10.4958
▁만화같은	-10.4958
▁말씀드려보세요	-10.4958
▁맞춰보세요	-10.4958
▁맡겨보세요	-10.4958
▁머리카락	-10.4958
▁먹어도	-10.4958
▁먼지가	-10.4958
▁멈추지	-10.4958
▁멋있네요	-10.4958
▁무거워	-10.4958
▁바꿔보세요	-10.4958
▁바꿔야	-10.4958
▁바빠도	-10.4958
▁보고싶네	-10.4958
▁보냈습니다	-10.4958
▁보냈어	-10.4958
▁부담스러울	-10.4958
▁부지런하시네요	-10.4958
▁불면증	-10.4958
▁비밀번호	-10.4958
▁비행기	-10.4958
▁사랑스러운	-10.4958
▁사랑인지	-10.4958
▁삭제해보세요	-10.4958
▁상관없지만	-10.4958
▁선생님께	-10.4958
▁성공적으로	-10.4958
▁성공하고	-10.4958
▁속도를	-10.4958
▁속박에서	-10.4958
▁솔직해	-10.4958
▁쉬어가도	-10.4958
▁스타트업에	-10.4958
▁스테이크	-10.4958
▁실망하지	-10.4958
▁싸울	-10.4958
▁아껴뒀나봐요	-10.4958
▁아니겠지	-10.4958
▁아직이라면	-10.4958
▁안주	-10.4958
▁애틋한	-10.4958
▁어느정도	-10.4958
▁어떠세요	-10.4958
▁어떡하죠	-10.4958
▁어머어머	-10.4958
▁없지요	-10.4958
▁연락두절돼서	-10.4958
▁영양제	-10.4958
▁옷이요	-10.4958
▁왜이렇게	-10.4958
▁외국어	-10.4958
▁의식하는	-10.4958
▁이겨내세요	-10.4958
▁이력서	-10.4958
▁인정해야	-10.4958
▁입으세요	-10.4958
▁있거나	-10.4958
▁있답니다	-10.4958
▁있으신가봐요	-10.4958
▁잘생겼어	-10.4958
▁장학금	-10.4958
▁재밌는거	-10.4958
▁저녁에	-10.4958
▁전화해보세요	-10.4958
▁정신없이	-10.4958
▁정신차리세요	-10.4958
▁존중하고	-10.4958
▁졸업식에	-10.4958
▁좋으니	-10.4958
▁주름살	-10.4958
▁즐기는	-10.4958
▁지금부터	-10.4958
▁지루해	-10.4958
▁지웠어	-10.4958
▁지켜주세요	-10.4958
▁챙겨주면	-10.4958
▁추천드려요	-10.4958
▁축제	-10.4958
▁축하해주세요	-10.4958
▁친구들한테	-10.4958
▁칭찬해주고	-10.4958
▁터놓고	-10.4958
▁틀리는	-10.4958
▁편의점	-10.4958
▁편하다는	-10.4958
▁포근한	-10.4958
▁하고싶었던	-10.4958
▁하느냐에	-10.4958
▁합리적인	-10.4958
▁해결될	-10.4958
▁해외여행	-10.4958
▁행동할	-10.4958
▁행복하세요	-10.4958
▁현타	-10.4958
▁휴유증	-10.4958
▁흐른	-10.4958
▁흘려보세요	-10.4958
▁희망은	-10.4958
▁힘드니까요	-10.4958
▁심리일까요	-10.4958
▁이어주는	-10.4958
▁배우면	-10.4958
▁소소한	-10.4958
▁하다보니	-10.4958
▁차였는데	-10.4958
▁직접적으로	-10.4958
▁더러워	-10.4958
▁서운한	-10.4958
▁서운해	-10.4958
▁고양이	-10.4958
▁피하는	-10.4958
▁나갔어	-10.4958
▁사랑하니까	-10.4958
▁시기네요	-10.4958
▁친구라면	-10.4958
▁생일이네	-10.4959
▁지르고	-10.4959
▁생각할게요	-10.4959
▁달라지지	-10.4959
▁어리게	-10.4959
▁모두에게	-10.4959
▁결정이었을거라	-10.4959
▁심한가봐요	-10.4959
▁여행이네요	-10.4959
▁된다고	-10.4959
▁나오지	-10.4959
▁이어질	-10.4959
▁하니까요	-10.496
▁원치	-10.496
▁때로는	-10.496
▁남자에게	-10.496
▁건들지	-10.496
▁정리될	-10.496
▁직전	-10.496
▁키울	-10.4961
▁분명히	-10.4961
▁오바	-10.4962
▁있었을지도	-10.4963
▁미안하다	-10.4964
▁구워	-10.4964
▁커피향	-10.4964
▁이름이랑	-10.4964
▁찾아오네	-10.4964
▁마중	-10.4965
▁끈을	-10.4965
▁어언	-10.4965
▁이해하기	-10.4965
▁말해줘	-10.4967
▁질린	-10.4967
▁기본이죠	-10.4968
▁터질	-10.4968
▁없으니까요	-10.4969
▁소주	-10.497
▁만남이네요	-10.4972
▁취직하면	-10.4973
▁비하하지는	-10.4973
▁미워하지	-10.4974
▁만난다면	-10.4974
▁들어주세요	-10.4976
▁보자	-10.4977
▁심리	-10.4977
▁인생에서	-10.4978
▁개월차	-10.4978
▁현실과	-10.4981
▁헤어지기	-10.4981
▁실수할	-10.4984
▁지칠만	-10.4984
▁재미있어요	-10.4987
▁봐보세요	-10.4987
▁싸우면서	-10.4987
▁삭제하는게	-10.4987
▁이해하고	-10.4988
▁고백해야	-10.4988
▁일어나면	-10.4989
▁이어나가는게	-10.499
▁아니길	-10.4994
척	-10.4998
▁소원이	-10.5
▁않을거예요	-10.5004
▁적어도	-10.5006
▁주차	-10.5006
▁기다려야	-10.5006
▁사실에	-10.5007
▁곳이죠	-10.5008
▁기대를	-10.5008
▁도전은	-10.5009
▁인생의	-10.5011
▁마음인가봐요	-10.5012
▁사이로	-10.5012
▁줘야	-10.5014
▁없겠지요	-10.5017
▁고민이죠	-10.502
▁가기로	-10.502
▁월급은	-10.5022
▁정리해	-10.5029
▁준비하면	-10.5031
▁물어봐도	-10.5039
▁소개팅하고	-10.504
입	-10.5041
▁기억에서	-10.5044
▁달라요	-10.5053
▁그것도	-10.5054
▁오길	-10.5062
▁먹으면서	-10.5065
▁생겼어요	-10.507
▁스트레스를	-10.5085
▁길면	-10.5089
▁거짓말을	-10.509
▁이해는	-10.509
▁우산에	-10.5091
▁추억에	-10.5103
▁선물하면	-10.5103
▁말했어	-10.5107
▁휴가	-10.5112
▁우산을	-10.5127
▁사랑할까	-10.5129
▁주일	-10.5129
▁자신은	-10.513
▁말들	-10.5136
▁연락하는게	-10.514
▁오늘이에요	-10.514
▁함께하고	-10.515
▁연인이	-10.5155
▁적이	-10.5163
▁것일까	-10.5181
▁미련을	-10.5184
▁마음이랑	-10.52
▁기억에	-10.5252
▁기억은	-10.5257
▁함께한	-10.5258
▁화장이	-10.5261
▁남자의	-10.5319
▁도네요	-10.5342
▁연애할	-10.5344
▁가네요	-10.538
▁가는게	-10.5391
▁않는게	-10.5415
▁데가	-10.5425
▁시간이네요	-10.5428
▁내일을	-10.5429
▁헤어짐이	-10.5442
▁나니	-10.5449
▁하루는	-10.5506
▁좋아서	-10.5525
▁혼자서	-10.5535
▁줄일	-10.5583
▁학생	-10.5647
▁쉽지가	-10.5647
봐야지	-10.5888
▁이별하는	-10.5953
▁고백할	-10.5958
▁준비할	-10.6033
▁일주일이	-10.6047
▁가치관	-10.6113
▁하루하루	-10.6147
▁익숙해지지	-10.6162
▁보일러	-10.6164
▁친해지는	-10.618
푸	-10.6195
▁누군가	-10.6195
▁공부할	-10.6195
▁달라진	-10.6196
▁헬스장에	-10.6201
▁동생이	-10.6204
증	-10.6206
락	-10.6207
콕	-10.6208
▁합격	-10.6208
▁수학여행	-10.6208
▁억지로	-10.6208
▁년연애	-10.6208
▁프로포즈	-10.6208
▁가늠하지	-10.6208
▁가리세요	-10.6208
▁간직하세요	-10.6208
▁갖자는	-10.6208
▁같으면	-10.6208
▁개시해보세요	-10.6208
▁개인의	-10.6208
▁객관적으로	-10.6208
▁걸리겠지만	-10.6208
▁걸음을	-10.6208
▁견뎌내고	-10.6208
▁결혼준비	-10.6208
▁고마움을	-10.6208
▁공부하세요	-10.6208
▁과식하지	-10.6208
▁괜찮겠지	-10.6208
▁괜찮길	-10.6208
▁구썸남	-10.6208
▁그분도	-10.6208
▁꼬박꼬박	-10.6208
▁꼼수를	-10.6208
▁꾸준한	-10.6208
▁끊는게	-10.6208
▁나누는게	-10.6208
▁나왔네	-10.6208
▁넘어가네	-10.6208
▁놀러가세요	-10.6208
▁높겠네요	-10.6208
▁놔둬야하는데	-10.6208
▁늦었어요	-10.6208
▁다녀왔어	-10.6208
▁다되어가네	-10.6208
▁답정녀	-10.6208
▁당분간은	-10.6208
▁당연해요	-10.6208
▁대기업	-10.6208
▁대화해보세요	-10.6208
▁도와준	-10.6208
▁되려면	-10.6208
▁되었을	-10.6208
▁되짚어보세요	-10.6208
▁두세요	-10.6208
▁든든할	-10.6208
▁들어맞나봅니다	-10.6208
▁따져보세요	-10.6208
▁때부터	-10.6208
▁때예요	-10.6208
▁떨쳐버리세요	-10.6208
▁뜻대로	-10.6208
▁마주치면	-10.6208
▁맛있다	-10.6208
▁맞나봐요	-10.6208
▁머릿속에	-10.6208
▁먹어야겠다	-10.6208
▁먹었더니	-10.6208
▁먹으러	-10.6208
▁멀어지면	-10.6208
▁메모하는	-10.6208
▁못참고	-10.6208
▁무리일까	-10.6208
▁무언가	-10.6208
▁무조건	-10.6208
▁무한리필	-10.6208
▁묻어두는	-10.6208
▁미용실	-10.6208
▁미치겠어	-10.6208
▁믿어주세요	-10.6208
▁바빠서	-10.6208
▁바쁜일이	-10.6208
▁반대래요	-10.6208
▁반에서	-10.6208
▁변덕이	-10.6208
▁부딪혔나봐요	-10.6208
▁부족해	-10.6208
▁비교하면	-10.6208
▁빠르면	-10.6208
▁빠지면	-10.6208
▁사과하세요	-10.6208
▁사람이었나봐요	-10.6208
▁사랑하세요	-10.6208
▁산책을	-10.6208
▁살다보면	-10.6208
▁살아가는	-10.6208
▁새신발	-10.6208
▁생각할수록	-10.6208
▁생겨서	-10.6208
▁성공한	-10.6208
▁세워보세요	-10.6208
▁소유하는	-10.6208
▁소중합니다	-10.6208
▁손수건	-10.6208
▁쇼핑하고	-10.6208
▁쉬어가세요	-10.6208
▁스터디	-10.6208
▁스트레칭을	-10.6208
▁시간내서	-10.6208
▁신경쓰이는	-10.6208
▁실용적인	-10.6208
▁싸우고	-10.6208
▁썸녀한테	-10.6208
▁쓰이는	-10.6208
▁아닐거예요	-10.6208
▁아름답죠	-10.6208
▁아쉬운	-10.6208
▁안좋아하는	-10.6208
▁않지요	-10.6208
▁애매하네요	-10.6208
▁애정표현일	-10.6208
▁어둠에서	-10.6208
▁어렵다	-10.6208
▁어색해졌어	-10.6208
▁어찌해야	-10.6208
▁없애주세요	-10.6208
▁여우같은	-10.6208
▁외롭고	-10.6208
▁운동하세요	-10.6208
▁웃으면서	-10.6208
▁원인이죠	-10.6208
▁웬수예요	-10.6208
▁유부녀	-10.6208
▁유학을	-10.6208
▁이뤄지지	-10.6208
▁이어폰	-10.6208
▁이용하는	-10.6208
▁이제부터	-10.6208
▁인정하는	-10.6208
▁일부로	-10.6208
▁일인지	-10.6208
▁있었던	-10.6208
▁잘생겨	-10.6208
▁잘하니	-10.6208
▁잡아도	-10.6208
▁전화는	-10.6208
▁정리하세요	-10.6208
▁정리했습니다	-10.6208
▁정성이	-10.6208
▁정신건강에	-10.6208
▁정확히	-10.6208
▁조금이나마	-10.6208
▁조급하게	-10.6208
▁조심히	-10.6208
▁좋아졌어	-10.6208
▁좋았을텐데	-10.6208
▁좋으시네요	-10.6208
▁주변의	-10.6208
▁주식으로	-10.6208
▁준비되어야	-10.6208
▁준비하느라	-10.6208
▁지쳐서	-10.6208
▁질투를	-10.6208
▁짜장면	-10.6208
▁짝남과	-10.6208
▁착잡하겠어요	-10.6208
▁체육대회	-10.6208
▁칼로리	-10.6208
▁팔아보세요	-10.6208
▁편안해질	-10.6208
▁포맷해보세요	-10.6208
▁포장하는게	-10.6208
▁하셨군요	-10.6208
▁할수록	-10.6208
▁해봤는데	-10.6208
▁행복하면	-10.6208
▁행복했으면	-10.6208
▁행운을	-10.6208
▁허무하네	-10.6208
▁허전한가봐요	-10.6208
▁허전할	-10.6208
▁헤아릴	-10.6208
▁확인하고	-10.6208
▁흘러갈	-10.6208
▁흘리세요	-10.6208
햇	-10.6208
▁끊어야	-10.6208
▁두고두고	-10.6208
▁심어볼까	-10.6208
▁아쉬움이	-10.6208
▁일방적	-10.6208
▁줄임말	-10.6208
▁감각이	-10.6208
▁성덕	-10.6208
▁극복해보세요	-10.6208
▁들리려고	-10.6208
▁그리울	-10.6208
▁들어오면	-10.6208
▁아무말도	-10.6208
▁일시적	-10.6208
▁꽃길만	-10.6208
▁입장을	-10.6208
▁제자리	-10.6208
▁표현해보는	-10.6208
▁추운가요	-10.6208
▁나오라고	-10.6208
▁기르고	-10.6208
▁만나기만	-10.6208
▁의지해도	-10.6208
▁간만에	-10.6208
▁하려면	-10.6209
▁해줄까	-10.6209
▁방해가	-10.6209
▁일하면서	-10.6209
▁지우는	-10.6209
▁한달만에	-10.6209
▁누워	-10.6209
▁시작하는	-10.6209
▁잊어가는	-10.6209
▁집까지	-10.6209
▁말보다	-10.6209
▁나가볼까	-10.6209
▁오해가	-10.6209
▁이기니	-10.6209
▁필요한가요	-10.621
▁가리는	-10.621
▁해보고	-10.621
▁뻔했어	-10.621
▁그리운가봐요	-10.6211
▁다니는	-10.6211
▁더이상	-10.6212
▁가져주세요	-10.6212
▁알아볼	-10.6212
▁만지지	-10.6213
▁할게요	-10.6214
▁키워	-10.6214
▁거리가	-10.6214
▁거니까요	-10.6215
▁표현하기	-10.6215
▁마른	-10.6215
▁스키장	-10.6215
▁배달	-10.6215
▁신고하고	-10.6215
▁누나	-10.6216
▁도전해보세요	-10.6216
▁미안해하지	-10.6217
▁기본으로	-10.6217
▁우리집	-10.6217
▁이해해보세요	-10.6218
▁바람이라도	-10.6218
▁나가면	-10.6219
▁입학	-10.622
▁너무나도	-10.6221
▁중요하니까요	-10.6221
▁표현하지	-10.6221
▁피하고	-10.6221
▁휴가를	-10.6224
▁사랑해줄	-10.6224
▁보내보세요	-10.6224
▁연락해봐요	-10.6226
▁가야겠죠	-10.6227
▁해주면서	-10.6227
▁것이든	-10.6229
▁그대의	-10.623
▁너와	-10.623
▁봐봐요	-10.623
▁다칠	-10.6232
▁두려워하지	-10.6232
▁헬스장에서	-10.6233
▁정리하는데	-10.6233
▁일어나야	-10.6234
▁남친이랑	-10.6235
▁하다니	-10.6235
▁더워서	-10.6235
▁시작이죠	-10.6236
▁심호흡을	-10.6237
▁장점을	-10.6237
▁년간의	-10.6239
▁연애중	-10.6239
▁고장	-10.624
▁간대	-10.624
▁필요하지	-10.6241
▁외로움을	-10.6242
▁쓰레기야	-10.6243
▁좋아지고	-10.6244
▁된다면	-10.6245
▁위로를	-10.6249
▁문제네요	-10.625
▁유효기간이	-10.6256
▁별로네요	-10.6258
▁너랑	-10.6258
▁가능할까요	-10.626
▁원망은	-10.6261
▁못할까	-10.6263
▁생각하면서	-10.6267
▁소개팅으로	-10.6267
▁친구들을	-10.6269
▁할말	-10.6276
▁해주는게	-10.628
▁으아	-10.6281
▁고민이네요	-10.6289
▁의심이	-10.6292
▁아냐	-10.6292
▁배워도	-10.6296
▁것이죠	-10.6296
▁나오네	-10.6298
▁가본	-10.6299
▁남자입니다	-10.6303
▁혼자해도	-10.6305
▁야근이	-10.6307
▁성적이	-10.6309
▁좋을텐데요	-10.6316
▁날이네요	-10.6318
▁다리가	-10.6319
▁양을	-10.6329
▁다녀도	-10.633
▁착각이	-10.6331
▁그럴까요	-10.6332
▁집에서도	-10.6336
▁힘들지만	-10.6342
▁건가봐요	-10.6343
▁대하는	-10.6347
▁다가가도	-10.6359
▁가려고	-10.6362
▁찾아가는	-10.6365
▁지날	-10.6365
▁연락할까	-10.6374
▁기다려도	-10.6382
▁들까	-10.6386
▁스트레스의	-10.6389
▁이야기하고	-10.6392
▁상대는	-10.6398
▁정도에	-10.6402
▁기억의	-10.6404
▁너의	-10.6407
▁말하는게	-10.641
▁세상이	-10.641
▁하늘이	-10.6415
▁걸었어	-10.6415
▁좋지요	-10.6417
▁나이에	-10.6427
▁여자로	-10.6467
▁수영	-10.6469
▁전과	-10.6494
▁그녀도	-10.6506
▁번만	-10.6538
▁하아	-10.6545
▁지금의	-10.6559
▁만한	-10.6562
▁비해	-10.6586
▁입이	-10.6632
▁일로	-10.6634
휴	-10.6652
▁커피가	-10.6663
▁시작을	-10.6668
맛	-10.6668
병	-10.6693
옴	-10.6698
▁노래가	-10.6722
▁학생이	-10.6808
돈	-10.6893
▁하니	-10.6939
▁표현할	-10.7457
▁깨달음	-10.757
칠	-10.7582
염	-10.7583
▁봉사활동	-10.7594
▁외로움	-10.7597
▁재미있어	-10.76
▁맛있어	-10.76
▁했나봐	-10.7601
▁첫인상	-10.7607
▁그분에	-10.7607
▁다정한	-10.7607
▁해주면	-10.7616
▁비슷한	-10.7619
언	-10.7625
었으니까요	-10.763
▁조급해	-10.7631
▁늘어	-10.7632
▁안되나	-10.7634
잼	-10.7636
▁결혼하기	-10.7637
▁가족들이랑	-10.7637
▁간사하죠	-10.7637
▁감사하는	-10.7637
▁감으세요	-10.7637
▁같다면	-10.7637
▁걱정하면	-10.7637
▁걱정하지마세요	-10.7637
▁결정하기	-10.7637
▁결정하는	-10.7637
▁결혼적령기가	-10.7637
▁결혼적령기예요	-10.7637
▁고백받았어	-10.7637
▁고백했다	-10.7637
▁공부를	-10.7637
▁교양수업	-10.7637
▁구체적으로	-10.7637
▁궁금증을	-10.7637
▁귀엽겠네요	-10.7637
▁그리움을	-10.7637
▁그린라이트일까	-10.7637
▁기다리던	-10.7637
▁기다리세요	-10.7637
▁기울여보세요	-10.7637
▁깊었나봐요	-10.7637
▁깔끔해질	-10.7637
▁끝일줄	-10.7637
▁나쁜거예요	-10.7637
▁나오세요	-10.7637
▁남기고	-10.7637
▁남기는	-10.7637
▁남자애랑	-10.7637
▁내리는게	-10.7637
▁내버려	-10.7637
▁놀아줘	-10.7637
▁놓치고	-10.7637
▁놓치지	-10.7637
▁눈높이가	-10.7637
▁느껴보세요	-10.7637
▁느낀다면	-10.7637
▁다행이네요	-10.7637
▁단체생활	-10.7637
▁당당히	-10.7637
▁당황하셨겠어요	-10.7637
▁대단하네요	-10.7637
▁대화의	-10.7637
▁데려가세요	-10.7637
▁돌아갈	-10.7637
▁돌아오지	-10.7637
▁동생인데	-10.7637
▁되었길	-10.7637
▁두근거려	-10.7637
▁드레스	-10.7637
▁들으며	-10.7637
▁따끔하게	-10.7637
▁따뜻해졌죠	-10.7637
▁때문이겠죠	-10.7637
▁많았나봅니다	-10.7637
▁맞으면	-10.7637
▁먹거나	-10.7637
▁먹기로	-10.7637
▁멈추세요	-10.7637
▁몸에서	-10.7637
▁무너져요	-10.7637
▁문제인가요	-10.7637
▁물어보거나	-10.7637
▁미치겠네	-10.7637
▁받으세요	-10.7637
▁발전이	-10.7637
▁방식이	-10.7637
▁배우세요	-10.7637
▁배우자가	-10.7637
▁보이스피싱	-10.7637
▁보인다	-10.7637
▁보험처리	-10.7637
▁부모님을	-10.7637
▁분에게	-10.7637
▁불공평해	-10.7637
▁브랜드가	-10.7637
▁비밀은	-10.7637
▁비세요	-10.7637
▁빈자리	-10.7637
▁사귀긴	-10.7637
▁사귀자고	-10.7637
▁사라진	-10.7637
▁상사병	-10.7637
▁상의해보세요	-10.7637
▁상황일	-10.7637
▁새출발하세요	-10.7637
▁생겼나봐	-10.7637
▁서류에서	-10.7637
▁서운하겠어요	-10.7637
▁선택으로	-10.7637
▁설레고	-10.7637
▁성별을	-10.7637
▁셀프웨딩	-10.7637
▁소화가	-10.7637
▁솔직하고	-10.7637
▁술한잔	-10.7637
▁쉬면서	-10.7637
▁시골에서	-10.7637
▁아팠으면	-10.7637
▁안되겠죠	-10.7637
▁안받아	-10.7637
▁안오지	-10.7637
▁안타까워	-10.7637
▁애완동물	-10.7637
▁어렵지	-10.7637
▁어쩌면	-10.7637
▁어플을	-10.7637
▁엄마아빠	-10.7637
▁없답니다	-10.7637
▁없어졌어	-10.7637
▁여유롭게	-10.7637
▁연락왔어	-10.7637
▁연락했습니다	-10.7637
▁영화관이나	-10.7637
▁예감은	-10.7637
▁예뻐질	-10.7637
▁예쁜데	-10.7637
▁예상하지	-10.7637
▁예의를	-10.7637
▁욕하는	-10.7637
▁웬수네요	-10.7637
▁유통기한이	-10.7637
▁응원할게요	-10.7637
▁이사하는	-10.7637
▁익숙함이	-10.7637
▁인공지능에	-10.7637
▁인기있는	-10.7637
▁인사드리러	-10.7637
▁인터넷	-10.7637
▁일요일에	-10.7637
▁잃어버렸어	-10.7637
▁있었는지	-10.7637
▁자유를	-10.7637
▁잘되니까	-10.7637
▁잘지내고	-10.7637
▁잠재력을	-10.7637
▁잡념을	-10.7637
▁재미있게	-10.7637
▁재밌겠어요	-10.7637
▁쟁취하는	-10.7637
▁적극적인	-10.7637
▁적응해야겠네요	-10.7637
▁전부는	-10.7637
▁전여친한테	-10.7637
▁접어두셔요	-10.7637
▁제안해보세요	-10.7637
▁제정신이	-10.7637
▁조용히	-10.7637
▁존중합니다	-10.7637
▁종지부를	-10.7637
▁좋대요	-10.7637
▁좋아했나봐요	-10.7637
▁죽어도	-10.7637
▁중요하겠죠	-10.7637
▁줬으면	-10.7637
▁지겨워진	-10.7637
▁지긋지긋한	-10.7637
▁지났는데	-10.7637
▁지내길	-10.7637
▁지쳐요	-10.7637
▁지쳤어	-10.7637
▁진지하게	-10.7637
▁질투난다고	-10.7637
▁찍어주세요	-10.7637
▁찍었네	-10.7637
▁차단하세요	-10.7637
▁차례예요	-10.7637
▁챙겨드시거나	-10.7637
▁챙겨주세요	-10.7637
▁챙기세요	-10.7637
▁청소하세요	-10.7637
▁치료하세요	-10.7637
▁친구사이	-10.7637
▁컴퓨터가	-10.7637
▁피곤하겠어요	-10.7637
▁하셨나봐요	-10.7637
▁한바퀴만	-10.7637
▁해결되길	-10.7637
▁해내고	-10.7637
▁해야겠네여	-10.7637
▁허리가	-10.7637
▁헷갈리네	-10.7637
▁형편대로	-10.7637
▁혼란스러워	-10.7637
▁휴식도	-10.7637
▁흘렀나봐요	-10.7637
▁희망이	-10.7637
▁힘드시겠어요	-10.7637
▁힘들었을텐데	-10.7637
꾼	-10.7637
룩	-10.7637
흠	-10.7637
▁가스비	-10.7637
▁가족들과	-10.7637
▁들려주세요	-10.7637
▁명상을	-10.7637
▁배려해보세요	-10.7637
▁여기까지였을	-10.7637
▁오래오래	-10.7637
▁이어보고	-10.7637
▁잘못한	-10.7637
▁층간소음	-10.7637
▁길거리에	-10.7637
▁데리러	-10.7637
▁상대방은	-10.7637
▁다가오고	-10.7637
▁잘해주면	-10.7637
▁후배가	-10.7637
▁바꾸는	-10.7637
▁보다보면	-10.7637
▁마시기	-10.7637
▁만들었어요	-10.7637
▁오르네	-10.7637
▁거꾸로	-10.7637
▁다갔어	-10.7637
▁다양한	-10.7637
▁사랑해주는	-10.7637
▁기대치가	-10.7637
▁누구보다	-10.7637
▁아까운	-10.7637
▁알바생이	-10.7637
▁전여친이랑	-10.7637
▁바꿨어	-10.7637
▁마시지	-10.7637
▁걸렸어	-10.7637
▁인연이라면	-10.7637
▁통보하는	-10.7637
▁고치기	-10.7637
▁자장가	-10.7637
▁사람일지도	-10.7637
▁아이디	-10.7637
▁고르는	-10.7637
▁미칠	-10.7637
▁여지를	-10.7637
▁데려가	-10.7637
▁기다릴게요	-10.7637
▁생각들을	-10.7637
▁우울증	-10.7638
▁가나봐요	-10.7638
▁도와주세	-10.7638
▁나오고	-10.7638
▁한가지만	-10.7638
▁사랑보다	-10.7638
▁가치가	-10.7638
▁그러지	-10.7638
▁지나가는	-10.7638
▁해보면	-10.7638
▁가거나	-10.7638
▁정신병	-10.7638
▁학점	-10.7638
▁연애할때	-10.7638
▁친구에게	-10.7639
▁고백할까요	-10.7639
▁이제서야	-10.7639
▁원하지	-10.7639
▁안되나봐요	-10.764
▁가야돼	-10.764
▁답답할거라	-10.7641
▁이번달	-10.7641
▁망함	-10.7642
▁부족한가봐요	-10.7643
▁사랑이었으니까요	-10.7644
▁싶어하는	-10.7644
▁망했어	-10.7645
▁의심하지	-10.7645
▁그에게	-10.7645
▁언니랑	-10.7645
▁노려	-10.7645
▁기억될	-10.7646
▁세상이죠	-10.7647
▁괜찮아지고	-10.7648
▁한번더	-10.765
▁정리하려고	-10.765
▁썸녀랑	-10.7651
▁근데	-10.7653
▁배울까	-10.7653
▁면도기	-10.7655
▁엄마랑	-10.7656
▁정신적	-10.7656
▁도와줘야	-10.7656
▁보임	-10.7657
▁이어가	-10.7657
▁돌아올까	-10.7657
▁서울	-10.7657
▁짝녀와	-10.7658
▁후회하기	-10.7659
▁기대하지	-10.7663
▁화이트데이에	-10.7663
▁의심해	-10.7665
▁준비하는데	-10.7666
▁취미네요	-10.7666
▁자야지	-10.7666
▁소비를	-10.7667
▁입을까	-10.7667
▁오래갈	-10.7669
▁주말이네요	-10.7669
▁익숙해지는	-10.767
▁만들죠	-10.7671
▁걱정이야	-10.7673
▁당신만	-10.7674
▁중문	-10.7675
▁아니니	-10.7675
▁사람만의	-10.7676
▁생각했던	-10.7678
▁비와	-10.7681
▁일이라도	-10.7683
▁방학에	-10.7688
▁우울한	-10.7688
▁생각일까	-10.7689
▁친구들은	-10.769
▁익숙해지지가	-10.7691
▁마셔요	-10.7692
▁향이	-10.7693
▁여기서	-10.7695
▁힘들거라	-10.7697
▁휴가가	-10.7699
▁당신만이	-10.7703
▁어디에서	-10.7703
▁방법이죠	-10.7704
▁사랑합니다	-10.7707
▁냉장고에	-10.7707
▁헤어지자는	-10.7707
▁피곤해서	-10.7708
▁하지마	-10.7713
▁그땐	-10.7716
▁차단하고	-10.7719
▁커서	-10.7723
▁남편이네요	-10.7724
▁가능한가	-10.7727
▁싫어할까	-10.7728
▁뭐하는지	-10.773
▁없으면서	-10.7732
▁해야겠죠	-10.7736
▁힘들기	-10.7739
▁이해해요	-10.7741
▁카톡하는	-10.7743
▁인연이죠	-10.7744
▁후회를	-10.7746
▁힘들겠죠	-10.7747
▁년전	-10.7752
▁성격도	-10.7753
▁사랑이라고	-10.776
▁연락하기	-10.776
▁생겼네요	-10.7762
▁이야기해요	-10.7763
▁스타일에	-10.7764
▁운동할	-10.7774
▁적은	-10.7782
▁운이	-10.7782
▁모두를	-10.7783
▁알아야	-10.7784
▁하겠죠	-10.7784
▁문제에	-10.7785
▁미련만	-10.7786
▁도전이	-10.7788
▁이상의	-10.7791
▁머리로	-10.7792
▁병이	-10.7794
▁말해서	-10.7794
▁하나죠	-10.7795
▁여자인데	-10.7795
▁아파하고	-10.78
▁영화를	-10.7803
▁버스가	-10.7807
▁마음이에요	-10.7815
▁좋을지도	-10.7821
▁적을	-10.7831
▁좋아진	-10.7836
▁시간과	-10.7844
▁짝사랑에서	-10.7849
▁하는걸	-10.786
▁학교에	-10.7864
▁주길	-10.7865
▁적응이	-10.7876
▁사랑니	-10.7919
▁헤어짐은	-10.7925
▁말하면	-10.7927
▁데이트할	-10.7937
▁없다가	-10.7939
▁정리에	-10.7959
▁배가	-10.7975
▁목이	-10.7981
▁가려	-10.8005
▁전으로	-10.8012
▁지수	-10.8065
▁데도	-10.8201
▁차단하는	-10.8228
▁싫은가봐	-10.8411
▁면도	-10.8509
▁고백해	-10.8517
너	-10.8589
▁진심	-10.9161
▁소원	-10.9202
▁유효기간	-10.9238
업	-10.9246
▁아무렇지	-10.9263
▁심호흡	-10.9264
갔	-10.9265
▁멋져	-10.9268
▁보이네	-10.9268
▁잊으려	-10.9269
▁중요해	-10.9271
▁화이트데이	-10.9272
▁장점	-10.9273
▁상대방에	-10.9275
끈	-10.9275
▁모르겠지	-10.9284
▁재미있는	-10.9288
멋	-10.9289
▁비정상이	-10.929
▁어울릴	-10.9291
냉	-10.9298
▁오락가락	-10.9301
▁수면양말	-10.9302
▁존중해	-10.9302
▁떠날	-10.9303
▁뒷담화	-10.9303
▁멀어진	-10.9303
▁모르나	-10.9303
▁비밀연애	-10.9303
▁포기해야	-10.9303
념	-10.9303
x	-10.9303
▁가까워질	-10.9303
▁가량의	-10.9303
▁가져왔다	-10.9303
▁가족끼리	-10.9303
▁간단하게	-10.9303
▁간단한	-10.9303
▁간절한	-10.9303
▁감수성	-10.9303
▁감수해보세요	-10.9303
▁감싸주세요	-10.9303
▁갑작스러웠나봐요	-10.9303
▁같을까	-10.9303
▁걱정마세요	-10.9303
▁건강하게	-10.9303
▁게스트하우스에서	-10.9303
▁견과류나	-10.9303
▁결혼이나	-10.9303
▁결혼한지	-10.9303
▁경향이	-10.9303
▁계산적인	-10.9303
▁고치면서	-10.9303
▁골라줘	-10.9303
▁곳까지	-10.9303
▁공감을	-10.9303
▁공감이	-10.9303
▁공부하는	-10.9303
▁공부하러	-10.9303
▁공시생인데	-10.9303
▁공유해보세요	-10.9303
▁관심있나	-10.9303
▁광고가	-10.9303
▁구매하면	-10.9303
▁구속해	-10.9303
▁구하셨나요	-10.9303
▁귀엽다고	-10.9303
▁그래봤자	-10.9303
▁그리움이	-10.9303
▁금수저로	-10.9303
▁기다리라고	-10.9303
▁기대되겠네요	-10.9303
▁기대했는데	-10.9303
▁까먹었어	-10.9303
▁깔끔하게	-10.9303
▁깨끗이	-10.9303
▁꼰대가	-10.9303
▁꾸미고	-10.9303
▁끝인가봐요	-10.9303
▁나겠네요	-10.9303
▁날인지는	-10.9303
▁남는게	-10.9303
▁났는지	-10.9303
▁내려놓고	-10.9303
▁내려놓으면	-10.9303
▁냉동실에	-10.9303
▁너무너무	-10.9303
▁누구한테	-10.9303
▁능력만	-10.9303
▁다독여주세요	-10.9303
▁다듬기만해도	-10.9303
▁단맛도	-10.9303
▁대피방법을	-10.9303
▁돌아오길	-10.9303
▁돌아오는	-10.9303
▁동생한테	-10.9303
▁되돌아보세요	-10.9303
▁되었나요	-10.9303
▁둘이서	-10.9303
▁들겠지	-10.9303
▁들었나봐요	-10.9303
▁따듯한	-10.9303
▁따라가겠지	-10.9303
▁떠세요	-10.9303
▁떨린다	-10.9303
▁떨어짐	-10.9303
▁뛰어넘을	-10.9303
▁로봇이에요	-10.9303
▁마음정리하세요	-10.9303
▁마주치지	-10.9303
▁마주하는	-10.9303
▁많다고	-10.9303
▁많으시군요	-10.9303
▁많지만	-10.9303
▁말이예요	-10.9303
▁맛난거	-10.9303
▁맛있고	-10.9303
▁망가뜨리기	-10.9303
▁먹을수록	-10.9303
▁모른척	-10.9303
▁모아봐요	-10.9303
▁모아야할	-10.9303
▁모으는	-10.9303
▁모임에	-10.9303
▁모처럼만에	-10.9303
▁목표네요	-10.9303
▁못하시는	-10.9303
▁무덤덤해지는	-10.9303
▁무시당하는	-10.9303
▁물어보시나요	-10.9303
▁뭐하나	-10.9303
▁뭐하냐고	-10.9303
▁뭐하냐는데	-10.9303
▁미련없이	-10.9303
▁미소짓게	-10.9303
▁미치겠습니다	-10.9303
▁믿기지	-10.9303
▁믿는데	-10.9303
▁믿었는데	-10.9303
▁밑바닥까지	-10.9303
▁바꿔볼까	-10.9303
▁바디로션	-10.9303
▁바디워시	-10.9303
▁바란다면	-10.9303
▁바보같이	-10.9303
▁바쁘더라도	-10.9303
▁반대로	-10.9303
▁반했나봐요	-10.9303
▁받아들여보세요	-10.9303
▁받아들이세요	-10.9303
▁발전시켜보세요	-10.9303
▁보관해보세요	-10.9303
▁보내겠네요	-10.9303
▁보듬어	-10.9303
▁복잡하게	-10.9303
▁복잡하네요	-10.9303
▁본거에서는	-10.9303
▁봐달라고	-10.9303
▁부담스럽게	-10.9303
▁부려보세요	-10.9303
▁부르는	-10.9303
▁부리면	-10.9303
▁부족하지만	-10.9303
▁부추기면	-10.9303
▁부탁드립니다	-10.9303
▁불편하겠죠	-10.9303
▁불편함을	-10.9303
▁비겁한	-10.9303
▁비슷하죠	-10.9303
▁비참한	-10.9303
▁빌려줬는데	-10.9303
▁빠르게	-10.9303
▁빠질까봐	-10.9303
▁사귀자는	-10.9303
▁사람들한테	-10.9303
▁사주를	-10.9303
▁살아서	-10.9303
▁살아있음	-10.9303
▁삼재인가봐요	-10.9303
▁상관없이	-10.9303
▁상사예요	-10.9303
▁상처받게	-10.9303
▁상황인가봐요	-10.9303
▁색다른	-10.9303
▁생각인지	-10.9303
▁생각하나봐요	-10.9303
▁생각할수있어요	-10.9303
▁생각해봅니다	-10.9303
▁생겼대	-10.9303
▁생일선물	-10.9303
▁서운하다고	-10.9303
▁선의의	-10.9303
▁선택의	-10.9303
▁선택이길	-10.9303
▁선택이든	-10.9303
▁설득해보세요	-10.9303
▁성공적일	-10.9303
▁성장하나봐요	-10.9303
▁세다고	-10.9303
▁세월이	-10.9303
▁소맥이요	-10.9303
▁소모가	-10.9303
▁소분해서	-10.9303
▁소식에	-10.9303
▁솔솔와서	-10.9303
▁수상한데	-10.9303
▁수천번	-10.9303
▁순수했던	-10.9303
▁쉬어가는	-10.9303
▁슬프다	-10.9303
▁시간낭비인	-10.9303
▁시끄러워	-10.9303
▁시키세요	-10.9303
▁싱숭생숭해서	-10.9303
▁싶나봐요	-10.9303
▁썸부터	-10.9303
▁씨씨인데	-10.9303
▁아껴주세요	-10.9303
▁아닐지도	-10.9303
▁아쉽겠어요	-10.9303
▁아침마다	-10.9303
▁아침부터	-10.9303
▁아프겠네요	-10.9303
▁안녕하세요	-10.9303
▁안아서	-10.9303
▁안오면	-10.9303
▁안읽씹하면	-10.9303
▁알겠어서	-10.9303
▁알아가야죠	-10.9303
▁알아두세요	-10.9303
▁알아봐주는	-10.9303
▁알지만	-10.9303
▁애국가요	-10.9303
▁애프터까지	-10.9303
▁어장인거	-10.9303
▁어플에	-10.9303
▁얼굴보고	-10.9303
▁없었는데	-10.9303
▁연습하고	-10.9303
▁영원히	-10.9303
▁영향을	-10.9303
▁예민해서	-10.9303
▁예쁜걸로	-10.9303
▁예의는	-10.9303
▁오디션	-10.9303
▁온다고	-10.9303
▁온전한	-10.9303
▁올랐어	-10.9303
▁옳은걸까	-10.9303
▁왜그래	-10.9303
▁왜이리	-10.9303
▁외부의	-10.9303
▁욜로의	-10.9303
▁우선순위면	-10.9303
▁움직이세요	-10.9303
▁웃는게	-10.9303
▁위로해드리는	-10.9303
▁위해서예요	-10.9303
▁응시는	-10.9303
▁의사가	-10.9303
▁이럴까	-10.9303
▁이별준비	-10.9303
▁이불밖은	-10.9303
▁이사를	-10.9303
▁이야기하세요	-10.9303
▁일부니까요	-10.9303
▁일어났더니	-10.9303
▁일인자가	-10.9303
▁일정을	-10.9303
▁있다니	-10.9303
▁있으세요	-10.9303
▁잊지마세요	-10.9303
▁잊지못하고	-10.9303
▁자동차	-10.9303
▁자세요	-10.9303
▁자유로워질	-10.9303
▁자체만으로	-10.9303
▁자취한다는데	-10.9303
▁잘생긴	-10.9303
▁잘자요	-10.9303
▁잘하게	-10.9303
▁잘하세요	-10.9303
▁장난스러운	-10.9303
▁장난인지	-10.9303
▁재회했는데	-10.9303
▁쟁취하세요	-10.9303
▁저렴하게	-10.9303
▁저마다의	-10.9303
▁전화해도	-10.9303
▁접어두는	-10.9303
▁접어야	-10.9303
▁접촉하는	-10.9303
▁존중된	-10.9303
▁존중해줬으면	-10.9303
▁주의하세요	-10.9303
▁주체할	-10.9303
▁죽었다	-10.9303
▁지내요	-10.9303
▁지켜만	-10.9303
▁질투가	-10.9303
▁집착하게	-10.9303
▁쪽지를	-10.9303
▁차분하고	-10.9303
▁차용증	-10.9303
▁차트를	-10.9303
▁찾아올거라	-10.9303
▁채워보세요	-10.9303
▁채워질	-10.9303
▁책임질	-10.9303
▁챙겨주는	-10.9303
▁챙겼나봐요	-10.9303
▁철벽치는	-10.9303
▁첫키스는	-10.9303
▁청소를	-10.9303
▁최저임금	-10.9303
▁취해서	-10.9303
▁치매가	-10.9303
▁친척들	-10.9303
▁침묵하세요	-10.9303
▁칭찬이네요	-10.9303
▁칭찬해보세요	-10.9303
▁크시겠네요	-10.9303
▁크시겠어요	-10.9303
▁태도에	-10.9303
▁태어났을까	-10.9303
▁파도가	-10.9303
▁판도라의	-10.9303
▁편안하게	-10.9303
▁폰케이스	-10.9303
▁풀어야	-10.9303
▁필연이	-10.9303
▁필요하시군요	-10.9303
▁해줬으면	-10.9303
▁핸드백	-10.9303
▁했네요	-10.9303
▁했는지	-10.9303
▁행실을	-10.9303
▁허상일	-10.9303
▁헤어졌으니	-10.9303
▁확신을	-10.9303
▁확실하게	-10.9303
▁확인해달라고	-10.9303
▁후회안할	-10.9303
▁훔쳐보는	-10.9303
▁흐르네	-10.9303
▁흐지부지	-10.9303
▁흔들리고	-10.9303
▁희생양이	-10.9303
센터에	-10.9303
즈	-10.9303
힐	-10.9303
▁감추는	-10.9303
▁것만으로도	-10.9303
▁멋지네요	-10.9303
▁생각한대로	-10.9303
▁시작해보면	-10.9303
▁심심한데	-10.9303
▁어린이집	-10.9303
▁재회하고	-10.9303
▁정신차리	-10.9303
▁질러보세요	-10.9303
닝	-10.9303
마시며	-10.9303
▁고마운	-10.9303
▁관리해봐요	-10.9303
▁때문이에요	-10.9303
▁물증이	-10.9303
▁신청해보세요	-10.9303
칼	-10.9303
▁누구와도	-10.9303
▁드는걸로	-10.9303
▁아프겠어요	-10.9303
▁영화보러	-10.9303
▁배고프	-10.9303
▁상메에	-10.9303
▁해달라고	-10.9303
▁힘이드네	-10.9303
▁나오기도	-10.9303
▁생기길	-10.9303
▁필요하겠죠	-10.9303
▁갔는지	-10.9303
▁그만두고	-10.9303
▁지워질	-10.9303
▁보시면	-10.9304
▁배워보고	-10.9304
▁나갈거예요	-10.9304
▁울어보세요	-10.9304
▁볼때는	-10.9304
▁나아지길	-10.9304
▁신을까	-10.9304
▁고민해보세요	-10.9304
▁목걸이	-10.9304
▁사실이네요	-10.9304
▁좋아하니까	-10.9304
▁지나갔네	-10.9304
▁당신이니까요	-10.9304
▁상자를	-10.9304
▁지진시	-10.9304
▁들었는데	-10.9304
▁괜찮은거로	-10.9304
▁지워야	-10.9304
▁중요합니다	-10.9304
▁것이라면	-10.9304
▁아프게	-10.9304
▁힘들어져요	-10.9304
▁가져가면	-10.9304
▁싫어져요	-10.9304
▁자기보다	-10.9304
▁되어가길	-10.9304
▁물질이	-10.9304
▁적당해	-10.9304
▁가족에게	-10.9304
▁나갈까	-10.9304
▁송장	-10.9304
▁때마다	-10.9304
▁겨울에는	-10.9304
▁하시고	-10.9304
▁영화보고	-10.9304
▁일이니까요	-10.9304
▁완전하게	-10.9304
▁나오는데	-10.9304
▁찾아보는	-10.9304
▁전생에	-10.9304
▁중간에	-10.9304
▁잊었다	-10.9304
▁헤어지고나서	-10.9304
▁사는데요	-10.9304
▁카페가면	-10.9304
▁이러면	-10.9304
▁백수	-10.9304
▁때리기	-10.9304
▁가니까요	-10.9304
▁그러다	-10.9304
▁되어가네	-10.9304
▁다르게	-10.9304
▁이러다	-10.9304
▁위해서는	-10.9305
▁여러가지	-10.9305
▁달라질	-10.9305
▁이러는	-10.9305
▁수면양말인가봐요	-10.9305
▁하라는	-10.9305
▁사랑하게	-10.9305
▁잔소리해보세요	-10.9305
▁나라를	-10.9306
▁들이대보세요	-10.9306
▁어디가지	-10.9306
▁물가가	-10.9306
▁전까지	-10.9307
▁미운	-10.9307
▁갔나	-10.9308
▁여러번	-10.9308
▁꾸죠	-10.9308
▁의도는	-10.9308
▁탄다	-10.9309
▁동생이랑	-10.9309
▁그러니까	-10.9309
▁배려해야	-10.931
▁은근히	-10.931
▁누구냐	-10.931
▁드려보세요	-10.9311
▁짜증날	-10.9311
▁마셔보세요	-10.9311
▁피하지	-10.9312
▁정신적으로	-10.9312
▁여사친이랑	-10.9313
▁찜질방에서	-10.9313
▁올려보세요	-10.9314
▁남사친이랑	-10.9316
▁배워보세요	-10.9316
▁노력해도	-10.9316
▁별로임	-10.9316
▁어울릴까	-10.9316
▁봐주세요	-10.9317
▁치마	-10.9318
▁생일이야	-10.9318
▁선물해볼까	-10.9319
▁공부할까	-10.9321
▁끈이	-10.9321
▁착각하고	-10.9322
▁하루하루를	-10.9322
▁놈의	-10.9322
▁보여보세요	-10.9323
▁필요할지도	-10.9323
▁모르겠지만	-10.9323
▁노력하지	-10.9326
▁비싸지만	-10.9327
▁얘는	-10.9327
▁지켜보는게	-10.9328
▁보신	-10.9329
▁만들어봐요	-10.933
▁얘기하지	-10.9332
▁근처로	-10.9333
▁질긴	-10.9333
하며	-10.9333
▁연인과	-10.9334
▁궁금하면	-10.9334
▁주말인데	-10.9335
▁이별이든	-10.9335
▁다를거예요	-10.9337
▁그분에게	-10.9339
▁다정한게	-10.9339
▁살아야죠	-10.9339
▁첫인상은	-10.9339
▁좋더라도	-10.9339
▁평소의	-10.934
▁잊혀질까	-10.934
▁일상으로	-10.934
▁망한	-10.934
▁이불	-10.9341
▁알아봐요	-10.9342
▁그만하는게	-10.9345
▁가치관에	-10.9347
▁나가지	-10.9347
▁배고파서	-10.9349
▁아프지만	-10.9352
▁정신과	-10.9352
▁수다를	-10.9352
▁마다할	-10.9353
▁와우	-10.9353
▁봉사활동도	-10.9355
▁여친이랑	-10.9358
▁연락이라도	-10.9358
▁대우	-10.9358
▁누구야	-10.936
▁수업	-10.936
▁말해야지	-10.936
▁누구를	-10.9361
▁방학은	-10.9361
▁그림	-10.9362
▁고마워요	-10.9363
▁싫은데	-10.9364
▁염색을	-10.9366
▁보일러가	-10.9369
▁하루하루가	-10.9369
▁알바하면	-10.9369
▁담배를	-10.937
▁선물이네요	-10.9371
▁기다리면서	-10.9373
▁자존심을	-10.9373
▁보는건	-10.9373
▁역시나	-10.9375
▁언제했어	-10.9376
▁베터리가	-10.9377
▁고맙다고	-10.9378
▁오나봐	-10.9381
▁보기만	-10.9382
▁깨달음이	-10.9383
▁만들면	-10.9387
▁주려고	-10.939
▁심심해	-10.9391
▁의미부여는	-10.9391
▁만져	-10.9392
▁면접만	-10.9392
▁가지를	-10.9393
▁고장이	-10.9396
▁충전도	-10.9396
▁보니까	-10.9396
▁알았어요	-10.9398
▁선물해도	-10.94
▁사실을	-10.9403
▁여기다	-10.9403
▁표현에	-10.9405
▁전기가	-10.9405
▁못하는데	-10.9405
▁소리를	-10.9406
▁하기로	-10.9409
▁생각지도	-10.9415
▁보고싶다고	-10.9417
▁맛집을	-10.9417
▁노후는	-10.9419
▁충격이	-10.9419
▁정도를	-10.9421
▁부담스러운지	-10.9424
▁잊기가	-10.943
▁자괴감이	-10.9431
▁선물이에요	-10.9434
▁과일을	-10.9439
▁월급을	-10.944
▁사귀는데	-10.9445
▁인연에	-10.9451
▁답장을	-10.9461
▁이상형을	-10.9462
▁미련한	-10.9466
▁달리	-10.9467
▁시간이에요	-10.9468
▁끝나면	-10.9468
▁고백한	-10.9468
▁당신이네요	-10.9469
▁다가가고	-10.9475
▁자기를	-10.9495
▁보여도	-10.9496
▁화장은	-10.9519
▁방에	-10.9521
▁까아	-10.9534
▁아래	-10.9557
▁과에	-10.9561
▁가라고	-10.9567
▁시작해	-10.9574
▁요리	-10.9716
▁아니다	-10.9805
▁피는	-10.9909
▁만들까	-10.9955
▁헤어지자네	-11.0612
키	-11.1082
커	-11.1108
▁좋더라	-11.126
▁응원해	-11.1266
▁아름다워	-11.1267
▁참석하는	-11.1273
▁지켜보는	-11.1274
▁울적해	-11.1281
▁달라져	-11.1282
▁현금이	-11.1285
▁모르니	-11.129
족	-11.1291
빨	-11.1296
빵	-11.1298
▁구두	-11.1298
▁연습해	-11.1299
▁소개시켜	-11.1302
팩	-11.1303
현	-11.1303
▁제자리걸음	-11.1303
▁나쁜놈	-11.1303
▁아울렛	-11.1303
▁힘드나	-11.1303
▁가게부를	-11.1303
▁간접적으로	-11.1303
▁감기조심하세요	-11.1303
▁감사한	-11.1303
▁감정소모가	-11.1303
▁값이죠	-11.1303
▁강제종료	-11.1303
▁개념만	-11.1303
▁개인적으로	-11.1303
▁개인적인	-11.1303
▁거두세요	-11.1303
▁걷다보면	-11.1303
▁결혼하겠대	-11.1303
▁결혼하고싶어	-11.1303
▁결혼하세요	-11.1303
▁결혼해서도	-11.1303
▁경험해보세요	-11.1303
▁계신가	-11.1303
▁계절이에요	-11.1303
▁계절이죠	-11.1303
▁계획적이고	-11.1303
▁고기앞이죠	-11.1303
▁고마운만큼	-11.1303
▁고백해도될까	-11.1303
▁공간으로	-11.1303
▁공감할	-11.1303
▁공감해주는게	-11.1303
▁공개적으로	-11.1303
▁공급하려는	-11.1303
▁공동육아가	-11.1303
▁공부하자고	-11.1303
▁공부해야지	-11.1303
▁공채때는	-11.1303
▁공휴일에	-11.1303
▁관계에서	-11.1303
▁괜찮대요	-11.1303
▁괜찮아지세요	-11.1303
▁괴롭히는	-11.1303
▁구별해보세요	-11.1303
▁구여친이랑	-11.1303
▁구하세요	-11.1303
▁궁금해하지마세요	-11.1303
▁귀차니즘을	-11.1303
▁균형이	-11.1303
▁그렇기도	-11.1303
▁그만둬서	-11.1303
▁근무시간이	-11.1303
▁금연하세요	-11.1303
▁긍정적으로	-11.1303
▁기다렸다가	-11.1303
▁기다리다	-11.1303
▁기대로부터	-11.1303
▁기도할게요	-11.1303
▁기울여주고	-11.1303
▁기원해요	-11.1303
▁기적이죠	-11.1303
▁긴장되겠어요	-11.1303
▁꺼지기	-11.1303
▁꼬까옷	-11.1303
▁꼬르륵	-11.1303
▁꽃게탕	-11.1303
▁꽃꽂이	-11.1303
▁꽃바구니	-11.1303
▁꿈꾸던	-11.1303
▁끓여드세요	-11.1303
▁나눠봐요	-11.1303
▁나오겠네요	-11.1303
▁난방비가	-11.1303
▁남는건	-11.1303
▁남잔데	-11.1303
▁낳을뿐이에요	-11.1303
▁내냐구	-11.1303
▁내려두세요	-11.1303
▁내렸나봐요	-11.1303
▁냉방비	-11.1303
▁넋두리	-11.1303
▁노동을	-11.1303
▁녹여서	-11.1303
▁놀리는	-11.1303
▁놀아드리고	-11.1303
▁놀이터에	-11.1303
▁높으면	-11.1303
▁누우면	-11.1303
▁다그치지	-11.1303
▁다니시나봐요	-11.1303
▁다되가네	-11.1303
▁다르니까요	-11.1303
▁단점을	-11.1303
▁닫으세요	-11.1303
▁달라졌겠죠	-11.1303
▁달리세요	-11.1303
▁닮아서	-11.1303
▁당사자만	-11.1303
▁당황할	-11.1303
▁대단해	-11.1303
▁대답할지	-11.1303
▁대수인가요	-11.1303
▁대체불가한	-11.1303
▁대화하면서	-11.1303
▁덕수궁	-11.1303
▁데려달라고	-11.1303
▁도망가고	-11.1303
▁도와주려는	-11.1303
▁도와주었다고	-11.1303
▁도와줄까	-11.1303
▁독하게	-11.1303
▁돌보길	-11.1303
▁돌아보는	-11.1303
▁돌아보면	-11.1303
▁돌아오기	-11.1303
▁동생으로	-11.1303
▁동심으로	-11.1303
▁동전의	-11.1303
▁되가네	-11.1303
▁되었는데	-11.1303
▁되었는지	-11.1303
▁되었으면	-11.1303
▁뒤숭숭하네	-11.1303
▁드라이플라워	-11.1303
▁든든하게	-11.1303
▁디자이너에게	-11.1303
▁디져트	-11.1303
▁따돌림	-11.1303
▁따라와주지	-11.1303
▁따르기	-11.1303
▁딱이죠	-11.1303
▁딸기잼에게	-11.1303
▁떠나갔어	-11.1303
▁떠나세요	-11.1303
▁떨기는	-11.1303
▁떨리겠어요	-11.1303
▁떨리네요	-11.1303
▁떨리더라	-11.1303
▁뜨끈하게	-11.1303
▁띄어보세요	-11.1303
▁라디오를	-11.1303
▁롱디인데	-11.1303
▁리드해보세요	-11.1303
▁마련이지요	-11.1303
▁마무리하시길	-11.1303
▁마셨어	-11.1303
▁마카롱	-11.1303
▁막막하겠네요	-11.1303
▁막히네	-11.1303
▁막히더라	-11.1303
▁만나보시면	-11.1303
▁만났네	-11.1303
▁만났을	-11.1303
▁많나봐요	-11.1303
▁말인가요	-11.1303
▁맘에서도	-11.1303
▁맛있죠	-11.1303
▁맞장구쳐	-11.1303
▁맡기세요	-11.1303
▁매정하게	-11.1303
▁먹어보고	-11.1303
▁먹여주나	-11.1303
▁먹으려고	-11.1303
▁멀었어요	-11.1303
▁메모로	-11.1303
▁모르겠음	-11.1303
▁모여요	-11.1303
▁모자라요	-11.1303
▁못생긴	-11.1303
▁못하나봐	-11.1303
▁못하냐구	-11.1303
▁못했군요	-11.1303
▁무거운	-11.1303
▁무궁무진해요	-11.1303
▁무너졌어	-11.1303
▁무너진	-11.1303
▁무덤덤해질	-11.1303
▁무뎌지는	-11.1303
▁무리에	-11.1303
▁무색하게	-11.1303
▁무엇인가를	-11.1303
▁문득문득	-11.1303
▁문열다	-11.1303
▁물어주시다니	-11.1303
▁민망한	-11.1303
▁밀당을	-11.1303
▁밀당해	-11.1303
▁바꾸세요	-11.1303
▁반가울	-11.1303
▁반가워요	-11.1303
▁반대가	-11.1303
▁받아들여지지	-11.1303
▁받으시는	-11.1303
▁받지마세요	-11.1303
▁발전적인	-11.1303
▁발전할	-11.1303
▁백업해놓으세요	-11.1303
▁버려진	-11.1303
▁버렸다	-11.1303
▁버리기	-11.1303
▁버텨냈어요	-11.1303
▁변덕스러운	-11.1303
▁변하니	-11.1303
▁변해가는거	-11.1303
▁변화시켜봐요	-11.1303
▁병원가세요	-11.1303
▁병행해보세요	-11.1303
▁보내세요	-11.1303
▁보냈으니	-11.1303
▁보답을	-11.1303
▁보답하세요	-11.1303
▁보안상	-11.1303
▁보약이에요	-11.1303
▁보여드리세요	-11.1303
▁보이세요	-11.1303
▁복원해보세요	-11.1303
▁복잡하겠네요	-11.1303
▁복전하면	-11.1303
▁봐야하나	-11.1303
▁봤나봐요	-11.1303
▁봤으면	-11.1303
▁부담되지	-11.1303
▁부르지	-11.1303
▁부모님만의	-11.1303
▁부정적인	-11.1303
▁부족합니다	-11.1303
▁분이시군요	-11.1303
▁붙잡으세요	-11.1303
▁블록들이	-11.1303
▁블록체인이	-11.1303
▁비교돼	-11.1303
▁비오는날	-11.1303
▁비정규직	-11.1303
▁비행기표가	-11.1303
▁빌렸으니까요	-11.1303
▁빠져나오세요	-11.1303
▁뿌듯할	-11.1303
▁뿐이니까요	-11.1303
▁사과해야죠	-11.1303
▁사귀어서	-11.1303
▁사다리타기	-11.1303
▁사람이었는가를	-11.1303
▁사랑자격증을	-11.1303
▁사랑하나봐요	-11.1303
▁사먹으세요	-11.1303
▁사춘기인가봅니다	-11.1303
▁사회생활로	-11.1303
▁사회생활을	-11.1303
▁살고싶어	-11.1303
▁살려줘	-11.1303
▁상사한테	-11.1303
▁상처받는다고	-11.1303
▁상태를	-11.1303
▁상태에서	-11.1303
▁상황인지	-11.1303
▁새치가	-11.1303
▁생각난다면	-11.1303
▁생각하셔야죠	-11.1303
▁생활비	-11.1303
▁생활패턴을	-11.1303
▁서운함을	-11.1303
▁선천적인	-11.1303
▁선택이죠	-11.1303
▁설명이	-11.1303
▁성공에서	-11.1303
▁성공하면	-11.1303
▁성공했길	-11.1303
▁성숙해지	-11.1303
▁셀프였으면	-11.1303
▁소름돋네요	-11.1303
▁소액이	-11.1303
▁소중히	-11.1303
▁소화시켜야	-11.1303
▁속상할거예요	-11.1303
▁속시원해	-11.1303
▁속아주세요	-11.1303
▁손가락이	-11.1303
▁손맛이	-11.1303
▁솔직하지	-11.1303
▁솔직했으면	-11.1303
▁쇼핑해보세요	-11.1303
▁수분크림	-11.1303
▁순서는	-11.1303
▁순수하다는	-11.1303
▁순수한	-11.1303
▁숨기는	-11.1303
▁슈퍼라도	-11.1303
▁스노클링	-11.1303
▁스쳐도	-11.1303
▁스터디하자고	-11.1303
▁시간이었을거라	-11.1303
▁시급하네요	-11.1303
▁시선이	-11.1303
▁시키는데로	-11.1303
▁식물을	-11.1303
▁식습관이에요	-11.1303
▁식어서	-11.1303
▁식이요법이랑	-11.1303
▁신경쓰이나봐요	-11.1303
▁신경쓰인다고	-11.1303
▁신기하네요	-11.1303
▁신선한	-11.1303
▁신용카드	-11.1303
▁신혼인데	-11.1303
▁신혼집	-11.1303
▁실례예요	-11.1303
▁실행에	-11.1303
▁싫으면	-11.1303
▁심플하게	-11.1303
▁싶었던	-11.1303
▁썼다가	-11.1303
▁쓰니까요	-11.1303
▁씌였나봐요	-11.1303
▁아날로그	-11.1303
▁아니었을지도	-11.1303
▁아싸해도	-11.1303
▁아웃풋이	-11.1303
▁안가지고	-11.1303
▁안돌아오나	-11.1303
▁안전거리확보하세요	-11.1303
▁안한다	-11.1303
▁안했으면	-11.1303
▁알게되면서	-11.1303
▁알뜰폰	-11.1303
▁알려주나봐요	-11.1303
▁알아내서	-11.1303
▁알았으면	-11.1303
▁애석하네요	-11.1303
▁애정표현이라고	-11.1303
▁약간의	-11.1303
▁약이라는	-11.1303
▁어떨때	-11.1303
▁어떻해	-11.1303
▁어려서부터	-11.1303
▁어려우니까	-11.1303
▁어렸을때는	-11.1303
▁어찌하면	-11.1303
▁없대요	-11.1303
▁없었던	-11.1303
▁역류성	-11.1303
▁엮여있는거예요	-11.1303
▁영화보재	-11.1303
▁예감이	-11.1303
▁예능이요	-11.1303
▁오래됐는데	-11.1303
▁오랜연애	-11.1303
▁오해하게	-11.1303
▁옥상에	-11.1303
▁올려봐보세요	-11.1303
▁옷차림도	-11.1303
▁외롭다고	-11.1303
▁외모는	-11.1303
▁용서를	-11.1303
▁용서하고	-11.1303
▁움직이기가	-11.1303
▁원동력이	-11.1303
▁원하던	-11.1303
▁웨딩드레스	-11.1303
▁웨딩촬영	-11.1303
▁웬수죠	-11.1303
▁유명한	-11.1303
▁음료수라도	-11.1303
▁의존하는	-11.1303
▁의지해보세요	-11.1303
▁이겨내고	-11.1303
▁이끌어주는	-11.1303
▁이남자	-11.1303
▁이루어졌으면	-11.1303
▁이모티콘을	-11.1303
▁이벤트를	-11.1303
▁이어나가니까요	-11.1303
▁이해못하겠어	-11.1303
▁인사해줬어	-11.1303
▁인상을	-11.1303
▁인스타를	-11.1303
▁인스타에	-11.1303
▁인정받으려면	-11.1303
▁일반인보다	-11.1303
▁일부러	-11.1303
▁있었나봅니다	-11.1303
▁자격은	-11.1303
▁자야겠다	-11.1303
▁자유로워지세요	-11.1303
▁자율주행	-11.1303
▁자책하지마세요	-11.1303
▁자체를	-11.1303
▁잘라야	-11.1303
▁잘못했다는	-11.1303
▁잘지내는지	-11.1303
▁잠기는	-11.1303
▁잠수타는	-11.1303
▁잠수탔어	-11.1303
▁장기자랑	-11.1303
▁장만하는	-11.1303
▁재가입	-11.1303
▁재미있나봐요	-11.1303
▁재활용도	-11.1303
▁재회후	-11.1303
▁저기압에는	-11.1303
▁적으니까요	-11.1303
▁전기장판	-11.1303
▁절약되겠네요	-11.1303
▁절약해봐요	-11.1303
▁정들었나봐요	-11.1303
▁정리되길	-11.1303
▁정상이죠	-11.1303
▁정상일까	-11.1303
▁정열적인	-11.1303
▁조심해야해요	-11.1303
▁종아리	-11.1303
▁좋아졌나봅니다	-11.1303
▁좋으시겠어요	-11.1303
▁좌절하지마세요	-11.1303
▁주인공은	-11.1303
▁준비한만큼	-11.1303
▁중간중간	-11.1303
▁중고서점에서	-11.1303
▁중요하겠지	-11.1303
▁쥐꼬리	-11.1303
▁쥬스는	-11.1303
▁즐겨보는	-11.1303
▁증명하는	-11.1303
▁지났어요	-11.1303
▁지내자	-11.1303
▁지냈으면	-11.1303
▁지속해도	-11.1303
▁지옥이네	-11.1303
▁지저분해요	-11.1303
▁지쳐가네	-11.1303
▁지켜달라고	-11.1303
▁지켜보기만	-11.1303
▁지켜야	-11.1303
▁지켜지지	-11.1303
▁직설적으로	-11.1303
▁직접적인	-11.1303
▁진출해볼까	-11.1303
▁질문이네요	-11.1303
▁질투하지	-11.1303
▁짐작하는	-11.1303
▁집앞에서	-11.1303
▁집착일	-11.1303
▁집착하지	-11.1303
▁쪼그만	-11.1303
▁쪼잔하네요	-11.1303
▁차곡차곡	-11.1303
▁찾아갔습니다	-11.1303
▁채워나가는거죠	-11.1303
▁챙겨보세요	-11.1303
▁챙겨야해요	-11.1303
▁챙겨주고	-11.1303
▁챙겨줄까	-11.1303
▁챙긴다는	-11.1303
▁처리할	-11.1303
▁천국이니	-11.1303
▁첫데이트	-11.1303
▁쳇바퀴	-11.1303
▁쳐다봐	-11.1303
▁초대하고	-11.1303
▁초심으로	-11.1303
▁최고라고	-11.1303
▁최고입니다	-11.1303
▁최선이었을	-11.1303
▁최우선이죠	-11.1303
▁코스를	-11.1303
▁크기만큼	-11.1303
▁키우세요	-11.1303
▁태도네요	-11.1303
▁태어나도	-11.1303
▁통하는	-11.1303
▁투성이에요	-11.1303
▁특별하죠	-11.1303
▁특이한	-11.1303
▁틀어도	-11.1303
▁판단되면	-11.1303
▁편하죠	-11.1303
▁편해진	-11.1303
▁평범하면서	-11.1303
▁포근포근	-11.1303
▁포근하죠	-11.1303
▁폰게임	-11.1303
▁표현하세요	-11.1303
▁풀렸길	-11.1303
▁프라이버시를	-11.1303
▁프로그램을	-11.1303
▁피곤한테	-11.1303
▁피씨방	-11.1303
▁필수는	-11.1303
▁필요없는	-11.1303
▁필요해보여요	-11.1303
▁필요해보이네요	-11.1303
▁하겠네요	-11.1303
▁하겠습니다	-11.1303
▁하는거같아	-11.1303
▁하셔야해요	-11.1303
▁하시겠네요	-11.1303
▁한순간에	-11.1303
▁할인점에서	-11.1303
▁해결하라고	-11.1303
▁해결해주지는	-11.1303
▁해놨나봐요	-11.1303
▁해로우니	-11.1303
▁해버렸네	-11.1303
▁했을거라	-11.1303
▁행동이냐에	-11.1303
▁행복해지시길	-11.1303
▁허례허식이에요	-11.1303
▁허리띠를	-11.1303
▁허전하겠어요	-11.1303
▁허전하시겠어요	-11.1303
▁허전함	-11.1303
▁헛헛한가봐요	-11.1303
▁헤어졌다는	-11.1303
▁헤어졌을때	-11.1303
▁헷갈려	-11.1303
▁현관문	-11.1303
▁현명한	-11.1303
▁현상입니다	-11.1303
▁혼나면서	-11.1303
▁혼전순결이	-11.1303
▁확실하지	-11.1303
▁확인해봐요	-11.1303
▁활기찬	-11.1303
▁활력소가	-11.1303
▁효과적일까	-11.1303
▁효도하세요	-11.1303
▁효율적으로	-11.1303
▁후련할거	-11.1303
▁후회하겠네요	-11.1303
▁흘러가네요	-11.1303
▁흘렸어	-11.1303
▁히스테리	-11.1303
▁힘겨울때	-11.1303
▁힘들어졌어요	-11.1303
곡	-11.1303
궁	-11.1303
▁가져오면	-11.1303
▁길러보세요	-11.1303
▁놀러갈까	-11.1303
▁떠나보내	-11.1303
▁레시피대로	-11.1303
▁만족해	-11.1303
▁미래의	-11.1303
▁방문해보세요	-11.1303
▁보내시길	-11.1303
▁생생한	-11.1303
▁아니었나봅니다	-11.1303
▁연락해도될까	-11.1303
▁우연을	-11.1303
▁운명일지도	-11.1303
▁이대로가	-11.1303
▁잊혀지더라고요	-11.1303
▁증거일	-11.1303
▁날이었나봅니다	-11.1303
▁마시라고	-11.1303
▁미안하대	-11.1303
▁비워보세요	-11.1303
▁성장을	-11.1303
▁실망을	-11.1303
▁아니었나봐	-11.1303
▁양치하고	-11.1303
▁응원해주면	-11.1303
▁익숙해져서	-11.1303
▁조언해주세요	-11.1303
▁주실거예요	-11.1303
▁진실로	-11.1303
▁찾아오길	-11.1303
▁피우는	-11.1303
랐	-11.1303
▁거였구나	-11.1303
▁달달할	-11.1303
▁말해주죠	-11.1303
▁소심한	-11.1303
▁월급날을	-11.1303
▁제자리여도	-11.1303
▁지불하고	-11.1303
▁한마디	-11.1303
▁기본인데요	-11.1303
▁떠는거	-11.1303
▁물건들	-11.1303
▁부담스러워하진	-11.1303
▁양면과	-11.1303
▁잊지말고	-11.1303
▁피해주지	-11.1303
▁가능성을	-11.1303
▁고구마	-11.1303
▁마치길	-11.1303
▁미치지	-11.1303
▁아물길	-11.1303
▁아울렛이죠	-11.1303
▁월급날이	-11.1303
▁가치와	-11.1303
▁길어진다	-11.1303
▁다가가야죠	-11.1303
▁드시지	-11.1303
▁소개해보세요	-11.1303
▁없는걸지도	-11.1303
▁드론	-11.1304
▁대우하는	-11.1304
▁부담감을	-11.1304
▁비오는데	-11.1304
▁아련한	-11.1304
▁원하는대로	-11.1304
▁입어보고	-11.1304
▁신기한	-11.1304
▁달라지겠죠	-11.1304
▁보내기로	-11.1304
▁분명하게	-11.1304
▁차렸을	-11.1304
▁서서히	-11.1304
▁조급해지면	-11.1304
▁하던데요	-11.1304
▁운동해보세요	-11.1304
▁가운데	-11.1304
▁능력이라면	-11.1304
▁만나야죠	-11.1304
▁피나는	-11.1304
▁사이라면	-11.1304
▁사랑하나봅니다	-11.1304
▁속이는건	-11.1304
▁기나긴	-11.1304
▁준비하니	-11.1304
▁미안해하는	-11.1304
▁아프기	-11.1304
▁만들어주는	-11.1304
▁마시는	-11.1304
▁생각한다고	-11.1304
▁일이냐에	-11.1304
▁감정들을	-11.1304
▁상처주는	-11.1304
▁아시네요	-11.1304
▁소리나서	-11.1304
▁아파하면서	-11.1304
▁상상을	-11.1304
▁이전과	-11.1304
▁잊혀지면	-11.1304
▁찾아갔네	-11.1304
▁지나가네요	-11.1304
▁자르는	-11.1304
▁결심이네요	-11.1304
▁아파하다가	-11.1304
▁맛을거	-11.1304
▁만나보고	-11.1304
▁노잼	-11.1304
▁감정들이	-11.1304
▁방면에	-11.1304
▁생긴다고	-11.1304
▁같이해보세요	-11.1304
▁부분이에요	-11.1304
▁시대는	-11.1304
▁전여친에게	-11.1304
▁돈보다	-11.1304
▁운동하게	-11.1304
▁사랑이라면	-11.1304
▁의지하지	-11.1304
▁도자기	-11.1304
▁불만만	-11.1304
▁가장해서	-11.1304
▁한적한	-11.1304
▁시간들을	-11.1304
▁지치네	-11.1304
▁떠난다는	-11.1304
▁행복해지기	-11.1304
▁그럴수도	-11.1304
▁차리는	-11.1304
▁요구가	-11.1304
▁따라하게	-11.1305
▁멋질	-11.1305
▁일이었을	-11.1305
▁편이에요	-11.1305
▁치워주세요	-11.1305
▁이러고	-11.1305
▁피곤한건	-11.1305
▁동물원	-11.1305
▁시간들이	-11.1305
▁떠날까봐	-11.1305
▁수당을	-11.1305
▁상의도	-11.1305
▁중고로	-11.1305
▁때리고	-11.1305
▁집어서	-11.1305
▁날들이	-11.1305
▁지금까지	-11.1306
▁비슷한가봐요	-11.1306
▁있을수도	-11.1307
▁날에만	-11.1307
▁사랑이라는건	-11.1307
▁날까지	-11.1307
▁서점에	-11.1307
▁착각일까	-11.1307
▁알아가는	-11.1307
▁달에는	-11.1307
▁여행가고	-11.1307
▁표현해주세요	-11.1307
▁이야기해주세요	-11.1307
▁복잡한가봐요	-11.1308
▁고가의	-11.1308
▁대빵	-11.1308
▁헤어지신	-11.1309
▁출퇴근하기	-11.1309
▁정리될지도	-11.131
▁이해하려고	-11.131
▁당함	-11.131
▁익숙해질거예요	-11.131
▁사랑이야기	-11.1311
▁생각한다면	-11.1311
▁조급해하지	-11.1311
▁취미와	-11.1311
▁이불에서	-11.1311
▁생각하며	-11.1312
▁해결해줄	-11.1312
▁기본이에요	-11.1313
▁꾸는데	-11.1313
▁일이지요	-11.1313
▁메리	-11.1313
▁수요일	-11.1314
▁내려주세요	-11.1314
▁사랑해줘	-11.1314
▁어딘가에	-11.1314
▁대청소를	-11.1314
▁소액결제를	-11.1314
▁구두로	-11.1315
▁떠서	-11.1315
▁습관이라고	-11.1315
▁싶어서요	-11.1315
▁치워	-11.1315
▁못잊는거	-11.1316
▁상대와	-11.1316
▁모르니까	-11.1317
▁전남친이랑	-11.1317
▁멋을	-11.1317
▁갔을	-11.1317
▁하더라고요	-11.1317
▁기프트콘으로	-11.1317
▁일어나보세요	-11.1318
▁필요했던	-11.1318
▁원서	-11.1319
▁타이밍입니다	-11.1319
▁사랑만으로	-11.1319
▁달라질까	-11.1319
▁물어봐보세요	-11.132
▁표현이에요	-11.132
▁비정상이야	-11.132
▁급해	-11.1321
▁잘해줘보세요	-11.1321
▁필요합니다	-11.1321
▁담아	-11.1321
▁만들어볼까	-11.1322
▁현금이면	-11.1322
▁아이고	-11.1322
▁재미있는거	-11.1323
▁자격증일	-11.1323
▁원망과	-11.1323
▁학과	-11.1324
▁피로	-11.1325
▁안해줘	-11.1326
▁울적해서	-11.1326
▁고마워할	-11.1326
▁꾸고	-11.1326
▁비슷한거	-11.1326
▁만나실	-11.1327
▁증오로	-11.1327
▁찾아볼까	-11.1327
▁당하고	-11.1328
▁받아들여야할	-11.1328
▁누굴까	-11.1328
▁인생이에요	-11.1329
▁사실일	-11.1329
▁사랑해라고	-11.1329
▁명만	-11.133
▁생각해주세요	-11.1331
▁사랑해보세요	-11.1332
▁취직할까	-11.1332
▁이해하지	-11.1332
▁헤어져야하는게	-11.1332
▁해줘보세요	-11.1333
▁참석하는게	-11.1334
▁말하면서	-11.1336
▁취직할	-11.1336
▁배려하고	-11.1336
▁보이는데	-11.1337
▁도서관에서	-11.1338
▁몰랐네요	-11.1338
▁않은가봐요	-11.1338
▁어린데	-11.1338
▁일주일이네	-11.1338
▁아니었어	-11.1339
▁진급할	-11.1339
▁누구니	-11.1339
▁연상	-11.1339
▁지울까	-11.134
▁고백한다	-11.1343
▁이상형일	-11.1344
▁일상에서	-11.1344
▁해보는건	-11.1344
▁담은	-11.1344
▁바람이나	-11.1345
▁척하는게	-11.1345
▁능력이겠죠	-11.1346
▁힘들때	-11.1347
▁연락오네	-11.1347
▁처음이라	-11.1347
▁프사랑	-11.1347
▁현실에서	-11.1348
▁보낼까	-11.1349
▁후련하길	-11.1351
▁타이밍이네요	-11.1352
▁당신과	-11.1353
▁꽃으로	-11.1354
▁출근길	-11.1355
▁기대하면	-11.1355
▁헤어지네	-11.1356
▁거짓말일	-11.1357
▁남편이랑	-11.1358
▁법적	-11.1359
▁사귀기로	-11.1362
▁보라고	-11.1365
▁들지만	-11.1367
▁화장으로	-11.1369
▁극복하고	-11.1376
▁힘들긴	-11.1383
▁심한	-11.1387
▁야구	-11.1391
▁냐에	-11.1395
▁한다는데	-11.1399
▁과에서	-11.1402
▁신고	-11.1416
▁보죠	-11.1441
▁싫어하나	-11.1528
▁힘들어하는	-11.1534
거리는	-11.1676
▁심심	-11.3685
▁구하는	-11.3693
▁다음부터	-11.3755
▁헬스장	-11.3766
▁못잊는	-11.3788
▁대청소	-11.3789
▁소액결제	-11.3789
▁결혼하는	-11.3792
탄	-11.3795
▁들이대	-11.38
▁사랑이라는	-11.3802
▁힘드신	-11.3802
꼬	-11.3803
▁자장면	-11.3803
▁레시피	-11.3803
▁보셨나	-11.3803
o	-11.3803
▁가벼움이네요	-11.3803
▁가벼워질거예요	-11.3803
▁가봅시다	-11.3803
▁가시밭길	-11.3803
▁간절하겠네요	-11.3803
▁간절하네	-11.3803
▁간질간질한가봐요	-11.3803
▁감정조절이	-11.3803
▁감출길이	-11.3803
▁갑작스럽겠네요	-11.3803
▁갔다와야지	-11.3803
▁강림했나봅니다	-11.3803
▁강박관념에	-11.3803
▁강요하는	-11.3803
▁갚아나가세요	-11.3803
▁개념이	-11.3803
▁거짓말이겠지요	-11.3803
▁건강습관이네요	-11.3803
▁걸으세요	-11.3803
▁검색해서	-11.3803
▁게임할때는	-11.3803
▁격려하고	-11.3803
▁결정난데요	-11.3803
▁결정이었나봐요	-11.3803
▁결정이죠	-11.3803
▁결정적인	-11.3803
▁경우예요	-11.3803
▁경쟁하겠죠	-11.3803
▁경쟁해야하고	-11.3803
▁계획대로	-11.3803
▁고르세요	-11.3803
▁고비예요	-11.3803
▁골랐나봐	-11.3803
▁공기정화식물도	-11.3803
▁공복이라	-11.3803
▁공부방법을	-11.3803
▁공통점을	-11.3803
▁과외비	-11.3803
▁광합성	-11.3803
▁괴로웠을	-11.3803
▁괴물이	-11.3803
▁교환학생	-11.3803
▁구박하지는	-11.3803
▁구분이	-11.3803
▁구분해	-11.3803
▁권리로	-11.3803
▁귀찮으면	-11.3803
▁그나저나	-11.3803
▁그러든지	-11.3803
▁그럼에도	-11.3803
▁그립지만	-11.3803
▁글자라도	-11.3803
▁기다려지겠네요	-11.3803
▁기다렸나봐요	-11.3803
▁기름값	-11.3803
▁기분일꺼에요	-11.3803
▁기분전환에	-11.3803
▁기어오른다	-11.3803
▁기우제를	-11.3803
▁기울여봐요	-11.3803
▁기울이는	-11.3803
▁기울이지	-11.3803
▁까먹었나봐요	-11.3803
▁깎아야지	-11.3803
▁깔끔한게	-11.3803
▁깨어진	-11.3803
▁꼬시지	-11.3803
▁꿰메보세요	-11.3803
▁끊긴지	-11.3803
▁끊었으면	-11.3803
▁끊으라고	-11.3803
▁끝일지도	-11.3803
▁나쁘셨나봐요	-11.3803
▁나이테예요	-11.3803
▁나타나면	-11.3803
▁난감하겠어요	-11.3803
▁남나봐요	-11.3803
▁남보다	-11.3803
▁남이라는	-11.3803
▁남자사람친구	-11.3803
▁남주긴	-11.3803
▁났으면	-11.3803
▁낭만적인	-11.3803
▁내거나	-11.3803
▁내딛으셨네요	-11.3803
▁내려보는것도	-11.3803
▁내리기	-11.3803
▁내리길	-11.3803
▁내리지	-11.3803
▁내면을	-11.3803
▁넣으세요	-11.3803
▁놀기만	-11.3803
▁놀랐나봐요	-11.3803
▁농담처럼	-11.3803
▁누락됐어	-11.3803
▁느껴보고	-11.3803
▁느껴질때	-11.3803
▁느려지는듯	-11.3803
▁다가왔네요	-11.3803
▁다니거나	-11.3803
▁다음달에는	-11.3803
▁다크서클	-11.3803
▁단단해지세요	-11.3803
▁달랐나봐요	-11.3803
▁당당해지세요	-11.3803
▁당했나봐요	-11.3803
▁당했습니다	-11.3803
▁당황해서	-11.3803
▁대인배시군요	-11.3803
▁덤덤하게	-11.3803
▁데려다주려나봐요	-11.3803
▁데려다줬는데	-11.3803
▁도망가라는	-11.3803
▁도저히	-11.3803
▁독서와	-11.3803
▁독특함을	-11.3803
▁돌담길	-11.3803
▁돌리고	-11.3803
▁돌잔치	-11.3803
▁동감이에요	-11.3803
▁동시에	-11.3803
▁동아리에	-11.3803
▁되시길	-11.3803
▁되어갑니다	-11.3803
▁되었다	-11.3803
▁된답니다	-11.3803
▁될수있겠죠	-11.3803
▁두근거리겠네요	-11.3803
▁두셨군요	-11.3803
▁뒤돌아봐도	-11.3803
▁뒤따르니까요	-11.3803
▁뒤처지는	-11.3803
▁뒹굴거리고	-11.3803
▁뒹굴뒹글	-11.3803
▁드시는거	-11.3803
▁들어올거예요	-11.3803
▁들여다보세요	-11.3803
▁들으세요	-11.3803
▁등산해요	-11.3803
▁때문이죠	-11.3803
▁땡긴다	-11.3803
▁떠나갔네	-11.3803
▁떠났습니다	-11.3803
▁떠오르네	-11.3803
▁떨어뜨려서	-11.3803
▁떨어지지	-11.3803
▁또다시	-11.3803
▁뚫어보아요	-11.3803
▁뛰어넘는	-11.3803
▁뜻하기도	-11.3803
▁로그인	-11.3803
▁로망이네요	-11.3803
▁막아보세요	-11.3803
▁만드나봐요	-11.3803
▁만드세요	-11.3803
▁만족하면	-11.3803
▁많았으면	-11.3803
▁말씀이신가요	-11.3803
▁말했으면	-11.3803
▁맘같으면	-11.3803
▁망하는건	-11.3803
▁맞춰가기도	-11.3803
▁맞춰가는	-11.3803
▁맨날맨날	-11.3803
▁머리스타일	-11.3803
▁먹었다	-11.3803
▁먹으니까	-11.3803
▁멈추고	-11.3803
▁멋있게	-11.3803
▁멋있어	-11.3803
▁명확하게	-11.3803
▁모르죠	-11.3803
▁모습일지도	-11.3803
▁모으시는거예요	-11.3803
▁모자라지	-11.3803
▁목도리는	-11.3803
▁몰려가는	-11.3803
▁몸짓으로	-11.3803
▁못하게	-11.3803
▁못하겠네	-11.3803
▁못하죠	-11.3803
▁무기력증	-11.3803
▁무너짐	-11.3803
▁무리하면	-11.3803
▁무색해지네	-11.3803
▁무소음으로	-11.3803
▁무엇보다	-11.3803
▁물론이죠	-11.3803
▁미끄러질뻔했어	-11.3803
▁미루는	-11.3803
▁미스트나	-11.3803
▁미팅한다	-11.3803
▁밀당일	-11.3803
▁밀어보세요	-11.3803
▁바라봤을때	-11.3803
▁바르세요	-11.3803
▁바쁠때	-11.3803
▁받아들여요	-11.3803
▁받아들이지	-11.3803
▁받으셨겠어요	-11.3803
▁받으시나봐요	-11.3803
▁발급받으세요	-11.3803
▁발달된	-11.3803
▁발표할때	-11.3803
▁밝혀지기	-11.3803
▁밥심으로	-11.3803
▁밥이예요	-11.3803
▁배불러	-11.3803
▁배우실	-11.3803
▁버려보세요	-11.3803
▁버리겠어	-11.3803
▁벅찰텐대요	-11.3803
▁벗었는데	-11.3803
▁벗으니까	-11.3803
▁벚꽃구경	-11.3803
▁변덕스럽게	-11.3803
▁변신은	-11.3803
▁변한것	-11.3803
▁변화이길	-11.3803
▁변화해보세요	-11.3803
▁별다른	-11.3803
▁보란듯이	-11.3803
▁보였으면	-11.3803
▁보증금	-11.3803
▁복스럽게	-11.3803
▁복제가	-11.3803
▁본받으면서	-11.3803
▁본받을	-11.3803
▁볼매인가봐요	-11.3803
▁봐야겠다	-11.3803
▁부메랑이	-11.3803
▁부여하지	-11.3803
▁부자되실	-11.3803
▁분담을	-11.3803
▁분배를	-11.3803
▁분석해보세요	-11.3803
▁분양받으세요	-11.3803
▁불과하죠	-11.3803
▁불금이네	-11.3803
▁붙이세요	-11.3803
▁비왔으면	-11.3803
▁비키니	-11.3803
▁빌리면	-11.3803
▁빌어먹을	-11.3803
▁빠르시군요	-11.3803
▁빵꾸난	-11.3803
▁뻐근한가봐요	-11.3803
▁뿐이예요	-11.3803
▁사갈까	-11.3803
▁사과를	-11.3803
▁사과하는게	-11.3803
▁사나봐요	-11.3803
▁사내커플인데	-11.3803
▁사랑이었나봐요	-11.3803
▁사랑했으니	-11.3803
▁사로잡히지	-11.3803
▁사야돼	-11.3803
▁사이즈를	-11.3803
▁사줄까	-11.3803
▁사춘기로부터의	-11.3803
▁사회에서도	-11.3803
▁살거야	-11.3803
▁상대적이죠	-11.3803
▁상종하지	-11.3803
▁상처받아	-11.3803
▁생각해드릴게요	-11.3803
▁생겼을때는	-11.3803
▁생기시길	-11.3803
▁생활용품이	-11.3803
▁샤워가운	-11.3803
▁샤워하는데	-11.3803
▁선택해보세요	-11.3803
▁설날인데	-11.3803
▁설렜나봐요	-11.3803
▁설명해보세요	-11.3803
▁성별은	-11.3803
▁성분이	-11.3803
▁성숙한	-11.3803
▁성장하려	-11.3803
▁세우고	-11.3803
▁세우지	-11.3803
▁센스가	-11.3803
▁소개시켜드릴게요	-11.3803
▁소독하고	-11.3803
▁소유가	-11.3803
▁소중해요	-11.3803
▁속상한	-11.3803
▁손재주가	-11.3803
▁손해예요	-11.3803
▁솔직히	-11.3803
▁솜씨가	-11.3803
▁수업시간	-11.3803
▁술마시는	-11.3803
▁숫자일	-11.3803
▁쉬셔야	-11.3803
▁쉬시길	-11.3803
▁쉬어주세요	-11.3803
▁쉬었다	-11.3803
▁쉬워보이나	-11.3803
▁슈퍼우먼이	-11.3803
▁스릴있겠네요	-11.3803
▁스케일링	-11.3803
▁스타벅스	-11.3803
▁습관처럼은	-11.3803
▁시간표대로	-11.3803
▁시베리아	-11.3803
▁시원하네요	-11.3803
▁시작됩니다	-11.3803
▁식도염	-11.3803
▁식혀주세요	-11.3803
▁신경쓰지마세요	-11.3803
▁신행준비	-11.3803
▁실천하기는	-11.3803
▁실패해도	-11.3803
▁싫었는데	-11.3803
▁심경인가봐요	-11.3803
▁심쿵하게	-11.3803
▁싱숭생숭한	-11.3803
▁싶었는데	-11.3803
▁싸가지고	-11.3803
▁쓰셨나봐요	-11.3803
▁쓰자고	-11.3803
▁쓸데없어요	-11.3803
▁씻어보고	-11.3803
▁아니셨을거예요	-11.3803
▁아빠에게	-11.3803
▁아이다워야	-11.3803
▁아이라이너	-11.3803
▁아줌마들이	-11.3803
▁안된다고	-11.3803
▁안정적인	-11.3803
▁안풀리는	-11.3803
▁안하려	-11.3803
▁안햇다	-11.3803
▁않을까싶어요	-11.3803
▁야경구경	-11.3803
▁약이긴	-11.3803
▁어디론가	-11.3803
▁어디서부터	-11.3803
▁어디있을까	-11.3803
▁어떡하면	-11.3803
▁어떻하죠	-11.3803
▁어렵겠지	-11.3803
▁어장관리	-11.3803
▁어쨌든	-11.3803
▁어쩔수없죠	-11.3803
▁업데이트가	-11.3803
▁없거나	-11.3803
▁없어졌으면	-11.3803
▁없었나봐	-11.3803
▁엇갈리는	-11.3803
▁여우인가봐요	-11.3803
▁여자사람친구	-11.3803
▁연락했을까	-11.3803
▁연습하거나	-11.3803
▁연습하면	-11.3803
▁연습해봅시다	-11.3803
▁연애스타일이	-11.3803
▁연연해하지	-11.3803
▁열까지밖에	-11.3803
▁열어주지	-11.3803
▁예민해져	-11.3803
▁예뻐보이는	-11.3803
▁예약하세요	-11.3803
▁오빠한테	-11.3803
▁오셨길	-11.3803
▁오지랖이었으면	-11.3803
▁오해할만한	-11.3803
▁올라갈	-11.3803
▁올려봅니다	-11.3803
▁외모에	-11.3803
▁외제차	-11.3803
▁외출하세요	-11.3803
▁왼손잡이가	-11.3803
▁요긴하긴	-11.3803
▁요청해보세요	-11.3803
▁욕심에	-11.3803
▁욕심의	-11.3803
▁용기내세요	-11.3803
▁용서하면서	-11.3803
▁우선순위로	-11.3803
▁우선순위를	-11.3803
▁운명인가요	-11.3803
▁움츠러들지	-11.3803
▁원동력이예요	-11.3803
▁위치가	-11.3803
▁유머코드가	-11.3803
▁유지해보세요	-11.3803
▁음악감상이라고	-11.3803
▁이것저것	-11.3803
▁이겨내기	-11.3803
▁이겨냈어요	-11.3803
▁이겨야한다는	-11.3803
▁이겨야해요	-11.3803
▁이루어질	-11.3803
▁이사람이다	-11.3803
▁이성친구가	-11.3803
▁이해해줘야할까	-11.3803
▁인간이라는	-11.3803
▁인도해줄	-11.3803
▁인정하세요	-11.3803
▁인지시켜보세요	-11.3803
▁있어드릴게요	-11.3803
▁잊겠어	-11.3803
▁잊어버려	-11.3803
▁잊어버리는	-11.3803
▁자기개발을	-11.3803
▁자랑하는	-11.3803
▁자신감있게	-11.3803
▁자연스러우면	-11.3803
▁자유지만	-11.3803
▁작아져	-11.3803
▁잘돼야	-11.3803
▁잘됐으면	-11.3803
▁잘라요	-11.3803
▁잘생겼지	-11.3803
▁잘하셨어요	-11.3803
▁잘하실	-11.3803
▁잘해야하나봐	-11.3803
▁잘해줬더니	-11.3803
▁잠자리에	-11.3803
▁잤더니	-11.3803
▁장단점을	-11.3803
▁재밌거나	-11.3803
▁저음이죠	-11.3803
▁저축해서	-11.3803
▁저평가되어있는	-11.3803
▁적극적이면	-11.3803
▁전세비	-11.3803
▁전역해서	-11.3803
▁전하세요	-11.3803
▁전해졌으면	-11.3803
▁전형적인	-11.3803
▁전환해보세요	-11.3803
▁절제가	-11.3803
▁정글에서	-11.3803
▁정정기간을	-11.3803
▁제습기를	-11.3803
▁제철과일이	-11.3803
▁조심스레	-11.3803
▁조심했어야죠	-11.3803
▁존중하는	-11.3803
▁졸린가봐요	-11.3803
▁졸린데	-11.3803
▁종목을	-11.3803
▁좋거나	-11.3803
▁좋아보이네요	-11.3803
▁좋아하시는구나	-11.3803
▁좋아했지만	-11.3803
▁좋은것만은	-11.3803
▁죄송해	-11.3803
▁주무셨나봐요	-11.3803
▁주워담을	-11.3803
▁죽고싶어	-11.3803
▁죽었나	-11.3803
▁중독인가봐	-11.3803
▁중요해졌어요	-11.3803
▁증상이에요	-11.3803
▁지나갑니다	-11.3803
▁지나갔으면	-11.3803
▁지내봅시다	-11.3803
▁지름신이	-11.3803
▁지옥같은	-11.3803
▁지진나면	-11.3803
▁지키면서	-11.3803
▁진심인지	-11.3803
▁진정하세요	-11.3803
▁진통제	-11.3803
▁질척거리지마세요	-11.3803
▁질투하는	-11.3803
▁짧으면	-11.3803
▁찍다보면	-11.3803
▁차인후	-11.3803
▁창문을	-11.3803
▁찾는다고	-11.3803
▁책임이	-11.3803
▁챙겨드리고	-11.3803
▁챙길게	-11.3803
▁청춘이어야죠	-11.3803
▁추가해보세요	-11.3803
▁추적추적	-11.3803
▁추천해들요	-11.3803
▁축하해주고	-11.3803
▁충분할	-11.3803
▁충실하세요	-11.3803
▁취준생인데	-11.3803
▁치맥이죠	-11.3803
▁치열하죠	-11.3803
▁치열해지는	-11.3803
▁침대에서	-11.3803
▁침대와	-11.3803
▁침해당하기	-11.3803
▁카메라	-11.3803
▁칼국수	-11.3803
▁커뮤니티	-11.3803
▁커플부터	-11.3803
▁커플여행이	-11.3803
▁컴백한다	-11.3803
▁컸으면	-11.3803
▁코코넛오일	-11.3803
▁크루즈	-11.3803
▁타임머신이	-11.3803
▁탈출구를	-11.3803
▁태그해도	-11.3803
▁태산이에요	-11.3803
▁태어나고	-11.3803
▁태어났어요	-11.3803
▁태연하게	-11.3803
▁택배기사님들	-11.3803
▁택시탈까	-11.3803
▁턱시도	-11.3803
▁퇴근시간	-11.3803
▁투자라	-11.3803
▁투자하는	-11.3803
▁트집잡는	-11.3803
▁팀워크가	-11.3803
▁판단하지	-11.3803
▁평가원	-11.3803
▁포커페이스를	-11.3803
▁폭식증	-11.3803
▁프라이버시니까	-11.3803
▁프로젝트	-11.3803
▁피곤하신가봐요	-11.3803
▁필기구	-11.3803
▁핑계보다	-11.3803
▁하게하고싶은데	-11.3803
▁하셔야죠	-11.3803
▁한눈팔며	-11.3803
▁한순간이예요	-11.3803
▁행동일수도	-11.3803
▁행복하실	-11.3803
▁행운까지	-11.3803
▁행운일	-11.3803
▁허락하는	-11.3803
▁허전하신가봐요	-11.3803
▁헤이진지	-11.3803
▁형편에	-11.3803
▁혼인신고	-11.3803
▁환승하는	-11.3803
▁환심을	-11.3803
▁활용에	-11.3803
▁황당해	-11.3803
▁회의감	-11.3803
▁흔들리겠어요	-11.3803
▁흔들리네	-11.3803
▁흘러갑니다	-11.3803
▁희망고문	-11.3803
▁힘드셨겠어요	-11.3803
▁힘드시겠네요	-11.3803
껄	-11.3803
떼	-11.3803
류	-11.3803
▁가스불	-11.3803
▁길러볼까	-11.3803
▁꼬리가	-11.3803
▁다가옴을	-11.3803
▁드시라고	-11.3803
▁마시러	-11.3803
▁말해달라고	-11.3803
▁미리미리	-11.3803
▁보장해요	-11.3803
▁시도해봐도	-11.3803
▁시원할	-11.3803
▁심심하다고	-11.3803
▁아니었나요	-11.3803
▁앞머리만이라도	-11.3803
▁이러는걸까	-11.3803
▁일요일이	-11.3803
▁입소문	-11.3803
▁크게한번	-11.3803
▁하루였나요	-11.3803
▁관리해주세요	-11.3803
▁대충한	-11.3803
▁만족을	-11.3803
▁메시지	-11.3803
▁바늘과	-11.3803
▁보내줘야	-11.3803
▁봐주니까	-11.3803
▁상대적으로	-11.3803
▁시키지	-11.3803
▁여우네요	-11.3803
▁키우기	-11.3803
▁휴양지	-11.3803
▁구멍이니까요	-11.3803
▁바꾸면	-11.3803
▁배려해줄	-11.3803
▁생활이	-11.3803
▁영상을	-11.3803
▁인연이었나봅니다	-11.3803
▁친구로서와	-11.3803
▁도와드릴게요	-11.3803
▁들어줄거예요	-11.3803
▁리드를	-11.3803
▁몰라줘도	-11.3803
▁비판의	-11.3803
▁방심한	-11.3803
▁이성이니까	-11.3803
▁말하는대로	-11.3803
▁자연의	-11.3803
▁기억해주고	-11.3804
▁아니었네요	-11.3804
▁언어도	-11.3804
▁울적한	-11.3804
▁자리니까요	-11.3804
▁치우고	-11.3804
▁건방져	-11.3804
▁고치려고	-11.3804
▁궁금하다고	-11.3804
▁알고보니	-11.3804
▁자신다운	-11.3804
▁진실을	-11.3804
렸으면	-11.3804
▁받아줄까	-11.3804
▁차리래	-11.3804
▁다짐이에요	-11.3804
▁상메가	-11.3804
▁지키는	-11.3804
▁차단해보세요	-11.3804
▁하셔도	-11.3804
▁글자만	-11.3804
▁뒷담화하는	-11.3804
▁알바해보세요	-11.3804
▁전달할	-11.3804
▁영화보자	-11.3804
▁작은것에	-11.3804
▁성덕이네요	-11.3804
▁수학여행가는데	-11.3804
▁궁금할만	-11.3804
▁양다리	-11.3804
▁울었네	-11.3804
▁남자와의	-11.3804
▁따라오게	-11.3804
▁오시면	-11.3804
▁이별할때	-11.3804
▁고와야	-11.3804
▁가을이네요	-11.3804
▁아픈것도	-11.3804
▁정리하길	-11.3804
▁진전이	-11.3804
▁연락이었길	-11.3804
▁충전하는	-11.3804
▁일하든	-11.3804
▁자장면이요	-11.3804
▁동물이죠	-11.3804
▁싶은대로	-11.3804
▁상상은	-11.3804
▁일주일만에	-11.3804
▁물어보지	-11.3804
▁준비하기는	-11.3804
▁상처주지	-11.3804
▁오로라	-11.3804
▁기대하게	-11.3804
▁알아주는	-11.3804
▁추우니	-11.3804
▁거짓말이길	-11.3804
▁가방은	-11.3804
▁없을거야	-11.3804
▁명절에는	-11.3804
▁그리워하는	-11.3804
▁미워하는	-11.3804
▁생각해주는	-11.3804
▁카페라도	-11.3804
▁생기지	-11.3804
▁년이라는	-11.3804
▁만하죠	-11.3804
▁좋은차로	-11.3804
▁극복하는	-11.3804
▁볼링	-11.3804
▁피해가는	-11.3804
▁아무일도	-11.3804
▁괜찮아지길	-11.3804
▁이상하게	-11.3804
▁만나보는	-11.3804
▁생각하기는	-11.3804
▁서적을	-11.3804
▁갈만한	-11.3804
▁질리지	-11.3804
▁정리하게	-11.3804
▁버려야지요	-11.3804
▁살기에는	-11.3804
▁기억들이	-11.3804
▁마스크팩	-11.3804
▁이치죠	-11.3804
▁없는걸요	-11.3804
▁한때는	-11.3804
▁행복해하는	-11.3805
▁신입	-11.3805
▁이별이야기	-11.3805
▁산이네	-11.3805
▁지치면	-11.3805
▁바나나	-11.3805
▁빨래	-11.3805
▁가리면	-11.3805
▁사랑이었을	-11.3805
▁차라도	-11.3805
▁호감가는	-11.3805
▁소개시켜주세요	-11.3805
▁응원해주세요	-11.3805
▁말자고	-11.3805
▁안나가고	-11.3805
▁가게에서	-11.3805
▁지치게	-11.3805
▁커지는	-11.3805
▁달만에	-11.3805
▁시도해	-11.3806
▁나대로	-11.3806
▁고민하는	-11.3806
▁의지할	-11.3806
▁어디에요	-11.3806
▁지치고	-11.3806
▁헤어짐에도	-11.3806
▁진도가	-11.3806
▁나날을	-11.3806
▁자제하는	-11.3806
▁추운	-11.3806
▁크기가	-11.3806
▁준비하는방법이	-11.3806
▁알아가고	-11.3807
▁아픈가요	-11.3807
▁기다리게했어	-11.3807
▁불만이	-11.3807
▁무시해주세요	-11.3807
▁빨라	-11.3807
▁된다는	-11.3807
▁함께할때	-11.3807
▁오락가락해요	-11.3808
▁대학원	-11.3808
▁가보는	-11.3808
▁요즘에는	-11.3808
▁고시원에서	-11.3808
▁혼자하는	-11.3808
▁다니고	-11.3809
▁늘거예요	-11.3809
▁수영장	-11.381
▁사람보다	-11.381
▁오래가요	-11.381
▁자유여행이죠	-11.381
▁당해요	-11.3811
▁냉면	-11.3811
▁부담돼	-11.3812
▁행복해질려고	-11.3812
▁커지기	-11.3812
▁불러주세요	-11.3812
▁가까이	-11.3812
▁싶어지죠	-11.3812
▁들어가기가	-11.3813
▁잊자	-11.3813
▁꿨는데	-11.3813
▁망해도	-11.3814
▁나들이	-11.3814
▁많아지는	-11.3814
▁이상이면	-11.3815
▁후회돼	-11.3816
▁결혼해야할까	-11.3816
▁지우려	-11.3816
▁방문	-11.3817
▁보내실	-11.3818
▁시켜줘	-11.3819
디오	-11.382
▁들리네	-11.3821
▁몰랐던	-11.3821
▁스타일러	-11.3822
잊어보려고	-11.3828
▁나가서	-11.3833
▁월의	-11.3836
▁아이는	-11.3838
▁실로	-11.3846
▁과해도	-11.3848
▁심하면	-11.3848
▁과함	-11.3852
▁가며	-11.3855
▁으으	-11.3876
소리하네	-11.3938
목	-11.434
▁비하하지	-11.7088
▁중요하니까	-11.71
▁없으니까	-11.71
▁아닌가봐	-11.7101
▁잊어보려	-11.7103
▁헤어져야하는	-11.7107
▁나눠보는	-11.7108
▁척하는	-11.7108
젠	-11.7109
▁당당하	-11.711
▁그러니	-11.7124
백	-11.7126
▁자유여행이	-11.7127
▁고시원	-11.713
▁기다리게	-11.7132
▁잔소리해	-11.7132
▁결정이었을	-11.7134
덕	-11.7135
송	-11.7136
▁보름달	-11.7137
▁있더라	-11.7137
▁가까워지니까	-11.7137
▁가능하다면요	-11.7137
▁가득한가봅니다	-11.7137
▁가득한가봐요	-11.7137
▁가라앉혀보세요	-11.7137
▁가버리면	-11.7137
▁가벼웠던	-11.7137
▁가져가세요	-11.7137
▁간신히	-11.7137
▁갈라놨네요	-11.7137
▁감성적이기	-11.7137
▁감정적일수록	-11.7137
▁갑작스러웠을테니까요	-11.7137
▁갑작스럽게	-11.7137
▁갑작스럽기도	-11.7137
▁강제이별	-11.7137
▁강추위래요	-11.7137
▁같네하하ᅮ	-11.7137
▁같았나봐요	-11.7137
▁같았으면	-11.7137
▁개강이라니	-11.7137
▁개기름	-11.7137
▁개당황했잖아	-11.7137
▁객관적이야	-11.7137
▁거둬두세요	-11.7137
▁거절하세요	-11.7137
▁걱정하는	-11.7137
▁건들였으면	-11.7137
▁걸리려나봐요	-11.7137
▁걸어다니니까	-11.7137
▁걸어다니면서	-11.7137
▁걸음이어도	-11.7137
▁검색해봐요	-11.7137
▁게임하세요	-11.7137
▁게임하자고	-11.7137
▁견디셨어요	-11.7137
▁견디죠	-11.7137
▁결혼생활에	-11.7137
▁결혼하자고	-11.7137
▁경쟁자를	-11.7137
▁경제적으로	-11.7137
▁경험해보는	-11.7137
▁경험해봐도	-11.7137
▁고백이었겠네요	-11.7137
▁고쳤줬으면	-11.7137
▁고치도록	-11.7137
▁고하세요	-11.7137
▁곤두세우지	-11.7137
▁공무원준비를	-11.7137
▁공부방법이	-11.7137
▁공부하길	-11.7137
▁공원이나	-11.7137
▁공포영화나	-11.7137
▁공허함을	-11.7137
▁과대표한테	-11.7137
▁관계냐고	-11.7137
▁관련돼서	-11.7137
▁관련해서	-11.7137
▁관심있는거	-11.7137
▁관찰해보세요	-11.7137
▁괘씸하니	-11.7137
▁괜잖아진거같아	-11.7137
▁괜찮냐고	-11.7137
▁괜찮아졌다가	-11.7137
▁구꺼비집	-11.7137
▁구남친이랑	-11.7137
▁구남친하고	-11.7137
▁구별하는	-11.7137
▁구분짓기	-11.7137
▁국밥류만	-11.7137
▁굳건히	-11.7137
▁궁금하더라고요	-11.7137
▁그랬었지	-11.7137
▁그랬을거예요	-11.7137
▁그러려니	-11.7137
▁그리워했나봅니다	-11.7137
▁그리웠나	-11.7137
▁그립겠지만	-11.7137
▁그분과의	-11.7137
▁그자리인거	-11.7137
▁그지같은	-11.7137
▁극복하세요	-11.7137
▁금물이에요	-11.7137
▁금상첨화네요	-11.7137
▁긍정적이고	-11.7137
▁기다려보셨나봐요	-11.7137
▁기다렸어	-11.7137
▁기다리지마세요	-11.7137
▁기다립니다	-11.7137
▁기름낀거	-11.7137
▁기본이겠지요	-11.7137
▁기분나쁘겠어요	-11.7137
▁기분전환이	-11.7137
▁기초대사량을	-11.7137
▁기특하네요	-11.7137
▁긴가민가한	-11.7137
▁깜깜한데	-11.7137
▁깨달았습니다	-11.7137
▁깨달았으니	-11.7137
▁꺼질때까지	-11.7137
▁꼼꼼함을	-11.7137
▁꿈에나온너	-11.7137
▁끌리기도	-11.7137
▁끝내시길	-11.7137
▁나갔으면	-11.7137
▁나누었길	-11.7137
▁나아졌긴	-11.7137
▁나오겠지	-11.7137
▁나오는건가	-11.7137
▁나으세요	-11.7137
▁나타나죠	-11.7137
▁난방으로	-11.7137
▁난폭한게	-11.7137
▁날려버리시길	-11.7137
▁날카로워져	-11.7137
▁남녀간의	-11.7137
▁남동생한테	-11.7137
▁남은걸까	-11.7137
▁남자애에게	-11.7137
▁내꺼일거	-11.7137
▁내년에는	-11.7137
▁내년이라고	-11.7137
▁내려놓았더니	-11.7137
▁내려오세요	-11.7137
▁내리락	-11.7137
▁내리셔야죠	-11.7137
▁내보내기는	-11.7137
▁내봐야죠	-11.7137
▁내야하나	-11.7137
▁내자신	-11.7137
▁냉정할수록	-11.7137
▁너그럽게	-11.7137
▁넘어져서	-11.7137
▁넘어질뻔	-11.7137
▁년의시간과	-11.7137
▁노래있으신가	-11.7137
▁노력한다고	-11.7137
▁녹아내리겠네요	-11.7137
▁녹여보세요	-11.7137
▁농구하다	-11.7137
▁농담이라고	-11.7137
▁높여보세요	-11.7137
▁놓는것도	-11.7137
▁놓아달라는	-11.7137
▁놓아줘야	-11.7137
▁놓으려구	-11.7137
▁느꼈을때	-11.7137
▁느끼게해준	-11.7137
▁늙어가고	-11.7137
▁늦은시간인데	-11.7137
▁다가갔네요	-11.7137
▁다가왔을지도	-11.7137
▁다니세요	-11.7137
▁다른남자들에게	-11.7137
▁다른사람에게	-11.7137
▁다쏟아내려합니다	-11.7137
▁다양하다고	-11.7137
▁다음주에	-11.7137
▁다행이이네	-11.7137
▁닦아주고	-11.7137
▁단념하게된	-11.7137
▁단순하기도	-11.7137
▁단점들을	-11.7137
▁달렸나봐요	-11.7137
▁달반이라는	-11.7137
▁달이지났는데	-11.7137
▁당당해져도	-11.7137
▁당연하다고	-11.7137
▁당황스러울	-11.7137
▁당황스러웠겠어요	-11.7137
▁당황했나요	-11.7137
▁당황했어	-11.7137
▁대쉬해버림	-11.7137
▁대잔치함	-11.7137
▁댄디룩이	-11.7137
▁댓글주고	-11.7137
▁데이트하기로했는데	-11.7137
▁도와드리면	-11.7137
▁도와주고	-11.7137
▁도와주다가	-11.7137
▁독차지하려	-11.7137
▁독학하	-11.7137
▁돌봐줘	-11.7137
▁돌아가야할때	-11.7137
▁돌아간거같아	-11.7137
▁돌아버리겠다	-11.7137
▁돌아서길	-11.7137
▁돌아서지	-11.7137
▁돌아오거나	-11.7137
▁동거헤어짐	-11.7137
▁동성동본으로	-11.7137
▁동원했지만	-11.7137
▁동의한다면	-11.7137
▁되시겠어요	-11.7137
▁된거같아	-11.7137
▁될지모르겠어	-11.7137
▁두근두근하죠	-11.7137
▁두려운게	-11.7137
▁두려운데	-11.7137
▁두려움이란	-11.7137
▁두려웠던	-11.7137
▁두분이서	-11.7137
▁뒷맛이	-11.7137
▁드라이브라도	-11.7137
▁들어갔는지	-11.7137
▁들이댔나	-11.7137
▁디테일한	-11.7137
▁따듯해서	-11.7137
▁따듯해지니까	-11.7137
▁따라가려면	-11.7137
▁때려치워야	-11.7137
▁때문이라는	-11.7137
▁떠나야겠다	-11.7137
▁떠나야겠지	-11.7137
▁떠났네	-11.7137
▁떠났다는게	-11.7137
▁떠났어야지	-11.7137
▁떠났으면	-11.7137
▁떠오르니까요	-11.7137
▁떠올라	-11.7137
▁떨렸겠어요	-11.7137
▁떨어지네요	-11.7137
▁떼어내는	-11.7137
▁떼우는	-11.7137
▁띄웠었다네	-11.7137
▁마련이니까요	-11.7137
▁마시세요	-11.7137
▁마음가는대로	-11.7137
▁마음가짐과	-11.7137
▁마음정리에	-11.7137
▁마추쳐	-11.7137
▁막걸리먹던게	-11.7137
▁막장으로	-11.7137
▁만나다보면	-11.7137
▁만나봤으면	-11.7137
▁만난여자와	-11.7137
▁만남이였을까	-11.7137
▁만납시다	-11.7137
▁만났다고	-11.7137
▁만났었지	-11.7137
▁만족하는	-11.7137
▁만족해야겠지	-11.7137
▁말라버렸나	-11.7137
▁말시킬게	-11.7137
▁말아줄래	-11.7137
▁말았으면	-11.7137
▁말해야겠지	-11.7137
▁맘정리를할까	-11.7137
▁맘터놓고	-11.7137
▁맛있겠네요	-11.7137
▁망상이제일짜증나고	-11.7137
▁망설여져	-11.7137
▁망설여지는데	-11.7137
▁망설여지는지	-11.7137
▁맞는건가보네	-11.7137
▁매력적이지요	-11.7137
▁매정해졌어요	-11.7137
▁머물며	-11.7137
▁먹어주죠	-11.7137
▁먹여주지	-11.7137
▁멀미하는	-11.7137
▁멀어져도	-11.7137
▁멀어지지	-11.7137
▁멀어진다는말	-11.7137
▁멀어집시다	-11.7137
▁멈춰버려서	-11.7137
▁멋있는거	-11.7137
▁멋있죠	-11.7137
▁멍때리는것도	-11.7137
▁메리크리스마스이브입니다	-11.7137
▁메모리카드	-11.7137
▁메세지가	-11.7137
▁메워질	-11.7137
▁며느리는	-11.7137
▁몇번을	-11.7137
▁모든수단을	-11.7137
▁모르겠는데	-11.7137
▁모른척하세요	-11.7137
▁못고치는	-11.7137
▁못생겼는데	-11.7137
▁못잊겠으면	-11.7137
▁못지우겠네	-11.7137
▁못차리겠다	-11.7137
▁못하더라도	-11.7137
▁못했는가봐	-11.7137
▁못했으니	-11.7137
▁무기력하게	-11.7137
▁무기력하죠	-11.7137
▁무너졌습니다	-11.7137
▁무능력하게	-11.7137
▁무덤덤한데도	-11.7137
▁무덤덤해졌다면	-11.7137
▁무덤덤해지길	-11.7137
▁무뎌지셨나요	-11.7137
▁무모함이	-11.7137
▁무신경해	-11.7137
▁물리치료	-11.7137
▁미루지말고	-11.7137
▁미지근한	-11.7137
▁미칠거같네	-11.7137
▁미팅에서	-11.7137
▁믿어보려구	-11.7137
▁밀어두세요	-11.7137
▁밑바닥을	-11.7137
▁바꿔줘도	-11.7137
▁바라겠습니다	-11.7137
▁바라보다	-11.7137
▁바라야죠	-11.7137
▁바싹바싹	-11.7137
▁반대말	-11.7137
▁반대예요	-11.7137
▁반대하시지	-11.7137
▁반복된다고	-11.7137
▁반성하고	-11.7137
▁반영되었나봐요	-11.7137
▁받던분들	-11.7137
▁받아드리질	-11.7137
▁받았나봐요	-11.7137
▁받으셨나	-11.7137
▁받으신	-11.7137
▁발라드	-11.7137
▁발바니다	-11.7137
▁방금다녀와서	-11.7137
▁방문사실을	-11.7137
▁배우자는	-11.7137
▁배우자와	-11.7137
▁배워볼까봐	-11.7137
▁버거울거예요	-11.7137
▁버려달라고	-11.7137
▁벌려야겠다	-11.7137
▁변덕스럽네	-11.7137
▁변덕스럽지요	-11.7137
▁변덕쟁이로	-11.7137
▁변명보다는	-11.7137
▁변신하고	-11.7137
▁변치마세요	-11.7137
▁변화니까요	-11.7137
▁변화시키죠	-11.7137
▁별거한지	-11.7137
▁병신인거죠	-11.7137
▁보고말았습니다	-11.7137
▁보고싶었나봐요	-11.7137
▁보내놓은지	-11.7137
▁보듬어주다가	-11.7137
▁보살인가봅니다	-11.7137
▁보이더라구요	-11.7137
▁보조베터리	-11.7137
▁복나가나	-11.7137
▁복잡해지네	-11.7137
▁복잡했나봐요	-11.7137
▁봐달라는	-11.7137
▁부끄러워서	-11.7137
▁부담스럽다면	-11.7137
▁부딪히지도	-11.7137
▁부족하니까	-11.7137
▁부질없는짓	-11.7137
▁불가능할	-11.7137
▁불타오르는	-11.7137
▁불행했으면	-11.7137
▁붙여놓은	-11.7137
▁붙잡으려	-11.7137
▁블로그를	-11.7137
▁비비라도	-11.7137
▁비참해지는거	-11.7137
▁비추하나요	-11.7137
▁비틀어져요	-11.7137
▁비혼주의자인데	-11.7137
▁빠졌나봐요	-11.7137
▁빠짐없이	-11.7137
▁빼앗겼다고	-11.7137
▁빼앗길까봐	-11.7137
▁빼야되는데	-11.7137
▁뺏길거같아	-11.7137
▁뻔뻔하게	-11.7137
▁사과해보세요	-11.7137
▁사라지지	-11.7137
▁사람일수록	-11.7137
▁사랑스럽네요	-11.7137
▁사랑이였을까	-11.7137
▁사랑해달라고	-11.7137
▁사랑했다는거겠죠	-11.7137
▁사셔야겠어요	-11.7137
▁사소하면서도	-11.7137
▁사실이라면	-11.7137
▁사오세요	-11.7137
▁삭제했을까	-11.7137
▁살아가다보면	-11.7137
▁살펴보면	-11.7137
▁상사에게	-11.7137
▁상상이겠네요	-11.7137
▁상영하는	-11.7137
▁상종하지마세요	-11.7137
▁상처받았나봐요	-11.7137
▁상황마다	-11.7137
▁새사람에게	-11.7137
▁새출발할꺼야	-11.7137
▁생각해버려서	-11.7137
▁생각해줬으면	-11.7137
▁생강차	-11.7137
▁생겼다는걸	-11.7137
▁생겼더라구	-11.7137
▁생명인데요	-11.7137
▁생일이었는데	-11.7137
▁서류에서부터	-11.7137
▁서른초반	-11.7137
▁서비스센터	-11.7137
▁서핑하러	-11.7137
▁선물해주면서	-11.7137
▁선물해줄까	-11.7137
▁선배같지	-11.7137
▁선배랑	-11.7137
▁선생님한테	-11.7137
▁선택하세요	-11.7137
▁선택하셨네요	-11.7137
▁선톡오게	-11.7137
▁선톡하는데	-11.7137
▁설렜을텐데	-11.7137
▁성숙해진	-11.7137
▁성숙해질	-11.7137
▁소개팅하기로했어	-11.7137
▁소극적으로	-11.7137
▁속시원하게	-11.7137
▁손해배상을	-11.7137
▁솔직함으로	-11.7137
▁솔직했을	-11.7137
▁수백번	-11.7137
▁수십번	-11.7137
▁숙면하겠네요	-11.7137
▁술마시고	-11.7137
▁술마시러가는게	-11.7137
▁술마시면	-11.7137
▁슬프구	-11.7137
▁시간이었겠네요	-11.7137
▁시기였을거예요	-11.7137
▁시어머니도	-11.7137
▁시어머니될	-11.7137
▁식사시간	-11.7137
▁식상하지	-11.7137
▁식었나봐요	-11.7137
▁식었는지	-11.7137
▁신경쓰이고	-11.7137
▁신기하대	-11.7137
▁신중함이	-11.7137
▁실례를	-11.7137
▁실례에요	-11.7137
▁실례일	-11.7137
▁실망스러운	-11.7137
▁실망할겁니다	-11.7137
▁실행해보세요	-11.7137
▁실험실	-11.7137
▁싫어해줘서	-11.7137
▁심란한가봐요	-11.7137
▁심리상담	-11.7137
▁싱숭생숭하죠	-11.7137
▁싱숭생숭했겠네요	-11.7137
▁싶었나봐요	-11.7137
▁싶으시군요	-11.7137
▁싸우게돼	-11.7137
▁싸우기도	-11.7137
▁싸우기만	-11.7137
▁싸운대요	-11.7137
▁싸움중에서	-11.7137
▁썸타다가	-11.7137
▁쏟아지고	-11.7137
▁쓰게되넹	-11.7137
▁쓰담쓰담해보세요	-11.7137
▁쓰리겠어요	-11.7137
▁쓰이니가요	-11.7137
▁쓴다는것	-11.7137
▁씨씨야	-11.7137
▁씨앗이죠	-11.7137
▁아껴주고	-11.7137
▁아니었을까요	-11.7137
▁아니잖아요	-11.7137
▁아름답게	-11.7137
▁아름답지	-11.7137
▁아무렇게나	-11.7137
▁아물런지	-11.7137
▁아물어가는건가	-11.7137
▁아물어간다니	-11.7137
▁아스피린	-11.7137
▁아이돌급이야	-11.7137
▁아프잖아	-11.7137
▁아픔보다는	-11.7137
▁악몽이라니	-11.7137
▁안감았더니	-11.7137
▁안겨줘요	-11.7137
▁안까먹고	-11.7137
▁안꾸미고	-11.7137
▁안녕이죠	-11.7137
▁안되어있는데	-11.7137
▁안되있을까	-11.7137
▁안된거겠지	-11.7137
▁안든다	-11.7137
▁안맞는걸	-11.7137
▁안바꾸던	-11.7137
▁안받으면서	-11.7137
▁안정적이고	-11.7137
▁안친한데	-11.7137
▁안타까운	-11.7137
▁안할생각입니다	-11.7137
▁안해야하는걸	-11.7137
▁안힘든게	-11.7137
▁알뜰한	-11.7137
▁알려달라고	-11.7137
▁알바생한테	-11.7137
▁알아가보는	-11.7137
▁알아버렸네	-11.7137
▁알아버렸습니다	-11.7137
▁알아버림	-11.7137
▁알아주실거예요	-11.7137
▁알았잖아요	-11.7137
▁애교부려보세요	-11.7137
▁애달프겠지요	-11.7137
▁애매함이	-11.7137
▁애석하지만	-11.7137
▁약속잡으려고	-11.7137
▁약속할게요	-11.7137
▁약이었나봅니다	-11.7137
▁약해지면	-11.7137
▁얘기할곳이	-11.7137
▁어떠셨어	-11.7137
▁어떻하니	-11.7137
▁어른들의	-11.7137
▁어리석었습니다	-11.7137
▁어리석은	-11.7137
▁어릴땐	-11.7137
▁어머니가	-11.7137
▁어색하지만	-11.7137
▁어울리면	-11.7137
▁어울린대	-11.7137
▁어지러워	-11.7137
▁어쩔수없이	-11.7137
▁어찌됐던	-11.7137
▁언젠지	-11.7137
▁얻는다는	-11.7137
▁없애버려야지	-11.7137
▁없었겠네요	-11.7137
▁없었다면	-11.7137
▁없었으면	-11.7137
▁엇갈림	-11.7137
▁엉망진창이야	-11.7137
▁엊갈림	-11.7137
▁여선배가	-11.7137
▁여자들에게	-11.7137
▁여차진구가	-11.7137
▁여행지에서만	-11.7137
▁연락드려보세요	-11.7137
▁연락왔으면	-11.7137
▁연락이었으면	-11.7137
▁연락하고싶은거	-11.7137
▁연락하세요	-11.7137
▁연락하자는분들	-11.7137
▁연락했으면	-11.7137
▁연속이예요	-11.7137
▁연애하다보면	-11.7137
▁열정적으로	-11.7137
▁영어학원	-11.7137
▁영원했으면	-11.7137
▁영칼로리	-11.7137
▁옆구리를	-11.7137
▁예비신부네요	-11.7137
▁예상치	-11.7137
▁예약해보세요	-11.7137
▁오게되네	-11.7137
▁오긴왔는데	-11.7137
▁오늘마지막	-11.7137
▁오더라구	-11.7137
▁오랜기간	-11.7137
▁오랜시간이	-11.7137
▁오르락	-11.7137
▁오해하려나	-11.7137
▁올랐다는데	-11.7137
▁올립니다	-11.7137
▁왜곡에	-11.7137
▁외국인이	-11.7137
▁외로우니까	-11.7137
▁외로울거야	-11.7137
▁외롭지만	-11.7137
▁외출하면	-11.7137
▁요구하세요	-11.7137
▁요리해드세요	-11.7137
▁요소니까요	-11.7137
▁욕망이지	-11.7137
▁욕심쟁이네요	-11.7137
▁우선이겠네요	-11.7137
▁우연인지	-11.7137
▁운동하자고	-11.7137
▁운동하자는데	-11.7137
▁울어버려요	-11.7137
▁움직이고	-11.7137
▁원피스	-11.7137
▁위기이면서	-11.7137
▁위대한가봐	-11.7137
▁위험하네요	-11.7137
▁위험하죠	-11.7137
▁윗몸일으키기	-11.7137
▁유도해보세요	-11.7137
▁유세부리는	-11.7137
▁유지하게	-11.7137
▁유행하고있어요	-11.7137
▁육체적으로	-11.7137
▁은근슬쩍	-11.7137
▁의미심장한	-11.7137
▁의미없는거라고	-11.7137
▁이것만은	-11.7137
▁이끌어가야할지	-11.7137
▁이라더니	-11.7137
▁이러고있는게	-11.7137
▁이런사진을	-11.7137
▁이뤄가길	-11.7137
▁이뤄보아요	-11.7137
▁이별일텐데	-11.7137
▁이별지옥인가봐요	-11.7137
▁이순간에도	-11.7137
▁이시간들	-11.7137
▁이어주려고	-11.7137
▁이웃으로부터	-11.7137
▁이제보내주려합니다	-11.7137
▁이중적인데	-11.7137
▁이혼하려는	-11.7137
▁이혼한지	-11.7137
▁이혼해야할까	-11.7137
▁익숙해졌나봐요	-11.7137
▁익숙해지나봐요	-11.7137
▁익숨함에	-11.7137
▁인공눈물을	-11.7137
▁인내심이	-11.7137
▁인지시켜야죠	-11.7137
▁인지시켜주세요	-11.7137
▁일어났나봐요	-11.7137
▁일어났다가	-11.7137
▁일어났을	-11.7137
▁일하시나봐요	-11.7137
▁읽어보고	-11.7137
▁읽히나	-11.7137
▁입금됐다고	-11.7137
▁입대하는데	-11.7137
▁있으신거죠	-11.7137
▁잊어버리나	-11.7137
▁잊어야겠다고	-11.7137
▁잊혀져가기도	-11.7137
▁잊혀져가는	-11.7137
▁자게해주라	-11.7137
▁자격지심이예요	-11.7137
▁자버렸어	-11.7137
▁자야하는데	-11.7137
▁자유시간	-11.7137
▁작동하는지	-11.7137
▁잔잔하네	-11.7137
▁잘된거라	-11.7137
▁잘라줬어	-11.7137
▁잘못햇나	-11.7137
▁잘보이고	-11.7137
▁잘지내고있구나	-11.7137
▁잘하더라고	-11.7137
▁잘해줘야하는거	-11.7137
▁잠꾸러기라던데요	-11.7137
▁잠식시키는	-11.7137
▁잠이쏟아져	-11.7137
▁잡혀지질않으니	-11.7137
▁재결합이	-11.7137
▁재미있기는	-11.7137
▁저장할래요	-11.7137
▁적극적이지가	-11.7137
▁적당하게	-11.7137
▁전문가를	-11.7137
▁전학가게	-11.7137
▁전학가도	-11.7137
▁전화라도	-11.7137
▁전화오면	-11.7137
▁점심시간일	-11.7137
▁접어두세요	-11.7137
▁정류장하면	-11.7137
▁정리되었길	-11.7137
▁정리하려했는데	-11.7137
▁정상이에요	-11.7137
▁정상적인	-11.7137
▁젖어드나봐요	-11.7137
▁제자신이	-11.7137
▁조명빨	-11.7137
▁조심스러울	-11.7137
▁조심해야겠지	-11.7137
▁조용하니	-11.7137
▁존재감을	-11.7137
▁존재하기는	-11.7137
▁종합해	-11.7137
▁좋아보여요	-11.7137
▁좋아하시나봐요	-11.7137
▁좋아하시니까	-11.7137
▁좋아하지마세요	-11.7137
▁주물주물	-11.7137
▁주워담지	-11.7137
▁죽는다는	-11.7137
▁줄여주거나	-11.7137
▁줄이고싶어	-11.7137
▁중소기업인데	-11.7137
십	-11.7137
잔	-11.9449
립	-12.2137
쩍	-12.2137
흡	-12.2137
꽃	-12.9559
넌	-12.9592
킥	-13.1352
쿼	-13.1353
캬	-13.1354
캐	-13.1355
칩	-13.1356
챘	-13.1357
쪘	-13.1358
쨌	-13.1359
짬	-13.136
짤	-13.1361
줍	-13.1362
젝	-13.1363
웽	-13.1364
웁	-13.1365
왼	-13.1366
엿	-13.1367
숏	-13.1368
쇠	-13.1369
솜	-13.137
섣	-13.1371
섞	-13.1372
샜	-13.1373
뿅	-13.1374
뽕	-13.1375
빽	-13.1376
뷔	-13.1377
붓	-13.1378
볕	-13.1379
밭	-13.138
뮤	-13.1381
몬	-13.1382
륜	-13.1383
룸	-13.1384
랭	-13.1385
띵	-13.1386
뚱	-13.1387
덮	-13.1388
논	-13.1389
넛	-13.139
깼	-13.1391
귤	-13.1392
겜	-13.1393
g	-13.1394
헹	-13.1395
핀	-13.1396
펭	-13.1397
튀	-13.1398
킹	-13.1399
측	-13.14
쳇	-13.1401
쥬	-13.1402
졋	-13.1403
옮	-13.1404
옛	-13.1405
씸	-13.1406
썰	-13.1407
썩	-13.1408
섰	-13.1409
샘	-13.141
삔	-13.1411
뻤	-13.1412
뺏	-13.1413
묘	-13.1414
뜬	-13.1415
떴	-13.1416
닭	-13.1417
닦	-13.1418
녔	-13.1419
넥	-13.142
넋	-13.1421
꽂	-13.1422
꼴	-13.1423
깅	-13.1424
깃	-13.1425
균	-13.1426
괘	-13.1427
걍	-13.1428
갱	-13.1429
홧	-13.143
홈	-13.1431
헥	-13.1432
헐	-13.1433
퉁	-13.1434
텁	-13.1435
턱	-13.1436
쿵	-13.1437
짼	-13.1438
젤	-13.1439
웹	-13.144
숫	-13.1441
빙	-13.1442
렐	-13.1443
랙	-13.1444
랖	-13.1445
띰	-13.1446
땜	-13.1447
딜	-13.1448
돕	-13.1449
덥	-13.145
댔	-13.1451
닷	-13.1452
뇌	-13.1453
꿰	-13.1454
꽝	-13.1455
꽉	-13.1456
깰	-13.1457
깬	-13.1458
겐	-13.1459
폼	-13.146
텀	-13.1461
킬	-13.1462
짰	-13.1463
왓	-13.1464
옵	-13.1465
엊	-13.1466
얽	-13.1467
쁨	-13.1468
빴	-13.1469
밉	-13.147
릇	-13.1471
륵	-13.1472
띠	-13.1473
뚫	-13.1474
댄	-13.1475
눕	-13.1476
눌	-13.1477
넷	-13.1478
겪	-13.1479
펑	-13.148
쿠	-13.1481
컷	-13.1482
컥	-13.1483
짚	-13.1484
좌	-13.1485
앱	-13.1486
쌈	-13.1487
벅	-13.1488
멘	-13.1489
맷	-13.149
맴	-13.1491
렴	-13.1492
딛	-13.1493
됬	-13.1494
겟	-13.1495
갠	-13.1496
훔	-13.1497
핫	-13.1498
풋	-13.1499
팬	-13.15
팠	-13.1501
툼	-13.1502
텔	-13.1503
탓	-13.1504
켰	-13.1505
컸	-13.1506
총	-13.1507
쭉	-13.1508
줌	-13.1509
욜	-13.151
앨	-13.1511
썹	-13.1512
쉴	-13.1513
삐	-13.1514
몫	-13.1515
맺	-13.1516
램	-13.1517
겉	-13.1518
퓨	-13.1519
팁	-13.152
츠	-13.1521
촬	-13.1522
촉	-13.1523
찐	-13.1524
쭤	-13.1525
쫌	-13.1526
쫄	-13.1527
쥐	-13.1528
율	-13.1529
왠	-13.153
샌	-13.1531
뱃	-13.1532
묵	-13.1533
릎	-13.1534
롤	-13.1535
둠	-13.1536
닿	-13.1537
꼰	-13.1538
궈	-13.1539
곱	-13.154
팀	-13.1541
톱	-13.1542
층	-13.1543
윗	-13.1544
엠	-13.1545
쏠	-13.1546
싹	-13.1547
빚	-13.1548
범	-13.1549
릅	-13.155
률	-13.1551
렜	-13.1552
땡	-13.1553
댓	-13.1554
놨	-13.1555
낙	-13.1556
굳	-13.1557
헌	-13.1558
틈	-13.1559
퀴	-13.156
쿨	-13.1561
짱	-13.1562
젯	-13.1563
엮	-13.1564
쎄	-13.1565
슈	-13.1566
볍	-13.1567
밟	-13.1568
렛	-13.1569
뒹	-13.157
둥	-13.1571
댈	-13.1572
눅	-13.1573
낚	-13.1574
긁	-13.1575
팸	-13.1576
틋	-13.1577
툴	-13.1578
템	-13.1579
찢	-13.158
욱	-13.1581
씌	-13.1582
쑥	-13.1583
쏟	-13.1584
쌍	-13.1585
밑	-13.1586
똥	-13.1587
땅	-13.1588
돋	-13.1589
낳	-13.159
휘	-13.1591
팍	-13.1592
싼	-13.1593
뻑	-13.1594
묻	-13.1595
늠	-13.1596
늙	-13.1597
끓	-13.1598
꼈	-13.1599
광	-13.16
흑	-13.1601
첨	-13.1602
찜	-13.1603
징	-13.1604
앗	-13.1605
씁	-13.1606
쌩	-13.1607
뽀	-13.1608
뒀	-13.1609
둔	-13.161
꽤	-13.1611
훈	-13.1612
툰	-13.1613
탐	-13.1614
킁	-13.1615
찼	-13.1616
쪄	-13.1617
젖	-13.1618
얻	-13.1619
섬	-13.162
볶	-13.1621
맡	-13.1622
렬	-13.1623
낄	-13.1624
긋	-13.1625
겹	-13.1626
c	-13.1627
힌	-13.1628
켠	-13.1629
춤	-13.163
쪼	-13.1631
잇	-13.1632
옳	-13.1633
쁠	-13.1634
땀	-13.1635
검	-13.1636
푼	-13.1637
콤	-13.1638
짠	-13.1639
압	-13.164
샤	-13.1641
빈	-13.1642
령	-13.1643
껏	-13.1644
깎	-13.1645
객	-13.1646
컴	-13.1647
왤	-13.1648
앉	-13.1649
씻	-13.165
빡	-13.1651
빛	-13.1652
롱	-13.1653
탕	-13.1654
찰	-13.1655
잃	-13.1656
웬	-13.1657
뢰	-13.1658
닉	-13.1659
녹	-13.166
납	-13.1661
낀	-13.1662
a	-13.1663
털	-13.1664
엉	-13.1665
벤	-13.1666
벚	-13.1667
뚝	-13.1668
넓	-13.1669
흥	-13.167
혔	-13.1671
찔	-13.1672
뽑	-13.1673
봉	-13.1674
맙	-13.1675
딪	-13.1676
닮	-13.1677
규	-13.1678
곁	-13.1679
컨	-13.168
춘	-13.1681
몽	-13.1682
뤄	-13.1683
띄	-13.1684
넣	-13.1685
꾹	-13.1686
푹	-13.1687
옥	-13.1688
씹	-13.1689
밝	-13.169
딴	-13.1691
낮	-13.1692
ᄏ	-13.1693
탔	-13.1694
렘	-13.1695
뛰	-13.1696
딸	-13.1697
농	-13.1698
널	-13.1699
낸	-13.17
깜	-13.1701
값	-13.1702
헬	-13.1703
콜	-13.1704
쪽	-13.1705
왕	-13.1706
랫	-13.1707
콘	-13.1708
웨	-13.1709
듬	-13.171
쐬	-13.1711
블	-13.1712
렌	-13.1713
듭	-13.1714
뉴	-13.1715
뀔	-13.1716
곰	-13.1717
갚	-13.1718
춥	-13.1719
닫	-13.172
끌	-13.1721
걔	-13.1722
슷	-13.1723
벼	-13.1724
낭	-13.1725
잤	-13.1726
쓴	-13.1727
봇	-13.1728
뒷	-13.1729
턴	-13.173
둬	-13.1731
귈	-13.1732
셀	-13.1733
녁	-13.1734
뀌	-13.1735
혹	-13.1736
텨	-13.1737
닥	-13.1738
깔	-13.1739
육	-13.174
냄	-13.1741
죄	-13.1742
액	-13.1743
썼	-13.1744
싱	-13.1745
샀	-13.1746
량	-13.1747
됩	-13.1748
꼼	-13.1749
깍	-13.175
쌓	-13.1751
귄	-13.1752
ᅮ	-13.1753
헛	-13.1754
토	-13.1755
뿌	-13.1756
멈	-13.1757
릿	-13.1758
걷	-13.1759
획	-13.176
삼	-13.1761
놔	-13.1762
꿔	-13.1763
희	-13.1764
브	-13.1765
패	-13.1766
됨	-13.1767
엽	-13.1768
덧	-13.1769
눠	-13.177
권	-13.1771
섭	-13.1772
꿀	-13.1773
효	-13.1774
품	-13.1775
틱	-13.1776
쟁	-13.1777
엔	-13.1778
션	-13.1779
삭	-13.178
깝	-13.1781
콩	-13.1782
랬	-13.1783
끄	-13.1784
김	-13.1785
쯤	-13.1786
쇼	-13.1787
틀	-13.1788
센	-13.1789
북	-13.179
뜨	-13.1791
ᄒ	-13.1792
쩌	-13.1793
밍	-13.1794
퍼	-13.1795
멍	-13.1796
맥	-13.1797
특	-13.1798
탁	-13.1799
팔	-13.18
례	-13.1801
창	-13.1802
옆	-13.1803
킨	-13.1804
벗	-13.1805
클	-13.1806
채	-13.1807
높	-13.1808
겁	-13.1809
철	-13.181
찌	-13.1811
뎌	-13.1812
녕	-13.1813
깊	-13.1814
렵	-13.1815
숭	-13.1816
렀	-13.1817
곧	-13.1818
n	-13.1819
헷	-13.182
악	-13.1821
낫	-13.1822
골	-13.1823
득	-13.1824
읽	-13.1825
잖	-13.1826
석	-13.1827
깐	-13.1828
삶	-13.1829
롭	-13.183
등	-13.1831
춰	-13.1832
베	-13.1833
숨	-13.1834
케	-13.1835
멀	-13.1836
칭	-13.1837
웠	-13.1838
쓸	-13.1839
승	-13.184
봄	-13.1841
핑	-13.1842
료	-13.1843
끼	-13.1844
엇	-13.1845
독	-13.1846
퇴	-13.1847
펴	-13.1848
밌	-13.1849
빌	-13.185
박	-13.1851
괴	-13.1852
흔	-13.1853
찬	-13.1854
짧	-13.1855
흐	-13.1856
덤	-13.1857
꺼	-13.1858
뒤	-13.1859
쳤	-13.186
빼	-13.1861
밖	-13.1862
끊	-13.1863
똑	-13.1864
코	-13.1865
랜	-13.1866
픔	-13.1867
졸	-13.1868
밤	-13.1869
듣	-13.187
딱	-13.1871
핸	-13.1872
익	-13.1873
벽	-13.1874
갖	-13.1875
역	-13.1876
옷	-13.1877
밀	-13.1878
냈	-13.1879
껴	-13.188
씀	-13.1881
뻐	-13.1882
욕	-13.1883
슴	-13.1884
뭔	-13.1885
둘	-13.1886
웃	-13.1887
몇	-13.1888
봤	-13.1889
풍	-13.189
투	-13.1891
뜻	-13.1892
평	-13.1893
닐	-13.1894
페	-13.1895
색	-13.1896
낼	-13.1897
끔	-13.1898
탈	-13.1899
솔	-13.19
밥	-13.1901
줬	-13.1902
응	-13.1903
맨	-13.1904
굴	-13.1905
흘	-13.1906
숙	-13.1907
손	-13.1908
견	-13.1909
초	-13.191
뿐	-13.1911
즘	-13.1912
꼭	-13.1913
큰	-13.1914
항	-13.1915
풀	-13.1916
팅	-13.1917
s	-13.1918
붙	-13.1919
첫	-13.192
완	-13.1921
란	-13.1922
낌	-13.1923
찍	-13.1924
책	-13.1925
플	-13.1926
넘	-13.1927
체	-13.1928
써	-13.1929
벌	-13.193
환	-13.1931
죽	-13.1932
즐	-13.1933
몸	-13.1934
픈	-13.1935
종	-13.1936
챙	-13.1937
떡	-13.1938
험	-13.1939
록	-13.194
허	-13.1941
티	-13.1942
출	-13.1943
최	-13.1944
깨	-13.1945
태	-13.1946
포	-13.1947
착	-13.1948
존	-13.1949
침	-13.195
격	-13.1951
럼	-13.1952
늦	-13.1953
엄	-13.1954
텐	-13.1955
슬	-13.1956
님	-13.1957
뭘	-13.1958
폰	-13.1959
축	-13.196
열	-13.1961
쁘	-13.1962
쳐	-13.1963
온	-13.1964
셨	-13.1965
켜	-13.1966
떤	-13.1967
슨	-13.1968
설	-13.1969
냥	-13.197
째	-13.1971
,	-13.1972
맘	-13.1973
황	-13.1974
럽	-13.1975
순	-13.1976
랍	-13.1977
국	-13.1978
앞	-13.1979
씩	-13.198
쉽	-13.1981
갑	-13.1982
께	-13.1983
걱	-13.1984
겼	-13.1985
택	-13.1986
강	-13.1987
파	-13.1988
곳	-13.1989
믿	-13.199
빠	-13.1991
쁜	-13.1992
싸	-13.1993
청	-13.1994
취	-13.1995
됐	-13.1996
놓	-13.1997
큼	-13.1998
막	-13.1999
약	-13.2
랄	-13.2001
접	-13.2002
닌	-13.2003
몰	-13.2004
교	-13.2005
꿈	-13.2006
움	-13.2007
봅	-13.2008
루	-13.2009
톡	-13.201
레	-13.2011
발	-13.2012
머	-13.2013
호	-13.2014
릴	-13.2015
놀	-13.2016
럴	-13.2017
돌	-13.2018
절	-13.2019
얼	-13.202
쉬	-13.2021
통	-13.2022
억	-13.2023
용	-13.2024
매	-13.2025
표	-13.2026
천	-13.2027
반	-13.2028
싫	-13.2029
겨	-13.203
찾	-13.2031
변	-13.2032
잡	-13.2033
먼	-13.2034
짜	-13.2035
참	-13.2036
단	-13.2037
났	-13.2038
잠	-13.2039
력	-13.204
확	-13.2041
쓰	-13.2042
따	-13.2043
올	-13.2044
민	-13.2045
눈	-13.2046
또	-13.2047
새	-13.2048
작	-13.2049
위	-13.205
왔	-13.2051
버	-13.2052
맞	-13.2053
개	-13.2054
식	-13.2055
떨	-13.2056
느	-13.2057
졌	-13.2058
답	-13.2059
재	-13.206
준	-13.2061
떻	-13.2062
렇	-13.2063
런	-13.2064
난	-13.2065
왜	-13.2066
경	-13.2067
편	-13.2068
유	-13.2069
귀	-13.207
처	-13.2071
괜	-13.2072
필	-13.2073
끝	-13.2074
계	-13.2075
트	-13.2076
속	-13.2077
찮	-13.2078
공	-13.2079
!	-13.208
복	-13.2081
뭐	-13.2082
동	-13.2083
회	-13.2084
았	-13.2085
조	-13.2086
살	-13.2087
관	-13.2088
타	-13.2089
좀	-13.209
받	-13.2091
행	-13.2092
결	-13.2093
선	-13.2094
먹	-13.2095
습	-13.2096
테	-13.2097
분	-13.2098
알	-13.2099
혼	-13.21
못	-13.2101
화	-13.2102
썸	-13.2103
헤	-13.2104
금	-13.2105
저	-13.2106
모	-13.2107
짝	-13.2108
되	-13.2109
애	-13.211
부	-13.2111
했	-13.2112
별	-13.2113
않	-13.2114
많	-13.2115
힘	-13.2116
잘	-13.2117
싶	-13.2118
없	-13.2119
음	-13.212
내	-13.2121
정	-13.2122
안	-13.2123
친	-13.2124
남	-13.2125
같	-13.2126
인	-13.2127
론	-13.2127
무	-13.2128
쩔	-13.2128
람	-13.2129
겠	-13.213
예	-13.2131
?	-13.2132
링	-13.2132
합	-13.2133
있	-13.2133
좋	-13.2134
세	-13.2135
사	-13.2136
딘	-13.2137
.	-13.2137
긍	-13.2137
끗	-13.2137
넹	-13.2137
뜰	-13.2137
첩	-13.2137
홀	-13.2137
