<pad>	0
<s>	0
</s>	0
<unk>	0
▁.	-2.31837
▁	-3.51304
요	-4.08875
▁?	-4.26322
을	-4.60174
▁거예요	-4.89716
는	-4.9345
가	-4.94666
도	-4.96219
이	-5.00015
세요	-5.20752
게	-5.2197
은	-5.26604
지	-5.27335
▁수	-5.27854
보세요	-5.29724
고	-5.30382
▁너무	-5.3477
를	-5.36553
네요	-5.41093
▁좋아하는	-5.43006
▁거	-5.45861
▁더	-5.47921
해보세요	-5.48646
의	-5.49561
죠	-5.57001
▁잘	-5.57489
▁안	-5.58338
▁것	-5.601
서	-5.67336
▁사람	-5.67608
에	-5.74467
▁많이	-5.84665
면	-5.84817
한	-5.90092
▁좋은	-5.90562
▁나	-5.92258
봐요	-5.92528
▁좀	-5.94436
▁같아요	-5.97564
▁게	-5.99513
▁있을	-6.02858
▁싶어	-6.05145
▁있어요	-6.0731
▁사람이	-6.08913
▁내	-6.10031
▁같아	-6.11889
▁생각	-6.12982
만	-6.13303
▁!	-6.13401
히	-6.14442
▁없어	-6.16072
▁그	-6.18317
으로	-6.22495
길	-6.23738
하세요	-6.24654
▁썸	-6.26564
▁다	-6.29531
▁건	-6.31702
▁해	-6.32555
▁때	-6.32816
로	-6.35049
▁마세요	-6.35917
▁내가	-6.37112
▁이제	-6.37169
나	-6.39421
▁마음이	-6.40458
할	-6.41147
하고	-6.41334
▁왜	-6.43447
▁이별	-6.43613
▁다른	-6.46272
▁어떻게	-6.47859
▁있는	-6.49847
▁사랑	-6.51134
▁연락	-6.51245
▁싶다	-6.54181
▁한	-6.56262
이에요	-6.56291
▁다시	-6.56881
▁마음	-6.59339
▁오늘	-6.6209
▁시간이	-6.6235
▁좋을	-6.65093
▁생각해	-6.66279
▁걸	-6.66394
는데	-6.66701
▁않아	-6.67531
겠어요	-6.67839
▁또	-6.68689
▁수도	-6.68713
▁하는	-6.69258
▁하고	-6.70653
▁정말	-6.71508
▁말	-6.72252
▁있어	-6.74679
▁될	-6.75248
▁자신	-6.76312
▁못	-6.77108
▁연애	-6.77342
다	-6.77933
▁할	-6.78148
하는	-6.78953
▁같이	-6.78997
에서	-6.79464
니다	-6.8013
랑	-6.80352
▁그런	-6.80645
▁것도	-6.81731
일	-6.82346
▁자꾸	-6.85617
▁좋아	-6.86537
▁먼저	-6.87866
▁뭐	-6.88574
가봐요	-6.89325
▁있	-6.90733
▁좋겠어	-6.91699
네	-6.92366
▁살	-6.92855
▁가	-6.9325
거	-6.9431
에요	-6.94313
▁시간	-6.94803
▁있을까	-6.95194
▁일	-6.95382
▁힘들	-6.96213
▁일이	-6.96925
▁당신	-6.98675
하지	-6.9884
▁이	-6.99514
해요	-7.00437
▁진짜	-7.01056
▁만나	-7.01208
▁제가	-7.01472
야	-7.01632
▁사	-7.0231
▁나를	-7.02858
▁혼자	-7.03116
든	-7.03873
과	-7.03883
▁계속	-7.0407
하게	-7.04268
거예요	-7.05349
▁없는	-7.05411
▁저도	-7.0613
▁바랄게요	-7.06391
▁아니	-7.0709
▁돼요	-7.07405
▁여자친구가	-7.07437
▁될까	-7.08079
▁좋아요	-7.08833
▁헤어진지	-7.10078
▁남자친구가	-7.10304
▁마음을	-7.10422
▁서로	-7.11308
인	-7.11587
▁전	-7.12016
기	-7.12503
어요	-7.12647
▁바	-7.13899
▁힘든	-7.15482
▁좋겠	-7.15613
▁사랑이	-7.15813
지도	-7.15937
▁하나	-7.16139
인데	-7.16167
▁년	-7.16244
▁그럴	-7.16535
▁날	-7.17226
▁방법	-7.17235
▁선물	-7.17324
▁참	-7.17816
▁먹고	-7.18321
니까	-7.19009
▁남자	-7.19434
▁짝사랑	-7.19445
겠죠	-7.21339
▁친구	-7.22532
▁여자	-7.23673
▁결혼	-7.2415
랍	-7.25765
▁준비	-7.26203
데	-7.26718
보다	-7.26742
▁데이트	-7.26889
▁아직	-7.26986
▁이야기	-7.26996
▁하지	-7.27167
▁힘들어	-7.28022
▁술	-7.28412
라고	-7.29159
▁드세요	-7.30281
▁말해보세요	-7.31019
▁,	-7.31132
주세요	-7.31455
어	-7.31533
나봐	-7.31705
▁많은	-7.31975
▁좋죠	-7.32783
지만	-7.34806
▁지금	-7.34882
▁무슨	-7.35224
▁저	-7.35267
▁줄	-7.35272
▁어떤	-7.35645
▁보고	-7.36231
하면	-7.3635
▁그냥	-7.36813
던	-7.3702
▁할까	-7.3722
▁사람은	-7.3754
▁이렇게	-7.3787
▁몰라	-7.38408
운	-7.38922
▁충분	-7.38948
▁친구가	-7.39229
▁아무	-7.39746
▁들어	-7.39827
▁있으면	-7.40094
▁어떨까요	-7.40211
▁되	-7.42055
다고	-7.42146
합니다	-7.42223
▁사람을	-7.42944
▁있는데	-7.43209
▁있나	-7.44305
▁보세요	-7.44398
해	-7.45391
▁공부	-7.46688
▁듯	-7.47443
▁짝남	-7.47886
▁새로운	-7.48026
에게	-7.49093
▁후	-7.49292
▁안돼	-7.49369
▁사랑은	-7.49372
▁사랑하는	-7.49859
▁힘드네	-7.49885
▁타는	-7.50227
해주세요	-7.50427
▁함께	-7.50438
▁남	-7.50734
▁나만	-7.50799
니	-7.52488
▁고백	-7.52757
▁돈	-7.52819
입니다	-7.53149
라	-7.53204
▁이유	-7.53331
▁해도	-7.54613
▁중	-7.54982
▁오	-7.55126
▁나한테	-7.5544
▁돼	-7.5627
▁싫어	-7.56356
▁짝남이	-7.56657
▁알	-7.571
▁시작	-7.57414
▁연락이	-7.5762
▁하	-7.57832
▁기억	-7.58347
▁없	-7.58381
▁오래	-7.58649
▁여행	-7.58902
▁내일	-7.58927
▁헤어진	-7.59166
▁같은데	-7.59379
대로	-7.59962
진	-7.60125
▁하면	-7.60176
▁말고	-7.60312
▁아	-7.60599
▁감정	-7.61826
리	-7.62601
▁생각이	-7.63654
▁이젠	-7.64081
한테	-7.64572
해도	-7.64685
▁싶은	-7.64709
▁많아	-7.65913
▁가고	-7.66046
건	-7.66067
예요	-7.6622
▁만날	-7.66309
▁않는	-7.66329
▁조금	-7.66665
▁주세요	-7.67257
▁모르겠어	-7.67466
▁그렇게	-7.67872
▁마음에	-7.67989
▁따라	-7.68344
▁좋겠다	-7.68501
▁카톡	-7.68576
심	-7.68669
▁해야	-7.68873
거라	-7.69014
▁도움	-7.69149
▁열	-7.69236
▁반	-7.69655
▁올	-7.69892
▁만큼	-7.70063
▁이별을	-7.70406
▁관심	-7.70997
▁고민	-7.7167
와	-7.72034
▁같은	-7.72448
▁기분	-7.7262
질	-7.72763
▁않을	-7.72807
▁운동	-7.74347
▁그게	-7.74552
▁쉽지	-7.74641
▁눈	-7.74988
까	-7.75265
▁볼	-7.75436
▁이별은	-7.75492
▁어때	-7.75908
▁찾아	-7.75996
▁하루	-7.76101
▁직접	-7.76265
라도	-7.76825
▁맘	-7.76907
걸	-7.77041
▁꼭	-7.77519
▁연락을	-7.77833
▁항상	-7.78282
▁문제	-7.79751
는게	-7.79919
▁애	-7.79939
▁보	-7.80173
▁가는	-7.80217
부터	-7.80345
른	-7.80355
▁곳	-7.80586
▁좋을까	-7.80795
▁우리	-7.81633
거나	-7.81977
▁요즘	-7.82384
▁나는	-7.82976
나봅니다	-7.83082
▁싶은데	-7.83492
해서	-7.83848
▁제	-7.84033
▁저는	-7.84382
▁말을	-7.84612
만큼	-7.84721
▁되는	-7.84929
▁사랑을	-7.85255
▁중요한	-7.85774
▁결국	-7.85786
▁대화를	-7.85963
▁남자친구	-7.86202
▁없네	-7.86588
▁만들어	-7.86705
▁때문에	-7.86816
▁그래	-7.87075
▁말아	-7.87352
▁알아	-7.87402
▁변화	-7.87533
▁정리	-7.87848
▁언제	-7.88413
▁아니라	-7.88767
▁얼	-7.89312
▁여친	-7.9024
▁있죠	-7.90339
▁않은	-7.90719
▁짝녀가	-7.90909
▁짝녀	-7.91172
▁머리	-7.91416
▁자	-7.92028
▁바라요	-7.92387
▁남자가	-7.92575
▁모르는	-7.92657
▁늦	-7.92897
▁없다	-7.92949
▁믿어	-7.92951
대한	-7.93138
▁기대	-7.93962
▁큰	-7.9439
▁노래	-7.95096
▁아직도	-7.95268
아	-7.95339
▁마음의	-7.95488
▁어디	-7.95636
려고	-7.95751
자	-7.95818
적인	-7.95907
▁한달	-7.95974
▁비	-7.96211
▁집에	-7.96716
▁스트레스	-7.97137
▁괜찮아요	-7.97458
간	-7.97774
▁주	-7.97908
▁그녀	-7.98049
▁아파	-7.98665
▁어제	-7.98692
▁너	-7.99076
수록	-7.99244
▁않	-7.99365
인지	-7.99449
▁말씀	-7.99697
씩	-7.99729
▁제일	-7.99826
다면	-8.0012
까요	-8.0044
▁시간을	-8.00585
▁나쁜	-8.0064
▁거라	-8.00717
▁조금씩	-8.00745
천	-8.00836
수	-8.00856
▁이런	-8.00915
▁들	-8.00918
긴	-8.01145
▁난	-8.02344
▁집	-8.0256
▁갑자기	-8.02728
▁가장	-8.02842
▁만나는	-8.02852
▁중요해	-8.03291
▁오늘도	-8.03514
▁천	-8.03646
▁필요해	-8.03655
▁사람이랑	-8.03676
▁그래도	-8.03707
▁물어보	-8.04246
기도	-8.04247
▁미련	-8.04405
▁현실	-8.0531
▁아닌	-8.05487
▁살고	-8.05549
▁당신이	-8.05638
적	-8.05799
▁자주	-8.05874
▁없을	-8.0599
하는게	-8.06071
▁여자친구	-8.0612
▁되나	-8.06175
▁정	-8.06245
▁덜	-8.06347
▁여자가	-8.06394
드	-8.06434
▁회사	-8.06467
겠네	-8.06554
▁와	-8.06792
▁번	-8.07121
군요	-8.07381
▁해볼까	-8.07545
▁상대방	-8.07772
▁사랑의	-8.07775
▁차	-8.0797
▁확신	-8.0801
▁후회	-8.08451
▁사람한테	-8.08523
▁연락해	-8.08586
▁잘할	-8.08597
▁사는	-8.08674
▁했는데	-8.08777
장	-8.09136
▁전화	-8.09227
▁조금만	-8.09402
하는데	-8.09449
시	-8.09748
▁타	-8.09782
▁사람들이	-8.10045
▁몇	-8.10066
▁헤어지고	-8.10128
▁얼마	-8.10179
▁같애	-8.10179
▁알았는데	-8.10206
▁매일	-8.10246
▁합니다	-8.10264
▁된	-8.11396
▁짝남한테	-8.1143
▁뭘까	-8.11477
▁모든	-8.11863
▁남친	-8.12039
대	-8.12548
방	-8.12799
▁보는	-8.12814
▁사랑에	-8.12932
▁맞는	-8.13051
▁정도	-8.1318
▁엄청	-8.13549
▁딱	-8.13601
▁사이	-8.13912
▁가져	-8.14076
이라도	-8.14188
▁사람들	-8.14645
▁어떡해	-8.14698
▁어느	-8.14699
래	-8.15217
▁있다면	-8.16067
▁사진	-8.16309
▁마	-8.16391
▁왔어	-8.16469
▁정리가	-8.16768
▁밥	-8.16934
했어	-8.17085
면서	-8.17285
으면	-8.17367
▁좋아할	-8.17521
▁보내	-8.17654
▁꿈	-8.17713
▁많았	-8.17743
▁인연이	-8.17995
▁이상	-8.18033
▁선택	-8.18201
▁핸드폰	-8.18228
▁기다려	-8.18338
▁필요	-8.18398
▁만나고	-8.18438
▁결정	-8.18504
▁모르겠어요	-8.18694
▁한번	-8.18859
▁누구	-8.18974
▁뭘	-8.19044
▁예의	-8.19438
▁피	-8.19544
▁그만	-8.19802
▁지금도	-8.19841
처럼	-8.20051
까지	-8.20099
▁걸까	-8.20372
▁갈	-8.20375
▁오늘은	-8.20727
▁뭐가	-8.20823
▁걱정	-8.21295
▁받아	-8.21761
▁길	-8.21844
▁행복	-8.22074
▁필요한	-8.22086
▁것이	-8.22503
▁자기	-8.22671
▁쉬운	-8.23076
▁모두	-8.23109
▁말이	-8.23187
할까	-8.23228
함	-8.23312
▁잔	-8.23373
▁친구랑	-8.2344
▁영화	-8.23517
습니다	-8.23836
▁나이	-8.24124
릴게요	-8.24358
▁점점	-8.24407
져	-8.2456
줄	-8.24681
▁추억	-8.24689
이나	-8.24811
▁날이	-8.2503
▁있었나	-8.25403
된	-8.25849
▁기분이	-8.26022
▁봐	-8.26655
▁소개팅	-8.26775
▁빨리	-8.27033
▁좋아해	-8.27218
▁잘하고	-8.28102
▁이별이	-8.28119
▁가능	-8.28689
▁부모님	-8.28783
▁연습	-8.28783
▁선	-8.28787
▁잘하는	-8.29293
▁잠	-8.29415
▁자신이	-8.29437
▁처음	-8.29631
▁하는데	-8.29698
▁언젠	-8.30274
▁물	-8.30302
▁상대	-8.30444
달라고	-8.30668
겠지	-8.31159
래도	-8.313
▁두	-8.31432
▁추천	-8.31561
▁커피	-8.31671
▁재회	-8.31786
▁노력	-8.32285
하기	-8.32297
▁예뻐	-8.32341
▁마지막	-8.32341
▁관계	-8.3241
▁느낌	-8.32538
들	-8.32552
▁표현	-8.32716
구	-8.32775
▁않았	-8.33531
마다	-8.33708
▁바쁘	-8.33743
▁벌써	-8.33743
▁아닌데	-8.33836
▁놀	-8.33886
▁의미	-8.344
▁사귀고	-8.34736
치	-8.35639
제	-8.35727
▁고민이	-8.35738
▁하죠	-8.35931
마세요	-8.35954
▁썸남	-8.37124
▁대	-8.37139
▁다가가	-8.37285
▁여친이	-8.37286
▁새	-8.37406
▁위해	-8.37698
▁손	-8.37735
려	-8.37814
▁금	-8.38064
▁같네	-8.38084
▁물어보는	-8.38187
▁신경쓰지	-8.38351
▁괜찮은	-8.38368
▁만남	-8.38494
▁여자애	-8.38801
▁쉬	-8.3899
날	-8.39224
▁인생	-8.39421
▁바람	-8.39479
▁아무것도	-8.39528
차	-8.39887
▁좋아하면	-8.39899
▁물어	-8.39924
▁보면	-8.39994
▁남편이	-8.40023
▁사귀는	-8.40139
▁그녀를	-8.40212
▁이해	-8.40264
▁좋아하게	-8.40326
릴	-8.40554
▁긴	-8.40684
▁일찍	-8.40992
▁귀	-8.4104
▁나서	-8.41206
▁헤어짐	-8.41277
▁개월	-8.41293
일까	-8.41362
▁나와	-8.41434
▁거죠	-8.41543
▁조심하	-8.41934
▁아는	-8.42482
▁삶	-8.42507
▁네	-8.42774
하네	-8.42831
▁구	-8.42987
▁화	-8.43105
▁차단	-8.43184
했나봐	-8.43303
▁호감	-8.43304
하죠	-8.43846
▁아픔	-8.43872
갈	-8.43993
▁넘	-8.44004
▁받고	-8.44046
▁슬픈	-8.44047
▁어려워	-8.44055
▁아픈	-8.44101
▁원하는	-8.44262
▁생각나	-8.44306
▁챙겨	-8.4438
▁만들	-8.445
▁그분	-8.44556
정	-8.44645
▁연락하고	-8.44688
▁게임	-8.44702
때	-8.44747
▁가지	-8.44801
▁없이	-8.44854
▁달	-8.45009
▁나도	-8.45074
▁가끔	-8.45077
▁막	-8.45536
▁스스로	-8.45547
▁지켜	-8.45597
▁전에	-8.45658
▁짝녀한테	-8.45691
▁가서	-8.45976
▁않죠	-8.4626
▁썸남이	-8.4657
▁데	-8.46702
▁무	-8.46861
▁애가	-8.46974
▁보통	-8.47233
▁사람도	-8.47318
지는	-8.47405
▁얼굴	-8.47468
▁중요하지	-8.4758
▁되지	-8.47653
▁끝	-8.48004
▁아닐까	-8.48133
▁모습	-8.48135
▁중에	-8.48199
보	-8.48317
▁분	-8.48524
▁옷	-8.4859
▁완전	-8.4859
▁맛있게	-8.48934
▁약	-8.49224
▁많	-8.49269
▁않을까	-8.49541
▁티	-8.49803
▁좋	-8.49922
▁건강	-8.5013
▁즐거	-8.50437
▁편이	-8.50448
▁못하겠어	-8.50456
▁잠시	-8.50485
▁꿈에	-8.50656
▁입	-8.50727
러	-8.50751
▁뭐야	-8.50902
▁지	-8.50974
▁그렇	-8.50995
▁남자애가	-8.51076
▁있지	-8.51244
▁됐어	-8.51374
여	-8.51427
▁모르	-8.5163
냐	-8.51632
▁말해	-8.51803
▁화장	-8.51896
했는데	-8.51903
▁싫다	-8.52114
▁확실한	-8.52172
인가	-8.52222
▁약속	-8.52274
▁사랑했던	-8.52502
▁안해	-8.52592
▁생각할	-8.52767
▁잠이	-8.52955
▁기	-8.53079
▁잘못	-8.53146
▁쉽	-8.53157
▁힘들지	-8.53426
▁알게	-8.53487
▁먹	-8.53638
▁맨날	-8.53809
▁힘이	-8.53809
▁작은	-8.53877
▁좋아하는데	-8.53951
▁대해	-8.53977
▁신경	-8.54853
▁해주세요	-8.5505
들이	-8.55195
▁주는	-8.55265
▁설레	-8.55492
▁sns	-8.55534
▁받을	-8.55534
상	-8.55639
▁괜찮을까	-8.5564
▁곧	-8.55664
▁감기	-8.55672
▁알바	-8.55925
실	-8.55999
▁실수	-8.5605
▁타고	-8.56329
▁부	-8.56352
▁싶어요	-8.56584
▁법	-8.56689
▁적	-8.56709
▁감	-8.56993
▁소중	-8.573
▁예쁘게	-8.57409
▁고민이야	-8.57444
▁매	-8.57529
▁많아요	-8.57918
▁했어	-8.58016
음	-8.58145
▁다를	-8.58373
며	-8.58554
▁알고	-8.58655
▁앞에	-8.58731
▁눈이	-8.58821
▁시험	-8.59074
▁바쁜	-8.59077
▁귀찮아	-8.59093
▁친구한테	-8.59262
▁괜찮	-8.59356
▁곳이	-8.59554
용	-8.59594
▁절대	-8.59801
▁인기	-8.59865
▁않고	-8.60042
▁날씨	-8.60195
▁가슴	-8.60223
주	-8.6077
▁척	-8.60795
하	-8.60801
통	-8.60863
▁받는	-8.60865
▁나중에	-8.60893
▁우산	-8.60893
▁진정	-8.60901
▁여유	-8.60977
▁않는다면	-8.60994
▁누구나	-8.61149
▁때까지	-8.61167
이야	-8.61178
▁끝이	-8.61321
▁중인데	-8.6135
있는	-8.6141
답	-8.61531
임	-8.61693
텐데	-8.618
▁뿐	-8.61922
▁남자애	-8.62047
이라면	-8.62214
▁생길	-8.62744
▁분위기	-8.62744
▁주무	-8.62752
▁이별한지	-8.62756
▁친구를	-8.62775
▁이별후	-8.62853
▁인정	-8.62957
▁힘들다	-8.62992
▁행복해	-8.6323
▁만난	-8.63296
▁방법이	-8.63407
▁상처	-8.63422
▁보여	-8.63584
▁힘들게	-8.63701
▁힘들겠지	-8.63887
▁소리	-8.64078
▁고생	-8.64506
했어요	-8.65005
▁짝남이랑	-8.65013
▁남친이	-8.65113
▁보지	-8.6517
했던	-8.65209
▁궁금해	-8.65378
▁돈이	-8.65397
▁별	-8.65411
▁여자애가	-8.65545
▁아닌지	-8.65549
▁나을	-8.65775
▁차이	-8.65857
▁다음에	-8.65857
하면서	-8.66032
▁끝나	-8.66308
▁일어나	-8.6646
▁알려줘	-8.6656
▁같습니다	-8.66583
▁자신감	-8.66627
▁먹으면	-8.66728
▁힘내세요	-8.67011
▁간다	-8.67027
▁있는지	-8.67107
다가	-8.67284
▁상관	-8.67346
▁만나지	-8.67461
울	-8.67496
▁좋은데	-8.67675
▁드는	-8.68208
▁정신	-8.68397
▁사람에	-8.68404
▁부러워	-8.68515
▁만났어	-8.68582
▁문자	-8.68684
▁미리	-8.68753
소	-8.68902
▁있습니다	-8.68994
▁자연스러	-8.69209
▁용기	-8.69439
▁맛있는	-8.69553
▁연인	-8.69797
▁모르겠네	-8.69834
▁되네	-8.69849
▁좋아하	-8.70306
▁봅니다	-8.70321
▁비싸	-8.70389
▁위로	-8.70481
▁지금은	-8.70511
▁헤어졌습니다	-8.7052
▁일을	-8.70521
▁그러면	-8.70815
▁폰	-8.71211
▁바로	-8.71365
▁되어	-8.71375
▁좋지	-8.71594
▁안되는	-8.71955
▁오는	-8.721
▁연락해도	-8.72264
▁경우	-8.72441
▁이별의	-8.72501
듯	-8.72545
▁전여친	-8.72547
▁편지	-8.72555
▁탈	-8.72626
신	-8.72714
번	-8.73149
▁쉬고	-8.73257
▁생겼	-8.73327
▁못하는	-8.73345
에는	-8.73363
▁괜찮을	-8.73653
▁같	-8.73676
선	-8.73788
▁이제는	-8.73886
▁도전	-8.7403
▁가기	-8.74077
자고	-8.74155
▁서로에	-8.74291
▁드	-8.74414
▁세상에	-8.74522
▁예쁜	-8.74563
▁뭔지	-8.74638
▁조언	-8.7464
없이	-8.74711
걸까	-8.74732
▁일째	-8.75067
보면	-8.75432
▁뭐라고	-8.75434
▁못해	-8.75575
중	-8.75624
▁싶네	-8.75643
▁행동	-8.75844
▁아침	-8.76067
▁사랑할	-8.76112
▁두려워	-8.76152
▁필요하겠	-8.7616
▁종교	-8.76263
▁카페	-8.76299
▁하기	-8.76354
▁능력이	-8.76405
▁안녕	-8.76561
▁싶지	-8.76766
▁멋진	-8.76779
▁떠나	-8.76805
▁먹어야지	-8.76886
▁책	-8.76914
▁깨	-8.77103
▁해서	-8.77182
▁해보는	-8.77425
▁관심을	-8.77535
다니	-8.77565
두	-8.77708
것	-8.77835
▁주면	-8.77842
▁그렇지	-8.77846
▁세상	-8.77909
했	-8.77947
▁당	-8.78057
▁후폭풍	-8.78279
란	-8.78407
같은	-8.7845
▁학교	-8.78475
▁기다리는	-8.78566
▁사람과	-8.78719
▁순간	-8.78912
▁잠깐	-8.7894
▁자책하지	-8.78945
▁꽃	-8.78976
▁가면	-8.78998
▁맞	-8.79019
▁그리고	-8.7905
▁물어봐	-8.79393
게요	-8.79456
▁용기를	-8.79463
▁미련이	-8.79493
▁상황이	-8.7952
▁가지고	-8.79961
▁없나	-8.80004
이랑	-8.80021
나요	-8.80087
▁끝을	-8.80337
▁점	-8.80374
라면	-8.80542
▁눈물	-8.80665
▁눈에	-8.80751
▁상	-8.80838
사	-8.80938
▁습관	-8.8116
▁로맨틱	-8.81162
▁뭔가	-8.81162
▁어려운	-8.81183
▁먹는	-8.81221
▁좋아하는게	-8.81262
가요	-8.81281
▁가세요	-8.81308
▁잊고	-8.81343
▁애랑	-8.8147
인가봐	-8.81627
▁속이	-8.81684
▁성격이	-8.81776
▁줘	-8.82016
▁잊는	-8.82213
▁주변	-8.82221
▁사랑하고	-8.82284
▁먹을	-8.82313
▁정리하는	-8.82414
▁이상형	-8.82648
▁받아들이는	-8.83037
▁좋다	-8.83166
▁볼까	-8.83195
▁저를	-8.8321
▁헷갈리	-8.83343
▁중요하	-8.83359
▁드디어	-8.83435
▁적당히	-8.83448
▁떨려	-8.83449
▁있잖아	-8.83462
▁글	-8.83575
▁저에게	-8.83699
▁복	-8.83745
▁잊을	-8.83812
▁죽을	-8.83859
▁봄	-8.83933
▁괜찮아	-8.84146
▁상황을	-8.84199
짝	-8.84209
▁가슴이	-8.84279
▁힘들었	-8.84319
▁대화	-8.84458
트	-8.85047
단	-8.85062
동안	-8.85162
▁확인해	-8.85263
▁꿈을	-8.85409
▁파	-8.85632
▁있나요	-8.85715
엔	-8.85757
▁옆에	-8.85761
마	-8.85843
▁누가	-8.85937
▁잊혀지	-8.85984
▁만나자고	-8.86034
▁사람에게	-8.86078
▁아프네	-8.86199
▁보러	-8.86402
▁후폭풍이	-8.86482
▁시기	-8.86518
▁되겠	-8.8671
▁진심	-8.86785
▁얘기	-8.86983
▁소	-8.87007
▁찾아보	-8.87113
▁하나도	-8.87253
▁인연	-8.87321
▁인	-8.87385
▁달라지는	-8.8752
▁밤	-8.87553
▁적어	-8.87556
▁극복	-8.87674
까봐	-8.87834
▁되고	-8.87904
▁관리	-8.8795
해야	-8.87964
▁이별에	-8.88109
▁답장	-8.8811
▁환승	-8.88138
▁어플	-8.88147
▁별로	-8.88275
▁진심으로	-8.88347
▁기다리고	-8.88409
▁말하는	-8.88473
달	-8.88649
▁행복한	-8.88704
▁세	-8.88707
▁내려	-8.88761
▁거짓말	-8.88807
▁시켜	-8.89069
▁사랑하면	-8.89075
▁놀아	-8.89181
비	-8.89257
▁호감이	-8.89305
▁건지	-8.89464
더라고요	-8.89588
▁눈치	-8.89635
▁맛	-8.89657
▁사귀	-8.89773
시군요	-8.89811
었으면	-8.89838
▁그녀가	-8.89893
▁첫사랑	-8.89901
▁머리가	-8.90019
▁인사	-8.90097
▁사랑해	-8.90256
▁강	-8.90272
▁벌	-8.90349
▁여러	-8.9035
▁나랑	-8.90356
▁잊지	-8.90514
▁스킨십	-8.90581
▁부담스럽	-8.90613
▁의사	-8.90615
전	-8.90661
▁둘	-8.90763
▁온	-8.90826
▁축하해요	-8.90844
▁갖고	-8.90931
▁그대로	-8.91433
▁좋아할까	-8.91507
▁있으니까	-8.91556
▁답	-8.91663
▁장	-8.91884
▁프사	-8.92552
었어	-8.92564
▁하는게	-8.92578
▁안하고	-8.92644
▁헤어지	-8.92774
▁직장	-8.92961
▁생기	-8.93081
덧	-8.93081
▁연예인	-8.93081
▁뿐이	-8.93176
▁등	-8.93269
▁생각하고	-8.93337
거야	-8.93437
▁후회하지	-8.93492
▁선물이	-8.93534
▁짝사랑하는	-8.93543
되	-8.93578
르	-8.93908
▁전남친	-8.94358
▁확인	-8.94367
▁재미	-8.94421
▁잠을	-8.95019
▁것보다	-8.9507
▁즐기	-8.95153
▁꾸준	-8.95362
▁배	-8.95462
▁살펴	-8.95568
▁썸녀	-8.95631
▁최선	-8.95645
론	-8.95645
▁무서워	-8.95645
▁원래	-8.95672
▁현상	-8.95763
▁위한	-8.95794
▁싫은	-8.95918
▁보이	-8.95975
▁단	-8.96151
▁연락하는	-8.9657
▁후회할	-8.96877
▁좋아하는지	-8.96995
▁군대	-8.97502
▁상처받	-8.97522
▁준	-8.97671
금	-8.97922
▁주고	-8.97929
▁본인	-8.98093
▁것을	-8.98167
▁이야기해	-8.98243
▁부분	-8.98262
▁주지	-8.98281
▁발전	-8.98289
▁나가	-8.98338
▁여자친구와	-8.98404
증	-8.98519
▁필요할	-8.98601
▁스타일	-8.98697
▁다르겠지	-8.9889
는건	-8.99003
건가	-8.99061
▁끝은	-8.9915
▁식	-8.99405
▁동	-8.99491
▁이상한	-8.99492
싶네요	-8.99687
▁행복하	-8.9981
▁욕	-9.00199
▁되기	-9.00223
▁시	-9.00245
▁마련이	-9.00297
후	-9.00367
▁감정이	-9.00518
만에	-9.00821
▁기다릴	-9.00953
▁빌려	-9.00979
▁쇼핑	-9.00979
▁자연스럽게	-9.0098
▁성공	-9.01003
▁화장실	-9.01011
▁안경	-9.01013
▁않았으면	-9.01049
▁거절	-9.01095
더니	-9.01206
▁드시	-9.01639
▁좋아하나	-9.01762
▁자신에게	-9.01882
▁용기내	-9.01996
▁조	-9.02022
▁아닐	-9.02127
▁해줘	-9.02257
린	-9.0242
▁언젠가	-9.02424
▁했던	-9.0245
▁여	-9.02482
겠지만	-9.02803
▁번호	-9.02972
▁엄마	-9.02994
▁원	-9.03168
▁만나면	-9.03237
▁기회	-9.03273
▁알아보	-9.0351
▁운명	-9.03602
집	-9.0362
▁그것	-9.03703
▁따로	-9.03757
▁받지	-9.03757
▁받았어	-9.03764
▁집안일	-9.03791
▁오랜만에	-9.03794
▁떠난	-9.03795
▁갈까	-9.03858
▁붙잡고	-9.03882
▁없으면	-9.03899
▁지쳤나	-9.03919
▁짜증나	-9.0393
▁안들어	-9.03933
▁영	-9.04034
▁가자고	-9.04041
▁공	-9.04043
▁완전히	-9.04136
▁앞에서	-9.04294
▁쉬어	-9.04431
▁마련	-9.04463
▁눈물이	-9.0461
▁몸	-9.04791
▁발	-9.04945
▁썸이	-9.04992
▁되는데	-9.05111
▁변하	-9.05198
▁놓아주	-9.05209
▁연락하지	-9.0534
▁못하고	-9.05341
▁살아	-9.06165
▁생각하는	-9.06186
▁고민하	-9.06247
림	-9.06305
낼	-9.06389
▁밖에	-9.06457
▁그럼	-9.06614
▁쓰는	-9.06614
▁담배	-9.06618
봐	-9.06629
▁올려	-9.0664
▁미래	-9.06641
▁않으면	-9.06705
▁제대로	-9.06791
▁한동안	-9.06805
▁일도	-9.06861
▁속	-9.06931
보는	-9.06955
▁있네	-9.06981
▁무엇이	-9.07076
▁마셔	-9.07135
▁썸타는	-9.07158
▁동거	-9.0729
▁지났네	-9.07453
▁사랑한	-9.07604
▁몸이	-9.07607
라는	-9.07708
▁솔직하	-9.07729
예	-9.07782
▁취	-9.07825
더라	-9.07879
▁왔는데	-9.07956
▁있어도	-9.08024
▁있고	-9.08033
▁소식이	-9.08071
▁가능해	-9.08168
▁힘내	-9.08202
▁존중	-9.08247
▁생겼어	-9.08491
말	-9.08806
▁부담	-9.08832
▁느낌이	-9.08939
▁질투	-9.0906
▁뭐라	-9.09229
▁코	-9.09283
▁못한	-9.09372
쳐	-9.09466
▁노력하	-9.09482
▁어쩔	-9.09516
▁존재	-9.09551
▁축하드려요	-9.09557
▁연락처	-9.09589
▁따뜻	-9.096
▁생각나는	-9.09612
▁없지	-9.09666
▁만났는데	-9.09674
▁취미	-9.09729
▁이사	-9.09791
▁해결	-9.09799
▁남자들은	-9.09928
▁듣고	-9.09957
▁됨	-9.10138
▁타는데	-9.1026
▁상처를	-9.10313
▁않으니	-9.10371
▁곳에	-9.1041
다는	-9.10432
▁없애	-9.1078
▁아는데	-9.10804
▁커	-9.10831
으	-9.10992
▁주변에	-9.11154
▁말도	-9.11155
졌어	-9.11228
내	-9.11403
▁선택일	-9.11547
▁좋아해도	-9.11603
▁차분	-9.11812
▁숨	-9.11848
감	-9.11919
▁힘들겠	-9.11994
▁목	-9.12059
었던	-9.12085
▁했으면	-9.12223
밖에	-9.12337
▁오빠	-9.12442
▁상황	-9.1249
▁일상	-9.12545
▁발표	-9.12577
▁앞으로	-9.12585
▁저녁	-9.12585
▁편한	-9.12585
▁걱정돼	-9.12599
▁헤어졌어	-9.12607
▁돌려	-9.12632
▁선톡	-9.12633
▁음식	-9.12635
▁확실히	-9.12669
▁피해	-9.1273
고생	-9.12787
▁소개	-9.12799
▁걱정하지	-9.12843
▁상관없	-9.13289
▁엄마가	-9.13369
▁사랑하는데	-9.13416
▁다행	-9.13562
▁있지만	-9.13621
▁우울	-9.13688
▁지내	-9.13711
▁시원	-9.13843
겠어	-9.13932
▁쉬는	-9.14114
▁미	-9.14237
▁불	-9.1431
▁그러	-9.14327
▁나이가	-9.14443
야겠다	-9.14667
이라는	-9.14919
▁먹어	-9.15006
아요	-9.15201
▁나오	-9.15305
▁되면	-9.15308
셔	-9.15516
▁안해도	-9.15588
▁버텨	-9.15704
▁괜히	-9.1571
▁사귈	-9.1571
▁지나갈	-9.15724
▁한잔	-9.15743
▁년째	-9.15746
▁결혼식	-9.15752
▁괜찮아질	-9.1577
▁관심사	-9.15773
▁휴식	-9.15786
▁썸남한테	-9.15817
▁살펴보	-9.15826
▁사랑한다고	-9.15837
▁증거	-9.15989
▁보기	-9.16053
▁크게	-9.16096
▁잊어	-9.16205
▁잡고	-9.16252
▁보고싶어	-9.16288
▁어	-9.16378
▁이상해	-9.1638
▁거야	-9.16442
▁생각나네	-9.16493
▁초	-9.16505
▁적극적	-9.16783
▁날씨가	-9.16962
▁없는데	-9.17004
▁하다보	-9.17869
▁신	-9.18157
▁건가	-9.18171
▁추억이	-9.18258
▁시작이	-9.18364
▁아프	-9.18613
▁그리워	-9.18875
락	-9.18929
▁면접	-9.18936
▁병원	-9.1894
▁은근	-9.18941
했으면	-9.18985
▁장거리	-9.18987
▁아이	-9.19037
▁친한	-9.19049
▁자고	-9.19052
▁그사람	-9.19085
▁않네	-9.19238
▁같다	-9.1925
▁필요하죠	-9.19287
▁됐으면	-9.19292
이라고	-9.19317
▁짝녀랑	-9.19339
▁커플	-9.1938
▁아침에	-9.19432
▁고	-9.19512
▁복잡하	-9.19515
▁있겠지	-9.1952
▁헤아리	-9.19547
건지	-9.19609
것도	-9.19614
하다	-9.19633
▁달라고	-9.19816
▁집중	-9.19927
▁오해	-9.19943
봐도	-9.19984
▁조심	-9.20109
록	-9.20127
▁꾸	-9.20163
▁질	-9.20191
▁여자친구의	-9.20229
▁만났	-9.20356
▁집에서	-9.20487
▁안나	-9.20501
▁남자친구의	-9.20514
▁안와	-9.20594
었나봐	-9.20614
▁줘도	-9.20622
▁말할	-9.20862
▁우	-9.20882
▁연애를	-9.20977
▁칭찬	-9.2102
▁감정에	-9.21204
▁주말	-9.21216
▁꿈이	-9.21301
▁월급	-9.21314
▁버리	-9.21513
▁다르	-9.21623
▁만남이	-9.2165
▁장난	-9.21801
▁뒤	-9.21982
하거나	-9.22136
▁이야기를	-9.22213
창	-9.22269
▁기념일	-9.22269
▁벗어나	-9.22269
▁안타깝	-9.22269
▁편할	-9.22269
▁평소	-9.22269
▁대학	-9.22272
▁지쳐	-9.22312
▁결과	-9.22317
▁위로해	-9.22335
▁좋을텐데	-9.22511
▁어쩌지	-9.22522
워	-9.22579
▁했습니다	-9.22645
▁안됐는데	-9.2266
▁어울리	-9.22671
▁회사에서	-9.22876
▁울어	-9.23004
볼까	-9.23168
▁가능하	-9.23183
냐고	-9.23279
▁톡	-9.23459
▁어디서	-9.23489
▁놀고	-9.23509
한다면	-9.23609
▁그녀의	-9.23719
▁짐	-9.23779
▁다음	-9.23796
▁하셨	-9.23896
▁사랑하지	-9.23906
▁못할	-9.24037
▁당당하	-9.24038
▁달라	-9.2407
▁과정	-9.24074
들에게	-9.24099
하다가	-9.24219
들을	-9.24243
난	-9.24267
▁않나	-9.2428
안	-9.24294
▁걸어	-9.24378
시길	-9.24433
▁부모님이	-9.24449
▁자체	-9.24502
봅니다	-9.25181
▁양	-9.25192
▁절	-9.25288
▁학원	-9.25636
땐	-9.25664
▁도서관	-9.25718
▁취업	-9.25719
▁감사	-9.25748
▁통보	-9.25776
▁뜻	-9.25793
기만	-9.25863
▁편하게	-9.25971
▁좋겠지	-9.2604
▁싸	-9.26049
리는	-9.26237
▁사귀기	-9.26298
▁연락하면	-9.26488
▁친구로	-9.26573
▁명	-9.26611
됐는데	-9.26821
▁사랑해서	-9.26852
▁될까요	-9.26871
▁떠	-9.27006
▁ᅲ	-9.27026
▁있겠죠	-9.2717
▁남기	-9.27604
▁갖	-9.27617
▁않게	-9.27775
▁사실	-9.2795
▁개인	-9.28196
▁피곤해	-9.28262
보고	-9.28488
▁분이	-9.28514
▁바보	-9.28564
▁데려다	-9.28605
▁청소	-9.28788
동	-9.28817
▁챙겨주	-9.28876
▁상담	-9.2894
▁휴	-9.28955
▁이해해	-9.29044
준	-9.29161
▁졸업	-9.29216
▁풀어	-9.29259
▁생일	-9.29261
▁드라마	-9.29289
▁바뀔	-9.29289
▁짧은	-9.29289
곰	-9.29289
▁잊어버리	-9.29295
▁바빠	-9.29306
▁목소리	-9.29308
▁온전	-9.29309
▁누군가	-9.29329
▁남겨	-9.29338
을까	-9.29375
▁소화	-9.29413
▁심해	-9.29437
▁꿨어	-9.29439
▁깊	-9.29441
▁챙겨드	-9.29484
▁쓴	-9.29565
▁부족한	-9.29656
하니	-9.29701
▁친구들이	-9.29719
당	-9.29861
▁마다	-9.29864
▁배워	-9.29892
▁그동안	-9.29928
▁왔다	-9.29928
▁포기	-9.29999
살	-9.30055
좀	-9.30081
▁인생이	-9.30314
▁꿈에서	-9.30403
▁이거	-9.305
▁방	-9.3063
▁나의	-9.30659
▁가족	-9.30861
▁돌아가	-9.30875
▁텐데	-9.31098
▁ᅲᅲ	-9.31106
주는	-9.31176
▁들어가	-9.31202
▁크리스마스	-9.31553
▁중인	-9.31792
줘	-9.3185
▁성격	-9.31971
런	-9.32113
▁듣	-9.32301
▁두달	-9.32348
▁궁금하네	-9.32403
▁혼자가	-9.32479
▁당신도	-9.32764
놓고	-9.32802
▁처음에	-9.32816
▁괜찮아졌	-9.32896
▁헤어져야	-9.32935
▁배려	-9.32954
▁계획	-9.32993
▁다이어트	-9.32993
▁혹시	-9.32994
▁원망	-9.32997
▁분명	-9.33
▁헤어졌는데	-9.33045
▁쐬	-9.33057
▁끝까지	-9.33059
▁이성으로	-9.33063
▁먹을까	-9.33088
▁과일	-9.33128
▁사소	-9.33168
▁헤어지자고	-9.33191
▁살까	-9.33196
▁나왔어	-9.33207
▁애한테	-9.33218
▁할텐데	-9.33232
▁되었	-9.33257
▁고백하는	-9.3329
▁어떡하지	-9.33294
▁많은데	-9.33525
▁이건	-9.33619
▁타이밍이	-9.33711
원	-9.33776
하니까	-9.33786
거같아	-9.33854
▁자신만	-9.33935
▁만	-9.34012
▁남을	-9.34056
▁뭐하지	-9.34076
할때	-9.3412
▁해주는	-9.34172
▁생겼네	-9.34433
▁상처가	-9.34439
▁모습이	-9.34573
▁종	-9.34591
▁귀엽	-9.34644
▁알면	-9.34667
▁비교하	-9.34731
▁사이에	-9.34742
▁짝사랑이	-9.34867
▁모아	-9.34911
▁맞았	-9.35016
▁하네	-9.35099
▁떨	-9.35487
▁집착	-9.35494
▁안하는	-9.35568
다가도	-9.35636
▁거니	-9.3569
▁힘들어서	-9.35769
▁전부	-9.36161
▁기본	-9.36278
기가	-9.36663
▁느려	-9.36827
▁권태기	-9.36839
▁오랫	-9.36839
▁평생	-9.36839
▁추워	-9.36842
▁실감	-9.36847
▁전공	-9.3688
▁떨어져	-9.36885
▁치과	-9.36888
▁예민한	-9.36892
▁친구들과	-9.36894
▁맞는걸까	-9.36895
▁떨어졌어	-9.36907
별	-9.36994
▁여자들은	-9.36998
▁없겠네	-9.37053
▁남자친구와	-9.37066
▁최고죠	-9.37107
▁본	-9.37166
▁나올	-9.37173
▁담	-9.3721
▁여자친구랑	-9.37255
▁가야지	-9.3744
▁자존감이	-9.37465
▁독	-9.37477
▁보이고	-9.37615
▁순	-9.37797
▁행복하게	-9.37903
▁둘이	-9.37924
▁습관이	-9.37954
▁여기	-9.37971
▁생각만	-9.38267
▁들어와	-9.38364
▁것들	-9.38378
▁믿음이	-9.38608
▁글을	-9.38624
이면	-9.38645
▁과정이	-9.38736
께	-9.38821
▁통해	-9.38824
▁배우는	-9.38845
▁늘어	-9.38867
▁드네	-9.38869
▁년이	-9.3891
▁맞춰	-9.38985
▁충전	-9.39072
▁마시	-9.39089
▁추천해	-9.39116
▁그랬	-9.39162
▁후회가	-9.39456
▁집이	-9.39479
▁아니면	-9.39691
▁개	-9.39851
▁사과	-9.39934
스	-9.39955
▁가야	-9.40023
▁배우	-9.40167
▁놓고	-9.40346
었길	-9.40537
▁출근	-9.40541
말고	-9.40555
▁연애에	-9.40767
▁외로	-9.40776
▁무서운	-9.40784
▁남들	-9.40821
▁설렘	-9.40839
▁졸려	-9.40839
▁이겨낼	-9.40841
▁전환	-9.40853
▁인형	-9.40856
▁부분이	-9.40885
▁알려주	-9.41104
▁저한테	-9.41221
▁살아야	-9.4124
▁가능할	-9.41277
▁내는	-9.41359
▁좋지만	-9.41466
▁말까	-9.41477
▁내리	-9.41496
▁아니야	-9.4178
성	-9.41798
▁여자랑	-9.4183
▁있다는	-9.41833
▁당연	-9.41882
▁만난지	-9.41961
▁쉬어가	-9.41964
▁아무도	-9.42017
▁해야지	-9.4203
▁지나가	-9.42201
▁후련하	-9.42273
▁찾아올	-9.42452
▁때는	-9.42476
▁기다리지	-9.42478
▁표현이	-9.42702
▁짓	-9.42748
▁사귀어	-9.42845
지지	-9.4299
▁직접적	-9.43057
▁생각하지	-9.43103
지내고	-9.43185
▁하늘	-9.4327
▁노력하는	-9.43371
▁무엇	-9.43819
▁흘렀네	-9.43836
▁안되	-9.43887
줄까	-9.43972
겠다	-9.44033
▁무시하	-9.44092
될	-9.44222
▁자존감	-9.44331
▁필요하	-9.4441
▁유지하	-9.44422
▁기운	-9.44548
어서	-9.44676
겨	-9.44681
우	-9.44779
▁맘이	-9.44805
▁역시	-9.44834
▁남자들	-9.44875
▁과	-9.44995
▁됩니다	-9.45006
▁멈추	-9.45006
▁몰래	-9.45006
▁샀어	-9.45006
▁심호흡	-9.45006
▁싶습니다	-9.45006
▁아름다운	-9.45006
▁휴대폰	-9.45006
콩	-9.45006
▁제발	-9.45018
▁진실	-9.45026
▁인내	-9.45031
▁끝난	-9.45032
▁불러	-9.45034
▁각자	-9.45034
▁지난	-9.45054
▁좋아해주는	-9.45078
▁사고	-9.4512
▁이번	-9.45125
▁솔직한	-9.45139
▁망	-9.45149
▁간절	-9.45183
▁미세먼지	-9.45202
점	-9.45203
▁잘해줘	-9.45222
▁좋아했던	-9.45241
▁똑같은	-9.45243
▁방학	-9.45373
▁남자친구랑	-9.45557
▁문득	-9.45585
▁기본이	-9.45638
▁없어서	-9.45649
▁안전	-9.45656
▁돌	-9.45774
▁슬	-9.45836
▁휴가	-9.45853
▁선물은	-9.45883
▁않는데	-9.46028
▁생활	-9.46218
▁결정이었을	-9.46302
꺼	-9.46319
▁순간이	-9.46341
▁라면	-9.4642
▁웃어	-9.46468
▁보고싶다	-9.46473
▁옷이	-9.46797
속에서	-9.46954
전에	-9.46991
▁관계가	-9.47239
▁그럴까	-9.47327
▁비가	-9.47355
▁기다리면	-9.4741
▁두고	-9.47612
▁생긴	-9.47781
▁싫어하는	-9.4786
▁헤어지는	-9.47903
▁고치	-9.47962
▁속에	-9.48036
▁바뀌	-9.48163
▁자세	-9.48305
▁비밀	-9.4842
▁이해해주	-9.48563
시간	-9.48601
▁살기	-9.48676
어도	-9.48773
▁입어	-9.48802
▁한달이	-9.48845
▁궁금	-9.49012
▁죽	-9.49081
▁부탁	-9.49144
▁괴롭	-9.4922
▁자신에	-9.49266
팅	-9.4931
▁로또	-9.49354
▁마스크	-9.49354
▁이별통보	-9.49354
▁다녀오	-9.4936
▁헤어질	-9.49365
▁향수	-9.49383
▁달달	-9.49395
▁상상	-9.49395
▁인상	-9.49399
▁하면서	-9.49426
▁슬퍼	-9.49449
▁없겠지	-9.49546
▁보니	-9.49548
느라	-9.49587
▁지금처럼	-9.49592
▁간	-9.496
▁사랑한다면	-9.49612
▁사정	-9.49613
▁참아	-9.49614
▁그녀에게	-9.49628
▁따뜻한	-9.49777
▁주말에	-9.49783
▁노래방	-9.49832
사람	-9.49922
▁생각했나봐	-9.50021
▁신경쓰	-9.50042
형	-9.50086
▁정리할	-9.50166
▁자리	-9.50235
▁보다	-9.50266
▁크	-9.50276
▁거울	-9.50338
▁죄	-9.50504
▁흘렀	-9.5059
▁서	-9.50679
결	-9.50747
▁빠지	-9.50755
▁나눠보	-9.50756
메	-9.50812
▁바라	-9.50838
매	-9.50877
▁놓아	-9.50924
남자	-9.51011
오	-9.51026
▁많을	-9.51063
▁하는건	-9.511
▁타다	-9.51121
▁미워	-9.51151
▁건강에	-9.51244
▁끝내	-9.51489
▁이해가	-9.5151
▁가는데	-9.51858
▁있으니	-9.52239
▁부럽네	-9.52273
▁길이	-9.52327
▁당황	-9.52459
▁맘에	-9.52507
▁다니	-9.5262
▁사귄	-9.52669
▁표현해	-9.5272
▁생각에	-9.52836
▁타이밍	-9.53021
▁어렵	-9.53049
▁기다리	-9.53066
▁마음으로	-9.53094
▁적응	-9.53176
▁이게	-9.53238
▁오면	-9.53246
▁놀러	-9.53246
▁공감	-9.53475
▁조절	-9.53559
▁찾아오	-9.53591
리고	-9.53592
웠	-9.53811
량	-9.53862
레	-9.53862
▁반대	-9.53885
토	-9.53886
▁쓰고	-9.53899
▁콩깍지	-9.53899
넌	-9.53899
▁냉장고	-9.53899
▁만나기로	-9.53901
▁축구	-9.53903
▁알면서도	-9.53904
▁환승이별	-9.53907
▁가벼	-9.53908
▁맛집	-9.53922
▁여전	-9.53924
▁언제쯤	-9.53929
▁아니니	-9.53935
▁고통	-9.53966
▁소비	-9.53977
▁필요하다면	-9.53992
▁외로워	-9.54007
▁이러지	-9.54034
▁친구들이랑	-9.54056
▁인간	-9.5406
▁새벽에	-9.54068
▁만든	-9.54105
▁가능성이	-9.54137
▁답답한	-9.54182
▁자격이	-9.542
▁나쁘지	-9.54232
▁바꾸	-9.54313
▁허	-9.54385
▁계절이	-9.5439
▁철	-9.54392
▁있다	-9.54442
▁놓	-9.5446
▁응원해	-9.54478
▁마시고	-9.54486
▁했나봐	-9.54525
▁다들	-9.54532
조차	-9.54584
▁싸움	-9.5471
▁있었을	-9.54893
▁썸인지	-9.55089
▁남사친이	-9.55145
▁됐네	-9.5515
▁애들	-9.55388
거리	-9.55424
▁그러게	-9.55632
글	-9.55714
▁흔들리지	-9.55837
▁헤어지면	-9.55879
▁썸인데	-9.5604
▁바다	-9.56112
▁년간	-9.56197
려면	-9.56213
▁나에게	-9.56227
치가	-9.56301
리기	-9.56302
▁때를	-9.56371
▁재	-9.56495
▁중요	-9.56495
기는	-9.56546
▁늦은	-9.56582
▁동물	-9.56598
▁나보다	-9.56642
▁보내는	-9.56751
▁심하	-9.56759
하셨	-9.56775
▁우울해	-9.56945
▁남편	-9.56956
본	-9.57006
▁답이	-9.57035
▁수다	-9.57278
연	-9.57462
▁가까	-9.57507
움	-9.57868
▁어서	-9.57946
▁나타	-9.58022
인가요	-9.58131
▁도와주	-9.58251
▁힘들었을	-9.58292
▁답답해	-9.58307
때는	-9.58331
▁행복할	-9.58386
추	-9.58393
칠	-9.58409
▁이럴	-9.58615
어보세요	-9.5864
▁일하는	-9.58652
▁곁에	-9.58661
▁근처	-9.58661
▁벚꽃	-9.58661
▁현재	-9.58661
▁희망	-9.58661
▁맥주	-9.58661
▁귀여워	-9.58666
▁멋져	-9.58676
▁달째	-9.58676
▁공통	-9.58685
▁이미	-9.58688
▁지칠	-9.587
▁완벽한	-9.58722
▁되었습니다	-9.58736
▁집들이	-9.58757
▁통화	-9.58765
▁고민임	-9.58781
▁반지	-9.5881
▁복잡한	-9.58818
▁거기까지인	-9.5885
▁여자친구에게	-9.5894
▁극복할	-9.58997
▁끝났어	-9.59009
▁떨리	-9.59076
▁걸릴	-9.59088
은연	-9.59196
▁느끼는	-9.59336
▁마지막으로	-9.59381
▁초대	-9.5948
▁능력	-9.59486
테니	-9.59501
었는데	-9.59552
▁나을까	-9.5975
▁싸우면	-9.59823
▁회사에	-9.59883
▁거의	-9.60045
인듯	-9.60048
타기	-9.60269
▁위	-9.60282
조	-9.60476
▁생각하면	-9.60476
피	-9.60606
티	-9.6073
▁하자고	-9.60918
▁몸에	-9.60923
▁이제야	-9.60957
▁혼자만	-9.61014
▁너를	-9.61046
▁동안	-9.61129
▁웃	-9.61172
▁잘못인	-9.61243
▁믿음	-9.61394
▁차리	-9.61479
야지	-9.61566
▁받으면	-9.61572
▁했	-9.61597
▁태도	-9.61632
▁재밌	-9.6192
드리	-9.62281
▁시작해	-9.62287
▁피곤한	-9.62345
셨나봐	-9.62492
▁있겠	-9.6266
▁진	-9.62665
가봅니다	-9.6272
▁부담스러워	-9.63058
▁술이	-9.63065
▁혼자서	-9.6319
었	-9.63209
▁자유	-9.63396
체	-9.63511
▁다녀	-9.63575
▁실망	-9.63637
▁지나	-9.63642
▁찍어	-9.63661
▁프로포즈	-9.63661
▁멀리	-9.63661
▁받은	-9.63661
▁빼빼로	-9.63661
▁신뢰	-9.63661
▁아까워	-9.63661
▁에너지	-9.63661
▁외모	-9.63661
▁웬수	-9.63661
▁청첩장	-9.63661
▁하루하루	-9.63661
▁심경	-9.63662
하겠습니다	-9.63663
▁고마워	-9.63665
▁빠르	-9.63672
▁싸워	-9.63676
▁응원합니다	-9.63685
▁두근거리겠	-9.63692
▁성향	-9.63722
▁달라진	-9.63737
▁알아차	-9.63758
▁말해볼까	-9.63808
▁어디까지	-9.63813
▁스스로에게	-9.63859
▁줄여	-9.63862
▁있었	-9.63874
▁일주일	-9.63877
▁이름이	-9.63881
▁별거	-9.63922
차근	-9.63925
▁해야할지	-9.63939
▁놀러가	-9.63952
▁뒤에서	-9.64005
▁향	-9.64035
▁글로	-9.64068
▁습관이에요	-9.64128
재	-9.64179
▁신나	-9.64222
▁고백해도	-9.64325
▁못해요	-9.6438
▁깊은	-9.64402
▁왔으면	-9.6441
▁우선	-9.64419
▁왔네	-9.64435
싶어	-9.64523
▁가리	-9.64615
▁청	-9.64644
▁했나	-9.64688
▁자체가	-9.64727
▁가능한	-9.64762
▁괜찮아지	-9.64824
▁선택이	-9.64838
해줄	-9.64877
▁중간	-9.64882
▁알았어	-9.64946
▁남자랑	-9.64972
▁함	-9.64977
▁밀당	-9.65166
▁주말이	-9.65167
▁정리하	-9.65185
▁교회	-9.65265
하던	-9.65326
냈어	-9.65393
▁불행	-9.65553
저	-9.65734
▁놈	-9.65785
▁당연하	-9.65841
친구	-9.65865
▁해야할까	-9.65899
▁이혼	-9.65902
김	-9.65906
▁오네	-9.65945
▁전화를	-9.65956
먹기	-9.65972
▁돌아	-9.66075
▁매력	-9.66165
▁의지	-9.66171
▁있기	-9.66356
▁후회해	-9.66385
▁표현하는	-9.66604
▁선생님이	-9.66809
해야지	-9.66844
▁하던	-9.66898
▁신청	-9.66943
래요	-9.67016
▁꺼	-9.6702
▁같지	-9.67109
봤	-9.6726
▁인생을	-9.67268
▁어떨까	-9.67269
▁주가	-9.67544
▁무시	-9.67573
▁마무리	-9.67662
▁남았	-9.67703
▁아닌가	-9.67794
▁페북	-9.6785
▁결심	-9.67936
▁키	-9.67954
▁한다	-9.67989
▁오랜	-9.68019
▁버스	-9.68043
려나	-9.68138
▁봄이	-9.68166
▁피곤	-9.68169
▁소원	-9.68239
▁긴장	-9.68283
하길	-9.68296
해볼까	-9.68376
▁후에	-9.68379
▁고쳐	-9.68437
▁다르겠	-9.68572
▁회식	-9.68852
▁스키	-9.68892
▁간접적	-9.68924
▁기분전환	-9.68924
▁나혼자	-9.68924
▁생겨	-9.68924
▁쓰면	-9.68924
▁억지로	-9.68924
▁오늘따라	-9.68924
▁왤케	-9.68924
▁핑계	-9.68924
▁악몽	-9.68924
▁용돈	-9.68925
▁대출	-9.68928
▁매너	-9.68928
▁골라	-9.68931
▁버릴	-9.68938
▁말해주	-9.68951
▁막말	-9.68965
▁부자	-9.69035
▁경쟁	-9.69066
▁행운	-9.69082
▁흐르고	-9.69095
▁착한	-9.69119
▁직장에서	-9.69175
▁놓치	-9.69182
▁경	-9.69188
럽게	-9.69226
▁멋지	-9.69251
▁좋아했는데	-9.69264
▁센스	-9.6934
▁해야겠다	-9.69353
▁쓸	-9.6943
▁새로	-9.69537
▁맞아	-9.69718
식	-9.69776
▁아침이	-9.6986
▁짝사랑은	-9.69911
▁먹어보세요	-9.69931
▁너에게	-9.69949
하려고	-9.70076
▁채워	-9.70176
▁결혼할	-9.70205
▁이어나가는	-9.70262
▁노는	-9.70291
▁봐서	-9.70373
▁카드	-9.70509
분	-9.70644
만으로	-9.7073
▁전해	-9.7092
▁째	-9.71187
친	-9.71303
하려	-9.71402
▁정상	-9.71426
▁많아서	-9.71599
▁다가가는	-9.71832
▁가족이	-9.71886
▁많지	-9.71914
▁연	-9.71918
▁기간	-9.72272
▁잊으	-9.72521
▁달라지	-9.72533
였나	-9.72676
▁없을까	-9.72681
▁다행이	-9.72783
거겠죠	-9.73069
▁괜찮다	-9.73286
▁최고	-9.73583
▁잡	-9.73642
▁피하	-9.73679
▁잡아	-9.73786
▁우리는	-9.73795
▁멋있	-9.73832
▁쓰레기	-9.73885
▁여행가	-9.73905
▁하루도	-9.73918
▁문	-9.74181
▁년의	-9.74318
▁꼬	-9.74349
▁하지마	-9.74399
▁이겨내	-9.74431
▁산책	-9.74474
▁딸기	-9.7448
▁빌어	-9.7448
▁쓰지	-9.7448
▁아름다워	-9.7448
▁잤어	-9.7448
▁찾기	-9.7448
▁찾는	-9.7448
▁초콜릿	-9.7448
▁충격	-9.7448
▁후유증이	-9.7448
껏	-9.7448
쩍	-9.7448
푼	-9.7448
▁고맙다	-9.7448
▁밝혀	-9.7448
▁차라리	-9.7448
줬는데	-9.7448
▁위로봇	-9.74482
▁깨끗	-9.74483
▁일어났	-9.74483
▁명절	-9.74485
▁느껴져	-9.745
▁신중	-9.74509
▁시선	-9.74518
▁잘못된	-9.74568
▁많다	-9.74579
▁들여	-9.74596
▁시간도	-9.74623
▁사내	-9.74653
▁있을까요	-9.74748
▁누구에게	-9.7477
▁맞을까	-9.74785
▁상대에	-9.74796
▁빠를	-9.74903
▁뭐할까	-9.74959
▁들었어	-9.74968
▁때문이	-9.75
▁잡으	-9.75056
▁유	-9.75084
▁결혼은	-9.75173
▁왔습니다	-9.75305
▁그대	-9.75367
▁아니지만	-9.75633
▁친해지는	-9.75741
▁같아서	-9.75882
▁하늘을	-9.75895
▁좋아하지	-9.76016
▁나가기	-9.76019
▁재미가	-9.76099
▁축하	-9.76211
마시면	-9.76257
▁다리	-9.76278
▁밤에	-9.76343
▁거면	-9.76353
▁되었나	-9.76358
▁말하지	-9.76455
▁돌아오	-9.76565
▁선생님	-9.76766
새	-9.76819
이니	-9.7685
▁디	-9.76853
▁여사친이	-9.76986
▁신경쓰이	-9.76988
▁일만	-9.77012
▁맞을	-9.77019
위	-9.77071
줬으면	-9.77096
▁재미있	-9.77135
역	-9.77195
왔어	-9.77213
리를	-9.77226
▁화가	-9.77258
▁전남친이	-9.77369
ᅲᅲ	-9.77417
▁가도	-9.77604
▁걱정되겠	-9.77608
▁있을지	-9.77657
▁김	-9.77772
▁실	-9.77858
들어	-9.77871
▁버려	-9.77939
▁얼굴이	-9.78104
는거	-9.78139
▁잘해	-9.78214
▁방학이	-9.7834
화	-9.78466
▁야근	-9.78538
▁너도	-9.78688
겠습니다	-9.78695
구나	-9.78913
▁그렇다	-9.79235
▁사람인데	-9.79261
▁틀	-9.79347
돼	-9.79391
나게	-9.79475
▁취향	-9.79491
▁알아가	-9.79604
▁음악	-9.79608
▁시계	-9.79621
시나	-9.79644
▁따뜻하	-9.79697
되는	-9.79724
▁상사	-9.79728
▁삭제하는	-9.79995
아주	-9.80108
▁좋으면	-9.80113
▁사람만	-9.80171
▁보내주	-9.80203
버려	-9.80203
▁심	-9.80239
▁썸은	-9.80245
▁외롭	-9.80281
쯤	-9.80293
곤	-9.80334
▁고쳐쓰는	-9.80362
▁괴로워	-9.80362
▁꽃다발	-9.80362
▁비슷한	-9.80362
▁앞두고	-9.80362
▁자괴감	-9.80362
▁즐겁	-9.80362
▁트라우마	-9.80362
▁나아졌	-9.80363
▁허전하	-9.80363
▁우선순위	-9.80363
▁두려움	-9.80363
▁업무	-9.80364
▁목표	-9.80364
▁특별	-9.80366
▁시어머니가	-9.8037
▁조급해	-9.80374
▁과식	-9.80375
▁대단하	-9.80375
▁실내	-9.80375
▁여우	-9.80381
▁기원	-9.80399
교통	-9.80408
▁비난	-9.80426
▁일년	-9.80442
▁생겼으면	-9.80447
수도	-9.80458
▁종일	-9.80541
▁배우자	-9.8057
▁잊는다는	-9.80588
▁아무렇지도	-9.80603
▁느낌이야	-9.80634
▁성공할	-9.80734
▁하루에도	-9.80823
▁있대	-9.80908
▁사람인가	-9.80933
▁술을	-9.80935
▁당황했	-9.81054
▁덜할	-9.81327
▁싶다고	-9.81337
▁시키	-9.81465
▁잊어야	-9.81527
▁생각할까	-9.81605
▁준비하는	-9.81652
▁집착하	-9.81662
였어	-9.81685
으니까	-9.81728
▁좋아하는거	-9.81862
▁상태	-9.81933
▁말라고	-9.82087
하려는	-9.8215
거죠	-9.8218
▁도전해	-9.82185
줬어	-9.82199
▁포기하는	-9.82282
▁찾아가	-9.82308
▁여자들이	-9.82486
▁뭐하는	-9.82504
▁싱숭생숭	-9.8276
▁신경이	-9.82771
▁경험이	-9.82845
▁지나갔	-9.82845
▁끝일	-9.82853
▁살면	-9.82862
복	-9.82905
바	-9.82916
▁올해	-9.83091
▁별로라	-9.83213
함이	-9.83408
작	-9.83456
배	-9.83556
지기	-9.83599
크	-9.83604
▁사람이니까	-9.83653
짓	-9.83655
▁무시하는	-9.83675
종	-9.83679
▁약이	-9.83751
▁연애로	-9.84153
도시	-9.84235
▁개월이	-9.84562
▁헤어짐을	-9.84598
▁보게	-9.84615
▁친구들	-9.84899
▁가만	-9.85195
먹	-9.85215
▁알았	-9.85227
▁없나봐	-9.85293
하자고	-9.85577
▁보여주	-9.85813
▁동생	-9.85837
▁공무원	-9.85858
▁여기까지	-9.85873
▁긍정적	-9.85873
▁어떡하	-9.861
▁바라는	-9.86237
난다	-9.86244
▁미안해	-9.86267
▁내려놓	-9.8636
▁무섭	-9.86371
▁냄새	-9.864
플	-9.86402
▁안되겠지	-9.8642
▁자는	-9.86462
▁바꿔	-9.86495
빛	-9.8656
▁늦어	-9.86571
▁잊혀질	-9.86573
▁메모	-9.86612
▁깨닫	-9.86612
▁느낄	-9.86612
▁단호	-9.86612
▁동호회	-9.86612
▁메뉴	-9.86612
▁변명	-9.86612
▁셀카	-9.86612
▁의미부여	-9.86612
▁인스타	-9.86612
▁자존심	-9.86612
▁하루종일	-9.86612
▁힘듭니다	-9.86612
강습	-9.86612
왕	-9.86612
킁	-9.86612
▁결혼적령기	-9.86612
▁관련	-9.86612
▁앞머리	-9.86612
▁겨우	-9.86612
▁달콤	-9.86614
▁치유	-9.86614
▁어필해	-9.86616
▁운전	-9.86617
▁기울여	-9.86617
▁그립	-9.8662
▁성별	-9.86621
▁사업	-9.86628
바이	-9.86628
▁문신	-9.86632
▁영화관	-9.86638
였으면	-9.8664
▁나아질	-9.86643
▁먹었는데	-9.86643
▁이기적인	-9.86644
▁단단	-9.86649
▁다음부터	-9.86692
▁집착해	-9.86709
꼬박	-9.86713
▁힘든가봅니다	-9.86717
▁잘못이	-9.86717
▁좋았는데	-9.86719
▁중국어	-9.8673
▁지나간	-9.86736
▁가족들	-9.86756
맥이	-9.86762
▁잠수	-9.86771
▁받아들이기	-9.8687
▁여자친구한테	-9.86912
▁욕심	-9.86951
▁아빠가	-9.86965
인가봅니다	-9.86994
▁어린	-9.87023
▁올라	-9.87032
문	-9.87054
▁길어	-9.87073
▁키우고	-9.87099
▁꿀	-9.87108
▁의심	-9.87127
▁받아야	-9.8714
▁만드는	-9.87162
▁걸려	-9.87207
▁여자와	-9.87242
▁놀러가고	-9.87253
▁맞나	-9.87263
▁남자한테	-9.87329
▁죽고	-9.87349
왔는데	-9.8735
▁키가	-9.87489
▁코스	-9.87496
▁결혼하면	-9.87507
▁자격증	-9.87509
▁느껴지	-9.87692
▁널	-9.87698
▁계기	-9.87713
▁산	-9.87749
▁다양하	-9.87813
▁상의	-9.87902
지네	-9.87917
만한	-9.87923
▁좋아한다	-9.88117
▁속도	-9.88222
▁아기	-9.88232
▁어머	-9.88284
▁신고하	-9.88306
해지면	-9.88324
▁읽어	-9.88361
▁맛난	-9.88387
번호를	-9.88433
▁걱정이	-9.88434
▁있음	-9.88477
▁옴	-9.8849
▁끝에	-9.88527
▁끝나고	-9.88612
▁슬프네	-9.88615
▁설	-9.88626
▁자신과	-9.88632
▁대화가	-9.88643
로부터	-9.88675
▁지켜보	-9.88879
해주지	-9.88933
▁빠	-9.89134
▁물리적	-9.89191
▁삭제	-9.89259
▁가치관이	-9.89535
터	-9.89582
▁어렵네	-9.89586
▁일부	-9.89631
짐	-9.8966
아지	-9.8968
▁알기	-9.89906
▁친구도	-9.90029
셨	-9.9007
하나	-9.90081
▁세상이	-9.90119
꾸	-9.90147
박	-9.90149
학	-9.9017
급	-9.90206
▁재미있어	-9.9022
▁보는게	-9.90255
돌	-9.90285
개	-9.90331
▁기간이	-9.90345
▁생각한	-9.90368
▁큰일	-9.90435
▁하려고	-9.90447
▁말해도	-9.90544
▁지워	-9.90558
▁기억이	-9.90584
▁흔들리	-9.90616
▁입을	-9.90653
▁결	-9.90681
먹고	-9.90712
▁후회하	-9.90741
▁부담스러워하	-9.90896
였	-9.90943
▁성	-9.91135
▁키우	-9.91147
됐어	-9.91311
▁줄까	-9.91615
▁나온	-9.91747
▁다가	-9.91906
▁힘드	-9.9209
하러	-9.92109
버리	-9.92207
▁과거	-9.92216
▁성공하	-9.92238
▁장소	-9.9245
▁노후	-9.92489
▁그리움	-9.92556
▁야경	-9.92591
▁안부	-9.92662
워질	-9.92699
▁어쩌	-9.92767
관	-9.928
▁필	-9.92816
▁퇴근	-9.93064
▁전화하는	-9.93085
▁클럽	-9.93162
▁부담스러운	-9.93217
▁어려	-9.93223
했지만	-9.93241
▁보험	-9.93276
궁	-9.93278
▁끊는	-9.93279
▁변한	-9.93279
▁썼어	-9.93279
▁염색	-9.93279
▁이벤트	-9.93279
▁찜질방	-9.93279
▁출퇴근	-9.93279
▁택배	-9.93279
▁호의	-9.93279
꽤	-9.93279
▁여드름	-9.93279
▁정신차리	-9.93279
▁증오	-9.93279
▁교양	-9.93281
▁에휴	-9.93282
▁좋으시	-9.93282
▁마주쳐	-9.93282
▁분담	-9.93284
▁감싸	-9.93285
▁취미생활	-9.93287
▁외국인	-9.93287
▁익숙해질	-9.93289
▁걱정된다	-9.93295
▁마셔야지	-9.93296
▁불편해	-9.93301
▁까먹었다	-9.93301
▁두셨	-9.93306
▁이번에는	-9.93312
▁힘드신가	-9.93312
▁대체	-9.93314
▁궁금하	-9.93316
▁달라져	-9.93333
▁먹었어	-9.9334
▁개월만에	-9.93341
▁고르	-9.93352
▁같음	-9.93354
▁갔는데	-9.93356
▁전혀	-9.93358
▁성공적	-9.9336
▁여름	-9.93377
▁공허함이	-9.93399
▁부드	-9.93406
▁점심	-9.93418
▁우연히	-9.93425
▁행복해질	-9.93468
▁스타일이	-9.93469
▁헤어졌네	-9.93471
▁언제까지	-9.93501
▁반장	-9.93573
▁포	-9.93619
▁선배가	-9.93663
▁많네	-9.9372
▁티내	-9.93721
▁일정	-9.93725
▁익숙해지지	-9.93751
▁일차	-9.93754
▁카페에서	-9.93766
시다	-9.93778
▁짠	-9.93809
▁차례	-9.93826
▁갔다	-9.93963
▁혼자만의	-9.93973
▁언제든	-9.93986
▁사랑했나봐	-9.94003
▁속상해	-9.94052
▁나지	-9.94053
▁수가	-9.94125
▁팔	-9.94205
▁치료	-9.94233
▁지금보다	-9.94235
▁결정할	-9.94246
▁아프고	-9.94359
▁해주면	-9.94393
▁두달이	-9.94541
▁그만두	-9.94634
▁남는	-9.94658
▁웃을	-9.9472
▁쓰이	-9.94732
▁문제로	-9.94817
▁맛있	-9.9482
진다	-9.94839
▁떠나고	-9.94919
▁그러는	-9.9494
▁위해서	-9.95002
▁변하는	-9.95046
▁봤어	-9.95048
▁물어보면	-9.95059
▁들으면	-9.95082
▁되겠지	-9.95138
▁아니고	-9.95173
▁학	-9.95175
▁만나자	-9.95276
▁못하면	-9.95372
▁울	-9.95387
▁될거예요	-9.95445
▁잊	-9.95475
되겠	-9.95565
▁이상형이	-9.9558
▁나온다	-9.95646
▁가끔은	-9.95658
째	-9.9569
▁있는거	-9.95709
▁축하해주	-9.95748
▁시작해보	-9.9579
▁소식	-9.95813
▁년을	-9.95838
▁떠보	-9.95849
▁정의	-9.96144
하지만	-9.96201
약	-9.96201
해야할까	-9.96235
▁맛이	-9.96235
했네	-9.96361
▁박	-9.96366
▁티가	-9.96391
불	-9.96576
▁소문	-9.96719
▁나네	-9.96773
탈	-9.9679
▁그럴만	-9.96791
▁살지	-9.96806
▁헤어	-9.96814
반	-9.96859
▁나왔	-9.9686
▁생겼을	-9.97014
▁해봐	-9.97065
▁서운하	-9.97086
놈	-9.97154
맞	-9.97172
▁있었어	-9.97209
양	-9.97225
▁걸까요	-9.9727
디	-9.97276
▁가치관	-9.9731
▁고백했	-9.97364
▁돌리	-9.97403
▁연락하	-9.97437
둘	-9.97482
밥	-9.97488
하긴	-9.97528
▁와서	-9.97559
▁메	-9.97755
▁몰랐	-9.97885
우면	-9.98053
▁애매하	-9.98164
이란	-9.98336
스러운	-9.98447
▁바지	-9.98603
▁먹기	-9.98861
▁받아들	-9.99113
하는거	-9.99203
▁지는	-9.99403
이예요	-9.9946
▁한거	-9.99558
▁편해	-9.99629
▁애교	-9.99662
드려요	-9.99688
값	-9.99709
▁피부	-9.99711
줘야	-9.99734
▁말투	-9.99737
▁받으	-9.99804
▁견뎌	-9.99827
▁계	-9.99911
▁때로	-10.0013
오면	-10.0014
야할까	-10.0014
혀	-10.0029
렸어	-10.0032
▁변해	-10.0038
봅시다	-10.0041
▁맞추	-10.0041
▁가늠	-10.0042
▁최근	-10.0042
▁구멍이	-10.0042
▁기프트콘	-10.0042
▁누굴	-10.0042
▁도대체	-10.0042
▁마침표	-10.0042
▁무관심	-10.0042
▁비싼	-10.0042
▁삼겹살	-10.0042
▁아름답	-10.0042
▁아이스크림	-10.0042
▁이뻐	-10.0042
▁표정	-10.0042
▁추석	-10.0042
▁드라이브	-10.0042
▁어떠	-10.0042
▁예감	-10.0042
▁데려가	-10.0042
▁흘려	-10.0042
▁사회생활	-10.0042
▁미친듯이	-10.0042
▁실례	-10.0043
▁의외	-10.0043
▁축복	-10.0043
▁나누	-10.0043
▁보일러	-10.0044
▁소심해	-10.0044
▁지갑	-10.0044
▁힘드시겠	-10.0045
▁장점	-10.0045
▁자취	-10.0045
▁답답할	-10.0046
▁아님	-10.0047
▁빠른	-10.0047
▁적금	-10.0048
▁정리될	-10.0049
▁만나보	-10.0049
▁공시	-10.005
▁생각만해도	-10.0052
지긋	-10.0053
▁많으면	-10.0056
었습니다	-10.0056
▁안되네	-10.006
▁해주고	-10.006
▁고장	-10.006
▁으	-10.0062
▁않겠지만	-10.0067
▁태어난	-10.0068
▁오래된	-10.0072
▁그저	-10.0072
▁찼	-10.0077
짐에	-10.0078
▁대화하는	-10.0079
▁금연	-10.0084
▁일들이	-10.0087
▁지우	-10.0087
▁사야지	-10.0097
▁된다	-10.0097
▁아플	-10.0106
▁니가	-10.0108
▁안되나	-10.0109
▁지났	-10.0115
버렸어	-10.0121
시간이	-10.0123
▁보낼	-10.0129
각	-10.0138
▁점이	-10.0141
▁행동이	-10.0144
▁나아지	-10.0146
▁조건	-10.0149
▁경험	-10.0162
▁힘든데	-10.0168
지가	-10.0199
하고싶어	-10.0202
▁썸만	-10.0203
▁올까	-10.0219
▁이용해	-10.0226
▁심한	-10.0227
심으로	-10.025
▁상담을	-10.0259
일이	-10.0265
▁다르지	-10.0268
▁입고	-10.0272
▁입지	-10.0277
이라니	-10.0279
▁놀랐	-10.028
▁나한테만	-10.0297
▁거기까지였	-10.0303
았어	-10.0308
▁이해하	-10.0309
▁칭찬해주	-10.032
▁착각	-10.0328
한데	-10.0347
드려	-10.0357
▁아프지	-10.036
▁좋았	-10.0361
고싶은데	-10.0374
▁느껴	-10.0385
만의	-10.0386
려도	-10.0407
▁걸음	-10.0411
▁놀이	-10.0417
▁물어보고	-10.0426
▁했어요	-10.0438
▁걱정되	-10.0448
▁괜찮지	-10.0456
했다	-10.0462
▁헤어져	-10.0464
▁살아가	-10.0468
▁연애하고	-10.0473
년	-10.048
무	-10.0494
▁당신만	-10.0495
합	-10.0497
▁말하고	-10.0499
연애	-10.0502
▁자기도	-10.0505
공	-10.051
초	-10.0513
ᅲ	-10.0514
▁늘	-10.0515
하겠네	-10.0539
▁썸에서	-10.0551
▁예쁘	-10.0555
▁지내는	-10.0556
▁썸을	-10.0562
부	-10.0565
양해	-10.0576
건데	-10.0583
▁건가요	-10.0585
▁끝났	-10.0593
▁읽어보	-10.0599
▁이뤄	-10.0609
▁선택할	-10.0613
▁거지	-10.0617
▁그리운	-10.064
▁그때	-10.0644
▁이별하고	-10.0649
▁노력해	-10.0676
름	-10.0687
▁아니라는	-10.0696
▁취해	-10.0711
았으면	-10.072
▁않았을	-10.0723
리지	-10.0728
▁흘러	-10.0738
▁사람일	-10.0744
▁흔적	-10.0747
번씩	-10.0748
▁충전하	-10.0751
▁끝인	-10.0755
▁썸타	-10.0761
▁그만하고	-10.0767
▁그를	-10.0784
▁판단	-10.079
▁이름	-10.0794
▁잊기	-10.0798
▁떠오르	-10.0801
▁회복	-10.0806
디션	-10.0806
▁파혼	-10.0808
푸	-10.0809
뒀	-10.0811
▁새출발	-10.0811
▁애정표현	-10.0811
▁동료가	-10.0811
▁받기	-10.0811
▁봉사활동	-10.0811
▁새학기	-10.0811
▁스팸	-10.0811
▁슬픔	-10.0811
▁애틋	-10.0811
▁의견	-10.0811
▁인정받고	-10.0811
▁접는	-10.0811
▁첫인상	-10.0811
▁최악	-10.0811
▁특징	-10.0811
▁피크닉	-10.0811
▁흑역사	-10.0811
▁흥미	-10.0811
즈	-10.0811
▁끊기	-10.0811
▁모으	-10.0811
▁오히려	-10.0811
▁며칠	-10.0811
▁제주도	-10.0812
▁신혼여행	-10.0812
▁인턴	-10.0812
▁다정한	-10.0812
▁뭐하냐	-10.0812
▁회원	-10.0812
▁필요했을	-10.0812
▁제자리	-10.0812
▁조카	-10.0812
▁붙여	-10.0813
▁미친	-10.0813
▁모자라	-10.0813
▁사라질	-10.0813
▁동성	-10.0814
▁막혀	-10.0814
▁세워	-10.0814
▁마실까	-10.0815
▁빠져	-10.0815
▁동감	-10.0815
테리	-10.0815
▁망상	-10.0815
▁필름	-10.0816
▁답답하네	-10.0817
▁천재	-10.0817
▁화내	-10.0817
▁방식	-10.082
▁참았어	-10.082
▁연락해보는	-10.0821
▁깨달음	-10.0821
▁활	-10.0822
▁지울	-10.0823
▁정신적	-10.0825
▁이불	-10.0825
▁온다	-10.0826
▁영원한	-10.0826
▁사랑하는지	-10.083
▁꺼내	-10.0831
▁수염	-10.0831
버림	-10.0832
▁낫겠지	-10.0835
▁불안해	-10.084
▁아프다	-10.084
▁향기	-10.0841
▁정류장	-10.0841
▁위기	-10.0842
▁가사가	-10.0853
▁달려있	-10.0861
▁지우고	-10.0868
▁했을	-10.0873
▁멀어지	-10.0876
▁중입니다	-10.0882
▁당했어	-10.0884
▁예민해	-10.0885
▁아닌거	-10.0885
▁야경이	-10.0892
▁정확	-10.0893
▁있어야	-10.0899
▁확실	-10.0899
나서	-10.0917
▁당한	-10.0918
▁병	-10.092
▁돌아가고	-10.0923
▁찌	-10.0923
▁생각했는데	-10.0925
▁떠났	-10.0932
▁생각날	-10.0933
더	-10.0937
▁편하	-10.0938
▁터	-10.094
▁어색해	-10.0943
▁케이스	-10.0947
▁당신에게	-10.0948
▁놔	-10.0965
▁사주	-10.099
▁행	-10.0994
하시	-10.0996
▁갖자	-10.1
▁않겠	-10.1002
▁클	-10.1016
▁만에	-10.1019
이네	-10.1022
▁고백하고	-10.1027
▁자다가	-10.1034
▁착	-10.1038
▁아쉽	-10.1039
▁카	-10.1042
▁먹은	-10.1081
뿐	-10.1082
▁남길	-10.1086
▁결혼해야	-10.1089
▁재회를	-10.1097
해질	-10.1102
▁차이가	-10.1121
▁해드	-10.1123
석	-10.1124
▁보이는	-10.1125
▁행복해지	-10.1126
▁연락할	-10.113
▁없었	-10.1132
돼서	-10.1133
이었으면	-10.1136
주고	-10.1142
법	-10.1143
되면	-10.1148
분이	-10.1166
▁달이	-10.1178
▁마주치	-10.1183
있어	-10.1183
야하나	-10.1208
▁모든게	-10.1209
▁한다는	-10.1218
줘서	-10.1229
▁소리가	-10.1234
▁되었네	-10.1241
▁일인	-10.1241
다는데	-10.1286
▁좋아한다는	-10.1288
▁용서	-10.1288
순	-10.129
▁끌	-10.1293
▁애기	-10.1304
▁처음이	-10.1308
▁치	-10.1308
극	-10.1324
냈	-10.1333
▁음	-10.1334
▁연애하는	-10.1334
찬	-10.1342
코	-10.1344
폰	-10.135
▁드려	-10.1361
▁편하겠	-10.137
▁가치	-10.1381
▁해줄	-10.1382
▁친	-10.1384
▁시원하	-10.1408
▁마셨	-10.1427
▁확실하	-10.143
▁받아들여	-10.1432
▁노	-10.1459
셨어	-10.1461
▁보일	-10.1504
이별	-10.1504
능	-10.1511
을텐데	-10.1525
▁정확하	-10.1527
운을	-10.1533
▁견디	-10.1537
▁사랑하	-10.1544
▁남은	-10.1553
▁들을	-10.1554
계절	-10.1558
▁성적	-10.1578
▁만드	-10.1585
럽	-10.1588
▁멋	-10.1594
▁여행이	-10.1596
▁유학	-10.1603
▁배고파	-10.1609
▁마음에서	-10.1621
▁썸인가	-10.1629
잖아	-10.1632
님	-10.1634
▁발렌타인데이	-10.1636
▁참견	-10.1638
링	-10.1639
▁듣기	-10.1639
▁하니까	-10.164
▁피곤하	-10.164
▁택시	-10.1643
▁쌩얼	-10.1643
쪄	-10.1644
▁스트레칭	-10.1645
▁ᄒᄒ	-10.1645
▁가볍	-10.1645
▁긁었어	-10.1645
▁기숙사	-10.1645
▁낚시	-10.1645
▁노트북	-10.1645
▁랜선	-10.1645
▁몸무게	-10.1645
▁무의식	-10.1645
▁믿으	-10.1645
▁부딪혔	-10.1645
▁빼고	-10.1645
▁사랑받고	-10.1645
▁수면양말	-10.1645
▁어젯밤	-10.1645
▁염탐하	-10.1645
▁잠재력	-10.1645
▁정규직	-10.1645
▁호칭	-10.1645
댈	-10.1645
쎄	-10.1645
▁단둘이	-10.1645
▁낭비	-10.1645
▁비하하지	-10.1645
▁추운	-10.1645
▁시골	-10.1645
▁흘리	-10.1646
▁소유	-10.1646
▁맞춤법	-10.1646
▁방문	-10.1646
▁다가오	-10.1646
▁배울	-10.1646
▁속박	-10.1646
▁행복해보여	-10.1646
▁차갑	-10.1647
▁한강	-10.1647
▁푸는	-10.1647
▁추천해줘	-10.1647
▁넘었네	-10.1648
▁포장	-10.1649
▁갑작스럽	-10.1649
▁크시겠	-10.1649
▁좋았으면	-10.165
▁주식	-10.1651
▁책임	-10.1652
▁사생활	-10.1654
▁없으니까	-10.1654
▁이직	-10.1654
▁바디	-10.1655
▁두번	-10.1655
▁대답	-10.1657
▁미화되기	-10.1662
▁아무말	-10.1663
▁아마	-10.1664
▁점심시간에	-10.1669
▁행복할까	-10.1672
▁년만에	-10.1672
▁좋아했으면	-10.1673
▁잊으려고	-10.1674
▁팔아	-10.1674
▁봤네	-10.1678
▁별로야	-10.1678
▁년이란	-10.1679
▁새해	-10.168
▁안좋은	-10.168
▁싸우는	-10.1681
▁기울이	-10.1686
형이	-10.1687
▁걸린	-10.1687
▁만나러	-10.1694
▁뭐임	-10.1695
▁지나면	-10.1695
▁심리	-10.1695
▁지진	-10.1696
▁보자고	-10.1702
▁학교에서	-10.1712
▁연휴	-10.1712
▁받아들이	-10.1716
▁중요한데	-10.1719
▁어색한	-10.1719
▁어장	-10.1724
었다	-10.1728
▁이어주	-10.1731
▁의지해	-10.1744
▁순간이었	-10.175
▁시계는	-10.1752
▁미련없	-10.1756
▁때려	-10.1756
▁가능하면	-10.1762
▁패턴	-10.1766
▁흐르는	-10.1768
▁맛있을	-10.1775
▁맘같	-10.1777
▁지치	-10.1786
▁마음인	-10.1803
▁타나	-10.1819
았	-10.183
▁아껴	-10.1837
▁치고	-10.1855
▁운명이	-10.1857
▁맞지	-10.1862
▁아니네	-10.1871
▁아니지	-10.1884
▁정리하고	-10.1908
▁못해서	-10.1916
▁썸인	-10.192
▁애매	-10.1925
셨나	-10.1927
해가	-10.1931
▁무시해	-10.1932
▁덜어	-10.1933
▁전화가	-10.1948
▁잘해주	-10.1963
▁좋고	-10.1969
▁빠졌	-10.1979
아서	-10.1987
▁크기	-10.1994
치는	-10.1999
▁오늘이	-10.2012
▁서운	-10.2014
▁잘해주는	-10.2027
▁아니었	-10.2041
▁시간이겠	-10.2043
타	-10.2058
▁나아	-10.2059
어야	-10.2066
▁진심이	-10.2084
보여	-10.2087
▁의미가	-10.2103
▁놀까	-10.2107
▁필요한가	-10.2118
▁일에	-10.2127
됐	-10.2136
았는데	-10.2143
쳤	-10.215
▁됐	-10.2151
▁표시	-10.2175
▁왔나봐	-10.2182
▁하시	-10.2192
▁거기까지	-10.2192
▁아니었을	-10.2195
▁남자도	-10.2196
그	-10.2211
▁성장	-10.2212
외	-10.2231
▁정말로	-10.2234
끼	-10.2245
▁보이네	-10.2246
생활	-10.2246
졌으면	-10.2249
설	-10.2252
▁스	-10.2252
취	-10.2254
▁깔끔	-10.2256
▁나눠보는	-10.226
관계	-10.2262
▁바라지	-10.2267
▁함께할	-10.2268
우니까	-10.2277
▁상태인	-10.2293
있지	-10.2305
▁참는	-10.2314
▁버	-10.2317
부를	-10.2328
▁복잡	-10.2335
▁헤어졌	-10.2342
▁알지	-10.2346
▁이기	-10.2349
▁들으	-10.2349
보며	-10.237
▁머리는	-10.2372
▁중고	-10.2375
▁이용	-10.2377
▁헤아	-10.2379
▁마주하	-10.238
▁마음만	-10.2382
▁공개	-10.2392
▁연애하면	-10.2396
▁인정하	-10.2415
▁받아보	-10.2415
▁돈은	-10.2427
▁않지	-10.2436
▁사람인	-10.2455
씨	-10.2467
▁아닌가봐	-10.2476
▁누	-10.2477
▁외로움	-10.248
▁허리	-10.2489
▁꿈같	-10.2494
▁똑같	-10.2497
립니다	-10.2501
▁뭐하면	-10.2507
▁알려	-10.2511
▁트	-10.2512
▁새벽	-10.2522
국	-10.2527
야할	-10.2529
▁먹어야	-10.2533
▁미칠	-10.2535
▁나가야	-10.2535
▁냉	-10.2539
▁변덕	-10.2543
시면	-10.2545
▁두근거	-10.2546
압	-10.255
▁신혼	-10.2552
▁소개시켜	-10.2553
느냐	-10.2553
▁연락두절	-10.2554
▁설렜	-10.2554
▁프라이버시	-10.2554
▁as	-10.2554
▁높겠	-10.2554
▁따지	-10.2554
▁멀었	-10.2554
▁모쏠	-10.2554
▁반응이	-10.2554
▁비정상이	-10.2554
▁서툴러	-10.2554
▁섬유유연제	-10.2554
▁손편지	-10.2554
▁옳은	-10.2554
▁짧지	-10.2554
▁첫눈	-10.2554
▁축의금	-10.2554
▁합격	-10.2554
▁허전한	-10.2554
▁현금영수증	-10.2554
▁형편	-10.2554
놨	-10.2554
릅	-10.2554
엠	-10.2554
▁매일매일	-10.2554
▁프로필	-10.2554
▁개강	-10.2554
▁외부	-10.2554
▁함부로	-10.2554
▁개념	-10.2555
▁신발	-10.2555
▁화장품	-10.2555
▁택시비	-10.2555
▁두번째	-10.2555
▁늦잠	-10.2556
▁줄어들	-10.2556
▁어려울	-10.2556
▁갔어	-10.2557
▁끝났으면	-10.2557
▁우린	-10.2558
▁통장	-10.2558
▁친해질	-10.2558
▁좋아해줬으면	-10.2558
▁고마운	-10.2558
▁귀여	-10.2559
▁이별했습니다	-10.256
▁대우	-10.256
▁떠날	-10.256
▁끝낼	-10.2561
▁말해보는	-10.2561
▁발목	-10.2562
▁정성	-10.2562
▁좋더라	-10.2562
▁후배	-10.2563
▁움직이	-10.2563
▁쓸데	-10.2563
▁강제	-10.2563
▁한숨만	-10.2563
▁술먹고	-10.2564
▁지낼	-10.2567
▁통	-10.2567
▁끝났네	-10.2567
▁전역	-10.2568
▁웃으면	-10.2568
▁티나나	-10.2568
▁불편한	-10.2569
▁지르	-10.2569
▁공부하면	-10.257
▁밟	-10.257
▁바르고	-10.2571
▁해야돼	-10.2576
▁주차	-10.2577
▁심장이	-10.2577
▁슬프게	-10.2581
▁가스	-10.2583
▁기술이	-10.2584
▁낼	-10.2585
▁준비중	-10.2586
▁군	-10.2587
▁중요하니까	-10.2588
▁궁금할	-10.2591
▁땅	-10.2599
▁관리하는	-10.26
▁공부하기	-10.2602
▁너한테	-10.2602
드립니다	-10.2606
▁사냐	-10.2608
각이	-10.2609
▁견디고	-10.2611
▁고기	-10.2615
▁왔	-10.2618
▁사귀면	-10.2633
▁많은걸	-10.2636
▁마주치는	-10.2641
▁흘러가	-10.2642
▁어찌	-10.2646
▁피부가	-10.2649
인걸까	-10.2659
▁이해할	-10.266
▁성숙해	-10.2665
▁끝내고	-10.2665
▁사랑하기	-10.2668
▁상사가	-10.267
▁여기까지였	-10.2671
▁맛있어요	-10.2677
▁여자에게	-10.2682
▁사야	-10.2686
▁무덤덤해지	-10.2691
▁차가워	-10.2695
▁신경쓰는	-10.2713
▁기회를	-10.2721
▁참지	-10.2722
▁속은	-10.2733
▁즐기면	-10.2736
▁할게	-10.2742
▁월급이	-10.2751
▁접어두	-10.2759
▁달리	-10.2761
▁오늘부터	-10.2763
▁상대방에	-10.2771
▁하다	-10.278
들었나봐	-10.2786
▁좋을거	-10.2788
신이	-10.2792
망이	-10.2806
▁어떻게해	-10.2812
▁그걸	-10.2814
▁키우는	-10.2824
▁카톡으로	-10.2827
▁거짓말이	-10.2831
▁이유로	-10.2836
라는게	-10.2843
▁사랑한다는	-10.2855
▁먹지	-10.2868
▁당연한	-10.2874
되어	-10.2876
▁하루에	-10.2886
오네	-10.2888
▁먹자	-10.291
▁성장하	-10.2913
▁합	-10.2915
▁준비할	-10.292
▁못하는게	-10.2922
▁취직하	-10.2932
▁고고	-10.2939
▁상처는	-10.294
해졌	-10.2952
▁카톡을	-10.2957
▁처럼	-10.2962
연이	-10.2975
▁버리는	-10.2981
▁올랐	-10.2984
▁썸일	-10.2997
▁여자친구를	-10.3001
▁하러	-10.3007
▁얘기해	-10.3009
▁기억해	-10.3018
내고	-10.3023
▁짝사랑만	-10.3028
▁확인하는	-10.3033
▁절약	-10.3035
▁정리해	-10.3043
▁재밌을	-10.3057
세	-10.3061
▁보고싶	-10.3096
▁죽어	-10.31
▁들리	-10.3105
▁매력이	-10.3127
한다고	-10.3132
▁영화보	-10.3145
▁까먹	-10.3166
절	-10.3174
▁연습해	-10.3178
▁늦는	-10.3183
채	-10.3183
▁표현해보	-10.3193
▁생각하게	-10.3194
▁복잡하겠	-10.3201
남	-10.3216
▁나나	-10.3218
머	-10.3226
▁그분에	-10.3227
할거야	-10.3242
카	-10.3246
직	-10.3249
놔	-10.3252
▁무너	-10.3253
선배	-10.3254
옴	-10.3255
척	-10.3257
카드	-10.326
참	-10.3261
▁한순간	-10.3261
옷	-10.3261
착	-10.3262
셔야	-10.3289
▁나야	-10.33
▁놓으	-10.3302
▁이것	-10.3305
있	-10.3305
고싶다	-10.3308
하나봐	-10.3311
▁아껴주	-10.3328
▁솔직	-10.3335
▁끝내는	-10.337
▁언제가	-10.3371
한번	-10.3403
▁겨울	-10.3406
▁가능할까	-10.3409
▁때문일	-10.3418
▁도와	-10.3432
▁탔	-10.344
▁사랑이에요	-10.3447
룩	-10.3454
▁우연	-10.3464
네여	-10.3476
곳	-10.3477
▁차별	-10.3482
▁카톡이	-10.3484
▁하게	-10.3485
▁자격	-10.3485
▁지쳤	-10.3491
▁진급	-10.3524
랬	-10.3533
▁하는지	-10.3534
▁잇몸	-10.3541
▁침대	-10.3541
으신가	-10.3545
▁도와줘	-10.3545
▁싸웠	-10.3549
▁아물	-10.355
▁탈퇴	-10.355
▁기억에	-10.3551
▁무기력	-10.3551
스러워	-10.3552
▁이틀	-10.3552
▁돌아보	-10.3553
찰	-10.3553
▁뒷담화	-10.3554
▁갚아	-10.3554
▁걔는	-10.3554
▁꼰대	-10.3554
▁끓여	-10.3554
▁놀이동산	-10.3554
▁높아	-10.3554
▁닮은	-10.3554
▁따져	-10.3554
▁무릎	-10.3554
▁발견	-10.3554
▁배터리	-10.3554
▁뽑기	-10.3554
▁샌드위치	-10.3554
▁생리통	-10.3554
▁서류에서	-10.3554
▁셀프	-10.3554
▁소모	-10.3554
▁슈퍼	-10.3554
▁스타트업	-10.3554
▁신경써	-10.3554
▁싶을	-10.3554
▁아울렛	-10.3554
▁알바생	-10.3554
▁어둠	-10.3554
▁어떡함	-10.3554
▁유난히	-10.3554
▁이모티콘	-10.3554
▁전여자친구	-10.3554
▁좋으련만	-10.3554
▁주택	-10.3554
▁지겨워	-10.3554
▁케익	-10.3554
▁풀려	-10.3554
▁혼내	-10.3554
▁혼술	-10.3554
류	-10.3554
쫌	-10.3554
툰	-10.3554
힐	-10.3554
▁롱디	-10.3554
▁블록	-10.3554
▁의욕이	-10.3554
쭤	-10.3554
츠	-10.3554
▁마음정리	-10.3554
▁뛰어넘	-10.3554
▁주제를	-10.3554
▁한심해	-10.3554
▁로봇	-10.3554
▁치워	-10.3554
▁원인이	-10.3554
▁예상	-10.3554
▁참석하는	-10.3554
▁명품	-10.3554
▁기다림	-10.3554
더라구	-10.3554
▁들이대	-10.3555
▁익숙해져	-10.3555
▁등산	-10.3555
▁공유	-10.3555
▁갑작스러운	-10.3555
▁망했다	-10.3555
▁치매	-10.3555
▁성형	-10.3555
▁커플링	-10.3555
▁바쁠	-10.3555
▁은행	-10.3555
▁졸업식	-10.3556
▁정해져	-10.3556
▁인공	-10.3556
▁선택이었을	-10.3556
▁이쁜	-10.3557
▁양말	-10.3557
▁끝났습니다	-10.3558
스트	-10.3558
▁부담스러워할까	-10.3558
▁사탕	-10.3558
▁끊겼어	-10.3558
▁신경쓰여	-10.3559
▁감성	-10.3559
▁차별해	-10.356
▁재미없어	-10.356
하더니	-10.356
▁준비하느	-10.356
구경	-10.3561
▁월급날	-10.3561
▁얘	-10.3561
▁심해지는	-10.3562
▁좋아한대	-10.3563
플라	-10.3563
▁배정	-10.3563
▁보냈네	-10.3563
▁군인	-10.3563
벽에	-10.3564
▁해보려고	-10.3564
▁받아들여야	-10.3565
▁목적	-10.3565
종료	-10.3565
▁구두	-10.3565
▁변덕스럽	-10.3566
▁공간	-10.3567
▁역할	-10.3568
▁마실	-10.3568
▁수업	-10.3569
▁뻔	-10.3569
▁끝날	-10.3569
▁질질	-10.3571
체인	-10.3571
게임	-10.3571
▁떠나간	-10.3571
▁의미일까	-10.3572
▁클럽에서	-10.3572
▁인지시켜	-10.3573
▁엄마한테	-10.3573
▁정답	-10.3573
▁싸운	-10.3573
▁싶으면	-10.3574
▁입장	-10.3574
▁상황인	-10.3576
▁남았나봐	-10.3576
▁말한	-10.3578
▁보답	-10.3579
▁좋긴	-10.358
다는게	-10.3581
▁쓸데없는	-10.3582
▁애정	-10.3582
▁피자	-10.3585
▁다짐	-10.3585
▁수영	-10.3585
▁퇴근길	-10.3585
활용	-10.3589
막히는	-10.359
▁이별이란	-10.3592
▁시작하기	-10.3593
▁건조	-10.3594
▁꿨	-10.3595
차곡	-10.3601
▁없는걸까	-10.3603
▁퍼	-10.3604
▁사겨도	-10.3604
▁생긴다는	-10.3605
▁있었는데	-10.3607
▁바늘	-10.3608
▁결혼하기	-10.361
▁먼	-10.3614
▁미안해하	-10.3615
▁정신없	-10.3616
▁기준이	-10.3617
▁무리하지	-10.3617
▁현금이	-10.3617
▁우연이	-10.3625
▁편하고	-10.3627
▁남자친구에게	-10.3629
▁못자	-10.363
▁있는걸까	-10.3633
▁최고의	-10.3634
▁내내	-10.3634
▁베	-10.3636
▁칼로	-10.3636
▁똑똑해	-10.3637
▁안하지	-10.3637
▁지켜보는	-10.3638
▁견뎌내	-10.3639
▁울고	-10.3644
▁다녀와	-10.3646
▁안되는데	-10.3649
▁떨어지	-10.3649
▁연락했는데	-10.365
▁부려	-10.3651
▁더워	-10.3653
▁여러명	-10.3654
음이	-10.3654
▁스트레스야	-10.3656
▁짜	-10.3657
▁이루어	-10.3659
▁결정이	-10.3663
▁아픔이	-10.3672
▁니	-10.3676
▁연애하는데	-10.3678
▁오니까	-10.3688
▁주기	-10.3689
▁단점	-10.3693
▁드릴	-10.3706
▁그사람이	-10.3706
▁지금이	-10.3707
▁말투가	-10.371
▁봤는데	-10.3712
▁깨달았	-10.3716
▁위험해	-10.3724
제가	-10.3727
시는	-10.3733
▁아파트	-10.3734
▁친구인데	-10.374
▁나갈	-10.3743
▁맞춰가	-10.3748
▁헤어지자	-10.376
▁좋아하시	-10.3768
▁얼굴에	-10.3774
▁뒤에	-10.378
근	-10.3788
▁이어	-10.3802
▁이뤄지	-10.3826
▁질리	-10.3835
거리가	-10.3841
▁바뀌어	-10.3841
▁애석하	-10.3854
보네	-10.3857
▁생각해보세	-10.3865
▁속상	-10.387
▁힘들까	-10.3871
▁재밌는	-10.3876
▁몰랐어	-10.3876
▁모르겠다	-10.388
심이	-10.3887
▁후회없	-10.3889
▁해야겠지	-10.3889
▁내일이	-10.3918
▁찬	-10.3932
▁알아봐	-10.3934
▁결혼하고	-10.3939
하는건	-10.3958
▁떨어	-10.3968
▁있으신가	-10.397
▁되는거	-10.3998
파	-10.401
내서	-10.4011
▁동물이	-10.4015
▁매력있	-10.4018
▁급	-10.4024
한다	-10.403
▁결혼에	-10.4032
▁거라고	-10.4037
▁커지	-10.4048
▁바꿀	-10.4053
▁재밌다	-10.4055
린대	-10.4065
테	-10.4071
수건	-10.4075
하며	-10.4075
려는	-10.4087
▁괜찮다가	-10.4093
▁소문이	-10.4108
▁충전기	-10.4109
▁이성	-10.4116
을때	-10.4117
▁취직	-10.4117
▁거겠지	-10.4122
▁잡는	-10.4128
▁바꿀까	-10.4138
▁미치	-10.4152
▁편안하	-10.4186
▁기도	-10.4187
▁채	-10.4195
▁어이	-10.4203
했네요	-10.4214
▁비오	-10.4228
▁간단하	-10.4235
▁실수한	-10.4237
여친이랑	-10.4247
▁말로	-10.4251
▁못난	-10.4265
▁삭제하	-10.4268
와서	-10.4272
▁든든	-10.4281
▁보내지	-10.4282
있어요	-10.4284
향	-10.4294
▁원해	-10.4294
▁후회할까	-10.4326
온다	-10.4335
행	-10.4336
갑니다	-10.4339
우는	-10.4341
독	-10.4342
확	-10.4348
방법	-10.4351
명	-10.4355
판	-10.4357
볼	-10.4359
클	-10.4364
죄	-10.4367
▁살다	-10.4369
기만해도	-10.4369
깨	-10.4372
어머	-10.4373
듣	-10.4374
사람에게	-10.4384
▁오지	-10.4391
봤어	-10.4407
▁단순	-10.4409
▁입으	-10.441
▁노래는	-10.4411
하기는	-10.4417
▁붙잡	-10.443
기적	-10.443
▁잘하는게	-10.4431
난다면	-10.4433
▁창업	-10.4433
▁만족	-10.4456
할게	-10.4458
해주는	-10.4465
▁다가왔	-10.4472
▁기다려보	-10.4473
▁만들기	-10.4489
▁진지	-10.4491
▁사랑만	-10.451
▁것만	-10.4519
▁혼자인	-10.453
▁아깝	-10.453
▁어울	-10.4532
▁현실적	-10.4542
▁이루	-10.4555
▁순수하	-10.4567
침	-10.4582
▁월요일	-10.4586
▁베터리	-10.4589
났	-10.4595
▁기준	-10.4603
▁버티	-10.4605
▁위험	-10.4619
침이	-10.4623
▁부족한가	-10.4625
▁점심시간	-10.4632
▁진행	-10.4635
냥	-10.4644
▁먼지	-10.465
▁중국	-10.465
▁보냈	-10.4651
봐야	-10.4656
▁제안	-10.4658
픈	-10.4659
▁못했	-10.466
쟁이	-10.4663
념	-10.4663
▁챙기	-10.4664
폭	-10.4665
▁시작할	-10.4665
흥	-10.4665
▁그린라이트	-10.4665
▁밑바닥	-10.4665
롱	-10.4665
▁걷다	-10.4665
▁공시생	-10.4665
▁끈을	-10.4665
▁브랜드	-10.4665
▁사춘기	-10.4665
▁선풍기	-10.4665
낌	-10.4665
b	-10.4665
▁각질제거	-10.4665
▁강렬한	-10.4665
▁걷고	-10.4665
▁격려	-10.4665
▁끄는	-10.4665
▁놀이공원	-10.4665
▁눈썹	-10.4665
▁닮아	-10.4665
▁당분간	-10.4665
▁동영상	-10.4665
▁뒷감당	-10.4665
▁득템	-10.4665
▁레시피	-10.4665
▁베풀	-10.4665
▁변화시켜	-10.4665
▁비밀번호	-10.4665
▁소액결제	-10.4665
▁스테이크	-10.4665
▁쓰일	-10.4665
▁씨씨	-10.4665
▁씻고	-10.4665
▁아팠	-10.4665
▁왜이렇게	-10.4665
▁유부남	-10.4665
▁잔소리해	-10.4665
▁잘생겼어	-10.4665
▁장학금	-10.4665
▁접어야	-10.4665
▁주름살	-10.4665
▁찍는	-10.4665
▁찾으	-10.4665
▁춥네	-10.4665
▁편의점	-10.4665
▁현타	-10.4665
▁휴유증	-10.4665
니깐	-10.4665
송	-10.4665
앨	-10.4665
줌	-10.4665
▁나갔어	-10.4665
▁불면증	-10.4665
▁원동력이	-10.4665
▁외출하	-10.4665
▁고양이	-10.4665
▁더러워	-10.4665
▁똥차	-10.4665
▁이력서	-10.4665
▁확률	-10.4665
▁예능	-10.4665
▁심리일까요	-10.4665
▁패션	-10.4665
▁비참해	-10.4665
▁갑작스러웠	-10.4665
▁실패	-10.4665
센터	-10.4665
▁드라이	-10.4665
▁제정신	-10.4665
▁어느정도	-10.4665
▁예비	-10.4665
▁해외여행	-10.4665
▁임용	-10.4665
▁조급하	-10.4665
▁무거워	-10.4665
▁잡념	-10.4666
▁어언	-10.4666
▁들어올	-10.4666
▁건들지	-10.4666
▁대청소	-10.4666
▁축제	-10.4666
▁종지부	-10.4666
▁어리게	-10.4666
▁지루해	-10.4666
▁부담스러울	-10.4666
▁부부	-10.4666
디오	-10.4666
▁안경테	-10.4666
▁직전	-10.4666
▁리드	-10.4667
▁지낸	-10.4667
▁생일이네	-10.4667
▁편하다는	-10.4667
▁지웠어	-10.4667
▁틀리는	-10.4667
▁봤나	-10.4668
▁커피향	-10.4668
▁보냈습니다	-10.4668
▁보자	-10.4668
▁적응해야	-10.4669
▁붙잡아	-10.4669
▁차였는데	-10.4669
▁방금	-10.467
▁미안하다	-10.467
▁솔로	-10.4671
▁싸울	-10.4671
▁외국어	-10.4671
▁주째	-10.4671
▁철벽치	-10.4672
▁터질	-10.4672
▁세달	-10.4672
▁서운해	-10.4673
▁우정	-10.4673
▁주량	-10.4674
▁친구들한테	-10.4674
▁소주	-10.4675
▁넘었는데	-10.4675
▁오바	-10.4675
▁돌아와	-10.4676
▁이기적이	-10.4676
▁보고싶네	-10.4677
▁재밌는거	-10.4677
▁들어왔어	-10.468
▁전기	-10.468
▁가족한테	-10.4681
▁재밌어	-10.4681
▁구워	-10.4681
▁마중	-10.4682
▁보냈어	-10.4682
식물	-10.4682
렸	-10.4682
▁착잡하	-10.4683
▁개월차	-10.4683
▁자르	-10.4683
▁하다보니	-10.4686
▁실망하지	-10.4687
▁타러	-10.4688
▁보란	-10.4689
▁개월째	-10.4689
버린	-10.469
식하는	-10.469
▁한약	-10.4691
▁설레는	-10.4692
▁들려	-10.4694
▁겠지	-10.4695
▁대수	-10.4696
▁적이	-10.4699
▁고백해야	-10.47
▁갈수록	-10.47
되니까	-10.4701
▁손해	-10.4702
▁헤어지기	-10.4706
▁나타나	-10.4708
▁가려	-10.4717
▁좋으니	-10.4719
▁응	-10.472
뿐이	-10.4723
▁오셨	-10.4724
▁키울	-10.4725
▁표현하	-10.4733
▁붙이	-10.4736
▁첫사랑이	-10.4738
▁먼지가	-10.474
▁아니겠지	-10.4742
▁화나	-10.4744
▁않다	-10.4745
▁알까	-10.4746
▁떨어지는	-10.4751
▁타인	-10.4757
▁페	-10.4757
▁쪽	-10.4758
▁달에	-10.4761
▁인생에서	-10.4761
▁몇일	-10.4763
▁와인	-10.4763
▁말해줘	-10.4768
▁가기로	-10.477
▁운동화	-10.4772
▁독서	-10.4773
▁식었	-10.4784
▁받으시	-10.479
▁말했어	-10.4791
▁찾아야	-10.4792
▁없는걸	-10.4795
줄게	-10.4796
▁견디기	-10.4798
들었겠	-10.4803
▁결정이었	-10.4805
런지	-10.4813
▁기다려야	-10.4813
▁해준	-10.482
▁소원이	-10.482
▁육아	-10.4831
▁남자에게	-10.4832
▁밀어	-10.4832
▁사랑할까	-10.4836
렸나봐	-10.4845
▁선물하면	-10.4845
▁뭘로	-10.4846
▁오락가락	-10.4852
▁반에	-10.4854
치기	-10.4854
▁사이로	-10.486
와주	-10.487
▁망가	-10.4873
▁해야할	-10.4892
▁사실이	-10.4895
▁겨울에	-10.4909
▁끝인가	-10.491
▁하셔야	-10.4912
▁여지	-10.4916
▁안주	-10.4921
▁했네	-10.4921
▁맞춰주	-10.4923
▁부담되	-10.4931
정적인	-10.4931
▁당당	-10.4934
▁남아	-10.4944
▁공부하	-10.4949
▁피하는	-10.4958
▁않기	-10.4965
▁것일까	-10.4972
▁깔끔하	-10.4972
▁차분하	-10.4973
이었을	-10.4974
▁직	-10.4982
▁갑니다	-10.4988
▁함께하고	-10.4999
▁연애인	-10.5008
▁느껴보	-10.5017
▁때인	-10.5021
▁외	-10.5031
▁끼	-10.5053
▁분들	-10.5057
▁하셨나	-10.5114
는것	-10.5137
▁붙	-10.5139
▁했다	-10.5142
화를	-10.5147
▁사람이었나	-10.5154
친구와	-10.5158
▁잘자	-10.516
▁상황에	-10.5167
▁가능하다	-10.5168
▁운동하	-10.5176
▁많은가	-10.5179
▁사귀다	-10.518
▁요리	-10.5181
▁검색	-10.5182
▁욕해	-10.5191
▁거짓말을	-10.5193
실에	-10.5198
야돼	-10.5199
▁헤어짐이	-10.5223
▁밥은	-10.5223
▁나니	-10.5233
▁잠수이별	-10.5233
▁헤어졌다	-10.5233
받으면서	-10.5247
▁이성이	-10.5259
▁익숙해지	-10.5262
▁풀렸	-10.5262
포근한	-10.5277
▁스트레스를	-10.5282
▁이래	-10.5292
▁없는거	-10.5303
▁별로인	-10.5304
다니는	-10.5311
▁필요한가봐	-10.5323
▁물가	-10.5333
▁뭐로	-10.5348
▁감당	-10.5351
▁여사친	-10.5354
해야겠지	-10.536
▁연락오	-10.5368
▁은퇴	-10.5392
으니	-10.5392
▁떨쳐	-10.5395
▁학생	-10.5399
▁귀찮	-10.541
▁평가	-10.5422
▁미안	-10.5425
▁친해	-10.5436
대는	-10.5437
▁가져가	-10.5442
▁해야겠	-10.5457
▁부족하	-10.5467
었어요	-10.5479
▁다양	-10.5503
▁안될	-10.5526
망	-10.5527
올	-10.554
유	-10.5567
▁헤어짐에	-10.5576
▁버려야	-10.5586
햇	-10.5595
이상	-10.5598
받으	-10.5608
병	-10.5612
라니	-10.5614
있음	-10.5617
건강에	-10.5619
꿈	-10.5622
조건	-10.5627
여행	-10.5628
속에	-10.5629
▁좋은거	-10.5633
▁붙잡는	-10.5635
인건가	-10.5641
▁솔직해	-10.5643
그만	-10.5655
기를	-10.5656
보니	-10.5665
▁반복	-10.5666
두고	-10.5666
▁대하는	-10.5683
▁사람이야	-10.5689
아는데도	-10.5694
봐야지	-10.5704
▁깊었	-10.5731
▁응원	-10.5745
▁배워보	-10.5751
▁단계	-10.5766
▁감으	-10.5767
▁많겠지	-10.5772
▁안좋	-10.5793
보이네	-10.5793
▁주말이네	-10.5798
이라서	-10.58
았던	-10.5803
▁어장인	-10.5809
력이	-10.5817
▁나쁘	-10.582
▁소개해	-10.5823
▁언니	-10.5828
▁마지막이	-10.5832
▁일주일이	-10.5845
서야	-10.5847
▁아빠	-10.5847
녀	-10.5849
▁태어나	-10.5854
곡	-10.5856
▁어른	-10.5862
▁잘지내	-10.5862
▁지하철에	-10.5883
으려고	-10.5885
▁남자의	-10.5886
처	-10.5889
놓지	-10.5894
▁헬스장에	-10.5895
없는	-10.5897
▁기다렸	-10.5898
례	-10.5904
▁어떨	-10.5905
▁믿는	-10.5907
백	-10.5912
▁예전	-10.5913
▁객관적	-10.5913
▁스터디	-10.5914
닥	-10.5915
▁수학여행	-10.5915
▁뛰어	-10.5915
짚	-10.5915
▁먹여주	-10.5915
▁cc	-10.5915
▁견과류	-10.5915
▁구남친	-10.5915
▁금수저	-10.5915
▁끊어야	-10.5915
▁낮잠	-10.5915
▁넘어가네	-10.5915
▁녹여	-10.5915
▁다툼	-10.5915
▁답정녀	-10.5915
▁대기업	-10.5915
▁떡볶이	-10.5915
▁모여	-10.5915
▁무뎌질	-10.5915
▁무언가	-10.5915
▁무한리필	-10.5915
▁베트남	-10.5915
▁새신발	-10.5915
▁설득	-10.5915
▁식습관	-10.5915
▁써야	-10.5915
▁썼다	-10.5915
▁앞이	-10.5915
▁애프터	-10.5915
▁이끌어	-10.5915
▁잘생겨	-10.5915
▁짜장면	-10.5915
▁체육대회	-10.5915
▁침묵	-10.5915
▁컴퓨터	-10.5915
▁탈모	-10.5915
▁혼수	-10.5915
겟	-10.5915
닝	-10.5915
렴	-10.5915
맷	-10.5915
째깍	-10.5915
쿠	-10.5915
펑	-10.5915
▁다되어가네	-10.5915
▁찌질한	-10.5915
▁허전할	-10.5915
▁혼나	-10.5915
▁잃어버	-10.5915
▁증명	-10.5915
▁기르고	-10.5915
▁먹으러	-10.5915
▁그리울	-10.5915
▁못참고	-10.5915
▁출발	-10.5915
▁당첨	-10.5915
▁먹었더니	-10.5915
▁분노	-10.5915
▁이어폰	-10.5915
▁태연	-10.5916
▁좋았을텐데	-10.5916
▁심어볼까	-10.5916
▁감출	-10.5916
▁카공	-10.5916
▁실행	-10.5916
▁심남	-10.5916
▁편안해질	-10.5916
▁겁나	-10.5916
▁도와준	-10.5916
▁야식	-10.5916
▁비밀연애	-10.5916
▁무리일까	-10.5916
▁다녀왔어	-10.5916
▁되돌아보	-10.5917
▁스쳐	-10.5917
▁아쉬운	-10.5917
▁어찌해야	-10.5917
▁간식	-10.5917
▁많으시	-10.5918
▁미치겠어	-10.5918
▁사표	-10.5918
▁열흘	-10.5918
▁정리했습니다	-10.5919
▁뻔했어	-10.5919
둬야	-10.5919
▁신기하	-10.5919
▁다듬	-10.5919
▁이겨야	-10.5919
▁사과해야	-10.5919
▁알아볼	-10.592
▁가능성	-10.592
▁간만에	-10.592
▁똑같아	-10.592
▁부족해	-10.592
▁나가볼까	-10.5921
▁남녀	-10.5921
▁먹어야겠다	-10.5921
끼리	-10.5921
▁한번쯤	-10.5921
▁구매	-10.5922
▁와플	-10.5922
▁연애세포	-10.5922
▁감동	-10.5923
▁고마	-10.5923
▁스키장	-10.5923
추적	-10.5924
▁지식	-10.5925
▁간대	-10.5926
▁좋아지고	-10.5926
▁따라가	-10.5926
▁줄일	-10.5926
▁들어오면	-10.5927
▁어렸을때	-10.5929
▁년연애	-10.5929
▁년반	-10.593
▁이용하는	-10.5931
▁매정	-10.5932
▁잊어가는	-10.5933
▁되려면	-10.5934
▁일반	-10.5934
▁방심	-10.5935
▁괜찮겠지	-10.5935
▁우리집	-10.5935
▁수상한	-10.5935
▁쓰레기야	-10.5937
▁같으면	-10.5938
▁맛있다	-10.5938
▁너무나도	-10.5938
▁빵	-10.5938
▁알겠어	-10.5939
▁아쉬움이	-10.5939
▁누나	-10.594
▁잊지못	-10.594
▁시도해	-10.5941
▁썸녀한테	-10.5941
▁길러	-10.5942
▁일방적	-10.5942
▁비용	-10.5942
▁일시적	-10.5942
▁반년	-10.5943
▁미워하지	-10.5944
▁좋대	-10.5944
▁어색해졌어	-10.5947
▁상대적	-10.5948
▁성덕이	-10.5949
▁어렵다	-10.595
▁지날	-10.5951
▁나왔네	-10.5953
▁싸우고	-10.5953
▁이러고	-10.5954
▁않습니다	-10.5956
▁헬스장에서	-10.5957
▁하다니	-10.596
▁물질	-10.596
▁재미없	-10.5963
▁사수	-10.5965
▁마른	-10.5966
▁유효기간이	-10.5967
▁실력	-10.5968
▁나약	-10.5969
▁다칠	-10.597
▁할말	-10.5972
▁인정해야	-10.5972
▁싫어져	-10.5973
▁들까	-10.5975
▁아프겠	-10.5975
▁망설여지	-10.5978
▁너와	-10.5978
▁농	-10.5979
▁예약	-10.5979
▁일어나야	-10.598
▁걸었어	-10.5988
▁일하면서	-10.599
▁표현하기	-10.5993
▁하아	-10.5995
▁나오네	-10.5996
▁더워서	-10.6
▁달력	-10.6006
▁맞나봐	-10.6006
▁묻어두는	-10.6008
▁돌아서	-10.601
▁윗	-10.6021
▁해봤는데	-10.6021
▁꾸미	-10.6021
▁과에	-10.6024
▁성적이	-10.6024
▁세우	-10.6025
하시는	-10.603
▁해야하나	-10.6032
▁가자	-10.6044
▁할줄	-10.6047
▁동생이	-10.605
▁좋아서	-10.6051
▁들어줄	-10.6059
▁웃는	-10.606
▁못하겠	-10.606
▁먹나	-10.6062
▁못할까	-10.6063
▁꾸준한	-10.6065
▁벌려	-10.6068
▁허무하네	-10.6072
▁너랑	-10.6074
▁집착하지	-10.6076
▁고치고	-10.6076
▁무엇인	-10.6078
▁떨면	-10.6078
▁남자입니다	-10.6088
▁잡아도	-10.6089
▁다리가	-10.6092
▁여자들	-10.6094
▁결심이	-10.6095
▁좋아졌어	-10.6095
▁민	-10.6106
▁착각이	-10.6106
▁수준	-10.6108
▁꼼꼼한	-10.6122
▁일기	-10.6122
▁솔	-10.6128
▁소개팅으로	-10.6133
▁행복하면	-10.6135
▁질투를	-10.614
▁하늘이	-10.6141
▁비우	-10.6143
▁센	-10.6147
한대	-10.6147
▁해줄까	-10.615
▁가능할까요	-10.6157
▁가려고	-10.6158
▁진도	-10.6159
▁뭐해	-10.6159
▁알게되면	-10.616
▁아이돌이	-10.6165
▁생각하나	-10.6173
▁친구들을	-10.6174
▁생각하면서	-10.6174
이야기	-10.618
▁회	-10.6181
▁페북을	-10.6185
질러	-10.6187
▁처리	-10.619
▁필요하지	-10.6192
같아	-10.6204
▁그리운가	-10.6208
▁기네	-10.6208
리면	-10.6216
▁약간	-10.6216
▁힘든거	-10.6219
▁해보고	-10.6228
▁마무리하	-10.6233
되었는데	-10.6239
▁만들었어	-10.624
▁선배	-10.6241
하기로	-10.6253
나가는	-10.6264
버는	-10.6268
갔네	-10.6269
▁판	-10.6274
▁살려	-10.6277
▁말보다	-10.6281
▁귀찮다	-10.6291
개시	-10.6295
▁상처받는	-10.63
▁잊었	-10.6301
▁공부할	-10.6305
되지	-10.6305
▁투자	-10.6306
▁야근이	-10.6313
▁가사	-10.6319
▁톡을	-10.6322
▁답답	-10.6324
▁듣는	-10.6333
▁헛헛하	-10.6339
았습니다	-10.6345
▁연인이	-10.6356
▁든든하	-10.6377
▁이별하는	-10.6396
▁답답하다	-10.6403
▁되어가	-10.6405
▁전과	-10.6416
▁간단	-10.643
▁힘든가	-10.6433
해줬어	-10.6437
▁연속이	-10.644
지마	-10.644
▁각	-10.6443
▁찾아오네	-10.6445
▁보시	-10.6446
▁학생이	-10.6459
▁존중해	-10.6461
▁잡았	-10.6462
지겠네	-10.648
▁끝인가봐	-10.6492
▁사랑이었으	-10.6507
▁작	-10.6527
▁멈춰	-10.6531
▁마주치면	-10.6542
▁애인	-10.6564
▁순수	-10.6565
못했던	-10.6595
▁모아야	-10.6599
▁역	-10.6602
▁좋았겠	-10.6611
▁절약해	-10.6615
▁남자분들	-10.6628
▁커피가	-10.6664
▁아련	-10.6668
▁지우는	-10.6688
▁내기	-10.6693
▁상대는	-10.6698
▁선물해	-10.6708
▁나빠	-10.6709
▁나오겠	-10.6713
▁좋네	-10.6723
▁하는거	-10.6736
▁야	-10.6744
▁좋아졌	-10.6746
납니다	-10.6756
▁만한	-10.6769
▁연속	-10.6771
싶은데	-10.6771
먹으	-10.6786
▁적극적이	-10.6801
▁생각하	-10.6811
▁고백해	-10.683
사는	-10.6838
력	-10.6838
▁참다	-10.6845
이래	-10.6858
오게	-10.6867
들면	-10.6908
▁부리	-10.6909
해본	-10.6913
▁그런지	-10.6931
▁사람하고	-10.6937
▁어색	-10.6952
었을까	-10.6953
▁키워	-10.6955
발	-10.6964
사진을	-10.6971
몸	-10.6975
맛	-10.6977
갑	-10.6997
발이	-10.7005
못	-10.7012
회	-10.7014
애	-10.7021
준비	-10.7028
잔	-10.7029
색	-10.703
특	-10.7033
청	-10.7035
톡	-10.7037
산	-10.704
처리	-10.7041
필	-10.7043
슬	-10.7047
뒤	-10.7049
됨	-10.7049
▁왕따	-10.705
열	-10.7052
욕	-10.7052
상담	-10.7053
데이트	-10.7054
주실	-10.7059
오래	-10.7062
가봐	-10.7064
잊	-10.7079
▁샤워	-10.7123
▁자야	-10.714
는구나	-10.7166
했던거	-10.7168
탈이	-10.7169
▁일하	-10.7171
▁생각했	-10.7174
▁맛있어	-10.7187
▁카톡할	-10.7187
▁두려운	-10.7194
▁했더	-10.7208
하셔야	-10.7208
▁신고	-10.7213
▁사람이다	-10.7238
▁감정들	-10.724
일째	-10.7246
어질	-10.7252
▁내면	-10.7253
▁운명인가	-10.7255
▁없고	-10.7261
▁무뎌지	-10.7265
다른	-10.7274
▁태어	-10.7277
▁찾아가는	-10.7277
▁무덤덤해	-10.7277
▁작아	-10.7289
▁영원	-10.7296
▁사겨	-10.7306
▁싶으	-10.7314
▁가게	-10.7316
줘도	-10.7318
▁짜증	-10.7319
료	-10.732
프	-10.732
▁포기해야	-10.7322
겁	-10.7328
▁연애중	-10.7328
▁돌아올	-10.7329
▁쌓인	-10.7331
펴	-10.7333
▁다되가	-10.7334
▁끊겼	-10.7337
폭풍	-10.7338
즘	-10.7339
▁일어날	-10.7339
▁집안	-10.734
▁농담	-10.7341
▁사회	-10.7341
춰	-10.7342
▁찢어지	-10.7342
▁찾아온	-10.7342
킨	-10.7343
지못한	-10.7343
힌	-10.7343
▁엮여	-10.7343
▁의존	-10.7343
▁간섭	-10.7343
▁격식	-10.7343
▁고백받았어	-10.7343
▁고시원	-10.7343
▁교양수업	-10.7343
▁끊으	-10.7343
▁다갔어	-10.7343
▁따르	-10.7343
▁뜨끈	-10.7343
▁리폼	-10.7343
▁모처럼	-10.7343
▁바람둥이	-10.7343
▁버릇	-10.7343
▁베란다	-10.7343
▁변신	-10.7343
▁보이스피싱	-10.7343
▁불공평해	-10.7343
▁뻑뻑해	-10.7343
▁상종하지	-10.7343
▁셀프웨딩	-10.7343
▁소름돋	-10.7343
▁승진	-10.7343
▁싫으	-10.7343
▁쌓였	-10.7343
▁쏟아	-10.7343
▁쓰게	-10.7343
▁애완동물	-10.7343
▁액정	-10.7343
▁어딘가	-10.7343
▁어떻하	-10.7343
▁엉엉	-10.7343
▁우습	-10.7343
▁인터넷	-10.7343
▁잃을	-10.7343
▁졸라	-10.7343
▁즐겨보	-10.7343
▁지저분해	-10.7343
▁짧아	-10.7343
▁쪼금	-10.7343
▁찍었네	-10.7343
▁찾은	-10.7343
▁총회	-10.7343
▁춥고	-10.7343
▁층간소음	-10.7343
▁풀리	-10.7343
▁현명	-10.7343
▁혼란스러워	-10.7343
▁혼란스럽	-10.7343
▁혼인신고	-10.7343
▁환경	-10.7343
▁효도	-10.7343
▁흐려지	-10.7343
그램	-10.7343
낀	-10.7343
닉	-10.7343
띠	-10.7343
륵	-10.7343
바퀴	-10.7343
옵	-10.7343
팁	-10.7343
▁느꼈	-10.7343
▁몰려	-10.7343
▁벗겨	-10.7343
▁어리석	-10.7343
▁자유여행이	-10.7343
▁막막하	-10.7344
▁주인공	-10.7344
▁평범	-10.7344
▁최저	-10.7344
▁바꿨어	-10.7344
▁빈자리	-10.7344
▁아까운	-10.7344
▁환심	-10.7344
▁계획적이	-10.7344
▁스노	-10.7344
▁욜로	-10.7344
▁반가워	-10.7344
▁오르네	-10.7344
▁근데	-10.7344
▁학벌	-10.7344
▁여유롭게	-10.7344
▁짜증남	-10.7344
게되네	-10.7344
▁태그	-10.7344
▁자장가	-10.7344
▁안타까워	-10.7344
▁초기화	-10.7344
▁음료	-10.7344
▁허허	-10.7344
▁병행	-10.7344
▁면허	-10.7344
▁불편하겠	-10.7344
▁상사병	-10.7344
▁재설계	-10.7344
▁미루	-10.7344
▁잘살고	-10.7344
▁유명	-10.7344
▁유행	-10.7344
▁넘넘	-10.7344
▁정열적	-10.7345
▁길거리에	-10.7345
▁갈등	-10.7345
▁와닿	-10.7345
▁자유로워	-10.7345
▁정신병	-10.7346
▁청결	-10.7346
▁아이디	-10.7346
▁보인다	-10.7346
잔치	-10.7346
▁시급	-10.7347
▁느낀다면	-10.7347
▁무너져	-10.7347
▁두근거려	-10.7347
되어있는	-10.7348
▁나이테	-10.7348
▁반영	-10.7348
▁노려	-10.7348
▁사라진	-10.7348
▁벌레	-10.7348
▁속아주	-10.7348
▁반갑	-10.7349
▁돌아올까	-10.7349
▁가입	-10.7349
▁보여드리	-10.7349
▁구별해	-10.7349
▁친구사이	-10.7349
▁놀아줘	-10.7349
▁천국	-10.7349
▁연상	-10.7349
▁웃음	-10.735
탈출	-10.735
▁지압	-10.735
▁면도기	-10.735
하우스	-10.735
▁꿈꾸	-10.735
▁부팅	-10.7351
▁예고	-10.7351
▁미치겠네	-10.7352
▁배울까	-10.7352
▁필수	-10.7352
▁공부방법	-10.7352
▁변해가는	-10.7352
▁깨졌어	-10.7352
▁날이었	-10.7352
▁연락했습니다	-10.7352
▁그쪽	-10.7352
▁느껴질	-10.7353
▁취소	-10.7353
설계	-10.7353
▁망함	-10.7354
▁실천	-10.7354
▁망했어	-10.7354
▁지친	-10.7355
▁양치	-10.7355
▁보약	-10.7355
▁한눈	-10.7355
겁니다	-10.7355
▁지쳤어	-10.7356
▁있었는지	-10.7357
▁비워보	-10.7357
▁언니랑	-10.7357
▁의심해	-10.7358
▁간사하죠	-10.7358
▁도와줘야	-10.7358
▁서울	-10.7359
▁조용히	-10.7359
▁기다릴게요	-10.7361
▁살았는데	-10.7363
▁필기	-10.7363
▁입을까	-10.7364
▁난방비	-10.7365
▁덕	-10.7366
▁사귀긴	-10.7366
▁기다리던	-10.7367
▁판단력	-10.7367
▁의심하지	-10.7367
▁전여친이랑	-10.7369
▁여자사람	-10.737
▁한국	-10.737
▁사랑해주는	-10.7371
▁일요일에	-10.7372
▁화이트데이에	-10.7372
▁이번달	-10.7373
▁안되겠죠	-10.7373
▁발라	-10.7374
로그	-10.7375
▁신경쓰인	-10.7375
▁해외	-10.7376
▁걸렸어	-10.7376
▁마시기	-10.7376
▁깨질	-10.7377
▁안오지	-10.7381
▁보임	-10.7382
▁영어	-10.7382
▁사줘	-10.7382
▁거둬	-10.7383
▁가을이	-10.7384
▁적극적인	-10.7385
▁연락왔어	-10.7385
▁어쩔수없	-10.7387
▁나이들	-10.7387
▁걱정이야	-10.7391
▁깔끔한	-10.7393
▁깨어	-10.7394
▁년전	-10.7394
▁위로해줄	-10.7395
▁예쁜데	-10.7399
▁안받아	-10.7399
▁정확한	-10.74
▁생겼나봐	-10.7401
▁인연이었	-10.7401
▁운이	-10.7402
▁지적	-10.7402
▁화해	-10.7403
▁정리하려고	-10.7403
워서	-10.7404
▁분에게	-10.7405
▁이사하는	-10.7405
▁교	-10.7406
▁쟁취하는	-10.7409
▁자야지	-10.7412
▁헷갈리네	-10.7414
▁싫어할까	-10.7414
▁비와	-10.742
▁직구	-10.7421
▁없대	-10.7427
▁불만	-10.743
좋아하는	-10.7431
▁학기	-10.7433
▁힘들어져	-10.7433
▁치맥이	-10.7435
▁잘못했다	-10.7438
거려	-10.7444
▁고백할까요	-10.7445
▁다가가야	-10.7446
▁착하	-10.745
▁이어가	-10.7452
▁궁금해하지	-10.7453
▁헤어지자는	-10.7453
▁없어졌어	-10.7457
있을까	-10.7458
▁낳	-10.7464
▁허리가	-10.7466
▁브	-10.7467
▁벌어	-10.7467
▁업	-10.7468
▁차인	-10.7469
▁자다	-10.748
▁병이	-10.7482
값이	-10.7485
▁기침	-10.7486
▁붙잡으	-10.7488
▁반복하	-10.7492
▁고민이네	-10.7507
기한	-10.7514
▁몸에서	-10.7523
▁태	-10.753
▁안할	-10.7535
하다고	-10.7535
▁취향이	-10.7547
▁학교에	-10.7549
▁마시지	-10.7553
▁관리해	-10.7559
▁잘지내고	-10.7559
▁버스가	-10.7561
▁받으셨	-10.7563
거겠지	-10.7564
▁틈	-10.7565
▁나타났	-10.7566
▁피나	-10.7569
▁손으로	-10.757
어보고	-10.7573
▁화가나	-10.7574
▁적응이	-10.7581
▁생각일까	-10.7582
▁내릴	-10.7599
▁준비하는데	-10.7601
▁나오고	-10.7602
▁정리되	-10.7602
다운	-10.7602
▁해야하는	-10.7603
▁돌아오지	-10.7609
▁그러지	-10.7616
▁걸리	-10.7619
▁놓는	-10.7622
▁잘해야	-10.7625
▁사랑했	-10.7627
▁나는데	-10.763
▁이대로	-10.7635
▁특	-10.7638
▁색	-10.764
▁뜨는	-10.7651
▁관계에	-10.7655
▁다치	-10.7667
▁머리로	-10.7668
▁시간이었을	-10.7676
▁말하면	-10.7687
▁받아들여지	-10.769
▁목이	-10.7706
▁종교를	-10.7711
▁봐달라	-10.7728
▁헤어지고나	-10.7729
▁해보면	-10.7739
▁데서	-10.7739
▁구분	-10.7746
▁행동은	-10.7746
▁사랑니	-10.7747
▁당당해	-10.7755
▁만들죠	-10.776
▁파도	-10.7766
▁고백할	-10.7769
▁짝사랑에서	-10.7775
▁일과	-10.7782
하시겠	-10.7783
였나봐	-10.7788
▁숨기	-10.7791
법이	-10.7815
아온	-10.7815
▁짝	-10.7816
▁물이	-10.7822
▁생긴다	-10.7829
▁날이네	-10.7831
▁안된	-10.7833
▁향이	-10.7836
▁개인적	-10.7852
있게	-10.7872
▁사과하	-10.7893
▁복잡해	-10.7901
▁든다	-10.7906
▁이야기하고	-10.7909
▁그럴수	-10.7911
▁이혼이	-10.7919
▁힘들겠죠	-10.7923
▁크리스마스에	-10.7952
▁기억해주	-10.7959
▁날까	-10.7967
▁그에게	-10.797
기간	-10.7972
▁욕을	-10.7979
끔하	-10.798
코인	-10.7992
▁티나	-10.8038
▁포기하	-10.8047
화가	-10.8069
▁줘야	-10.8081
▁사람이었어	-10.8082
▁용	-10.8086
▁착각하	-10.8101
▁부족	-10.8103
▁불안하	-10.811
▁애인이	-10.8113
▁익숙함이	-10.8136
▁올리	-10.8147
▁인연인	-10.8149
▁줬으면	-10.8157
▁지났어	-10.8172
▁잊지말	-10.8181
▁말해야	-10.8195
▁걸리겠	-10.8236
▁차가	-10.8237
▁많아지	-10.8254
▁검색해	-10.8262
▁욕하는	-10.8291
올까	-10.8301
▁뭐지	-10.8305
▁생각하기	-10.8314
▁연락하기	-10.8329
마시러	-10.8335
부로	-10.8344
여자	-10.8353
정적	-10.8353
▁차단하는	-10.839
했나	-10.839
▁흐르	-10.8398
▁나니까	-10.8408
듯이	-10.8423
▁의지하	-10.8456
▁헛헛	-10.846
▁살아가는	-10.8469
았다	-10.8476
났네	-10.8489
▁입어보	-10.8501
▁집중하	-10.8507
다는것	-10.8508
▁크겠	-10.851
▁남사친	-10.8539
▁한데	-10.8543
났는데	-10.8546
간의	-10.8549
▁어디가	-10.8552
▁사나	-10.8571
보려구	-10.8578
▁이길	-10.8586
웃	-10.8599
▁되는건	-10.8602
▁잘하면	-10.8607
▁하니	-10.8609
▁건데	-10.8637
▁안좋아	-10.8643
▁다르니	-10.8652
절한	-10.8654
영	-10.8655
스러울	-10.8657
잡	-10.8661
▁생각할수	-10.8663
빠	-10.8668
증이	-10.867
투	-10.8675
같네	-10.8686
축	-10.8688
빈	-10.869
잼	-10.8695
뜨	-10.8696
품	-10.8697
태	-10.87
센	-10.87
솔	-10.8702
▁울적	-10.8704
키스	-10.8706
새가	-10.8708
케이스	-10.8709
▁놓아줄	-10.871
포	-10.871
팔	-10.871
널	-10.8711
싸움	-10.8713
▁멀어진	-10.8716
잠	-10.8717
돈	-10.8718
여친	-10.8718
생각이	-10.872
▁데이트하기	-10.872
때문에	-10.872
▁꼼꼼	-10.8735
▁힘들면	-10.8737
소가	-10.8738
물	-10.8745
▁지속해	-10.8747
문이	-10.8754
우선이	-10.8755
하지마	-10.8757
▁직업	-10.8758
었네	-10.8786
향이	-10.8787
안할	-10.8788
되는데	-10.8795
▁착해	-10.8816
▁감정적	-10.8819
▁싫은가봐	-10.8821
▁표현할	-10.8829
▁받아줄	-10.8837
▁느끼	-10.8849
▁말자	-10.8849
▁척하는	-10.8849
▁때문	-10.8856
▁멀어	-10.886
▁초대하	-10.8866
▁돼서	-10.8876
▁됐나	-10.8879
▁열어	-10.8895
▁달라졌	-10.8899
졌다	-10.89
한다는	-10.8909
▁해결해	-10.8929
▁이러	-10.8933
▁쟁취하	-10.8933
▁아무렇지	-10.8939
▁세월	-10.8939
▁유효기간	-10.894
▁흔들	-10.894
인거	-10.8949
둬	-10.8954
▁뜨	-10.8957
▁낫겠	-10.8958
▁머릿속	-10.8961
▁행복이	-10.8966
▁불편	-10.8973
치고	-10.8975
▁화이트데이	-10.8976
▁상메	-10.8983
납	-10.8997
▁헷갈	-10.8998
▁따듯	-10.8999
둔	-10.9001
흘	-10.9003
▁치열	-10.9005
▁느낀	-10.9006
▁구속	-10.9006
육	-10.9006
▁유부녀	-10.9008
▁손톱	-10.9008
▁꾹꾹	-10.9008
촉	-10.9008
났는지	-10.9008
딩	-10.9009
▁어울릴	-10.9009
션	-10.901
뚝	-10.901
줬더니	-10.901
▁좌절	-10.901
봉	-10.901
▁평온	-10.901
▁빼앗	-10.901
▁근교	-10.901
▁벗으	-10.901
▁접은	-10.901
벤	-10.901
쓰담	-10.901
x	-10.901
▁ᅮᅮ	-10.901
▁가득한가	-10.901
▁가져왔다	-10.901
▁건강습관이	-10.901
▁겉모습	-10.901
▁견적	-10.901
▁계산적인	-10.901
▁권리	-10.901
▁낙이	-10.901
▁낫지	-10.901
▁뉴스	-10.901
▁늙어가	-10.901
▁다닐까	-10.901
▁뒤돌아	-10.901
▁들이댔	-10.901
▁딸까	-10.901
▁막힌다	-10.901
▁믿었는데	-10.901
▁받네	-10.901
▁본거에서는	-10.901
▁빌리	-10.901
▁샀다	-10.901
▁쇼핑몰	-10.901
▁숫자	-10.901
▁스케	-10.901
▁시간낭비인	-10.901
▁시끄러워	-10.901
▁심심한데	-10.901
▁씻어	-10.901
▁안읽씹하면	-10.901
▁오지랖	-10.901
▁웹툰	-10.901
▁이불밖은	-10.901
▁잘생긴	-10.901
▁찔러	-10.901
▁첫이별	-10.901
▁팍팍	-10.901
▁하우스웨딩	-10.901
▁핸드백	-10.901
▁호구	-10.901
▁흐지부지	-10.901
겐	-10.901
덥	-10.901
돕	-10.901
띰	-10.901
버렸나	-10.901
빙	-10.901
안됩니다	-10.901
젤	-10.901
하지않	-10.901
▁넣어	-10.901
▁댓글	-10.901
▁도저히	-10.901
▁떨린다	-10.901
▁뿌려	-10.901
▁스릴있	-10.901
▁주체할	-10.901
▁어린이집	-10.901
▁피시방	-10.901
텔	-10.901
▁관찰	-10.901
▁탄다	-10.901
▁힘이드네	-10.901
▁감성적이	-10.901
▁불가능	-10.901
▁사로잡	-10.901
▁낭만적	-10.901
▁자극이	-10.901
▁환장	-10.901
▁지냈나	-10.901
▁떨어뜨려	-10.901
▁창문	-10.901
▁백수	-10.901
▁환기	-10.901
▁비참한	-10.901
▁심심해	-10.901
▁한계	-10.901
▁경제력	-10.901
▁골프	-10.901
▁단단해지	-10.901
▁봤습니다	-10.901
▁색다른	-10.901
▁대학교	-10.901
▁친군	-10.901
▁숙취	-10.901
▁월세	-10.9011
▁났나봐	-10.9011
▁반응해	-10.9011
▁감추는	-10.9011
▁감정기복	-10.9011
▁베프	-10.9011
▁예정	-10.9011
▁스킨	-10.9011
▁허락하	-10.9011
▁충실하	-10.9011
▁발등	-10.9011
▁생일선물	-10.9011
▁태어났을까	-10.9011
▁바보같이	-10.9011
▁친척들	-10.9011
▁위축	-10.9011
▁투성이	-10.9011
▁감수성	-10.9011
▁떨어짐	-10.9011
▁존중해줬으면	-10.9011
▁구박하	-10.9011
▁공복이	-10.9011
▁가족끼리	-10.9011
▁작동	-10.9011
▁힘드셨	-10.9012
▁커플여행	-10.9012
▁부탁드립니다	-10.9012
▁죽었다	-10.9012
▁장갑	-10.9012
▁설마	-10.9012
용품	-10.9012
▁미치겠습니다	-10.9012
베리	-10.9013
▁빨래	-10.9013
▁장난스러운	-10.9013
▁짜증날	-10.9013
▁바꿔볼까	-10.9013
▁골라줘	-10.9013
▁공통점	-10.9013
▁식혀	-10.9014
▁의도는	-10.9014
▁치마	-10.9014
▁그만둬야	-10.9015
▁고독	-10.9015
▁어울릴까	-10.9015
▁깨짐	-10.9015
▁죽겠어	-10.9015
▁영화보러	-10.9015
▁받았던	-10.9015
님들	-10.9015
▁날짜	-10.9016
▁분양	-10.9016
▁결혼한지	-10.9016
▁까먹었어	-10.9016
▁됐습니다	-10.9016
▁치열해	-10.9016
▁구속해	-10.9016
▁요청	-10.9016
▁몸살	-10.9016
▁대학원	-10.9017
먹을	-10.9017
▁나쁜놈	-10.9017
▁내딛	-10.9017
▁연하	-10.9017
▁나갈까	-10.9018
▁왜그래	-10.9018
▁추가	-10.9018
▁걸어다니	-10.9018
▁숙제	-10.9019
▁술자리	-10.9019
▁다가갈	-10.9019
▁내려놓으면	-10.9019
▁매달려	-10.9019
▁약점	-10.902
▁한달째	-10.902
▁생일이야	-10.902
▁믿는데	-10.9021
▁같을까	-10.9021
▁슬프다	-10.9022
▁줬다	-10.9022
다리	-10.9022
▁아부	-10.9023
▁해낸	-10.9023
▁여러번	-10.9023
▁잊혀질까	-10.9023
▁오디션	-10.9023
▁불안한	-10.9023
▁영상	-10.9024
▁저음이	-10.9024
▁다같이	-10.9024
▁되어가네	-10.9025
▁사회에서	-10.9025
▁전세	-10.9025
▁별로임	-10.9025
▁되돌	-10.9025
▁설명	-10.9026
▁정리해야할	-10.9027
▁배려해	-10.9027
시키는	-10.9027
▁이럴까	-10.9027
▁갔나	-10.9028
▁관심있나	-10.903
▁장난인지	-10.903
방비	-10.903
▁자장면이	-10.903
▁희생양이	-10.903
▁달라질	-10.903
▁이별준비	-10.9031
▁동생이랑	-10.9031
▁잊혀져가	-10.9031
렸으면	-10.9032
▁일요일	-10.9032
▁들었는데	-10.9032
▁질문이	-10.9032
▁아침마다	-10.9032
▁있으	-10.9033
▁진리	-10.9034
▁하셔	-10.9035
▁너무너무	-10.9035
▁사이트	-10.9035
▁만져	-10.9036
▁생겼대	-10.9038
▁영원히	-10.9038
▁자금	-10.9038
▁재회했는데	-10.9038
▁주일	-10.9039
▁지워야	-10.9039
▁선물해볼까	-10.9039
▁뭐하나	-10.904
▁무섭네	-10.904
▁이러면	-10.9041
▁떼	-10.9043
▁누구냐	-10.9043
▁흠	-10.9043
▁해봤어	-10.9043
페이	-10.9044
▁밀려오	-10.9044
▁반복되는	-10.9044
질까봐	-10.9044
▁상메에	-10.9045
▁훔쳐보는	-10.9046
▁난방	-10.9046
▁문화	-10.9046
▁감수	-10.9047
▁산다	-10.9049
▁기대했는데	-10.9052
▁주말인데	-10.9056
▁깨진	-10.9056
▁하트	-10.9057
재인가	-10.9058
▁속상할거	-10.9058
▁모르겠지만	-10.9059
있습니다	-10.906
▁의자	-10.9062
▁귀엽다고	-10.9062
▁않았다면	-10.9065
▁사귀자는	-10.9067
▁내년	-10.9067
▁배고프	-10.9068
▁냉면	-10.9069
▁느끼게	-10.9069
▁해줬으면	-10.9071
▁언제했어	-10.9072
▁몰랐네	-10.9074
▁어디가지	-10.9076
▁작아지	-10.9077
인줄	-10.9078
기사	-10.9078
주물	-10.908
▁세월이	-10.9083
▁주려고	-10.9083
▁열까지	-10.9085
▁얘기하지	-10.9087
▁배고파서	-10.9087
하셨나	-10.9088
▁이러는	-10.9088
▁누구한테	-10.9089
▁역시나	-10.9089
▁나오는데	-10.9089
▁모르겠지	-10.9091
학번	-10.9094
▁연인과	-10.9096
▁결정하는	-10.9097
▁정신과	-10.9098
▁파도가	-10.9101
▁공부할까	-10.9106
▁어이없	-10.9106
▁아프지만	-10.9106
▁웃는게	-10.9108
▁사라	-10.9109
▁날려	-10.9115
▁거부	-10.9116
나쁜건지	-10.9118
▁남긴	-10.9119
▁월	-10.9123
▁말해야지	-10.9124
▁보듬어주	-10.9125
▁모른척	-10.9127
▁수능	-10.9129
상일	-10.9129
▁베터리가	-10.9129
비가	-10.9132
▁괜찮은거	-10.9136
▁아물어	-10.9137
▁일상으로	-10.9139
▁좋겠습니다	-10.9143
▁전까지	-10.9147
▁아는거	-10.9153
▁그림	-10.9153
▁확실하게	-10.9155
▁데려다주려	-10.9156
▁누구야	-10.9157
▁그후	-10.9159
한건가	-10.9163
식을	-10.9173
▁동생한테	-10.9173
▁사이라	-10.9173
었지	-10.9183
▁안됐	-10.9184
▁잊기가	-10.9187
▁대쉬해	-10.9189
▁고백이	-10.9197
▁가는거	-10.9197
▁애교가	-10.92
▁방에	-10.9201
▁그리움이	-10.9202
▁안녕하세요	-10.9204
▁친구로서	-10.9204
였을	-10.9204
소음	-10.9206
▁사귀는데	-10.9209
지우	-10.921
비해	-10.9218
▁껴	-10.9218
▁채워보세요	-10.922
▁적당해	-10.9221
▁반대로	-10.9221
▁가시	-10.9225
▁날이야	-10.9235
▁났어	-10.9243
▁재미있는	-10.9255
▁돌아오는	-10.9255
라인	-10.9256
▁골	-10.9263
▁말아야	-10.9265
▁알지만	-10.9266
▁나라	-10.927
로우니	-10.927
야할지	-10.9277
장소에	-10.928
▁못하는데	-10.9284
▁부르는	-10.9291
▁뜻밖	-10.9294
▁갔는	-10.9306
어주지	-10.9308
▁했는	-10.9311
▁말걸	-10.9312
▁저기	-10.9314
▁경우에	-10.9319
▁멀어진다는	-10.932
▁도와주세	-10.932
▁소식에	-10.932
▁기운이	-10.9323
▁나오지	-10.9325
▁품	-10.9328
▁아프게	-10.9335
▁잼	-10.9335
▁키스	-10.9338
▁말라	-10.9341
▁심어	-10.9378
▁이혼을	-10.9386
▁철벽이	-10.9389
▁공기	-10.939
▁아무일	-10.9405
트가	-10.9405
▁공개해	-10.9418
▁갖는	-10.942
▁나가지	-10.9431
▁백업해	-10.9438
▁너만	-10.9438
▁축하해	-10.9453
▁표현에	-10.9462
▁일이었	-10.9481
▁예쁘다	-10.9483
▁붙는	-10.9487
▁먹을게	-10.9489
▁동거하다	-10.9493
▁했을까	-10.9496
▁터지	-10.9507
▁위험하	-10.9519
해보고	-10.9523
▁모르겠	-10.9525
▁타면	-10.953
▁이상한가	-10.9538
▁무너지	-10.9546
▁동기	-10.9552
고파	-10.9554
▁머	-10.9562
▁연애할	-10.9568
▁없다가	-10.9574
어리	-10.9584
▁할인	-10.9584
▁중독인	-10.9599
▁그랬을	-10.9601
복이	-10.9606
하자	-10.9619
▁잊으려	-10.9632
▁부여	-10.9646
▁싸우	-10.9659
▁많나	-10.9659
▁단톡방에	-10.9662
이신	-10.9678
▁상관이	-10.97
▁오나봐	-10.9705
▁잘할까	-10.9708
이란게	-10.9713
▁갔	-10.9724
▁간다고	-10.9768
쳐버리	-10.9772
나오	-10.9776
었음	-10.9797
▁잊었다	-10.9808
▁저만	-10.9827
▁잘못한	-10.9836
▁준비해	-10.9842
▁넘은	-10.9851
▁태도에	-10.9855
▁선물해주	-10.9867
▁만들까	-10.9872
▁생각해야	-10.9873
▁포근	-10.9881
▁고백한	-10.9882
왔습니다	-10.9911
▁노력이	-10.9913
▁그러다	-10.9926
▁연애였	-10.9935
해져	-10.9951
▁아니다	-10.9956
▁익숙해지는	-11.0006
▁심하네	-11.0036
▁관계도	-11.006
해주	-11.0068
봤는데	-11.0079
▁정상이	-11.0087
▁잊지마	-11.0131
▁공부해야	-11.0134
▁찾아왔	-11.0149
시켜야	-11.0152
▁현실에	-11.0195
순수한	-11.0203
▁알았다	-11.0209
▁법을	-11.021
▁결혼준비	-11.0217
▁돌보	-11.0223
다니기	-11.0245
▁이어지	-11.0248
▁할때	-11.0255
▁조심해야	-11.0276
▁슬프	-11.0278
▁봐봐	-11.0291
▁준비하면	-11.0297
▁면도	-11.0303
▁잘라	-11.0329
▁중독	-11.0344
자가	-11.0362
기면	-11.0365
▁답답하	-11.0368
▁헤어지자네	-11.0374
맛이	-11.0385
왔으면	-11.0392
불가	-11.0396
나가고	-11.0417
▁애석	-11.0418
보니까	-11.0443
▁같았	-11.0449
▁노력해보	-11.048
▁이어나가	-11.0481
▁관심있	-11.0483
▁안하면	-11.0506
물이	-11.0517
▁필요해보	-11.0523
타는	-11.0541
▁알바하면	-11.0543
▁접어두는	-11.0548
톡이	-11.0563
없어	-11.0569
▁안오	-11.0586
▁갠톡	-11.0587
민	-11.062
오겠죠	-11.0624
▁지지	-11.0625
▁모르니	-11.0625
해주면	-11.063
시키	-11.0635
▁연락올	-11.0642
▁흐르네	-11.0643
▁생각하세	-11.065
▁사귀자	-11.0663
▁뜻하	-11.0665
▁깨달	-11.0665
속	-11.0666
세포	-11.0668
나긴	-11.0673
▁챙겨줘	-11.0673
언	-11.0674
팩	-11.0681
▁많겠	-11.0684
촬영	-11.069
골	-11.0691
버려야지	-11.0692
늘	-11.0694
미	-11.0695
틈	-11.0699
듭니다	-11.07
조심하	-11.0702
눈	-11.0702
소리가	-11.0702
찌	-11.0705
끝	-11.0706
싸	-11.0707
패턴	-11.0708
육아	-11.0708
휴	-11.0709
밀어	-11.0709
허	-11.071
놓으	-11.071
자격증	-11.0711
문득	-11.0714
치료	-11.0714
커	-11.0715
붙	-11.0715
커플	-11.0715
사귄	-11.0716
올려	-11.0718
늦	-11.0718
갖	-11.0719
▁무리	-11.072
겨울	-11.0721
름이	-11.0722
마음	-11.0739
서점에	-11.0754
▁질린	-11.0759
있나	-11.0762
주시	-11.0766
만남	-11.0766
느	-11.0781
전과	-11.0784
▁익숙	-11.0809
약이	-11.081
▁아픈가	-11.0812
가지고	-11.0839
난거	-11.0847
그치	-11.085
▁년동	-11.0863
▁모른척하	-11.087
달라는	-11.089
겠음	-11.0898
▁사람이었	-11.0905
러운	-11.0915
▁나겠	-11.0918
▁이상이	-11.0921
▁사랑하나	-11.0925
▁쓸쓸	-11.093
▁도망	-11.0934
▁머리카락	-11.0935
▁기술	-11.0941
▁무색하	-11.0952
염	-11.0957
▁추억들	-11.0973
야겠어	-11.0979
▁울적해	-11.0981
▁완벽	-11.0982
루	-11.0986
▁바꿔야	-11.0987
듬	-11.099
▁질려하	-11.0992
▁정리해야	-11.0994
▁한숨	-11.0994
족	-11.0994
▁미용실	-11.0997
어져서	-11.0997
귄	-11.0999
▁떠나갔	-11.1
탕	-11.1001
▁만나야	-11.1002
▁친절한	-11.1003
▁알아내	-11.1003
▁조용	-11.1004
▁구썸남	-11.1004
▁힘드신	-11.1005
궈	-11.1007
시어머니	-11.1008
▁술한잔	-11.1008
첨	-11.1008
버렸습니다	-11.1009
▁씹어	-11.1009
쫄	-11.1009
직하	-11.1009
떡	-11.101
▁읽씹	-11.101
껄	-11.101
▁비행기	-11.101
항	-11.101
율	-11.101
춘	-11.101
뱃	-11.101
▁미끄러	-11.101
댓	-11.101
블루	-11.101
▁기획사	-11.101
▁드러내	-11.101
▁모임이	-11.101
▁모질	-11.101
▁부끄러	-11.101
▁부딪히	-11.101
▁소극적	-11.101
▁간질간질	-11.101
▁걷는	-11.101
▁결혼하겠대	-11.101
▁공휴일에	-11.101
▁괘씸하	-11.101
▁꽃꽂이	-11.101
▁낮술	-11.101
▁놀러갈까	-11.101
▁높이는	-11.101
▁눈꺼풀	-11.101
▁닭발	-11.101
▁댄디	-11.101
▁따위	-11.101
▁땜에	-11.101
▁렌즈	-11.101
▁못하냐구	-11.101
▁무뚝뚝해	-11.101
▁무모한	-11.101
▁받겠지	-11.101
▁변할까	-11.101
▁부딪혀	-11.101
▁부작용	-11.101
▁불쌍	-11.101
▁비정규직	-11.101
▁비혼주의	-11.101
▁빌릴까	-11.101
▁빼니까	-11.101
▁뻐근	-11.101
▁생생한	-11.101
▁속사정을	-11.101
▁싫지는	-11.101
▁쌓여	-11.101
▁썼는데	-11.101
▁씨앗	-11.101
▁아날로그	-11.101
▁안돌아오나	-11.101
▁액션은	-11.101
▁어떻해	-11.101
▁예측	-11.101
▁웨딩	-11.101
▁웨딩드레스	-11.101
▁이해못하겠어	-11.101
▁익숨함	-11.101
▁인정받으려면	-11.101
▁인형뽑기	-11.101
▁자율주행	-11.101
▁장기자랑	-11.101
▁재가입	-11.101
▁전기장판	-11.101
▁젖었어	-11.101
▁제습기	-11.101
▁조깅하고	-11.101
▁쥐꼬리	-11.101
▁지냈으면	-11.101
▁지옥같	-11.101
▁지옥이네	-11.101
▁진출해볼까	-11.101
▁창피해	-11.101
▁찾아갔습니다	-11.101
▁체육	-11.101
▁쳇바퀴	-11.101
▁쿨하	-11.101
▁토닥토닥	-11.101
▁편인데	-11.101
▁해결방안	-11.101
▁현관문	-11.101
▁호박씨	-11.101
▁히스테리	-11.101
걍	-11.101
균	-11.101
깃	-11.101
넋	-11.101
넥	-11.101
녔	-11.101
닦	-11.101
삔	-11.101
싹	-11.101
썩	-11.101
쥐	-11.101
쥬	-11.101
팬	-11.101
펭	-11.101
풋	-11.101
핀	-11.101
▁거였구나	-11.101
▁고구마	-11.101
▁국경	-11.101
▁그만둬서	-11.101
▁꽃게탕	-11.101
▁냉정할	-11.101
▁덤덤해	-11.101
▁중간중간	-11.101
▁처량하	-11.101
▁허전함	-11.101
▁데려달라고	-11.101
▁예랑이	-11.101
▁예쁠	-11.101
▁뱃살	-11.101
▁비오는날	-11.101
▁유세부	-11.101
▁청춘이	-11.101
▁쳐다봄	-11.101
▁체력	-11.101
▁계신가	-11.101
▁도자기	-11.101
▁막히더라	-11.101
▁버렸다	-11.101
▁뻔뻔	-11.101
▁환상	-11.101
▁떠나보내	-11.101
▁내냐구	-11.101
▁탈출구	-11.101
▁친절하	-11.101
▁처방	-11.101
▁곤두	-11.101
▁양면과	-11.101
▁투잡	-11.101
▁알뜰폰	-11.101
▁머물	-11.101
▁강해지	-11.101
▁교복이	-11.101
▁비교돼	-11.101
▁막히네	-11.101
▁놀이터에	-11.1011
▁누워	-11.1011
▁대빵	-11.1011
▁마음가짐	-11.1011
▁가운데	-11.1011
▁피부관리	-11.1011
▁쳐다봐	-11.1011
▁난감하	-11.1011
▁노잼	-11.1011
▁잠식시키	-11.1011
▁잠수탔어	-11.1011
▁증상이	-11.1011
▁프로	-11.1011
▁똑같애	-11.1011
▁보내기로	-11.1011
▁시간표	-11.1011
▁요구가	-11.1011
▁체질	-11.1011
올릴까	-11.1011
▁팔뚝	-11.1011
▁동성애	-11.1011
▁보험료	-11.1011
▁구분짓	-11.1011
▁이루어졌으면	-11.1011
▁스테	-11.1011
▁스터디하자고	-11.1011
▁불쑥	-11.1011
근무	-11.1011
잔하네	-11.1011
▁변덕스러운	-11.1011
▁꽃바구니	-11.1011
▁응원해주면	-11.1012
▁돌아온	-11.1012
▁못잊겠	-11.1012
▁길어진다	-11.1012
▁찬성	-11.1012
▁오랜연애	-11.1012
▁기계	-11.1012
▁친추	-11.1012
쳐올	-11.1012
▁여행지에서	-11.1012
▁방향	-11.1012
▁단발	-11.1012
▁나빴네	-11.1012
▁미안하대	-11.1013
▁헤어졌을때	-11.1013
▁결재	-11.1013
꼈어	-11.1013
▁흘렸어	-11.1013
▁가벼워질	-11.1013
▁무너졌어	-11.1013
▁무덤덤한데	-11.1013
▁움직이기가	-11.1013
▁개째	-11.1013
▁신혼집	-11.1013
▁되가네	-11.1013
▁불순	-11.1013
▁헷갈려	-11.1013
▁갈궈	-11.1013
▁설레발	-11.1013
▁시절	-11.1013
▁내려놔	-11.1013
▁무료	-11.1014
▁뒤숭숭하네	-11.1014
▁복전하면	-11.1014
▁못내는	-11.1014
▁웃겨	-11.1014
▁어떨때	-11.1014
▁여부	-11.1014
▁사랑이라는건	-11.1014
▁취급	-11.1014
▁후련할거	-11.1015
크림	-11.1015
▁솔직했으면	-11.1015
▁떠는거	-11.1015
▁영역	-11.1015
▁씌었나봐	-11.1015
▁고백해도될까	-11.1015
▁예전처럼	-11.1015
▁원하던	-11.1015
▁도와줄까	-11.1016
▁틀어도	-11.1016
▁미팅	-11.1016
▁떨리더라	-11.1016
▁모르겠음	-11.1016
▁달라질까	-11.1016
▁기운내	-11.1016
▁유료로	-11.1017
▁직장인이	-11.1017
▁착각일까	-11.1017
▁놀았는데	-11.1017
▁달반	-11.1018
▁찾아갔네	-11.1018
▁배워볼까	-11.1018
▁당사자만	-11.1018
▁파혼했어	-11.1019
▁해결해줄	-11.1019
▁외로울	-11.102
▁경제	-11.102
▁취직할까	-11.1021
▁둔한	-11.1021
▁미워해	-11.1021
▁바람피	-11.1021
▁받아드리	-11.1022
▁오늘밤	-11.1022
침해	-11.1022
▁지각	-11.1022
▁정리되었길	-11.1023
▁만족해	-11.1023
▁지울까	-11.1023
거같네	-11.1023
▁잡았어	-11.1023
▁받았는데	-11.1023
▁식사	-11.1024
▁연락해도될까	-11.1024
▁생겼다는	-11.1024
▁보낼까	-11.1024
▁배신	-11.1024
▁떨어진	-11.1024
▁만나지말	-11.1025
▁겁이나	-11.1025
▁싸웠어	-11.1025
▁화가나네	-11.1025
▁재미있는거	-11.1025
▁무난	-11.1025
▁줄이고	-11.1026
▁다되가네	-11.1026
▁살았다	-11.1026
▁살고싶어	-11.1026
▁귀여운	-11.1026
▁기다렸나봐	-11.1026
▁헤어지신	-11.1026
차렸을	-11.1027
▁식상	-11.1028
▁비추	-11.1028
▁쌓인다	-11.1028
▁과제	-11.1029
▁사랑했다는	-11.1029
▁상사한테	-11.103
▁옥상에	-11.103
▁소용	-11.103
▁티비	-11.1031
▁일주일이네	-11.1031
점이	-11.1032
▁담아	-11.1032
▁재회후	-11.1032
▁어색할까	-11.1032
왔네	-11.1033
▁결혼하고싶어	-11.1034
▁요구하	-11.1035
▁손가락이	-11.1035
▁책보	-11.1036
▁좋아보여	-11.1037
▁지치네	-11.1037
▁만들어볼까	-11.1037
▁잘해준	-11.1038
▁사무	-11.1039
긴다는	-11.1039
▁찾아볼까	-11.1039
▁복잡했나	-11.104
▁최고라고	-11.104
▁습관처럼	-11.104
▁말해본	-11.104
▁당함	-11.1041
▁고백한다	-11.1041
▁집앞에서	-11.1041
▁학과	-11.1042
▁취직할	-11.1042
▁단수	-11.1042
▁추스리	-11.1043
▁사랑이야기	-11.1043
▁부르지	-11.1044
준비하는방법	-11.1044
▁정리했	-11.1045
▁특히	-11.1045
▁책장	-11.1045
였네	-11.1045
▁무리에	-11.1046
▁저장할	-11.1046
▁연기	-11.1047
▁약이라는	-11.1047
▁기차	-11.1047
▁진급할	-11.1048
▁못하나봐	-11.1048
▁경과	-11.105
▁콕	-11.1051
근한	-11.1051
▁소심	-11.1053
▁도망가고	-11.1053
▁다녀야	-11.1053
▁울적해서	-11.1053
▁가까워지	-11.1053
▁카톡하는	-11.1055
▁알아내서	-11.1057
▁상태에서	-11.1057
▁털	-11.1057
▁안해줘	-11.1059
▁말로만	-11.106
▁포근포근	-11.106
▁수수한	-11.106
▁마음가는	-11.106
▁꼬시	-11.1061
초반	-11.1061
▁연락오네	-11.1063
▁다른반	-11.1064
▁헤어져야하는게	-11.1065
▁답장해	-11.1067
▁무색하게	-11.1069
▁비행기표가	-11.1071
▁초기	-11.1071
▁냄새나	-11.1074
▁서운한	-11.1075
해야할듯	-11.1076
▁오나	-11.1078
▁생활비	-11.108
▁이별하려고	-11.1081
▁사랑해라고	-11.1081
▁사실일	-11.1083
▁해버렸네	-11.1086
했다는	-11.1087
▁메리	-11.1089
▁재회하고	-11.1089
▁없음	-11.109
▁받아들여야할	-11.1091
▁연애하다	-11.1092
▁짜증나네	-11.1095
▁잘라야	-11.1096
▁공부해야지	-11.1097
▁아려	-11.1097
▁줄이야	-11.1098
▁대리	-11.11
▁설명이	-11.1101
▁마주쳤	-11.1101
▁귀찮은	-11.1104
▁꾸는데	-11.1106
▁아니었어	-11.111
▁헤어지네	-11.111
▁죽을거	-11.1111
느리	-11.1112
▁물건들	-11.1113
▁극복해	-11.1114
▁귀찮게	-11.1114
▁화나고	-11.1114
▁버티지	-11.1116
▁자리에	-11.1118
▁프사랑	-11.1118
▁한마디	-11.1121
▁안되겠지만	-11.1122
▁치우	-11.1122
▁누구니	-11.1122
▁둘다	-11.1124
▁없습니다	-11.1124
▁오래가	-11.1124
▁무뎌지는	-11.1125
▁힘드나	-11.1127
았나봐	-11.1127
▁출근길	-11.1128
▁사귀면서	-11.113
아리	-11.1132
▁오긴	-11.1139
▁태어나도	-11.1139
▁사수가	-11.114
▁오려나	-11.1141
▁언니가	-11.1141
▁그분과	-11.1148
▁좋으면서	-11.1148
▁나가야지	-11.1148
▁사랑이란	-11.115
돼야	-11.1151
같았던	-11.1152
▁보이는데	-11.1155
▁무거	-11.1156
기적이	-11.1157
▁결혼했어	-11.1157
▁잘했다	-11.1159
했다면	-11.1159
▁수순	-11.1159
▁선물할까	-11.1161
번째	-11.1163
▁채우	-11.1163
▁개월동안	-11.1164
▁좋은점	-11.1165
▁성공하면	-11.1167
▁못했는	-11.1172
▁겨울이	-11.1174
▁기다	-11.1174
▁극복하고	-11.1175
조절이	-11.1177
▁빨	-11.118
▁숙	-11.1183
타이	-11.1188
▁날인가	-11.1189
▁봤으면	-11.1194
▁출	-11.1194
▁않겠지	-11.12
웃으	-11.1205
▁잘해줘서	-11.1208
▁맞는거	-11.1211
▁말하면서	-11.1215
▁찾아가고	-11.1219
▁대단해	-11.122
▁오니	-11.1221
▁사랑인가	-11.1222
▁정리하려	-11.1223
▁사라지	-11.1224
▁보라고	-11.1226
감한	-11.1227
▁붙잡을	-11.1232
▁학원에	-11.1235
▁도네	-11.1235
▁나으	-11.1238
▁속시원해	-11.1242
▁힘들긴	-11.1243
▁이별인가봐	-11.1249
▁지나고	-11.1251
▁안한다	-11.1252
월해	-11.1256
▁후회하면	-11.1258
▁충	-11.1263
▁하는걸	-11.1268
▁긍정적이	-11.1269
▁남았어	-11.1269
▁못자고	-11.1272
▁말할까	-11.1282
표인	-11.1285
▁안했으면	-11.1293
▁도와드	-11.1302
▁답답해서	-11.1302
▁화장으로	-11.1304
▁것같아	-11.1307
▁가수	-11.131
여기다	-11.1315
▁원서	-11.1316
▁때문일까	-11.1323
▁아니었나	-11.1331
탔어	-11.1333
▁듭니다	-11.1335
▁되었는	-11.1338
▁서점에	-11.134
▁촬영	-11.1341
▁카페에	-11.1342
▁이별했어	-11.1342
▁자체를	-11.1346
▁죽는	-11.1355
▁오래타	-11.1357
▁피로	-11.1362
▁말이라도	-11.1362
올려봐	-11.1366
▁풀어주	-11.1373
▁바라보	-11.1376
▁포기하지	-11.1376
틀어	-11.138
▁비밀이	-11.1385
▁처음만	-11.1393
사이	-11.1399
▁만족하	-11.1403
▁투	-11.1411
▁빈	-11.1416
▁있니	-11.1423
▁적절	-11.1423
스는	-11.1426
▁들어야	-11.1428
▁뭐니	-11.143
▁버려야지	-11.1442
▁별이	-11.1442
▁지워지	-11.1444
▁에이	-11.1456
▁어떤거	-11.1456
▁당황스러	-11.1459
▁잡을	-11.147
▁프사를	-11.1477
▁갑	-11.1479
▁버리기	-11.1483
▁가봐	-11.1492
▁정으로	-11.1493
▁청소는	-11.1502
▁사랑해줘	-11.1505
▁못잊는거	-11.1505
하고싶다	-11.1505
▁될수	-11.1523
▁유지	-11.1528
▁확	-11.1533
▁썸타다	-11.1537
▁나름	-11.1542
▁변하니	-11.1551
너에게	-11.1562
▁걸어도	-11.1562
▁처음이라	-11.1565
▁햇	-11.1566
▁오는데	-11.1601
▁잡기	-11.1602
▁마셨어	-11.1606
▁썸인가요	-11.1607
▁익숙해졌	-11.1608
▁받았	-11.1609
▁받아들이는게	-11.1609
▁짝사랑일	-11.1614
▁관심있는	-11.1621
▁기다리다	-11.1633
▁진지한	-11.1647
▁다했다	-11.166
▁필요없	-11.1682
▁군대가	-11.1684
동을	-11.1697
▁이야기할	-11.1711
두통	-11.172
잡으려고	-11.1725
▁내려놓기	-11.1725
▁신기	-11.1747
▁잘된	-11.1749
▁해보	-11.1757
▁모르지	-11.1768
▁이별하면	-11.1773
▁생각나기	-11.1783
▁돌아오기	-11.1808
▁맞이	-11.181
▁무지	-11.1814
▁비가오	-11.1824
▁있었지	-11.1826
트인	-11.1827
시려	-11.1845
쳤어	-11.1847
▁극	-11.187
▁놓으려	-11.1896
▁보기만	-11.19
당하기	-11.1905
어지고	-11.1916
▁가야겠	-11.1934
▁만납	-11.1939
▁은퇴해야	-11.1943
▁표시하	-11.195
▁사귄지	-11.1952
하더라고요	-11.1954
▁붙였	-11.1955
▁기한	-11.1964
어지지	-11.1973
▁남을까	-11.1976
고쳤	-11.1988
척해	-11.2006
이었는데	-11.2011
▁사랑스럽	-11.202
▁경험해보	-11.2021
왔을	-11.2025
그런건가	-11.2027
▁지내자	-11.2033
▁나빠졌	-11.2041
▁용서하	-11.2053
▁답인	-11.2074
▁아련하	-11.2075
▁조심해야겠	-11.2082
▁사람일까	-11.2083
▁부담스러워해	-11.2092
▁이별이었	-11.212
▁운동하자	-11.2146
▁난다	-11.216
분들께	-11.2177
▁가보	-11.2177
▁본다	-11.2198
오르	-11.2209
▁아니었나봐	-11.2212
되었길	-11.2214
하나봅니다	-11.2226
해봐도	-11.2266
들겠지	-11.2289
스럽게	-11.2291
▁일인가봐	-11.2293
끌리	-11.2302
▁갔을	-11.2309
되시길	-11.2319
워보	-11.234
▁끝내려	-11.2361
▁탈이	-11.2371
내야하나	-11.2376
▁지켜야	-11.2384
▁지나갔네	-11.2411
▁제자리걸음	-11.2416
주면	-11.2443
▁위험할	-11.2444
석해야	-11.2457
▁싱숭생숭하	-11.2457
려줘	-11.2564
▁잘하	-11.2567
와야	-11.2569
▁왔나	-11.257
이너	-11.2588
▁하겠	-11.2619
▁부여하	-11.2622
▁필요하다	-11.2629
려야	-11.2636
곳에	-11.2642
같지	-11.2646
랐나봐	-11.2659
▁놀리	-11.2659
▁교회에	-11.2666
▁차이일	-11.2666
▁피곤하겠	-11.2672
▁상처에	-11.2691
▁있으신	-11.2701
▁약해지	-11.2711
때리는	-11.2711
해줄까	-11.2713
려구	-11.2716
▁순간에	-11.2728
너	-11.2731
났어	-11.2741
▁아쉽겠	-11.2743
▁하고싶은	-11.2762
▁짝사랑인	-11.2801
▁자연	-11.2803
만나자는	-11.2806
▁싫어해	-11.2825
▁약인	-11.2865
▁그러려	-11.2885
▁지키	-11.2887
▁타야	-11.289
▁못잊는	-11.2909
▁아이돌	-11.2978
▁질거	-11.299
안보여	-11.3003
같이	-11.3027
▁만날수	-11.3044
군	-11.3045
▁오락가락하	-11.3073
▁풀어야	-11.3085
▁보내려	-11.3089
▁시간들	-11.309
끌	-11.3131
사람은	-11.3146
경	-11.3157
▁상처주	-11.316
밤	-11.3168
계	-11.3168
어보	-11.3186
▁성숙	-11.3187
껴	-11.3187
충	-11.319
분들	-11.32
짜	-11.3201
▁매달	-11.3202
사람이다	-11.3202
담	-11.3205
먼	-11.3206
했을까	-11.3206
자리에	-11.3208
쓸	-11.321
책	-11.321
철	-11.3214
랐	-11.3215
코스	-11.3215
했습니다	-11.3216
단점	-11.3216
경우	-11.3218
큰	-11.3219
시작이	-11.3219
선물	-11.322
그런	-11.322
보이는	-11.322
벌	-11.322
알	-11.3224
미리	-11.3224
됐으면	-11.3225
보낼	-11.323
머리	-11.3233
관리	-11.3233
시간동안	-11.3234
어찌보	-11.3239
▁웃어주	-11.3241
마시	-11.3242
스타일이	-11.3245
맘이	-11.3251
워야	-11.3254
나온	-11.3274
▁대단	-11.3275
▁자연스	-11.3277
▁도와드릴	-11.3278
나가면	-11.3284
갔는	-11.3287
▁똑똑	-11.329
▁간사	-11.3305
것에	-11.3308
렸으	-11.3332
해주세	-11.3334
▁친해지	-11.334
잊혀지네	-11.3349
주인	-11.3353
몸이	-11.3356
▁달려	-11.3382
있겠죠	-11.3394
해졌나봐	-11.3417
▁마시는	-11.3417
준비하면서	-11.3424
▁입냄새	-11.343
▁비행기표	-11.3433
▁성덕	-11.3439
쟁	-11.344
맥	-11.3441
▁쓸데없	-11.3446
▁주워담	-11.345
▁뜨겁	-11.345
간다고	-11.3455
▁집앞	-11.346
▁심장	-11.3462
낸	-11.3463
▁추스	-11.3466
▁헬스장	-11.3467
벽	-11.3474
▁고백할까	-11.3475
▁남아있	-11.3479
▁시간인가	-11.3483
칼	-11.3489
▁물건	-11.349
꾼	-11.3493
▁직후	-11.3493
환	-11.3495
▁겁이	-11.3496
▁들겠	-11.3496
밀	-11.3497
▁엄마아빠	-11.3497
것만은	-11.3498
▁시간이었겠	-11.3501
▁졸린	-11.3502
▁잠들	-11.3503
텐	-11.3503
▁공허	-11.3505
▁모자	-11.3505
▁씁쓸	-11.3508
▁끝냈	-11.3508
백한다	-11.3508
끗	-11.3509
▁폭식	-11.3509
▁머릿	-11.3509
쑥	-11.3509
콜	-11.3509
▁희생	-11.351
▁부모	-11.351
찢	-11.351
닷	-11.351
똥	-11.351
뚱	-11.351
▁기뻐해	-11.351
▁멀미	-11.351
▁몰아	-11.351
▁표출	-11.351
밑	-11.351
▁고시생	-11.351
▁동문서답	-11.351
▁딴짓	-11.351
▁변했	-11.351
▁북받쳐	-11.351
▁섣부르	-11.351
▁화풀이	-11.351
▁훈훈하	-11.351
go	-11.351
o	-11.351
▁갔다와야지	-11.351
▁개당황	-11.351
▁갱신	-11.351
▁걷기	-11.351
▁견딜	-11.351
▁괴로운	-11.351
▁기어오른다	-11.351
▁끊었으면	-11.351
▁녹차	-11.351
▁논문	-11.351
▁누락됐어	-11.351
▁눅눅해	-11.351
▁눌러	-11.351
▁답례품	-11.351
▁대부분	-11.351
▁덤덤하게	-11.351
▁돌담길	-11.351
▁뒹굴	-11.351
▁뒹굴거리고	-11.351
▁드레스룸	-11.351
▁땡긴다	-11.351
▁떴어	-11.351
▁로맨스	-11.351
▁말랭이	-11.351
▁매순간	-11.351
▁맺는	-11.351
▁메뉴얼이	-11.351
▁모기가	-11.351
▁모음	-11.351
▁못믿겠	-11.351
▁미끄러질뻔했어	-11.351
▁받음	-11.351
▁배불러	-11.351
▁변기	-11.351
▁뷔페	-11.351
▁블랙박스	-11.351
▁비슷해	-11.351
▁뿌얘	-11.351
▁삐져	-11.351
▁삼가	-11.351
▁삼주	-11.351
▁상견례	-11.351
▁세탁소	-11.351
▁숏컷	-11.351
▁쉽지않	-11.351
▁스몰웨딩	-11.351
▁스타벅스	-11.351
▁식단조절	-11.351
▁싫네	-11.351
▁싶대	-11.351
▁싶었는데	-11.351
▁쌓아	-11.351
▁쓰네	-11.351
▁쓰디	-11.351
▁앞둔	-11.351
▁애매모호	-11.351
▁얼떨떨	-11.351
▁업데이트가	-11.351
▁엇갈리는	-11.351
▁외제차	-11.351
▁왼손잡이가	-11.351
▁의사표시	-11.351
▁잘생겼지	-11.351
▁재택근무	-11.351
▁젖어	-11.351
▁존경	-11.351
▁지칩니다	-11.351
▁짤릴	-11.351
▁찔려	-11.351
▁칼국수	-11.351
▁캐볼까	-11.351
▁컨트롤	-11.351
▁컸으면	-11.351
▁코코넛오일	-11.351
▁탄생	-11.351
▁탄탄	-11.351
▁택시탈까	-11.351
▁텀블러	-11.351
▁퇴사	-11.351
▁트집잡는	-11.351
▁팬미팅	-11.351
▁편식	-11.351
▁풀었	-11.351
▁프로젝트	-11.351
▁햇볕	-11.351
▁험해	-11.351
▁헤이진지	-11.351
▁헤헤	-11.351
▁호르몬	-11.351
▁호수	-11.351
▁혼밥	-11.351
▁홈쇼핑에서	-11.351
▁황당하	-11.351
▁황당해	-11.351
귤	-11.351
뒹	-11.351
메이크업	-11.351
뮤	-11.351
밭	-11.351
범	-11.351
붓	-11.351
뿅	-11.351
섭섭하	-11.351
솜	-11.351
쇠	-11.351
웽	-11.351
줍	-11.351
쨌	-11.351
챘	-11.351
컷	-11.351
쿼	-11.351
킬	-11.351
탐	-11.351
템	-11.351
▁괴로웠을	-11.351
▁낭만이	-11.351
▁대리효도	-11.351
▁대충한	-11.351
▁식도염	-11.351
▁쓰다	-11.351
▁애키우	-11.351
▁이브네	-11.351
▁이성친구가	-11.351
▁정동진	-11.351
▁조교하면	-11.351
▁죄송해	-11.351
▁풍부	-11.351
▁회의감	-11.351
▁가라앉혀	-11.351
▁거슬려	-11.351
▁두근두근	-11.351
▁입소문	-11.351
▁희망고문	-11.351
웁	-11.351
▁봐주니까	-11.351
▁초라해	-11.351
▁떡졌어	-11.351
▁말았네	-11.351
▁무서움	-11.351
벅	-11.351
▁불타오르	-11.351
▁부질없	-11.351
▁사갈까	-11.351
▁완전체가	-11.351
▁힌트	-11.351
▁샤워가운	-11.351
▁자유로워질까	-11.351
▁기다리게했어	-11.351
▁메시지	-11.351
▁년만난	-11.351
▁바닥을	-11.351
▁수학여행가는데	-11.351
▁났으면	-11.351
▁초조해	-11.351
▁골랐나봐	-11.351
▁타입인	-11.351
▁동아리에	-11.351
▁주정도	-11.3511
▁불금이	-11.3511
▁출국	-11.3511
▁답답하신가	-11.3511
▁미팅한다	-11.3511
▁쪽팔	-11.3511
투덜	-11.3511
▁대리님	-11.3511
▁깎아야지	-11.3511
▁공황	-11.3511
▁잘해야하나봐	-11.3511
▁찬물	-11.3511
국물	-11.3511
▁잡담	-11.3511
▁농구하	-11.3511
▁팔찌	-11.3511
▁일반적이	-11.3511
▁선연하	-11.3511
▁인강	-11.3511
▁신입	-11.3511
▁아끼는	-11.3511
▁진담	-11.3511
▁털어내	-11.3511
▁찰랑	-11.3511
▁탈출하고	-11.3511
▁울었네	-11.3511
▁학회	-11.3511
▁살만해	-11.3511
으셨	-11.3511
▁쳐다보	-11.3511
콜록	-11.3511
▁소홀	-11.3511
▁연애상담해	-11.3511
▁남자와의	-11.3511
▁복합적	-11.3511
▁외박	-11.3512
▁싸가지고	-11.3512
▁예민함	-11.3512
▁폭식증	-11.3512
▁명언	-11.3512
▁태어났	-11.3512
▁양다리	-11.3512
▁당했습니다	-11.3512
▁머리스타일	-11.3512
▁오르고	-11.3512
▁놓침	-11.3512
▁왜이러	-11.3512
▁맞출까	-11.3512
▁작별	-11.3512
▁바나나	-11.3512
잡히네	-11.3512
▁입학식	-11.3512
▁잘되고	-11.3512
▁사치인	-11.3512
▁길러볼까	-11.3513
▁전세비	-11.3513
▁산이네	-11.3513
▁짝사랑이었네	-11.3513
▁성급	-11.3513
▁자제하는	-11.3513
▁이러는걸까	-11.3513
▁중독인가봐	-11.3513
▁리액션해	-11.3513
▁이용당	-11.3513
▁먹먹함	-11.3513
▁숨막히	-11.3513
▁끝냈습니다	-11.3513
▁괴롭혀	-11.3513
▁죽고싶어	-11.3513
▁깨졌는데	-11.3514
▁촉이	-11.3514
▁퇴근시간	-11.3514
▁받았습니다	-11.3514
▁쪄서	-11.3514
▁무색해지네	-11.3514
▁깨지고	-11.3514
▁부담된다	-11.3514
▁놓쳤다	-11.3514
▁주저리	-11.3514
키니	-11.3514
▁부산	-11.3514
▁또라이	-11.3514
▁되어갑니다	-11.3515
▁바보짓	-11.3515
환해	-11.3515
▁속지말	-11.3515
▁데려다줬는데	-11.3515
▁학교생활	-11.3515
▁잊어버려	-11.3516
▁비왔으면	-11.3516
▁작아져	-11.3516
했잖아	-11.3516
▁죽겠다	-11.3516
▁농담처럼	-11.3516
▁병신	-11.3516
▁조심스	-11.3516
출할	-11.3516
▁부담돼	-11.3516
▁싫었는데	-11.3516
타오를	-11.3517
▁심난	-11.3517
▁후련해졌	-11.3517
▁울었어	-11.3517
▁시간표대로	-11.3517
▁먹먹	-11.3517
▁괜찮았는데	-11.3518
▁둘만의	-11.3518
▁어디있을까	-11.3518
▁먹었다	-11.3518
▁빨라	-11.3518
▁졸린데	-11.3518
▁쉬었다	-11.3518
▁몸매	-11.3519
▁비례	-11.3519
▁일어날까	-11.3519
▁입학	-11.3519
▁느려졌어	-11.3519
▁발표할때	-11.3519
▁돌봐	-11.3519
▁들어가기가	-11.352
▁지망	-11.352
▁가혹	-11.352
▁귀찮은데	-11.352
▁친절한데	-11.352
▁공원	-11.352
▁두분이	-11.352
상화	-11.352
▁예민해져	-11.3521
▁떠났습니다	-11.3521
▁버리겠어	-11.3521
▁심란	-11.3521
바구니	-11.3521
▁바람난거	-11.3521
▁구분해	-11.3521
▁시켜줘	-11.3522
▁올려봅니다	-11.3522
▁너그	-11.3522
▁서글	-11.3522
▁편하대	-11.3523
▁마디	-11.3523
▁고작	-11.3524
▁기름값	-11.3524
▁서운한거	-11.3524
▁이번주	-11.3524
▁죽음	-11.3524
▁바보같은	-11.3524
▁골인	-11.3524
▁예를	-11.3525
▁심정	-11.3525
▁받았다	-11.3525
▁맞추려고	-11.3526
▁보름	-11.3526
▁한달반	-11.3526
▁간절하네	-11.3526
▁볼링	-11.3526
▁후회돼	-11.3527
▁번복	-11.3527
▁세금	-11.3527
뜨문	-11.3527
▁떠나갔네	-11.3528
▁지나갔으면	-11.3528
▁잊자	-11.3528
▁붙어	-11.3528
▁차리래	-11.3528
▁머릿속에	-11.3529
▁재밌대	-11.3529
▁화살	-11.3529
던곳	-11.3529
▁즐거워	-11.3529
다시	-11.353
▁돌아올거	-11.353
웠으면	-11.353
▁끝냈어	-11.353
▁안내는	-11.3531
▁연애였는데	-11.3531
▁까먹어	-11.3531
▁참견해	-11.3531
▁인간적	-11.3532
데이인데	-11.3532
▁아픈것도	-11.3532
▁자식	-11.3532
유발	-11.3533
▁낸다	-11.3533
▁방구	-11.3534
▁고민돼	-11.3534
▁마음이란게	-11.3534
▁글자만	-11.3534
▁심심하다고	-11.3535
▁귀엽대	-11.3535
▁오빠들	-11.3535
▁귀찮네	-11.3535
▁배려해야	-11.3535
▁이발	-11.3536
▁수십	-11.3536
▁글자	-11.3536
▁소통	-11.3536
▁사야돼	-11.3536
▁봐야겠다	-11.3537
▁빨리감	-11.3537
▁몰랐던	-11.3538
▁도와줄	-11.3539
▁맞음	-11.3539
▁발렌타인데이인데	-11.3539
연해	-11.3539
▁실수했나	-11.354
모양일까	-11.3542
▁만들어주	-11.3542
▁부담스러운데	-11.3543
▁넘었어	-11.3543
▁버려야겠지	-11.3543
▁네달	-11.3544
보내버렸네	-11.3544
▁식었어	-11.3544
▁나온대	-11.3545
▁침대에서	-11.3545
▁잇몸에서	-11.3545
▁진급에서	-11.3545
▁판단하지	-11.3548
▁이별이야기	-11.3548
▁가고싶다	-11.3549
▁멋있어	-11.3549
▁결혼해야할까	-11.3549
▁대신	-11.3549
▁떠오르네	-11.355
독하고	-11.3551
▁잊혀진	-11.3551
▁받는다는	-11.3551
▁사랑했으니	-11.3551
▁취향인데	-11.3552
▁것인가	-11.3552
▁남아있나	-11.3552
▁온천	-11.3554
▁만날땐	-11.3554
▁쓰이네	-11.3555
▁이겨내기	-11.3555
▁나온거	-11.3556
▁안나와	-11.3556
▁흔들리네	-11.3557
▁도망가	-11.3558
▁너란	-11.356
▁바르	-11.356
▁그렇겠지	-11.3561
▁그리워지	-11.3564
▁놀려	-11.3564
▁대상이	-11.3564
▁상처주지	-11.3565
▁약해	-11.3565
▁들어줄래	-11.3565
꾸룩	-11.3566
▁사랑하는건	-11.3566
▁들텐데	-11.3566
▁헤어졌으니까	-11.3567
▁이겨	-11.3567
일뿐	-11.3567
▁컴터가	-11.3568
▁싫어졌어	-11.3568
▁먹방	-11.3569
▁떨어졌	-11.3569
▁머릿속에서	-11.357
▁달래	-11.357
▁뜨겁게	-11.3571
▁같기도	-11.3572
목을	-11.3572
▁오후	-11.3572
지나갑니다	-11.3572
▁끝내야	-11.3574
▁미운	-11.3574
연예	-11.3575
▁이상형이야	-11.3577
▁사줄까	-11.3578
▁새장	-11.3578
▁버스에서	-11.3579
▁없어졌으면	-11.3583
▁월의	-11.3583
▁정치	-11.3584
진행중	-11.3584
▁개야	-11.3584
▁전화하기	-11.3587
▁바꿔야지	-11.3587
▁입냄새가	-11.3591
▁없었나봐	-11.3592
▁추우니	-11.3592
▁괴롭다	-11.3593
▁나올까	-11.3598
▁지하철에서	-11.3598
하자마자	-11.3599
▁술마시는	-11.3599
간당	-11.3599
▁맞춰보	-11.3599
▁해야겠어	-11.3601
▁가야겠지	-11.3602
했었는데	-11.3604
해도될까	-11.3604
▁그놈	-11.3604
관에	-11.3604
▁구질	-11.3605
▁결정적인	-11.3606
▁없었어	-11.3607
▁머리카락이	-11.3608
▁보셨나	-11.3608
▁정리해야지	-11.3609
▁잘못입니다	-11.3613
민가	-11.3615
▁한때는	-11.3616
▁집사	-11.3616
▁매달리	-11.3617
▁하냐	-11.3617
▁그런건지	-11.3617
▁한사람	-11.3618
▁미안함	-11.3619
▁죽는게	-11.3622
▁저주	-11.3622
▁먹어보	-11.3623
▁오빠랑	-11.3627
▁말아야지	-11.3627
▁사전	-11.3627
▁존중하는	-11.3629
▁말했으면	-11.3629
▁샤워하	-11.3633
▁살거야	-11.3633
▁놀라	-11.3634
▁돌아다니	-11.3637
▁시작함	-11.3639
▁비밀로	-11.3639
▁썸타는데	-11.364
▁휘둘리	-11.364
▁알려면	-11.3644
▁배에서	-11.3656
▁패	-11.3657
▁아픈데	-11.3657
▁악	-11.3657
▁이별할때	-11.3657
▁힘들일이	-11.3658
안했을	-11.3659
▁마라	-11.3659
▁극복하는	-11.366
▁언제부터	-11.366
▁안맞	-11.3661
▁조심할	-11.3663
▁질리게	-11.3669
▁어른이	-11.3673
▁끝나네	-11.3673
순위	-11.3674
▁모르나봐	-11.3674
▁잘하니	-11.3675
▁결심한	-11.3675
▁온다면	-11.3677
▁감당이	-11.3679
움이	-11.368
▁덜해	-11.3684
▁마주	-11.3688
▁취직이	-11.3688
▁생각해주는	-11.369
▁다가가기	-11.369
▁있다는데	-11.369
▁표현해주	-11.3691
▁동거하고	-11.3693
▁비싸다	-11.3693
▁하는거야	-11.3693
▁부네	-11.3693
초록	-11.3695
사랑인지	-11.3699
▁아들	-11.3701
▁월요일도	-11.3705
해줘	-11.3706
▁과거의	-11.3706
▁마음만은	-11.3707
▁월급만	-11.3714
▁차별이	-11.3714
▁맞아서	-11.3715
▁이주	-11.3716
▁맘대로	-11.3717
▁가재	-11.3736
▁사랑없이	-11.3738
▁외로움이	-11.374
씨가	-11.3743
▁흔적이	-11.3743
▁못하네	-11.3744
▁여자인지	-11.3749
▁사랑이라는	-11.3751
▁힘들줄	-11.3755
▁청약	-11.3756
▁장애	-11.3756
▁부러	-11.376
▁남친과	-11.3764
▁본인만	-11.3768
▁마주보	-11.3772
▁잘못이지	-11.3774
▁한달인데	-11.3775
▁말려	-11.3782
▁공감되	-11.3785
▁잊은	-11.3793
▁놔주	-11.3793
▁보름달이	-11.3793
고쳐져	-11.3796
스를	-11.3799
▁나감	-11.38
▁조건이	-11.3806
▁기복	-11.3808
▁멋있게	-11.3814
▁기대하게	-11.3819
▁사랑했는데	-11.382
▁편해도	-11.382
▁짝사랑인지	-11.3824
▁전화할	-11.3825
▁단계라	-11.3837
▁노후가	-11.3846
▁공무원이	-11.3849
▁과거는	-11.3852
잊어보려고	-11.3853
▁애야	-11.3868
▁터졌	-11.3869
▁음악이	-11.3871
▁사과를	-11.3874
▁다했는데	-11.3875
▁안나나	-11.3891
▁직업이	-11.3917
건너	-11.3919
하자는	-11.3919
▁그랬지	-11.3925
▁카톡하지	-11.3925
▁사랑했어	-11.3925
▁없었겠	-11.3936
▁언	-11.394
▁지속	-11.3943
▁술마시	-11.3946
▁팩	-11.3949
▁세포	-11.3953
▁오랜만	-11.3958
▁강요하는	-11.4008
순간에	-11.4008
▁축	-11.4023
먹으니까	-11.403
▁후련해	-11.406
▁영화보자	-11.4075
▁보수적이	-11.4097
▁투자하는	-11.4116
▁첫사랑인	-11.4125
▁전부였	-11.4156
▁단순하	-11.4162
▁털어버	-11.4167
▁지키는	-11.4167
▁까먹지	-11.4169
그여자	-11.4176
▁잊어야겠	-11.4177
▁날인	-11.4189
▁확인하	-11.4197
▁잊어야해	-11.421
▁거지같	-11.4233
▁커지기	-11.4238
될까	-11.4267
▁두려	-11.4276
가왔습니다	-11.43
▁혼자있	-11.432
▁고집	-11.4324
▁많을까	-11.4331
▁두려워지	-11.4358
다니고	-11.44
인다	-11.4416
간에	-11.4436
▁절친이	-11.4463
▁다니면	-11.4471
상했	-11.4487
▁미안하	-11.4499
▁키워보	-11.4499
▁못하니	-11.4504
▁흐르면	-11.4539
▁않음	-11.4554
▁운명인	-11.4564
▁반복될까	-11.457
반짝	-11.4597
채나	-11.4607
인거죠	-11.4619
▁가까워	-11.4647
▁같았나	-11.4652
주러	-11.4655
될것같	-11.4673
하자는데	-11.4677
생각입니다	-11.4693
▁노력해야	-11.4726
▁제자리걸음이	-11.4738
감각	-11.4754
▁하루였	-11.4803
▁후련	-11.4807
여리	-11.4846
▁신청했	-11.4867
▁지우려	-11.4989
▁들리네	-11.4998
▁만났네	-11.5039
▁매력적	-11.5055
▁투자라	-11.5059
▁찾아가보	-11.5068
중인데	-11.5078
것같아	-11.5087
▁운명같	-11.5096
▁잠수이별인	-11.514
사드리	-11.5166
▁끝인거	-11.5218
▁끝났다	-11.5239
▁고백해보	-11.5248
해들	-11.5272
한걸까	-11.5298
간다	-11.5299
▁잡는다	-11.5385
해드	-11.5403
먹었	-11.5421
▁습관이라	-11.5424
했겠	-11.5485
▁불행해	-11.5497
▁방법이겠	-11.5528
갔	-11.5533
▁반복될	-11.5536
▁물리	-11.5537
달렸나봐	-11.5538
▁없겠어	-11.5608
▁헌신	-11.5635
러기	-11.5654
▁절친	-11.5659
▁어렵겠지	-11.5733
▁궁금하다	-11.5751
▁밀당해	-11.5754
싶어지네	-11.5754
넘어	-11.5777
▁꿈이었	-11.5791
▁받았나	-11.5792
▁걸렸	-11.5813
▁차였	-11.5869
▁익숙해	-11.5871
▁그러니	-11.5887
했으니	-11.5926
주신	-11.5933
▁되었다	-11.5949
맞는다면	-11.5954
준비하는데	-11.5961
▁안정적	-11.5968
▁형	-11.5979
▁쓰이겠	-11.5992
▁가망	-11.6031
▁철벽	-11.6044
▁부족했	-11.6073
월	-11.6087
▁남겠	-11.612
▁울면	-11.6124
▁보내보	-11.615
끝이네	-11.6158
▁이런건	-11.6169
▁괜찮아졌다	-11.617
잡고	-11.619
▁알게되	-11.6191
▁돌아왔	-11.6207
▁털어	-11.6217
▁부르	-11.6235
렀어	-11.626
▁휴학	-11.6282
버	-11.6296
▁싫어하나	-11.6338
표	-11.6347
▁만들었	-11.6349
▁반이라	-11.6374
뭐냐	-11.6376
▁잊어보려	-11.6385
▁적당	-11.6402
목	-11.6431
키	-11.6434
▁속시원	-11.6442
큼	-11.6461
출	-11.6464
▁대쉬	-11.6466
업	-11.6466
페	-11.6469
▁약속잡	-11.6479
▁못하겠네	-11.6484
하게하	-11.6486
넘	-11.6487
너무	-11.6491
쪽	-11.6497
▁되겠어	-11.6501
명인데	-11.6512
청약	-11.6516
빨	-11.6517
숙	-11.6523
장애	-11.6524
입	-11.6524
털	-11.6525
낳	-11.6529
동생한테	-11.6529
노래	-11.6531
느끼	-11.6531
브	-11.6532
꿨	-11.6532
베	-11.6534
윗	-11.6536
잘라	-11.6536
있으신가	-11.6536
꿀	-11.6537
꾸미	-11.6537
세우	-11.654
다녀와	-11.654
잘	-11.6543
연휴	-11.6544
짠	-11.6545
등	-11.6546
봤으면	-11.6548
그래	-11.6548
짜증나	-11.6549
바꾸	-11.6549
쓴	-11.6549
센스	-11.6549
봄	-11.655
신청	-11.6551
눈물	-11.6551
마지막	-11.6552
노래방	-11.6552
청소	-11.6552
헤어짐	-11.6552
곧	-11.6552
학원	-11.6552
모르겠어	-11.6552
차례	-11.6552
부려	-11.6553
영화	-11.6553
있다는	-11.6554
떨	-11.6557
초대	-11.6559
아파	-11.6563
해준	-11.6565
아플	-11.6567
칼로	-11.6567
자신이	-11.6571
문자	-11.6574
당했어	-11.6577
사실	-11.6582
보고싶어	-11.6585
넘은	-11.6589
차단	-11.6593
▁보듬어	-11.6597
밤에	-11.6598
나올	-11.6604
▁현금	-11.661
▁보았	-11.6625
말해	-11.663
▁말아보	-11.6638
인사	-11.6639
어린	-11.6652
되었나	-11.6653
▁망설여	-11.6659
▁휘둘	-11.6665
감기	-11.667
▁잊혀	-11.6677
▁힘내세	-11.6681
▁마세	-11.6691
내리겠	-11.6706
없는거	-11.6712
아졌어	-11.6716
자마자	-11.6721
자리	-11.6726
▁컴터	-11.6764
밖	-11.6766
▁훔쳐보	-11.6766
▁아쉬움	-11.6773
▁온거	-11.6778
▁공허함	-11.678
▁울컥	-11.6784
▁어쩔수	-11.6785
으려면	-11.6786
쁜	-11.6796
▁모양	-11.68
▁채워보	-11.68
▁모임에	-11.6803
▁열받아	-11.6803
▁강요하	-11.6805
▁옥상	-11.6809
▁따듯해	-11.6818
혹	-11.6829
▁쓰리	-11.683
벼	-11.6831
이었겠	-11.6833
▁대상	-11.6834
졌을	-11.6834
▁씌었	-11.6835
렀	-11.6835
▁배워가는	-11.6838
▁기름	-11.6838
깝	-11.6838
▁넘었	-11.6838
나갔으면	-11.6839
▁중소기업	-11.684
키지	-11.684
닿	-11.684
▁헬스	-11.684
▁자책	-11.684
현	-11.6841
봇	-11.6841
▁깎아	-11.6841
춤	-11.6841
샘	-11.6841
홀	-11.6842
해야하는걸	-11.6842
폭력	-11.6842
▁안타까	-11.6843
스럽다	-11.6843
▁엉망	-11.6843
▁비비	-11.6843
▁모른	-11.6843
보내기	-11.6843
추세	-11.6843
냄	-11.6843
잇	-11.6843
▁김치볶음밥	-11.6843
▁가꿔볼까	-11.6843
▁가득해	-11.6843
▁같네하하ᅮ	-11.6843
▁개기름	-11.6843
▁개불쌍	-11.6843
▁교직이수	-11.6843
▁그리웠나	-11.6843
▁그자리인거	-11.6843
▁깜깜한데	-11.6843
▁꺼질때까지	-11.6843
▁꿀꿀해	-11.6843
▁날ᄏᄏ	-11.6843
▁넘어질뻔	-11.6843
▁노처녀	-11.6843
▁놓고왔다	-11.6843
▁놓아줄꺼라	-11.6843
▁다쏟아내려합니다	-11.6843
▁단계별로	-11.6843
▁돌싱남	-11.6843
▁돌아섰어	-11.6843
▁동원했지만	-11.6843
▁뒷맛이	-11.6843
▁드레스	-11.6843
▁따야겠지	-11.6843
▁땡겨	-11.6843
왓	-11.6843
콘	-11.6843
킹	-11.6843
끔	-11.952
온	-11.9551
놓	-12.1406
맘	-12.1475
강	-12.1513
악	-12.1516
패	-12.1517
교	-12.1523
숨	-12.1536
응	-12.1537
농	-12.1537
탔	-12.154
퍼	-12.1541
땅	-12.1544
귀	-12.1545
노	-12.1545
찼	-12.1547
얘	-12.1547
깊	-12.1548
활	-12.1549
쉬	-12.1552
왜	-12.1554
딱	-12.1555
꼭	-12.1555
긋	-12.175
줬	-12.1778
십	-12.1786
딛	-12.1819
듭	-12.1831
젠	-12.1832
쁠	-12.1835
꼈	-12.1836
빴	-12.1837
황	-12.1839
톱	-12.1841
콤	-12.1841
턴	-12.1841
컥	-12.1843
졋	-12.1843
욜	-12.1843
몽	-12.1843
낭	-12.1843
릿	-12.1843
률	-12.1843
맙	-12.1843
댄	-12.1843
앗	-12.1843
딜	-12.1843
령	-12.1843
뻤	-12.1843
익	-12.1843
팍	-12.1843
흡	-12.1843
꼬	-13.1284
덜	-13.1479
누	-13.1531
콕	-13.1544
흠	-13.155
떼	-13.155
덕	-13.1553
빵	-13.1554
뻔	-13.1558
냉	-13.1562
밟	-13.1562
멋	-13.1563
술	-13.1567
뜻	-13.1568
쐬	-13.1569
떠	-13.1569
꽃	-13.1571
립	-13.1813
련	-13.1826
긍	-13.1837
뜰	-13.1838
쩔	-13.1842
탄	-13.1843
넹	-13.1843
딘	-13.1843
첩	-13.1843
킥	-13.6604
캬	-13.6605
캐	-13.6606
칩	-13.6607
쪘	-13.6608
짬	-13.6609
짤	-13.661
젝	-13.6611
왼	-13.6612
엿	-13.6613
숏	-13.6614
섣	-13.6615
섞	-13.6616
샜	-13.6617
뽕	-13.6618
빽	-13.6619
뷔	-13.662
볕	-13.6621
몬	-13.6622
륜	-13.6623
룸	-13.6624
랭	-13.6625
띵	-13.6626
덮	-13.6627
논	-13.6628
넛	-13.6629
깼	-13.663
겜	-13.6631
g	-13.6632
헹	-13.6633
튀	-13.6634
측	-13.6635
쳇	-13.6636
옮	-13.6637
옛	-13.6638
씸	-13.6639
썰	-13.664
섰	-13.6641
뺏	-13.6642
묘	-13.6643
뜬	-13.6644
떴	-13.6645
닭	-13.6646
꽂	-13.6647
꼴	-13.6648
깅	-13.6649
괘	-13.665
갱	-13.6651
홧	-13.6652
홈	-13.6653
헥	-13.6654
헐	-13.6655
퉁	-13.6656
텁	-13.6657
턱	-13.6658
쿵	-13.6659
짼	-13.666
웹	-13.6661
숫	-13.6662
렐	-13.6663
랙	-13.6664
랖	-13.6665
땜	-13.6666
댔	-13.6667
뇌	-13.6668
꿰	-13.6669
꽝	-13.667
꽉	-13.6671
깰	-13.6672
깬	-13.6673
폼	-13.6674
텀	-13.6675
짰	-13.6676
엊	-13.6677
얽	-13.6678
쁨	-13.6679
밉	-13.668
릇	-13.6681
뚫	-13.6682
눕	-13.6683
눌	-13.6684
넷	-13.6685
겪	-13.6686
좌	-13.6687
앱	-13.6688
쌈	-13.6689
멘	-13.669
맴	-13.6691
됬	-13.6692
갠	-13.6693
훔	-13.6694
핫	-13.6695
팠	-13.6696
툼	-13.6697
탓	-13.6698
켰	-13.6699
컸	-13.67
총	-13.6701
쭉	-13.6702
썹	-13.6703
쉴	-13.6704
삐	-13.6705
몫	-13.6706
맺	-13.6707
램	-13.6708
겉	-13.6709
퓨	-13.671
촬	-13.6711
찐	-13.6712
왠	-13.6713
샌	-13.6714
묵	-13.6715
릎	-13.6716
롤	-13.6717
둠	-13.6718
꼰	-13.6719
곱	-13.672
팀	-13.6721
층	-13.6722
쏠	-13.6723
빚	-13.6724
렜	-13.6725
땡	-13.6726
낙	-13.6727
굳	-13.6728
헌	-13.6729
퀴	-13.673
쿨	-13.6731
짱	-13.6732
젯	-13.6733
엮	-13.6734
슈	-13.6735
볍	-13.6736
렛	-13.6737
둥	-13.6738
눅	-13.6739
낚	-13.674
긁	-13.6741
팸	-13.6742
틋	-13.6743
툴	-13.6744
욱	-13.6745
씌	-13.6746
쏟	-13.6747
쌍	-13.6748
돋	-13.6749
휘	-13.675
싼	-13.6751
뻑	-13.6752
묻	-13.6753
늠	-13.6754
늙	-13.6755
끓	-13.6756
광	-13.6757
흑	-13.6758
찜	-13.6759
징	-13.676
씁	-13.6761
쌩	-13.6762
뽀	-13.6763
훈	-13.6764
젖	-13.6765
얻	-13.6766
섬	-13.6767
볶	-13.6768
맡	-13.6769
렬	-13.677
낄	-13.6771
겹	-13.6772
c	-13.6773
켠	-13.6774
쪼	-13.6775
옳	-13.6776
땀	-13.6777
검	-13.6778
샤	-13.6779
깎	-13.678
객	-13.6781
컴	-13.6782
왤	-13.6783
앉	-13.6784
씻	-13.6785
빡	-13.6786
잃	-13.6787
웬	-13.6788
뢰	-13.6789
녹	-13.679
a	-13.6791
엉	-13.6792
벚	-13.6793
넓	-13.6794
혔	-13.6795
찔	-13.6796
뽑	-13.6797
딪	-13.6798
닮	-13.6799
규	-13.68
곁	-13.6801
컨	-13.6802
뤄	-13.6803
띄	-13.6804
넣	-13.6805
꾹	-13.6806
푹	-13.6807
옥	-13.6808
씹	-13.6809
밝	-13.681
딴	-13.6811
낮	-13.6812
ᄏ	-13.6813
렘	-13.6814
뛰	-13.6815
딸	-13.6816
깜	-13.6817
헬	-13.6818
랫	-13.6819
웨	-13.682
블	-13.6821
렌	-13.6822
뉴	-13.6823
뀔	-13.6824
갚	-13.6825
춥	-13.6826
닫	-13.6827
걔	-13.6828
슷	-13.6829
잤	-13.683
뒷	-13.6831
끈	-13.6832
귈	-13.6833
셀	-13.6834
녁	-13.6835
뀌	-13.6836
텨	-13.6837
깔	-13.6838
액	-13.6839
썼	-13.684
싱	-13.6841
샀	-13.6842
됩	-13.6843
꼼	-13.6844
깍	-13.6845
쌓	-13.6846
ᅮ	-13.6847
헛	-13.6848
뿌	-13.6849
멈	-13.685
걷	-13.6851
획	-13.6852
삼	-13.6853
꿔	-13.6854
희	-13.6855
엽	-13.6856
눠	-13.6857
권	-13.6858
섭	-13.6859
효	-13.686
틱	-13.6861
삭	-13.6862
끄	-13.6863
쇼	-13.6864
틀	-13.6865
북	-13.6866
ᄒ	-13.6867
쩌	-13.6868
밍	-13.6869
멍	-13.687
탁	-13.6871
옆	-13.6872
벗	-13.6873
높	-13.6874
뎌	-13.6875
녕	-13.6876
렵	-13.6877
숭	-13.6878
n	-13.6879
헷	-13.688
낫	-13.6881
득	-13.6882
읽	-13.6883
잖	-13.6884
깐	-13.6885
삶	-13.6886
롭	-13.6887
케	-13.6888
멀	-13.6889
칭	-13.689
승	-13.6891
핑	-13.6892
엇	-13.6893
퇴	-13.6894
밌	-13.6895
빌	-13.6896
괴	-13.6897
흔	-13.6898
짧	-13.6899
흐	-13.69
덤	-13.6901
빼	-13.6902
끊	-13.6903
똑	-13.6904
랜	-13.6905
픔	-13.6906
졸	-13.6907
핸	-13.6908
씀	-13.6909
뻐	-13.691
슴	-13.6911
뭔	-13.6912
몇	-13.6913
풍	-13.6914
평	-13.6915
닐	-13.6916
맨	-13.6917
굴	-13.6918
손	-13.6919
견	-13.692
풀	-13.6921
s	-13.6922
첫	-13.6923
완	-13.6924
찍	-13.6925
써	-13.6926
죽	-13.6927
즐	-13.6928
챙	-13.6929
험	-13.693
최	-13.6931
존	-13.6932
격	-13.6933
럼	-13.6934
엄	-13.6935
뭘	-13.6936
쁘	-13.6937
켜	-13.6938
떤	-13.6939
슨	-13.694
,	-13.6941
앞	-13.6942
쉽	-13.6943
걱	-13.6944
겼	-13.6945
택	-13.6946
믿	-13.6947
막	-13.6948
랄	-13.6949
접	-13.695
닌	-13.6951
몰	-13.6952
봅	-13.6953
호	-13.6954
놀	-13.6955
럴	-13.6956
얼	-13.6957
억	-13.6958
싫	-13.6959
찾	-13.696
변	-13.6961
쓰	-13.6962
따	-13.6963
또	-13.6964
왔	-13.6965
졌	-13.6966
떻	-13.6967
렇	-13.6968
편	-13.6969
괜	-13.697
찮	-13.6971
!	-13.6972
뭐	-13.6973
받	-13.6974
습	-13.6975
혼	-13.6976
썸	-13.6977
헤	-13.6978
모	-13.6979
않	-13.698
많	-13.6981
힘	-13.6982
싶	-13.6983
없	-13.6984
같	-13.6985
생	-13.6986
람	-13.6987
겠	-13.6988
?	-13.6989
좋	-13.699
.	-13.6991
