<pad>	0
<s>	0
</s>	0
<unk>	0
▁the	-2.9794
▁.	-3.19639
▁,	-3.23227
s	-3.41736
▁to	-3.86105
▁a	-3.86265
ed	-3.90609
▁of	-3.90886
▁in	-3.99134
▁and	-4.06729
ing	-4.28594
▁s	-4.3898
▁on	-4.85289
▁said	-4.86203
▁for	-4.93603
▁that	-4.96279
y	-4.98916
d	-5.12943
▁is	-5.16389
ly	-5.18775
▁was	-5.24351
▁with	-5.26957
▁be	-5.29558
▁it	-5.38271
▁	-5.45628
▁he	-5.47285
▁at	-5.47954
▁an	-5.54938
▁from	-5.5889
▁by	-5.60856
▁as	-5.63553
▁has	-5.65263
▁have	-5.73817
▁his	-5.73819
▁are	-5.85944
▁but	-5.91653
e	-5.92661
▁were	-5.94428
▁will	-5.95357
▁not	-6.02183
▁who	-6.07924
▁u	-6.12194
▁after	-6.12668
▁had	-6.15446
▁been	-6.21061
▁they	-6.2223
▁this	-6.23901
n	-6.27539
▁their	-6.28451
▁people	-6.29436
▁year	-6.29785
▁i	-6.30798
▁about	-6.31865
▁more	-6.32261
▁t	-6.32504
▁its	-6.34237
▁two	-6.36492
▁new	-6.38964
▁korea	-6.39432
▁we	-6.40458
t	-6.42062
▁which	-6.43813
▁one	-6.43984
▁president	-6.44571
▁up	-6.46304
▁her	-6.47628
▁government	-6.48394
▁would	-6.49276
▁or	-6.52738
▁north	-6.5518
▁she	-6.56616
▁also	-6.58077
▁out	-6.59403
▁than	-6.59881
▁over	-6.6541
▁last	-6.66704
▁cnn	-6.67827
ies	-6.68349
▁police	-6.68463
▁when	-6.70985
▁first	-6.71231
▁south	-6.72104
▁there	-6.78239
▁us	-6.80261
▁other	-6.80456
▁some	-6.80544
▁into	-6.81882
▁all	-6.82751
r	-6.83783
▁no	-6.85833
▁time	-6.86538
er	-6.87522
▁told	-6.90032
es	-6.90368
▁world	-6.91192
a	-6.92704
▁korean	-6.93579
l	-6.94186
an	-6.95695
▁state	-6.96688
▁percent	-6.97788
▁you	-6.98494
▁years	-6.98703
▁can	-6.99773
▁united	-7.0202
▁could	-7.03996
▁them	-7.04663
on	-7.04777
▁if	-7.05329
▁according	-7.05343
▁officials	-7.05504
▁al	-7.08194
▁country	-7.09215
▁party	-7.09731
▁three	-7.09912
▁monday	-7.10755
▁iraq	-7.11346
▁minister	-7.11767
▁militar	-7.12305
▁tuesday	-7.1306
▁says	-7.1351
▁national	-7.13656
▁day	-7.14926
ese	-7.14985
▁what	-7.17217
▁kill	-7.18489
o	-7.18763
▁obama	-7.18864
▁week	-7.19128
▁states	-7.20024
▁like	-7.20901
▁him	-7.21254
▁wednesday	-7.2166
▁million	-7.21775
▁japan	-7.22075
▁before	-7.22193
▁most	-7.23106
▁old	-7.23191
▁since	-7.2445
▁against	-7.24485
▁sunday	-7.24603
▁so	-7.25794
ce	-7.26498
▁now	-7.26528
▁bush	-7.27319
▁china	-7.2749
▁nuclear	-7.27939
▁where	-7.28617
▁down	-7.28741
al	-7.29228
▁near	-7.29349
▁take	-7.29714
▁m	-7.29906
▁dur	-7.30202
▁under	-7.31154
▁say	-7.31733
▁back	-7.32669
cause	-7.33495
▁official	-7.34022
▁off	-7.3421
▁may	-7.34267
▁city	-7.34298
▁un	-7.34382
▁nation	-7.3441
▁thursday	-7.34638
▁former	-7.34771
▁re	-7.34799
▁security	-7.36907
▁just	-7.36932
▁whil	-7.37281
▁reported	-7.38208
▁four	-7.38345
▁house	-7.38409
tween	-7.38478
▁made	-7.39774
▁war	-7.40893
▁american	-7.41803
ish	-7.42106
▁high	-7.43359
▁group	-7.44524
▁month	-7.44971
▁many	-7.45538
▁through	-7.46404
▁do	-7.48264
▁end	-7.48561
▁news	-7.49889
▁man	-7.50515
▁being	-7.51138
▁plan	-7.51243
i	-7.52129
▁including	-7.52568
▁called	-7.52649
▁show	-7.54595
▁did	-7.55044
▁statement	-7.55399
▁home	-7.55902
▁b	-7.55998
▁our	-7.56766
▁international	-7.56792
▁get	-7.57013
▁any	-7.57333
▁six	-7.58043
▁help	-7.58095
▁found	-7.58411
▁work	-7.61555
▁th	-7.61818
▁report	-7.61841
▁part	-7.62143
▁won	-7.6251
▁reports	-7.62847
▁next	-7.6371
▁foreign	-7.64554
▁court	-7.65102
▁five	-7.65167
▁talks	-7.658
▁second	-7.65804
▁make	-7.66283
▁my	-7.66485
▁attack	-7.66515
▁death	-7.66585
▁still	-7.66633
▁go	-7.66988
▁days	-7.67585
▁how	-7.67983
▁prime	-7.69381
▁long	-7.70085
▁troops	-7.7036
in	-7.70777
▁n	-7.71216
▁seoul	-7.71373
▁office	-7.71559
other	-7.72007
en	-7.73122
▁authorit	-7.73171
▁around	-7.73838
▁want	-7.73986
▁leas	-7.74635
▁recent	-7.75035
able	-7.75268
▁hour	-7.7554
▁know	-7.76185
▁top	-7.76924
▁release	-7.77158
▁set	-7.77171
▁ministry	-7.7729
▁come	-7.77406
▁spokesm	-7.7773
▁leader	-7.77876
▁arm	-7.792
ther	-7.79282
▁way	-7.7932
▁clinton	-7.80204
▁program	-7.80244
hose	-7.81185
▁lead	-7.81461
▁see	-7.81694
▁washington	-7.81699
▁public	-7.82273
▁w	-7.82432
▁close	-7.82713
▁support	-7.82932
▁company	-7.83
▁place	-7.8301
ity	-7.83437
▁site	-7.83482
▁agency	-7.84791
▁presidential	-7.85355
▁iraqi	-7.85418
▁expected	-7.85457
man	-7.8592
c	-7.85941
ion	-7.86141
▁bank	-7.86421
▁well	-7.86532
▁chief	-7.86555
▁look	-7.86634
▁saying	-7.86965
▁return	-7.87057
▁even	-7.87223
out	-7.87363
▁press	-7.87385
▁brit	-7.87793
▁billion	-7.87946
▁children	-7.88399
▁forces	-7.88994
▁both	-7.89578
▁york	-7.89585
▁should	-7.90339
▁earlie	-7.90527
▁political	-7.90621
▁campaign	-7.91041
▁election	-7.91303
▁early	-7.91332
▁died	-7.91507
▁number	-7.91563
▁believe	-7.91832
▁head	-7.91968
▁arrest	-7.92014
▁members	-7.92103
▁saturday	-7.92974
▁white	-7.93504
▁times	-7.93597
▁chin	-7.93827
▁general	-7.93944
▁meeting	-7.9425
▁friday	-7.94555
▁came	-7.95424
▁kim	-7.9577
▁countries	-7.95787
▁p	-7.96191
▁democratic	-7.96312
▁women	-7.96533
▁fire	-7.96742
▁economic	-7.97064
▁car	-7.97234
▁claim	-7.97289
▁air	-7.97557
▁team	-7.97665
▁health	-7.97666
▁among	-7.98554
▁good	-7.98869
very	-7.98992
▁took	-7.9974
▁going	-7.99799
▁ask	-7.99933
▁family	-7.99964
▁power	-8.00063
▁use	-8.00135
▁months	-8.00237
▁center	-8.0026
▁think	-8.00316
▁issue	-8.006
▁visit	-8.01001
▁?	-8.01922
est	-8.01973
▁lee	-8.02077
▁later	-8.02597
▁human	-8.02651
▁much	-8.02739
▁night	-8.02896
▁capital	-8.02975
▁try	-8.03089
▁move	-8.03216
▁life	-8.03382
▁force	-8.03408
▁face	-8.0362
▁left	-8.04037
▁need	-8.04152
▁then	-8.05286
▁john	-8.05454
▁ago	-8.05617
▁yesterday	-8.0582
ment	-8.0618
▁large	-8.06357
▁k	-8.06504
▁secretary	-8.07354
▁major	-8.07405
▁men	-8.08724
▁deal	-8.08825
▁area	-8.08995
▁pakistan	-8.09522
▁allow	-8.09536
▁run	-8.09616
h	-8.09784
▁turn	-8.0982
▁held	-8.10926
▁iran	-8.12056
▁same	-8.12235
▁business	-8.12627
ers	-8.13068
▁market	-8.131
▁oil	-8.13397
▁case	-8.13576
▁put	-8.13694
▁de	-8.13808
▁me	-8.13827
▁right	-8.13859
▁local	-8.13957
▁own	-8.13974
▁severa	-8.14043
m	-8.14278
▁main	-8.14308
▁department	-8.14555
▁today	-8.15264
▁university	-8.15495
▁hit	-8.15542
▁media	-8.15616
▁don	-8.1606
▁school	-8.16197
▁dead	-8.16352
▁opposition	-8.16824
▁economy	-8.16975
▁start	-8.17099
▁appear	-8.1712
▁third	-8.17129
▁record	-8.17504
▁past	-8.1755
▁militant	-8.1759
▁roh	-8.17595
▁law	-8.17827
▁concern	-8.17899
▁half	-8.17938
▁leaders	-8.1827
▁candidate	-8.18364
▁call	-8.18396
▁morning	-8.18532
▁win	-8.18736
▁vote	-8.18831
▁financial	-8.18832
▁these	-8.19192
▁space	-8.19487
▁few	-8.19775
▁e	-8.20114
▁london	-8.21361
▁taliban	-8.21362
land	-8.21437
▁defense	-8.21521
▁com	-8.21566
▁whe	-8.2157
▁late	-8.21957
▁sign	-8.22354
▁clear	-8.22813
▁d	-8.23089
▁film	-8.23305
▁free	-8.2366
▁remain	-8.23873
▁your	-8.24479
▁f	-8.24778
▁test	-8.25076
▁hospital	-8.25207
▁beijing	-8.2528
▁open	-8.25303
▁water	-8.25374
▁name	-8.26048
▁workers	-8.2606
▁administration	-8.26116
▁afghanistan	-8.26118
▁money	-8.26196
ve	-8.26332
▁per	-8.26383
▁base	-8.26429
▁palestinian	-8.26453
le	-8.26496
▁change	-8.26539
▁service	-8.26614
▁german	-8.26624
▁final	-8.26954
▁mccain	-8.27129
▁rule	-8.27446
▁does	-8.2773
▁line	-8.27926
▁eight	-8.28153
▁increase	-8.29012
▁source	-8.29018
▁park	-8.29027
▁great	-8.29188
▁attacks	-8.29328
▁announc	-8.2955
▁best	-8.29561
▁system	-8.29645
▁play	-8.2974
▁led	-8.29792
▁already	-8.29882
▁baghdad	-8.30058
▁big	-8.30096
▁central	-8.30281
▁give	-8.30958
▁killing	-8.30997
▁strong	-8.31129
▁along	-8.31131
▁march	-8.31294
ation	-8.31364
▁small	-8.31641
▁began	-8.3167
▁province	-8.31717
▁trade	-8.32145
▁decision	-8.32264
▁far	-8.32565
▁video	-8.32667
▁control	-8.32746
▁hope	-8.33294
▁seven	-8.33431
▁bomb	-8.33614
▁current	-8.33792
▁co	-8.34152
▁ap	-8.3425
▁thousand	-8.34338
▁cut	-8.34393
▁bill	-8.34504
each	-8.34606
▁miles	-8.34654
▁keep	-8.34679
▁away	-8.34804
▁operation	-8.35024
▁fund	-8.35523
▁french	-8.35807
▁rights	-8.35933
▁post	-8.36136
▁conference	-8.36182
▁however	-8.36191
▁continue	-8.36207
▁become	-8.36371
▁israeli	-8.36401
▁food	-8.36567
▁region	-8.36673
▁israel	-8.36833
such	-8.37081
▁station	-8.3734
▁consider	-8.37459
▁southern	-8.37678
▁mak	-8.3812
▁attempt	-8.38431
▁barack	-8.38433
▁web	-8.38616
▁soldiers	-8.38702
▁agreement	-8.38986
▁global	-8.3925
▁woman	-8.39365
▁information	-8.39584
yang	-8.39629
▁spokes	-8.40298
▁gas	-8.40417
th	-8.40512
▁bas	-8.40637
▁violence	-8.40737
▁east	-8.40896
▁european	-8.41194
▁others	-8.41581
▁qa	-8.41659
▁sen	-8.41753
▁border	-8.41912
▁weapons	-8.42177
▁young	-8.42448
▁here	-8.42642
▁russia	-8.42716
▁star	-8.42785
▁person	-8.42853
▁injur	-8.43012
▁offer	-8.43289
▁c	-8.43323
▁cause	-8.43717
▁plann	-8.43751
▁town	-8.44029
▁union	-8.44199
▁condition	-8.4434
▁action	-8.44357
▁rate	-8.44401
▁director	-8.44521
st	-8.44611
▁committee	-8.45118
▁live	-8.45192
▁students	-8.4545
▁full	-8.45497
▁ve	-8.45563
▁prices	-8.45924
▁weeks	-8.46027
▁following	-8.46119
▁northern	-8.46337
▁internet	-8.47158
▁confirm	-8.47204
▁federal	-8.47365
▁peace	-8.47383
▁count	-8.47515
▁article	-8.47782
▁order	-8.48248
▁point	-8.48265
▁california	-8.4862
uch	-8.48796
▁pyong	-8.48831
um	-8.48903
▁republican	-8.49074
▁alleged	-8.49166
▁acros	-8.49708
▁added	-8.49725
▁short	-8.49813
▁every	-8.49852
▁britain	-8.49891
▁might	-8.50103
▁grow	-8.50528
ic	-8.50812
▁talk	-8.50881
▁launch	-8.50889
▁total	-8.50949
▁never	-8.50976
▁aid	-8.5102
▁include	-8.51106
▁congress	-8.51176
▁target	-8.51176
▁hundred	-8.5136
▁comment	-8.51431
▁side	-8.51688
▁watch	-8.52069
▁key	-8.52357
▁outside	-8.52498
▁ahead	-8.52718
▁immediate	-8.52917
▁organization	-8.53362
▁points	-8.53432
▁went	-8.53671
▁investigation	-8.53756
▁member	-8.53857
▁research	-8.53888
▁anti	-8.54004
▁emergency	-8.54044
▁senior	-8.54912
▁stock	-8.55169
▁must	-8.55185
▁accus	-8.55557
▁cost	-8.5556
▁little	-8.55593
▁working	-8.55872
▁game	-8.55943
▁france	-8.56062
▁real	-8.5608
▁body	-8.56129
▁hold	-8.56183
te	-8.56237
▁crisis	-8.56266
▁possible	-8.56559
▁find	-8.56593
▁follow	-8.56713
▁energy	-8.56955
▁ban	-8.57063
▁got	-8.57591
▁stop	-8.5784
▁charges	-8.58046
▁companies	-8.58098
▁prosecutor	-8.581
▁study	-8.58139
▁question	-8.58217
▁involv	-8.58267
▁again	-8.58296
▁elections	-8.5836
▁west	-8.58847
us	-8.58921
▁hyun	-8.58985
▁january	-8.59027
▁council	-8.59656
▁newspaper	-8.59731
▁hard	-8.59888
▁speak	-8.59956
een	-8.59983
▁latest	-8.60251
▁race	-8.60333
▁june	-8.60463
▁age	-8.60781
▁building	-8.60896
▁sea	-8.60924
▁reporters	-8.61525
▁share	-8.61527
▁red	-8.61725
▁meet	-8.61847
▁july	-8.61937
▁tell	-8.62037
▁due	-8.62078
▁america	-8.62165
▁previous	-8.62349
▁round	-8.62582
▁russian	-8.62815
▁further	-8.62834
▁interview	-8.62916
▁pay	-8.62994
▁toward	-8.63026
▁suicide	-8.63084
▁mean	-8.63265
▁provide	-8.63813
▁policy	-8.63939
▁afghan	-8.6405
▁george	-8.64057
▁child	-8.64072
▁travel	-8.64118
▁coast	-8.64137
▁less	-8.64261
▁airport	-8.64321
▁search	-8.64343
▁carry	-8.64586
▁weekend	-8.64794
▁interest	-8.64959
▁england	-8.65039
▁ruling	-8.6504
▁list	-8.65191
▁charge	-8.65233
▁process	-8.65978
▁term	-8.6608
raf	-8.66086
▁tour	-8.66254
▁poll	-8.66291
▁gaza	-8.66312
eda	-8.66389
▁september	-8.66537
▁television	-8.66542
▁minutes	-8.66811
▁ever	-8.66827
▁judge	-8.67153
▁hostage	-8.67305
▁demand	-8.67384
▁damage	-8.67431
▁couple	-8.67559
▁bring	-8.6771
▁too	-8.67784
▁medical	-8.67812
▁efforts	-8.67817
▁son	-8.67881
▁lost	-8.67929
▁future	-8.68002
▁hav	-8.68031
▁scientist	-8.68058
▁o	-8.68299
▁groups	-8.68338
ness	-8.68407
▁lawmaker	-8.68584
▁storm	-8.686
▁level	-8.68709
▁develop	-8.6918
▁act	-8.69339
▁street	-8.69515
▁executive	-8.69604
self	-8.69644
▁elect	-8.69719
▁black	-8.70313
▁father	-8.704
▁wide	-8.70407
▁send	-8.70436
▁victory	-8.70705
▁island	-8.70738
▁grand	-8.7083
▁serious	-8.70908
▁shot	-8.71171
▁series	-8.71333
▁better	-8.71447
▁terrorist	-8.71524
▁suggest	-8.71644
▁communist	-8.71704
▁lot	-8.71758
▁goal	-8.71815
▁break	-8.71922
ry	-8.71991
▁stay	-8.72235
▁mother	-8.72454
▁industry	-8.73032
▁fuel	-8.73049
▁missile	-8.73304
woman	-8.73335
▁sent	-8.73378
▁strike	-8.73453
▁december	-8.73571
▁tv	-8.73919
▁musha	-8.73946
▁pro	-8.73956
▁sex	-8.74055
▁apri	-8.7411
▁hand	-8.74232
▁almost	-8.74666
▁fall	-8.74771
▁parliament	-8.74811
▁incident	-8.74875
▁hotel	-8.74933
▁mission	-8.7505
▁heart	-8.75101
▁threaten	-8.75236
▁direct	-8.75379
▁result	-8.75558
age	-8.75702
▁cell	-8.7633
▁yet	-8.76346
▁seek	-8.76406
hind	-8.76678
▁wounded	-8.76709
though	-8.76732
▁europe	-8.76766
▁really	-8.77044
▁important	-8.77145
▁enough	-8.77148
to	-8.77373
▁chairman	-8.77431
▁history	-8.77434
▁nine	-8.77438
▁inside	-8.77725
▁asia	-8.77873
▁november	-8.77985
▁david	-8.77986
▁front	-8.78029
▁ground	-8.78076
▁special	-8.78078
▁wall	-8.78137
▁flight	-8.78162
▁prison	-8.78195
cy	-8.78219
▁western	-8.78408
▁voter	-8.78459
▁vehicle	-8.78551
▁job	-8.78724
▁soon	-8.78993
▁wife	-8.79413
ous	-8.79497
▁player	-8.79657
▁rice	-8.79702
▁plane	-8.79723
▁given	-8.79749
▁complete	-8.79814
▁discuss	-8.79916
ought	-8.79987
▁democrat	-8.79994
▁fighting	-8.80258
▁room	-8.80365
▁started	-8.80591
▁amid	-8.80619
▁protest	-8.80668
g	-8.80702
▁private	-8.81141
▁cross	-8.81241
▁estimate	-8.81341
u	-8.81493
▁india	-8.81514
bc	-8.81586
son	-8.81598
▁whose	-8.81652
▁middle	-8.81722
na	-8.81765
▁role	-8.8182
▁season	-8.81945
▁crash	-8.82015
▁price	-8.82186
▁foot	-8.82336
▁ship	-8.82637
▁walk	-8.82898
f	-8.83058
▁mark	-8.83347
▁associat	-8.83456
▁different	-8.83797
▁commission	-8.83984
▁exchange	-8.84004
▁august	-8.84035
▁rebel	-8.84101
▁negotiation	-8.84108
▁light	-8.84136
▁san	-8.84231
▁supporter	-8.84279
▁step	-8.8449
▁evidence	-8.84693
▁though	-8.84787
▁victims	-8.85093
▁problem	-8.85102
k	-8.85384
▁district	-8.85602
▁board	-8.85636
▁development	-8.85646
▁join	-8.8572
▁warn	-8.85856
▁dozen	-8.85908
▁problems	-8.86106
▁boy	-8.86137
▁protect	-8.86177
▁liv	-8.86193
▁conduct	-8.86217
▁pressure	-8.86442
coming	-8.86514
▁animal	-8.86529
▁situation	-8.86828
▁homes	-8.86986
▁fail	-8.87028
vez	-8.872
▁areas	-8.87241
▁cha	-8.87328
▁gave	-8.87452
▁met	-8.87511
▁australia	-8.87572
▁resident	-8.87743
▁larges	-8.878
ntil	-8.87881
▁leave	-8.8812
▁lower	-8.88179
▁road	-8.88201
▁am	-8.88295
▁february	-8.8838
▁movie	-8.88715
▁reach	-8.88756
▁bad	-8.88765
▁train	-8.89093
▁primar	-8.89263
▁bus	-8.89433
▁summit	-8.8964
▁senate	-8.89642
▁analyst	-8.89644
▁gen	-8.89779
▁express	-8.89781
▁trip	-8.89811
less	-8.89915
▁church	-8.89962
▁lawyer	-8.89964
▁fell	-8.89966
▁risk	-8.90279
▁crew	-8.90283
▁inter	-8.90382
▁low	-8.90493
▁senator	-8.90917
▁tried	-8.90989
▁tak	-8.91079
▁link	-8.91164
▁serve	-8.91165
▁heavy	-8.91237
▁happen	-8.91247
▁thought	-8.91247
▁disease	-8.91284
▁illegal	-8.9156
▁pakistani	-8.9172
▁prevent	-8.91884
▁urg	-8.91905
ance	-8.92196
▁let	-8.92197
▁rival	-8.92215
ally	-8.9235
▁results	-8.9244
▁wanted	-8.92761
▁land	-8.92845
▁speech	-8.92861
▁vice	-8.92978
▁relations	-8.93018
▁los	-8.93136
▁october	-8.93189
▁together	-8.93212
▁intelligen	-8.93333
▁protesters	-8.93343
▁address	-8.93398
▁pull	-8.93743
ty	-8.94423
▁florida	-8.94513
▁something	-8.94517
▁moo	-8.94761
▁request	-8.94845
▁tokyo	-8.94848
▁project	-8.94852
wide	-8.95008
▁mid	-8.95051
▁summer	-8.9518
▁cup	-8.95532
▁stage	-8.95693
▁ll	-8.95752
▁hamas	-8.95852
▁position	-8.95873
▁product	-8.95956
▁phone	-8.96146
▁loss	-8.96164
▁attorney	-8.96189
▁justice	-8.96194
▁crowd	-8.962
▁leban	-8.96204
▁crime	-8.96205
▁technology	-8.96206
mar	-8.9622
▁online	-8.96311
▁calls	-8.96387
▁hong	-8.96544
▁growth	-8.96564
▁thai	-8.96585
known	-8.96622
▁unti	-8.96634
▁attend	-8.96697
▁decided	-8.96785
ary	-8.96963
ism	-8.97032
▁eastern	-8.97095
▁labor	-8.97164
z	-8.97183
▁begin	-8.972
▁muslim	-8.9721
▁quick	-8.97213
▁getting	-8.97244
▁brown	-8.97283
▁j	-8.97309
▁focus	-8.97328
one	-8.97345
▁paris	-8.97565
▁daughter	-8.97567
▁fight	-8.97711
▁hill	-8.97753
▁survey	-8.97845
▁coalition	-8.97896
▁popular	-8.97919
▁sell	-8.97965
▁girl	-8.98137
▁announce	-8.98172
▁markets	-8.98174
biggest	-8.98277
▁battle	-8.98433
▁approv	-8.98518
▁treat	-8.98601
▁league	-8.98606
▁chance	-8.98663
▁rise	-8.98708
▁gold	-8.98724
▁needed	-8.98882
▁assembly	-8.9897
▁award	-8.99201
▁officer	-8.99211
▁koreans	-8.9922
▁reached	-8.99267
▁apparent	-8.99287
▁missing	-8.99304
▁fan	-8.99376
▁despi	-8.9938
▁h	-8.99406
▁games	-9.00074
▁saw	-9.00095
▁credit	-9.00285
▁hillary	-9.00349
▁releas	-9.00406
▁pick	-9.00668
▁buy	-9.00777
▁tax	-9.0081
▁legal	-9.00835
▁joint	-9.00869
▁fee	-9.00911
▁kind	-9.00978
▁effort	-9.01361
▁scene	-9.01405
co	-9.01435
▁asian	-9.01567
▁match	-9.0157
▁love	-9.01643
▁expect	-9.01644
ard	-9.01884
▁r	-9.0205
▁democrac	-9.02114
▁olympic	-9.02123
▁services	-9.02135
▁officers	-9.02234
▁stand	-9.02417
ive	-9.0249
▁feel	-9.0257
▁sarkozy	-9.02835
▁sentence	-9.02844
▁jail	-9.02847
▁nomination	-9.0285
▁music	-9.03119
▁blood	-9.03628
▁polls	-9.0384
▁seem	-9.03946
▁bid	-9.04051
p	-9.04052
▁caus	-9.04062
ri	-9.04277
▁cover	-9.04278
▁threat	-9.04333
▁drug	-9.04381
▁form	-9.04678
▁issues	-9.04689
came	-9.04838
▁texas	-9.05029
▁running	-9.05045
▁staff	-9.05095
by	-9.05333
▁network	-9.05533
▁event	-9.0564
▁turkey	-9.05779
▁quarter	-9.05783
▁destroy	-9.05963
▁host	-9.06008
▁robert	-9.06134
▁population	-9.0615
▁letter	-9.0655
▁protests	-9.06564
▁australian	-9.06741
▁experts	-9.06815
▁paul	-9.06846
▁blast	-9.06897
▁deput	-9.06901
▁delay	-9.06908
▁jobs	-9.07025
▁community	-9.07039
side	-9.07088
▁murder	-9.0712
▁receiv	-9.07717
▁ra	-9.07759
▁governor	-9.08012
▁field	-9.08017
▁story	-9.08109
▁higher	-9.08164
▁idea	-9.08315
▁why	-9.08485
▁radio	-9.08564
▁image	-9.08859
ra	-9.09043
▁safety	-9.09196
▁association	-9.09217
greed	-9.09224
▁sales	-9.09414
▁things	-9.09738
x	-9.09779
▁plant	-9.09916
▁river	-9.09927
▁embass	-9.09957
▁beat	-9.10035
▁title	-9.10155
▁opened	-9.10417
▁message	-9.10662
▁continued	-9.10687
▁cit	-9.1069
▁deep	-9.10707
▁mov	-9.10709
▁resolution	-9.10735
▁sanction	-9.10738
▁ki	-9.10849
▁suffer	-9.10978
▁lives	-9.11019
▁camp	-9.11223
▁civilians	-9.1128
or	-9.11384
▁similar	-9.1152
▁appeal	-9.11521
▁book	-9.11727
▁firm	-9.11918
▁trial	-9.11931
▁debate	-9.11946
▁g	-9.12015
▁average	-9.12052
▁fear	-9.12214
▁earth	-9.12317
▁rose	-9.12327
▁production	-9.12358
▁daily	-9.12368
▁aim	-9.12431
▁researcher	-9.12549
ways	-9.12578
▁delegates	-9.12639
▁safe	-9.12676
▁minute	-9.1268
whil	-9.12688
▁rais	-9.12803
▁date	-9.13114
▁initial	-9.13115
▁royal	-9.13118
▁often	-9.13328
▁doing	-9.13401
▁ceremon	-9.13512
▁identified	-9.13721
ton	-9.13783
▁airline	-9.13833
▁measures	-9.13887
▁husband	-9.13915
▁journalist	-9.13933
▁king	-9.13976
▁poor	-9.14328
▁africa	-9.14542
▁receive	-9.14902
▁computer	-9.14975
▁wait	-9.15043
▁care	-9.15115
▁kong	-9.15288
▁iranian	-9.1529
▁st	-9.15367
▁drive	-9.15396
▁michael	-9.15546
▁contain	-9.15705
▁shooting	-9.15919
▁moment	-9.1598
ble	-9.16234
▁famili	-9.1628
▁neighbor	-9.16367
▁parents	-9.16378
▁arriv	-9.16419
▁done	-9.16634
▁fired	-9.16732
▁investigator	-9.16835
▁fact	-9.16963
taken	-9.17094
▁tourist	-9.17299
▁islami	-9.17432
pent	-9.17629
▁quot	-9.17685
▁present	-9.17708
▁commander	-9.17845
▁ordered	-9.18004
▁dispute	-9.18007
▁accident	-9.18021
▁reform	-9.18031
▁movement	-9.18143
▁facilit	-9.18343
▁certain	-9.18461
▁transport	-9.18461
▁club	-9.18466
▁paper	-9.18496
▁burn	-9.18557
▁raise	-9.18671
▁dr	-9.18842
▁affair	-9.18885
▁education	-9.18941
▁african	-9.19078
▁prince	-9.19206
▁ambassador	-9.19311
▁increasing	-9.19311
▁push	-9.19321
▁involve	-9.19431
▁details	-9.19434
▁suspected	-9.19438
▁period	-9.19472
▁included	-9.19487
▁sexual	-9.19746
▁cars	-9.1988
▁rest	-9.19899
▁related	-9.20334
▁professor	-9.20599
▁dow	-9.20719
▁accept	-9.20879
▁matter	-9.20889
▁afternoon	-9.21032
▁wear	-9.21124
▁view	-9.21151
▁difficult	-9.21222
▁account	-9.2131
▁english	-9.21466
▁potential	-9.21466
▁cat	-9.21768
▁gain	-9.21785
▁rock	-9.21816
▁majorit	-9.21937
▁rally	-9.21937
▁ready	-9.22026
▁manager	-9.22059
▁bodie	-9.22093
▁reject	-9.22302
hutto	-9.22303
▁cabinet	-9.22341
▁activities	-9.2241
▁contract	-9.22664
▁draw	-9.2276
▁detain	-9.2278
▁kilometer	-9.22782
▁brother	-9.22794
▁huge	-9.22942
▁leav	-9.23217
nato	-9.23481
▁block	-9.23639
▁design	-9.2365
▁contact	-9.23669
▁patient	-9.23693
▁course	-9.23712
▁terror	-9.23834
▁challenge	-9.23844
ung	-9.24033
truck	-9.24061
hua	-9.24076
▁holding	-9.24102
▁finish	-9.24108
▁access	-9.2415
▁saudi	-9.24565
▁opening	-9.24601
▁indian	-9.24735
rought	-9.24821
▁played	-9.24873
stead	-9.24949
▁rescue	-9.25393
▁doctors	-9.25538
▁broadcast	-9.25611
▁cases	-9.25767
▁conservative	-9.25921
▁treatment	-9.25962
▁announcement	-9.25984
▁sure	-9.25998
▁turk	-9.26159
▁marine	-9.26287
▁progress	-9.26363
▁broke	-9.26482
▁track	-9.26646
▁limit	-9.26794
▁peninsula	-9.26836
▁response	-9.26836
▁suspend	-9.26837
za	-9.26871
▁enter	-9.26888
▁institute	-9.27312
▁create	-9.27316
▁civil	-9.27492
▁deliver	-9.27553
▁raid	-9.27815
▁prisoner	-9.27883
▁shows	-9.27939
▁hearing	-9.28019
▁check	-9.28231
▁cities	-9.28393
ler	-9.28412
▁village	-9.28449
▁common	-9.28451
▁material	-9.28555
▁spoke	-9.28683
▁passengers	-9.28688
▁mexico	-9.28693
▁partie	-9.28707
▁lift	-9.28715
▁friend	-9.28719
▁probabl	-9.28785
▁means	-9.28792
▁non	-9.28821
▁forward	-9.28829
▁streets	-9.28863
▁single	-9.28976
▁critical	-9.29065
▁agree	-9.2914
wood	-9.29157
▁illinois	-9.29162
▁taiwan	-9.29162
▁square	-9.29167
▁interior	-9.29211
▁published	-9.29471
▁!	-9.29634
▁trading	-9.29634
▁vot	-9.29689
▁actor	-9.29691
▁understand	-9.29695
taking	-9.29791
ey	-9.29966
▁l	-9.30095
▁session	-9.30108
re	-9.30583
▁describ	-9.30766
▁passed	-9.30827
▁separate	-9.30993
▁green	-9.31017
▁explosion	-9.31062
▁relationship	-9.31066
▁investor	-9.31087
▁rain	-9.31093
ful	-9.31123
▁refus	-9.31206
▁investment	-9.31232
▁spread	-9.31285
▁warning	-9.31316
ial	-9.31508
ney	-9.31514
▁allegation	-9.31546
▁nothing	-9.31558
▁spending	-9.31642
▁diplomatic	-9.32089
gnp	-9.32159
▁secret	-9.32412
▁index	-9.32543
▁fast	-9.32813
▁nav	-9.32817
▁chicago	-9.32999
▁annual	-9.33412
▁insurgent	-9.3349
▁data	-9.33514
▁citizens	-9.33532
selves	-9.33945
▁giant	-9.33987
▁rising	-9.34025
▁islam	-9.3418
geles	-9.34377
▁nominee	-9.34477
▁female	-9.34477
▁actual	-9.34478
▁investigat	-9.34583
▁personal	-9.34877
▁natural	-9.34879
▁criminal	-9.34975
▁helicopter	-9.34975
▁weather	-9.34984
▁winning	-9.34989
▁longer	-9.34991
▁virginia	-9.34993
▁avoid	-9.35024
▁sold	-9.35139
▁pai	-9.35219
▁fly	-9.35322
▁sun	-9.35397
▁mayor	-9.35521
▁experience	-9.35816
▁italian	-9.35985
time	-9.36003
▁code	-9.36076
▁smith	-9.36236
▁friends	-9.36299
▁schedule	-9.36435
▁shiite	-9.36483
▁satellite	-9.36484
▁export	-9.36737
▁require	-9.36859
▁abo	-9.36885
▁particular	-9.36991
▁lack	-9.37005
▁ran	-9.37042
▁social	-9.37159
▁chung	-9.37262
▁moon	-9.37314
▁discovered	-9.37443
▁independent	-9.37522
▁truck	-9.37587
▁decades	-9.37649
▁century	-9.37657
▁range	-9.37689
▁eu	-9.37745
▁injuries	-9.3779
▁mass	-9.37898
▁provid	-9.3795
▁success	-9.37951
▁snow	-9.37981
▁boat	-9.38038
▁availab	-9.38214
▁size	-9.38282
▁dollar	-9.38397
▁adding	-9.38398
▁employees	-9.38402
▁construction	-9.38533
▁italy	-9.38586
▁blue	-9.38984
▁finding	-9.39015
▁science	-9.39068
▁camera	-9.39092
▁worth	-9.391
▁guard	-9.39122
▁wors	-9.39614
▁committ	-9.39662
▁color	-9.3976
▁toll	-9.39786
▁la	-9.39904
▁nasa	-9.40024
▁xin	-9.40106
▁rare	-9.40135
▁declar	-9.40146
▁additional	-9.40225
▁steps	-9.40291
▁seat	-9.40371
▁visitor	-9.40372
▁mail	-9.40417
▁flood	-9.4056
▁earthquake	-9.40617
▁unit	-9.40923
▁espe	-9.4104
▁establish	-9.41052
▁refugee	-9.41055
▁college	-9.41148
▁supreme	-9.41148
▁barrel	-9.41157
▁jones	-9.41184
▁parts	-9.41199
▁honor	-9.41227
▁operat	-9.41233
▁sever	-9.41344
pain	-9.41384
▁port	-9.41415
▁gun	-9.41556
▁industrial	-9.41623
▁anything	-9.4168
cially	-9.41714
▁insist	-9.41774
▁voice	-9.41994
▁pass	-9.42093
▁resign	-9.4219
▁everything	-9.42214
▁standard	-9.42216
▁peaceful	-9.42236
▁dae	-9.42252
▁zone	-9.42257
▁command	-9.42335
▁slow	-9.42551
men	-9.42632
▁approach	-9.42688
▁thing	-9.42691
▁maintain	-9.42751
▁reactor	-9.42757
▁read	-9.42846
▁extend	-9.42849
▁import	-9.42984
▁build	-9.42997
▁gather	-9.43048
▁ice	-9.43295
▁quit	-9.43488
▁wound	-9.43597
ley	-9.43618
▁moscow	-9.43835
▁prosecution	-9.43837
▁defeat	-9.43839
▁schedul	-9.43891
▁dollars	-9.43976
▁dropp	-9.44171
▁figure	-9.44184
▁super	-9.44236
▁value	-9.44247
▁massive	-9.44401
▁original	-9.44501
▁ben	-9.44551
▁deni	-9.44685
▁banks	-9.44689
▁peter	-9.44721
▁condemn	-9.4493
▁envoy	-9.44931
▁carolina	-9.44931
▁regard	-9.44931
▁opportunit	-9.44956
▁kar	-9.45069
▁represent	-9.45459
▁attention	-9.45485
▁cancer	-9.45496
▁schools	-9.45519
▁shut	-9.4552
▁occurr	-9.45526
▁speed	-9.45547
spite	-9.45622
▁le	-9.45686
▁shin	-9.45793
▁produc	-9.45808
▁ii	-9.45944
▁alliance	-9.46042
▁aircraft	-9.46049
▁mountain	-9.46147
▁convicted	-9.46152
▁born	-9.462
▁criticiz	-9.4622
▁store	-9.46253
ose	-9.4626
▁engineer	-9.46285
▁uri	-9.4636
▁questions	-9.46522
▁driving	-9.46598
▁significant	-9.46621
▁driver	-9.46834
▁resume	-9.47064
▁produce	-9.47068
▁uk	-9.47092
aught	-9.47107
▁jump	-9.47161
▁environmental	-9.47177
▁remarks	-9.47304
▁consumer	-9.47341
▁pre	-9.47356
▁il	-9.47453
bi	-9.47495
▁pacifi	-9.47724
▁brain	-9.47731
▁usual	-9.47732
▁suspect	-9.4774
kept	-9.47813
▁student	-9.479
ritten	-9.4799
▁normal	-9.48278
▁marriage	-9.48292
▁discussion	-9.48419
▁remains	-9.48584
▁whom	-9.48721
▁evening	-9.48772
▁monitor	-9.48864
▁society	-9.48939
el	-9.48969
▁admitted	-9.4903
▁class	-9.49162
oft	-9.49318
▁hands	-9.49353
responsible	-9.49376
▁device	-9.49445
▁bridge	-9.49482
▁training	-9.49598
▁pennsylvania	-9.49762
▁indonesia	-9.49831
▁independen	-9.4986
▁finance	-9.49978
▁prompt	-9.50016
▁ohio	-9.50017
▁management	-9.50028
▁guilt	-9.50044
▁severe	-9.50166
▁fighter	-9.50361
▁sharp	-9.50385
▁millions	-9.50474
▁heard	-9.5056
▁museum	-9.506
▁performance	-9.50609
▁blame	-9.50656
▁ex	-9.50843
▁drop	-9.50865
▁levels	-9.50898
▁promise	-9.50912
▁customer	-9.50917
▁tibet	-9.51085
▁sale	-9.51193
▁hurt	-9.51236
▁decline	-9.51245
▁song	-9.51421
▁criticism	-9.51781
▁baby	-9.51825
▁review	-9.52148
▁holiday	-9.52363
▁conflict	-9.52363
▁beginning	-9.5237
▁chang	-9.52385
▁fill	-9.5249
▁abbas	-9.52535
▁canno	-9.5279
▁rich	-9.52814
rote	-9.52884
▁terroris	-9.52966
▁leadership	-9.52991
▁aide	-9.5306
▁parliamentar	-9.53201
▁civilian	-9.53329
▁constitution	-9.53351
▁prize	-9.5348
▁custody	-9.53557
▁scandal	-9.53557
▁sides	-9.53572
▁factor	-9.53693
▁save	-9.53724
▁bak	-9.53819
▁changes	-9.53895
▁word	-9.53963
▁electric	-9.54031
ia	-9.54052
▁impact	-9.54172
▁herald	-9.54173
▁drink	-9.54175
▁intend	-9.54241
▁bin	-9.54243
▁regional	-9.54418
▁angel	-9.54463
▁suspects	-9.54572
▁critic	-9.54639
▁mosque	-9.54766
▁double	-9.54772
rt	-9.54998
▁career	-9.55007
▁commercial	-9.5505
harry	-9.55063
▁effect	-9.55185
▁opinion	-9.55375
▁corruption	-9.55378
▁communication	-9.55379
▁combat	-9.5538
▁negotiator	-9.55389
▁reduce	-9.55399
▁regime	-9.55753
▁pledge	-9.55754
▁environment	-9.55768
▁georgia	-9.55798
▁language	-9.55988
▁everyone	-9.56038
▁author	-9.56085
▁fair	-9.5609
▁micros	-9.56167
giving	-9.56221
up	-9.5624
▁repeated	-9.56434
▁screen	-9.56483
▁ball	-9.56588
▁allies	-9.56665
putin	-9.5669
tan	-9.56698
▁fine	-9.56749
▁reason	-9.56814
▁forest	-9.56928
▁boost	-9.57126
▁panel	-9.57234
▁seats	-9.57314
ni	-9.57515
▁mo	-9.57597
▁score	-9.57601
▁buildings	-9.57605
▁numbers	-9.57726
▁territor	-9.5775
ever	-9.57752
▁buil	-9.57758
way	-9.57849
▁fresh	-9.57852
▁failure	-9.57853
▁climate	-9.57855
▁fifth	-9.57863
▁traffic	-9.58291
▁republic	-9.58384
▁brief	-9.58386
▁adopt	-9.58408
▁recover	-9.58448
▁complex	-9.58481
▁myung	-9.5855
▁formal	-9.58553
▁surprise	-9.58564
▁ko	-9.589
▁da	-9.58983
▁associate	-9.59024
▁documents	-9.59127
▁bit	-9.5913
▁proposal	-9.59168
▁fish	-9.59284
ar	-9.5931
▁traditional	-9.59342
▁specific	-9.59728
▁assault	-9.59751
▁domestic	-9.59751
▁spanish	-9.59759
▁james	-9.59767
▁surgery	-9.5979
▁cho	-9.60373
▁difference	-9.60392
▁corp	-9.60448
▁package	-9.60458
▁sound	-9.60841
▁fac	-9.60961
▁figures	-9.60979
▁olympics	-9.61021
▁cash	-9.61053
▁bombing	-9.61185
▁ba	-9.6123
▁hu	-9.61357
▁ky	-9.61365
▁queen	-9.61584
▁nam	-9.61651
▁violent	-9.61686
▁possibilit	-9.61716
▁option	-9.61754
▁wave	-9.61915
▁richard	-9.61961
▁owner	-9.62138
▁itself	-9.62193
▁hop	-9.62223
▁coach	-9.62366
▁route	-9.62379
▁penalt	-9.62389
▁tree	-9.62464
▁events	-9.62814
▁recall	-9.62998
▁answer	-9.63006
▁mobile	-9.63031
▁jong	-9.63038
▁protection	-9.6308
▁miss	-9.63455
▁colombia	-9.63476
▁tie	-9.63525
ory	-9.63527
▁withdraw	-9.63592
▁trigger	-9.6366
▁reveal	-9.6366
▁apple	-9.63663
▁shuttle	-9.63667
▁disaster	-9.63671
▁created	-9.6384
tp	-9.6386
▁addition	-9.64157
▁astronaut	-9.64326
▁quake	-9.64327
▁accuse	-9.64357
▁maker	-9.6437
▁telephone	-9.64407
▁adviser	-9.64417
▁gates	-9.64784
▁measure	-9.64884
▁propos	-9.64889
▁makes	-9.64912
▁self	-9.64975
▁profit	-9.64999
▁supply	-9.65004
▁sleep	-9.65021
▁abe	-9.65051
▁tests	-9.65065
▁necessary	-9.65086
▁holly	-9.65131
▁carrie	-9.6515
▁sunni	-9.65351
▁beach	-9.65399
▁describe	-9.65416
▁premier	-9.65504
▁arab	-9.6564
▁individual	-9.65673
▁correspondent	-9.65678
▁improve	-9.6568
▁winter	-9.65698
▁powerful	-9.65721
▁francis	-9.65784
▁girls	-9.65926
▁amount	-9.65947
▁controll	-9.66067
▁headquarter	-9.66354
▁neighborhood	-9.66358
▁dangerous	-9.66365
▁agent	-9.66394
▁exist	-9.66401
▁cap	-9.66434
▁piece	-9.66472
▁shown	-9.66511
▁respond	-9.66544
▁struggl	-9.66559
▁flights	-9.66624
▁compar	-9.66679
▁replace	-9.66701
▁stopped	-9.66745
▁football	-9.66762
▁magazine	-9.67038
▁ilbo	-9.6704
da	-9.67064
▁loan	-9.67081
abe	-9.67162
▁affect	-9.67191
▁rocket	-9.67617
ur	-9.67626
▁resolve	-9.67714
▁positive	-9.67729
▁behavior	-9.67733
▁mug	-9.6774
▁appearance	-9.67787
▁touch	-9.67806
ng	-9.67825
▁showing	-9.67867
▁forecast	-9.68119
▁cold	-9.68139
▁kids	-9.68356
▁planet	-9.68415
▁else	-9.68433
▁deadline	-9.6844
▁page	-9.68564
▁arms	-9.68577
▁arrive	-9.6877
well	-9.68792
▁affected	-9.68959
▁respect	-9.69106
▁confidence	-9.69123
▁felt	-9.69125
▁vow	-9.69137
▁advance	-9.69287
▁ongoing	-9.69321
▁words	-9.6938
▁trouble	-9.6945
▁secure	-9.69621
▁heat	-9.69748
▁overseas	-9.69826
▁pilot	-9.69835
▁location	-9.69854
▁referr	-9.69864
▁apartment	-9.69905
▁votes	-9.70045
▁fears	-9.70061
▁rank	-9.70061
ine	-9.70062
▁carri	-9.70221
▁perform	-9.70472
▁anniversar	-9.70535
▁sometime	-9.70693
▁activists	-9.70693
▁po	-9.70877
ie	-9.70886
▁ht	-9.70925
▁mil	-9.70957
▁legislati	-9.7106
▁terms	-9.71127
▁wrong	-9.7124
▁brazil	-9.71243
▁crude	-9.7125
▁degree	-9.7125
▁solution	-9.71256
▁successful	-9.71262
▁forc	-9.71606
▁na	-9.71702
▁yang	-9.71769
▁govern	-9.71945
▁straight	-9.71969
▁wa	-9.72079
▁riot	-9.72134
ong	-9.72192
▁learn	-9.72273
▁constitutional	-9.72274
town	-9.72336
▁winner	-9.72386
▁abuse	-9.72552
▁km	-9.72621
▁bear	-9.72672
▁style	-9.72724
▁below	-9.72724
▁choice	-9.72759
▁id	-9.7279
off	-9.72891
▁adult	-9.72938
▁bay	-9.72978
▁soldier	-9.73121
▁row	-9.73212
▁drugs	-9.73259
▁hurricane	-9.73424
▁christmas	-9.73424
▁display	-9.73424
▁assistant	-9.73427
▁controversial	-9.73431
▁reserve	-9.73493
▁joined	-9.73522
▁type	-9.73658
▁promis	-9.73781
▁card	-9.73822
▁van	-9.73847
▁flu	-9.73871
▁blow	-9.73966
▁supplie	-9.73984
lew	-9.74008
▁birth	-9.74157
▁christophe	-9.74159
▁entire	-9.74159
▁regular	-9.74166
▁bar	-9.7424
ist	-9.74256
▁propert	-9.74306
▁bann	-9.74669
▁influence	-9.74701
▁model	-9.74707
▁blair	-9.749
▁madrid	-9.749
▁channel	-9.74901
▁famous	-9.74926
▁welcome	-9.74963
▁surrounding	-9.7499
▁collapse	-9.74993
▁cooperati	-9.75071
▁feature	-9.75157
▁virus	-9.75225
▁su	-9.75268
▁che	-9.75277
▁victim	-9.75404
▁abu	-9.75564
▁highway	-9.75574
▁indicate	-9.75631
▁happy	-9.75646
▁resort	-9.75649
▁freedom	-9.75652
▁mount	-9.7567
▁gone	-9.75746
▁olme	-9.75984
▁decade	-9.76183
▁clean	-9.76246
▁pack	-9.76312
new	-9.76315
▁extreme	-9.76404
▁tech	-9.76451
▁true	-9.76503
▁tibetan	-9.76523
▁scor	-9.76525
▁throw	-9.76562
▁alone	-9.76624
▁burma	-9.76808
ak	-9.76832
▁cancel	-9.76854
▁transfer	-9.76958
▁kidnapped	-9.76971
ither	-9.77067
▁treasur	-9.77084
▁floor	-9.77157
▁spark	-9.77172
▁hair	-9.77179
▁cent	-9.77224
▁twic	-9.77372
▁door	-9.77453
▁auto	-9.77481
▁christian	-9.77509
▁politic	-9.77546
▁asp	-9.77699
▁male	-9.7772
▁lone	-9.77804
▁abandon	-9.77919
▁exile	-9.77937
▁charles	-9.77974
▁witnesses	-9.78025
▁el	-9.78227
nel	-9.78252
▁tough	-9.78255
▁ocean	-9.78271
▁singer	-9.7849
▁meters	-9.78612
▁competition	-9.78688
▁sudan	-9.78691
▁dream	-9.78694
▁festival	-9.78697
▁species	-9.78706
▁resignation	-9.78724
▁ali	-9.78853
responsibility	-9.78855
▁activit	-9.78857
▁active	-9.78887
▁eye	-9.79068
▁nor	-9.79326
▁doctor	-9.79337
▁pound	-9.79357
▁jet	-9.79423
▁names	-9.79428
▁software	-9.79463
▁enem	-9.79465
▁recession	-9.79469
▁division	-9.79471
▁malik	-9.79477
▁trust	-9.79521
▁champions	-9.79583
▁producer	-9.79639
▁winds	-9.80058
▁northeast	-9.80111
ro	-9.80153
▁indicat	-9.80174
▁married	-9.80263
▁doubt	-9.80293
▁et	-9.804
▁laws	-9.80444
▁gunm	-9.80586
▁dis	-9.8064
▁qualit	-9.80694
▁han	-9.80708
▁studie	-9.80874
▁shar	-9.80885
▁singapore	-9.8093
▁journal	-9.81006
▁hussein	-9.81032
▁pentagon	-9.81032
▁palace	-9.81033
▁heavi	-9.81038
▁art	-9.81076
▁kick	-9.81081
▁hot	-9.81192
▁shari	-9.81233
▁dog	-9.81376
uters	-9.81518
overall	-9.81648
▁zimbabwe	-9.81726
▁imposed	-9.81752
▁eventual	-9.81827
▁concert	-9.81828
▁gord	-9.81834
ium	-9.81859
▁beyon	-9.81881
▁prepared	-9.81934
▁reflect	-9.81938
▁determine	-9.81998
▁william	-9.82046
is	-9.82058
▁denie	-9.82189
▁kidnapping	-9.82262
▁remove	-9.82341
▁chi	-9.82399
den	-9.82432
▁currenc	-9.82626
▁setting	-9.82739
ang	-9.82793
▁pope	-9.82849
▁wild	-9.82881
▁gay	-9.83104
▁steve	-9.83211
▁williams	-9.83215
ahoo	-9.83286
▁mine	-9.833
▁shop	-9.83333
▁bombings	-9.83635
▁cast	-9.83815
▁ma	-9.83832
▁syria	-9.83873
▁surge	-9.84152
▁ronald	-9.84245
▁survivor	-9.84258
▁effective	-9.84296
▁shift	-9.8433
▁photograph	-9.84429
ian	-9.84496
▁demanding	-9.84501
▁tank	-9.84844
id	-9.84849
atomic	-9.84878
▁clashe	-9.85006
eastern	-9.85017
▁condoleez	-9.85065
▁relief	-9.85066
▁draft	-9.85066
▁kosov	-9.85068
▁demonstrator	-9.85078
▁commitment	-9.85082
▁declaration	-9.85097
▁scale	-9.85098
▁halt	-9.85114
▁euro	-9.85115
▁dark	-9.85129
▁prove	-9.85334
▁signal	-9.8542
▁fil	-9.85542
▁sub	-9.85651
▁consumers	-9.85671
▁capture	-9.85831
▁se	-9.85889
▁economist	-9.85892
▁crackdown	-9.85893
▁presen	-9.86015
▁culture	-9.86029
▁sense	-9.86092
▁serving	-9.86127
▁practice	-9.86162
▁earn	-9.86225
▁bomber	-9.8643
▁farmer	-9.86528
▁smoke	-9.86657
▁hall	-9.86713
▁egypt	-9.86718
▁implement	-9.86724
▁soviet	-9.86724
▁dialogue	-9.86724
▁various	-9.86725
▁portug	-9.86726
▁actress	-9.86728
▁withdrawal	-9.86812
▁foundation	-9.86967
▁whole	-9.87097
▁multi	-9.87137
▁flow	-9.87201
▁foreigner	-9.87276
▁stem	-9.87321
▁sports	-9.87446
▁witness	-9.87449
▁rush	-9.87463
▁roll	-9.87474
▁dress	-9.87614
▁connection	-9.87617
▁counter	-9.87654
▁losing	-9.87688
ification	-9.87689
▁via	-9.87819
▁tony	-9.87904
▁works	-9.87987
ner	-9.88062
▁mind	-9.88175
▁alert	-9.88176
▁politicians	-9.88178
▁jew	-9.88208
▁complain	-9.88257
▁zoo	-9.88332
▁picture	-9.88339
▁appoint	-9.88378
▁add	-9.88388
▁tournament	-9.88412
▁militia	-9.88412
▁religious	-9.88414
▁sector	-9.88422
▁violation	-9.88458
▁pictures	-9.88486
▁partner	-9.88631
▁min	-9.88666
▁seed	-9.88762
▁shock	-9.88765
▁martin	-9.88827
▁trail	-9.88923
▁hole	-9.88923
▁guy	-9.88929
ham	-9.88938
▁convention	-9.88963
▁deploy	-9.89235
▁defend	-9.89269
▁version	-9.89284
▁income	-9.89397
▁flame	-9.89409
where	-9.89499
▁ending	-9.8953
▁suffering	-9.8962
▁minor	-9.89631
▁waters	-9.89631
▁historic	-9.89676
▁traveling	-9.89723
▁determined	-9.89815
▁favor	-9.89828
▁escape	-9.89865
▁probe	-9.89917
▁academ	-9.8998
▁computers	-9.90051
▁delegation	-9.90129
▁unveil	-9.90129
▁kabul	-9.9013
▁beckham	-9.9013
▁ceo	-9.90141
▁broad	-9.90174
▁meetings	-9.90243
▁content	-9.90376
▁las	-9.90413
▁taxes	-9.90417
▁frank	-9.90442
▁bag	-9.90451
▁ways	-9.905
▁leg	-9.90591
▁alcohol	-9.90978
▁danger	-9.90994
▁encourage	-9.90998
▁budget	-9.91003
▁medicine	-9.91016
▁reaction	-9.9103
▁speaker	-9.91089
▁spring	-9.91154
▁hear	-9.91161
▁easi	-9.91173
zai	-9.91287
▁wind	-9.91347
▁dut	-9.91509
▁extra	-9.91755
ship	-9.91766
▁spot	-9.91791
▁stone	-9.91854
▁fraud	-9.91875
▁rapid	-9.91877
▁fellow	-9.91881
▁diana	-9.91909
▁users	-9.91996
▁weight	-9.92011
la	-9.92063
▁apolog	-9.92107
▁hous	-9.92112
berg	-9.92325
▁rape	-9.92384
aks	-9.92411
▁table	-9.92502
▁ranking	-9.92684
▁god	-9.92699
▁standing	-9.92759
▁michigan	-9.92761
▁tehran	-9.92761
▁temperature	-9.92761
▁enjoy	-9.92761
▁saddam	-9.92761
▁register	-9.92786
▁urani	-9.928
▁isn	-9.92808
▁li	-9.92834
▁sister	-9.92856
b	-9.9289
▁remov	-9.93018
▁contest	-9.93073
▁systems	-9.93084
▁torch	-9.93172
▁ring	-9.93428
▁items	-9.93437
▁slight	-9.93456
▁arabia	-9.93484
ester	-9.93581
▁tens	-9.93603
yone	-9.93637
▁kennedy	-9.93654
▁virtual	-9.93661
▁stake	-9.93846
▁alive	-9.93894
▁ho	-9.93945
▁collapsed	-9.93966
▁seiz	-9.94041
▁basic	-9.94084
▁mile	-9.94106
▁stoo	-9.94212
▁fix	-9.94338
▁object	-9.94473
▁catholic	-9.94554
▁vietnam	-9.94554
▁simpson	-9.94555
▁unlike	-9.94572
▁gov	-9.94621
▁inspector	-9.9466
▁demonstrations	-9.94759
▁jur	-9.9493
▁sky	-9.94953
▁artist	-9.9509
▁tensions	-9.95185
▁enforce	-9.95193
▁southeast	-9.95251
▁wealth	-9.95346
▁ahmadi	-9.95363
▁box	-9.95442
▁gar	-9.95462
▁ethnic	-9.95467
▁assistance	-9.95473
▁orbit	-9.95479
▁organizer	-9.95483
▁explosives	-9.95486
▁generation	-9.95519
▁mad	-9.95522
▁climb	-9.95538
▁wing	-9.95634
junta	-9.95649
▁lose	-9.95741
▁accepted	-9.95757
▁demanded	-9.95769
▁cb	-9.9581
▁ji	-9.95825
▁broken	-9.95864
▁possibl	-9.96114
▁joong	-9.96165
▁declare	-9.96183
▁decide	-9.9619
▁fled	-9.96202
▁cuba	-9.96238
▁pa	-9.96282
▁jose	-9.96315
▁file	-9.96372
▁visa	-9.96384
▁troop	-9.96385
▁liver	-9.96386
▁championship	-9.9639
▁speculation	-9.96396
▁machine	-9.9645
▁sadr	-9.9646
▁pounds	-9.96522
▁arizo	-9.96783
▁chose	-9.96991
▁kenya	-9.97124
▁spend	-9.9714
suu	-9.97227
▁exact	-9.97307
▁stadium	-9.97307
▁nicola	-9.97307
▁islamabad	-9.97308
▁enrich	-9.97308
▁regulation	-9.97313
▁vegas	-9.97326
▁massa	-9.97388
▁ten	-9.97475
▁cruise	-9.97798
j	-9.97816
▁edge	-9.97922
▁stars	-9.9812
▁remote	-9.98242
chuse	-9.98247
▁debt	-9.98306
▁physical	-9.98324
▁complaint	-9.98417
▁traveler	-9.98431
▁takes	-9.9845
▁warming	-9.98462
▁license	-9.98494
▁equal	-9.98586
▁cia	-9.98591
▁ensure	-9.98797
▁statu	-9.98928
▁photos	-9.98931
▁obtain	-9.99185
▁jerusalem	-9.99185
▁purpose	-9.99185
▁rallie	-9.99187
▁googl	-9.99274
▁agre	-9.99297
▁sa	-9.99362
ea	-9.99387
ter	-9.99479
ado	-9.9952
ribal	-9.99572
▁di	-9.99606
▁motor	-9.99685
tts	-9.9969
▁thanks	-9.99733
▁continu	-9.99756
▁pain	-9.99852
▁lad	-9.99943
▁net	-10.0007
cient	-10.0011
▁oppos	-10.0012
▁trillion	-10.0014
▁equipment	-10.0014
▁crucial	-10.0014
▁putt	-10.0016
▁commissioner	-10.0049
▁oscar	-10.0074
▁weapon	-10.0076
▁relative	-10.0076
▁surface	-10.0077
at	-10.0093
▁spear	-10.0096
▁blam	-10.0102
▁narrow	-10.011
▁invite	-10.011
▁task	-10.011
▁globe	-10.011
▁wake	-10.0111
▁iowa	-10.0112
▁jung	-10.0113
▁celebrit	-10.0115
back	-10.0129
▁dan	-10.0144
▁violat	-10.0146
▁spy	-10.0148
▁era	-10.0155
▁tape	-10.0157
▁plot	-10.0161
ier	-10.0178
▁promote	-10.02
▁perfect	-10.0208
▁warrant	-10.0208
▁bailout	-10.0209
▁tons	-10.0214
▁leak	-10.0233
▁representatives	-10.0239
▁organiz	-10.024
▁evacuated	-10.0241
haps	-10.0262
▁anger	-10.0266
▁modern	-10.0268
▁audience	-10.0274
ily	-10.0274
▁detail	-10.0277
western	-10.0281
▁jan	-10.0291
▁angr	-10.0293
▁gang	-10.0295
▁declin	-10.0295
▁fed	-10.0298
▁exercise	-10.0299
▁mahmoud	-10.0305
▁subject	-10.0305
▁estate	-10.0306
▁carbon	-10.0307
▁strengthen	-10.0309
▁stress	-10.0318
▁founder	-10.0327
▁samsun	-10.0331
▁discovery	-10.0336
▁ei	-10.0347
▁dismissed	-10.0348
▁band	-10.0366
▁brand	-10.0369
▁tonight	-10.0404
▁guarantee	-10.0404
▁invasion	-10.0404
▁magnitude	-10.0404
▁closer	-10.0406
▁nevada	-10.0406
▁guest	-10.0407
▁internal	-10.0407
▁professional	-10.0408
▁rough	-10.0409
▁mike	-10.0409
▁calm	-10.041
▁runner	-10.041
▁dutch	-10.041
▁boycott	-10.0414
▁writer	-10.0421
▁ver	-10.0428
▁charg	-10.0451
▁expand	-10.0451
ack	-10.0459
▁stall	-10.046
▁wi	-10.0491
▁handed	-10.0492
▁aware	-10.0497
▁agricultur	-10.0504
▁detention	-10.0504
▁fashion	-10.0504
▁daniel	-10.0505
▁jackson	-10.0505
▁nobel	-10.0507
▁wolf	-10.0508
▁santa	-10.0515
▁transition	-10.052
broad	-10.055
corporate	-10.0556
▁provinc	-10.0568
▁smok	-10.0571
▁wor	-10.0571
▁electronic	-10.0585
▁nepal	-10.0587
▁attract	-10.0602
itarian	-10.0605
▁memorial	-10.0605
▁offensive	-10.0605
▁suburb	-10.0605
▁temporar	-10.0605
▁colleague	-10.0605
▁lawsuit	-10.0605
▁relay	-10.0606
▁assassination	-10.0606
▁tight	-10.0607
▁windows	-10.0608
▁restriction	-10.061
▁dogs	-10.0613
▁arrival	-10.062
▁liberal	-10.0639
▁phones	-10.0658
▁meant	-10.066
▁patrol	-10.0672
▁urge	-10.0687
mer	-10.0687
▁champion	-10.0691
surance	-10.0693
▁reporter	-10.07
▁identify	-10.0707
▁sheriff	-10.0707
▁reduction	-10.0707
▁louis	-10.0707
▁monk	-10.0709
▁wonder	-10.071
▁estimat	-10.0738
▁path	-10.076
▁agenci	-10.0787
▁pair	-10.0792
▁alaska	-10.0793
▁strategy	-10.081
▁suspicion	-10.081
▁advantage	-10.081
▁counterpart	-10.081
▁dubai	-10.081
▁remember	-10.0811
▁babies	-10.0812
▁canad	-10.0813
▁batter	-10.0813
▁worrie	-10.0824
▁colombian	-10.0839
▁visiting	-10.0841
ized	-10.0855
▁ang	-10.0863
▁yes	-10.0863
▁projects	-10.0878
▁maca	-10.0892
▁dub	-10.0907
▁permanent	-10.0914
▁berlin	-10.0916
▁casualties	-10.0917
▁lake	-10.092
▁manch	-10.092
▁presiden	-10.0925
▁diplomats	-10.0928
▁choose	-10.0932
▁reasons	-10.0936
ant	-10.0937
field	-10.0942
▁sport	-10.0947
pool	-10.0968
▁investigate	-10.0976
▁ease	-10.098
▁offering	-10.0996
ified	-10.1005
▁example	-10.101
▁coup	-10.1011
▁tom	-10.1017
▁mix	-10.1018
▁sudden	-10.102
▁kingdom	-10.102
▁aboard	-10.103
▁haven	-10.1034
▁argu	-10.1046
▁relatives	-10.1058
▁forum	-10.1071
night	-10.1072
▁lady	-10.1074
▁ray	-10.1107
▁venezuela	-10.1107
▁freed	-10.1113
un	-10.112
ical	-10.1122
▁anonymity	-10.1126
▁veteran	-10.1126
▁diego	-10.1126
▁exit	-10.1127
▁auction	-10.1129
▁teenager	-10.1134
▁sydn	-10.1138
▁books	-10.114
▁mohamm	-10.114
▁none	-10.1143
▁princess	-10.1152
▁die	-10.1167
▁catch	-10.1176
▁theater	-10.119
ani	-10.1192
gun	-10.1208
▁threats	-10.1209
▁favorite	-10.1232
▁buri	-10.1233
▁technical	-10.1234
▁nadal	-10.1234
▁entertainment	-10.1234
▁tiger	-10.1234
▁passenger	-10.1235
▁split	-10.1235
▁hilton	-10.1236
▁recovery	-10.124
▁chen	-10.1242
oline	-10.1245
▁johnson	-10.1247
▁lay	-10.1248
▁simple	-10.125
ll	-10.1252
▁document	-10.1253
▁worse	-10.1254
▁label	-10.1262
▁strain	-10.1278
▁fa	-10.1281
▁dong	-10.1285
spread	-10.1291
▁fata	-10.1293
▁struggle	-10.1309
▁rome	-10.131
▁inc	-10.1314
▁harm	-10.1325
▁feder	-10.1342
▁tomorrow	-10.1342
▁ukrain	-10.1342
▁froze	-10.1343
▁destruction	-10.1344
▁manag	-10.1344
▁sw	-10.1347
▁landing	-10.1358
▁warm	-10.1361
▁easy	-10.1365
▁tear	-10.1371
ma	-10.1377
▁wood	-10.1384
▁con	-10.1397
▁creat	-10.1412
▁en	-10.1441
ization	-10.1448
▁compound	-10.1452
▁soccer	-10.1452
▁cleric	-10.1452
▁negative	-10.1452
▁delta	-10.1452
▁atmospher	-10.1452
▁potter	-10.1453
▁cutting	-10.1456
▁shortage	-10.146
▁fit	-10.1465
▁basi	-10.1495
▁purchase	-10.151
dai	-10.1513
▁benefits	-10.1514
ju	-10.1544
▁roads	-10.1552
▁debut	-10.1563
▁agenda	-10.1563
▁emission	-10.1564
▁canadian	-10.1564
▁simply	-10.1564
▁mention	-10.1566
▁renew	-10.1573
▁lowest	-10.1575
▁sh	-10.1597
▁resources	-10.1614
ground	-10.1617
▁movies	-10.162
▁engine	-10.1626
▁suit	-10.1632
▁refuse	-10.1634
▁x	-10.1637
▁polic	-10.1638
▁prepar	-10.1653
▁malaysia	-10.1657
▁strip	-10.1669
▁kurdis	-10.1669
▁detect	-10.1669
▁erupt	-10.1671
rew	-10.1671
▁explod	-10.1673
▁thomas	-10.1676
▁shelter	-10.1676
▁conspirac	-10.1676
▁gap	-10.1678
▁expectation	-10.1683
▁firefighter	-10.1692
▁profile	-10.1694
▁heading	-10.1698
ana	-10.1701
▁devastat	-10.1702
▁guards	-10.1702
▁mr	-10.1711
▁trapped	-10.1713
▁percentage	-10.1714
▁lt	-10.172
▁pe	-10.1744
dna	-10.1745
▁rang	-10.1755
▁frequent	-10.1789
▁chelsea	-10.1789
yongbyon	-10.1789
▁bullet	-10.179
▁element	-10.179
▁valley	-10.1792
▁plus	-10.1795
▁chemical	-10.1796
▁elder	-10.1796
▁wen	-10.1801
▁woo	-10.1801
▁acknowledg	-10.1824
▁manufactur	-10.1835
▁cultur	-10.1835
▁unclea	-10.1841
▁sit	-10.1849
▁indiana	-10.1862
im	-10.1886
imed	-10.189
ersey	-10.1893
▁improv	-10.1897
▁recruit	-10.1904
▁nature	-10.1905
▁mars	-10.1907
▁section	-10.1908
▁issu	-10.1915
▁payment	-10.1919
ional	-10.1922
▁eyes	-10.1926
▁vessel	-10.1927
▁ticket	-10.1927
▁expert	-10.1929
as	-10.1943
▁institution	-10.1946
▁youth	-10.196
▁rescuer	-10.1975
▁locat	-10.2001
▁bureau	-10.2005
▁pop	-10.2013
▁assets	-10.2019
▁unusual	-10.202
▁diamond	-10.2021
▁writing	-10.2028
▁heads	-10.2036
▁sort	-10.2039
enko	-10.2042
▁album	-10.2044
▁ride	-10.2046
▁bone	-10.2051
▁identit	-10.2068
▁closing	-10.2075
▁apologize	-10.2075
▁rat	-10.2084
ican	-10.2086
▁pc	-10.2089
▁learned	-10.209
▁birds	-10.2103
▁proper	-10.2117
▁disappoint	-10.2135
▁bangkok	-10.2138
▁succeed	-10.2138
▁wedding	-10.214
▁maryland	-10.214
▁clinic	-10.2141
▁kang	-10.2143
▁khan	-10.2148
▁listen	-10.216
arta	-10.2165
▁chair	-10.2166
▁observer	-10.2173
▁vi	-10.2178
di	-10.2187
▁petr	-10.2199
▁landed	-10.2223
▁thank	-10.2232
▁disappear	-10.2256
ina	-10.2256
▁nominat	-10.2256
▁preliminar	-10.2257
▁mccann	-10.2257
▁studio	-10.2257
▁bilateral	-10.2257
▁proud	-10.2258
▁abdullah	-10.2258
▁shrine	-10.2259
▁execution	-10.226
it	-10.2262
▁hopeful	-10.2263
▁dramatic	-10.2267
▁pushing	-10.2274
ten	-10.2285
▁boe	-10.229
▁plead	-10.2291
▁ghaz	-10.2292
▁homeland	-10.2296
▁crack	-10.2299
▁cool	-10.2302
▁toys	-10.2305
olar	-10.231
▁divorce	-10.2326
▁oppose	-10.2344
▁surround	-10.2363
▁bird	-10.2368
▁controversy	-10.2378
▁tsunami	-10.2378
▁yellow	-10.2378
▁edition	-10.2379
▁gulf	-10.2379
▁hezb	-10.238
▁chrys	-10.2382
▁boss	-10.2386
▁reduced	-10.2388
▁inflation	-10.2396
▁fate	-10.241
▁shoe	-10.2414
▁retir	-10.2421
▁ha	-10.2421
▁jak	-10.2431
▁cheer	-10.2439
▁soar	-10.2448
▁digital	-10.2457
ability	-10.2457
▁knee	-10.2462
ville	-10.2474
▁collect	-10.2491
beth	-10.2492
▁edwards	-10.2494
▁scot	-10.2495
▁hunt	-10.2496
▁darfur	-10.25
▁error	-10.25
▁mortgage	-10.25
▁alternative	-10.25
▁miami	-10.25
▁radical	-10.25
▁palin	-10.2502
▁prett	-10.2515
▁joe	-10.2522
▁opponents	-10.2531
ious	-10.2533
mph	-10.2534
▁ia	-10.2534
▁marked	-10.2538
over	-10.2539
ches	-10.2539
▁rail	-10.254
▁outbreak	-10.2545
▁teachers	-10.2553
▁ru	-10.2557
▁sponsor	-10.2558
▁hung	-10.2559
▁reading	-10.2563
▁goods	-10.2564
▁pace	-10.2565
day	-10.2583
▁southwest	-10.2589
▁lama	-10.2612
▁entering	-10.2616
▁campus	-10.2618
▁strength	-10.2619
▁journey	-10.2623
▁method	-10.2623
▁ballot	-10.2623
▁assist	-10.2625
▁bottom	-10.2625
▁coordinat	-10.2629
▁clash	-10.2633
▁firing	-10.2633
fare	-10.2634
bility	-10.2642
▁venezuelan	-10.2645
▁pet	-10.266
▁restaurant	-10.2673
▁waste	-10.2682
▁ill	-10.2684
azir	-10.2686
▁ro	-10.2734
▁desert	-10.2742
▁guns	-10.2746
▁sentenc	-10.2747
▁yonhap	-10.2748
▁convoy	-10.2748
▁youtube	-10.2748
▁sustain	-10.2748
▁vat	-10.2755
▁immigrat	-10.2761
▁gonzale	-10.2764
▁farm	-10.2766
▁belong	-10.2768
mi	-10.2768
▁bottle	-10.277
▁approve	-10.2773
▁drew	-10.2782
▁indonesian	-10.2788
▁gains	-10.2789
▁seal	-10.2795
▁boom	-10.2795
▁roman	-10.2796
▁hospitaliz	-10.2801
▁benefit	-10.2803
▁corner	-10.2805
▁sean	-10.2815
body	-10.2817
▁engag	-10.2821
▁fatal	-10.2821
ga	-10.284
▁weak	-10.2846
▁weigh	-10.2861
▁balance	-10.2866
▁select	-10.2873
▁client	-10.2875
▁captain	-10.2875
▁cloud	-10.2875
▁gallon	-10.2876
▁inspection	-10.2876
▁shopping	-10.2878
ept	-10.2879
▁deployment	-10.2879
▁weaken	-10.288
ay	-10.2886
▁operate	-10.2891
employment	-10.2895
erson	-10.2902
▁pose	-10.2902
▁effects	-10.2912
▁electora	-10.2928
▁gathering	-10.2936
ford	-10.2938
▁ally	-10.2941
▁zealand	-10.2944
▁tim	-10.2945
▁notice	-10.2949
▁predicted	-10.2974
▁alexand	-10.2986
▁northwest	-10.2986
arah	-10.2992
▁shape	-10.2993
▁falling	-10.2995
▁invest	-10.2996
llah	-10.2999
▁convince	-10.3003
▁girlfriend	-10.3003
▁vacation	-10.3003
▁truth	-10.3004
madeleine	-10.3004
▁innocent	-10.3007
▁afford	-10.3021
▁osam	-10.3023
▁tall	-10.3025
hai	-10.3026
▁grave	-10.3056
▁restore	-10.306
▁delivery	-10.3061
▁yoo	-10.3063
▁beating	-10.307
▁metal	-10.3076
▁lock	-10.3078
▁participate	-10.3079
▁charit	-10.3095
▁col	-10.3099
▁stores	-10.3104
▁handl	-10.3107
▁holy	-10.312
▁affiliate	-10.3128
▁landslide	-10.3133
▁boston	-10.3133
▁drove	-10.3133
▁initiative	-10.3133
▁corporation	-10.3133
▁pump	-10.3133
▁jesu	-10.3135
▁je	-10.3142
▁stability	-10.3143
▁oh	-10.3149
▁nas	-10.3154
▁rockets	-10.3154
▁chain	-10.3155
ling	-10.3157
ural	-10.3161
▁scott	-10.3162
ta	-10.317
agan	-10.3181
▁dala	-10.3182
▁ye	-10.3183
▁dealing	-10.3194
▁argentin	-10.3195
aid	-10.3204
▁meaning	-10.3204
down	-10.3207
water	-10.3214
work	-10.3232
▁im	-10.325
▁length	-10.326
▁knowledge	-10.3264
▁prospect	-10.3264
▁grew	-10.3267
▁yard	-10.3268
▁defendant	-10.3269
▁palm	-10.3277
▁islamist	-10.3277
▁acre	-10.3294
▁string	-10.3296
▁cable	-10.3304
▁structure	-10.3309
▁failing	-10.3315
▁younger	-10.3332
▁ka	-10.3342
▁teacher	-10.3347
upper	-10.335
▁formed	-10.3351
▁carrier	-10.3354
iya	-10.3365
▁planes	-10.3372
▁participat	-10.3373
▁flee	-10.3387
▁survived	-10.3392
▁experiment	-10.3394
▁wildlife	-10.3398
▁ultimate	-10.3398
▁accord	-10.3398
▁temple	-10.3399
▁vast	-10.34
▁dump	-10.3401
▁atlantic	-10.3405
▁fox	-10.3407
▁bright	-10.3408
aeus	-10.3416
▁bound	-10.3422
▁friendly	-10.3425
ehud	-10.3428
▁mayb	-10.3431
▁battl	-10.3438
▁barr	-10.3455
▁divers	-10.3465
▁tradition	-10.3478
▁comfort	-10.3491
ick	-10.3495
▁stan	-10.3506
▁write	-10.3521
▁abduct	-10.3522
▁vladimir	-10.3522
▁connect	-10.3531
▁typical	-10.3534
▁collection	-10.3539
▁kurd	-10.3547
▁peru	-10.3552
▁achieve	-10.3558
▁requir	-10.3559
▁har	-10.356
ez	-10.3575
▁excit	-10.3581
ence	-10.3584
▁gore	-10.3589
▁tire	-10.3595
▁margin	-10.3597
▁damag	-10.3602
▁pirates	-10.3622
▁detonat	-10.3629
▁celebrate	-10.3631
▁sensitiv	-10.3641
▁warnings	-10.3656
▁barcelon	-10.367
▁pregnant	-10.367
▁delhi	-10.367
▁michel	-10.367
▁eliza	-10.367
▁conversation	-10.367
▁plastic	-10.367
▁lab	-10.3671
▁numer	-10.3671
ger	-10.3692
▁mate	-10.3696
▁kerr	-10.3701
bed	-10.3707
▁mur	-10.3714
▁islands	-10.3715
▁lie	-10.372
▁restaurants	-10.3752
▁flag	-10.3754
▁representative	-10.3763
▁responded	-10.3767
▁symbol	-10.3771
▁beef	-10.3776
▁bond	-10.3778
▁clon	-10.3782
▁direction	-10.3786
▁serbia	-10.379
▁ga	-10.3792
ne	-10.3796
▁provinces	-10.3799
▁restrict	-10.3802
▁drama	-10.3804
▁abdul	-10.3808
▁settle	-10.3808
▁superdelegate	-10.3809
▁endanger	-10.3809
▁jordan	-10.3809
▁birthday	-10.3809
▁memory	-10.381
▁squad	-10.3811
▁neck	-10.3811
ejad	-10.3817
▁briefing	-10.383
▁shang	-10.3838
▁negotiat	-10.3838
▁pledg	-10.3863
▁philippines	-10.3868
▁stretch	-10.3871
▁wish	-10.3876
▁conclude	-10.3885
▁skin	-10.3889
▁recommend	-10.3902
▁acknowledge	-10.3907
han	-10.3917
▁pursu	-10.3921
itting	-10.3926
▁tru	-10.394
baki	-10.394
evin	-10.3943
▁participant	-10.3949
▁sovereign	-10.3949
▁surrender	-10.3949
▁routine	-10.395
▁buddhist	-10.395
▁brazilian	-10.3951
▁stole	-10.3951
▁illness	-10.3951
▁punishment	-10.3952
▁federation	-10.3953
▁peacekeep	-10.3958
▁advertis	-10.3961
▁character	-10.397
chuan	-10.3972
▁glass	-10.3985
▁wins	-10.3986
▁stories	-10.3986
▁feeling	-10.4
▁note	-10.4001
▁runway	-10.4008
▁trains	-10.4015
▁jim	-10.4023
▁par	-10.4033
▁print	-10.4036
▁crop	-10.4038
▁maxim	-10.4048
▁highlight	-10.4057
▁responsibilit	-10.4064
▁bi	-10.4068
▁unity	-10.4074
▁promot	-10.4074
▁moderate	-10.4086
▁hampshire	-10.4092
▁hawaii	-10.4092
▁airstrike	-10.4092
▁arsenal	-10.4093
▁sample	-10.4093
▁sailor	-10.4095
▁mental	-10.4098
▁abc	-10.4099
▁bowl	-10.41
daq	-10.4106
▁veto	-10.4106
ny	-10.4107
▁solve	-10.4107
▁publicly	-10.4119
kk	-10.412
▁celebrat	-10.4127
▁rom	-10.4152
▁wage	-10.4156
▁farc	-10.4174
▁torture	-10.4175
▁divide	-10.4187
▁brutal	-10.4195
▁photographer	-10.4204
▁demonstration	-10.4205
▁obvious	-10.4237
▁watchdog	-10.4238
▁strict	-10.4238
▁revolutionar	-10.4238
▁shirt	-10.424
▁distance	-10.424
▁peak	-10.4241
▁successor	-10.4241
▁appointment	-10.4243
▁morgan	-10.4247
▁accusation	-10.425
▁authoriz	-10.4256
▁pos	-10.4263
▁introduce	-10.4264
▁kenyan	-10.4266
▁undergo	-10.4269
ren	-10.428
▁tool	-10.4284
▁metropoli	-10.4293
▁humans	-10.4296
▁striker	-10.4302
go	-10.4306
▁bell	-10.4307
ha	-10.4313
▁somali	-10.4319
▁nei	-10.432
▁contests	-10.433
▁featur	-10.4333
▁uh	-10.4339
▁v	-10.4359
▁commit	-10.4361
hattan	-10.4364
▁worker	-10.437
▁cease	-10.4384
▁scientific	-10.4384
▁capacity	-10.4386
▁midnight	-10.4386
▁expensive	-10.4388
▁regulator	-10.4389
▁fortune	-10.4389
▁shark	-10.4392
▁text	-10.4394
▁comedy	-10.4402
▁rod	-10.4414
▁messages	-10.4419
▁corps	-10.4439
▁polici	-10.4443
rey	-10.4443
pped	-10.4447
▁photo	-10.4481
▁argue	-10.4492
▁eating	-10.4515
witz	-10.4521
▁bob	-10.453
▁shoot	-10.4531
▁editor	-10.4533
▁dispatch	-10.4534
▁wreck	-10.4534
▁surveill	-10.4534
▁venue	-10.4534
▁blago	-10.4534
▁jack	-10.4534
▁cyclone	-10.4534
▁egyptian	-10.4535
▁ordinar	-10.4535
▁genetic	-10.4535
▁columbia	-10.4535
erry	-10.4536
▁everybody	-10.4536
▁urban	-10.4537
▁switch	-10.454
lor	-10.454
▁stimul	-10.4545
▁chile	-10.4554
▁powers	-10.4554
▁handle	-10.4556
▁dick	-10.4556
ippi	-10.456
owitz	-10.4561
▁pursue	-10.4563
▁lung	-10.4566
▁transferr	-10.4573
▁inquir	-10.4612
▁zar	-10.4619
ca	-10.4626
▁caucuse	-10.4627
▁explain	-10.4638
▁hiv	-10.4641
▁aids	-10.4642
▁cloth	-10.4648
▁diplomat	-10.4657
▁ne	-10.467
▁stressed	-10.467
▁emerged	-10.467
▁moham	-10.4671
▁react	-10.468
▁hospitals	-10.4682
▁whal	-10.4685
▁spirit	-10.4685
▁coffee	-10.4685
▁funeral	-10.4685
▁civi	-10.4685
▁dinner	-10.4685
▁harsh	-10.4686
▁bitter	-10.4688
▁fta	-10.469
▁hwan	-10.469
▁congo	-10.4691
▁native	-10.4693
▁mississ	-10.4693
▁intense	-10.4696
▁operator	-10.4696
across	-10.4706
▁circumstances	-10.4708
▁deny	-10.4722
▁gree	-10.473
iana	-10.4732
▁views	-10.4736
▁giv	-10.4737
▁accounts	-10.4745
▁saving	-10.4751
armament	-10.4754
▁gmt	-10.4763
▁televis	-10.4763
▁loh	-10.4765
▁teen	-10.4802
▁disable	-10.4809
▁depend	-10.4818
▁knock	-10.4823
▁citizen	-10.4825
▁eat	-10.4833
▁jane	-10.4836
▁steven	-10.4837
▁mexican	-10.4839
▁multiple	-10.4839
▁crown	-10.484
▁supposed	-10.4841
▁prepare	-10.4843
▁indication	-10.4848
▁debri	-10.4853
▁entry	-10.4858
▁sick	-10.486
▁mouth	-10.4863
▁commerc	-10.4869
sumption	-10.4876
▁henr	-10.4877
▁ca	-10.4879
ities	-10.4897
▁ski	-10.4899
▁survive	-10.4906
har	-10.4911
▁compete	-10.4916
▁maj	-10.4926
▁earning	-10.4934
▁willing	-10.4935
▁lights	-10.4943
evich	-10.4984
ei	-10.4989
▁realize	-10.499
▁breakthrough	-10.4995
▁quiet	-10.4995
▁false	-10.4995
▁impeach	-10.4996
▁dvd	-10.4996
▁barrier	-10.4997
▁rumor	-10.5
▁castro	-10.5001
▁cafe	-10.5005
▁bail	-10.5005
▁vital	-10.5006
▁bombers	-10.5009
▁fun	-10.5014
tah	-10.5022
▁musical	-10.5026
▁owners	-10.5028
ular	-10.5033
▁appropriate	-10.5047
light	-10.5064
▁conclud	-10.5068
chi	-10.5076
▁chun	-10.5078
▁recognize	-10.5096
▁rescued	-10.5107
▁gul	-10.5116
more	-10.512
erland	-10.5124
▁ta	-10.5126
▁du	-10.5139
▁blaze	-10.5146
▁hub	-10.5149
▁explosive	-10.515
▁window	-10.515
▁disney	-10.5153
▁occupation	-10.5154
▁benedict	-10.5154
▁swiss	-10.5154
▁testimon	-10.5154
▁concrete	-10.5154
▁punish	-10.5155
▁chart	-10.5157
▁preparation	-10.5158
▁gross	-10.5161
▁frame	-10.5165
no	-10.5165
ch	-10.52
▁cave	-10.5213
▁ti	-10.5216
▁engage	-10.5217
▁diet	-10.5241
▁historical	-10.5244
▁matche	-10.5245
▁guide	-10.5245
▁hail	-10.5252
wise	-10.5263
▁broadcaster	-10.5264
▁negotiate	-10.527
▁sch	-10.5271
▁consult	-10.5278
▁marks	-10.53
tiny	-10.5301
▁bigge	-10.5311
▁conservation	-10.5312
▁confident	-10.5314
▁faith	-10.5314
▁tobacco	-10.5315
▁verdict	-10.5315
▁benchmark	-10.5315
▁phoeni	-10.5315
▁conclusion	-10.5315
▁shareholder	-10.5315
▁repair	-10.5316
▁amnes	-10.5317
▁fierce	-10.5318
▁apply	-10.5318
luton	-10.5319
▁pitt	-10.5324
▁continent	-10.5328
▁apart	-10.5329
▁correct	-10.5331
▁floods	-10.5333
▁chong	-10.5353
▁unknown	-10.5355
▁patric	-10.5356
▁bull	-10.537
▁chest	-10.5401
▁fay	-10.5416
▁believ	-10.5418
▁yi	-10.5425
▁liter	-10.5435
ota	-10.5441
▁ire	-10.5441
▁disrupt	-10.5474
▁parent	-10.5477
eath	-10.5479
▁category	-10.5479
▁joseph	-10.5479
▁boyfriend	-10.5479
▁await	-10.5479
▁motion	-10.5481
▁careful	-10.5484
▁sam	-10.5485
▁odd	-10.5486
▁ge	-10.549
▁brad	-10.5493
put	-10.5496
▁socialist	-10.5498
▁paint	-10.5499
▁pitch	-10.55
▁communit	-10.552
▁overwhelming	-10.5524
▁twin	-10.554
▁somalia	-10.5553
▁kyo	-10.5567
ah	-10.5595
▁jon	-10.5598
▁cd	-10.5603
▁partners	-10.5612
rs	-10.5621
▁classic	-10.5626
▁austria	-10.5627
▁slipp	-10.5628
▁czech	-10.5646
▁unfortunate	-10.5646
▁striking	-10.5646
▁reconciliation	-10.5646
▁clark	-10.5646
▁uniform	-10.5646
▁stern	-10.5647
▁sheikh	-10.5647
▁sweep	-10.5647
▁cargo	-10.565
▁resolv	-10.5654
▁fat	-10.5656
▁specialist	-10.5657
am	-10.5662
▁rebuild	-10.5663
▁infect	-10.5664
▁substantial	-10.5664
▁hero	-10.5671
▁copy	-10.5675
▁carlo	-10.5677
▁jin	-10.5679
efa	-10.5694
▁praise	-10.5696
▁chris	-10.5697
▁toxic	-10.5706
▁chad	-10.5716
▁retail	-10.5727
▁sad	-10.573
▁villager	-10.5735
▁abus	-10.5752
▁mary	-10.5752
▁stephen	-10.5764
▁wel	-10.5769
▁rep	-10.5776
▁steel	-10.5786
▁tackle	-10.5789
hood	-10.579
▁aren	-10.5797
▁ar	-10.5799
▁regions	-10.58
▁grant	-10.5807
▁yong	-10.5807
▁laptop	-10.5815
▁mccorm	-10.5815
▁transaction	-10.5815
▁tennesse	-10.5815
▁legend	-10.5815
▁typhoon	-10.5816
▁petition	-10.5816
▁slave	-10.5822
▁captur	-10.5828
▁railway	-10.583
▁reference	-10.5832
▁medal	-10.5835
▁tend	-10.5837
▁variet	-10.5841
▁custom	-10.5843
▁trader	-10.5843
▁beaut	-10.5847
▁familiar	-10.5855
▁antoni	-10.5856
▁graduate	-10.5864
▁bolt	-10.5865
▁prayer	-10.588
▁shipp	-10.5882
▁camps	-10.5893
▁outrage	-10.5918
▁complet	-10.592
▁sung	-10.5923
▁copie	-10.5925
ent	-10.5933
▁convert	-10.5937
house	-10.5938
▁fires	-10.5944
▁hat	-10.5944
ting	-10.5948
bus	-10.5954
▁hug	-10.5956
▁mourn	-10.5976
▁stands	-10.5977
▁seconds	-10.5982
▁priva	-10.5988
▁platform	-10.5988
▁administrative	-10.5988
▁referendum	-10.5988
▁scar	-10.5988
▁departure	-10.5988
▁compensation	-10.5988
▁crush	-10.5988
▁separatist	-10.5988
▁relocation	-10.5988
▁mistake	-10.5991
▁sweet	-10.5997
▁buyer	-10.6005
▁absolutely	-10.6006
▁household	-10.6011
▁sri	-10.6016
▁kent	-10.6016
▁wine	-10.6021
▁cuban	-10.6027
▁larr	-10.6034
▁seize	-10.604
pending	-10.604
▁thinking	-10.6041
▁shore	-10.6041
▁pr	-10.6046
tv	-10.6047
▁jae	-10.6047
▁kid	-10.6062
▁cow	-10.6064
▁rd	-10.6064
▁attacker	-10.6065
lin	-10.6069
▁mar	-10.6084
▁mal	-10.6091
▁miner	-10.6092
▁sir	-10.6097
craft	-10.6108
▁jeff	-10.6124
▁painting	-10.6133
ol	-10.6135
▁ryan	-10.6143
▁chao	-10.6146
▁spott	-10.6156
▁except	-10.6157
▁volcano	-10.6159
▁robot	-10.6161
▁secular	-10.6161
▁aggressive	-10.6163
▁immigrant	-10.6163
▁muscle	-10.6163
▁clock	-10.6163
▁sentiment	-10.6164
▁conviction	-10.6164
▁contrast	-10.6165
▁alarm	-10.6165
erdog	-10.6165
▁baseball	-10.6166
▁essential	-10.6166
▁shield	-10.6167
▁novel	-10.6168
▁float	-10.617
▁zero	-10.6172
▁kate	-10.6175
mumba	-10.6192
▁propose	-10.6194
▁settlement	-10.6194
▁delegate	-10.6195
▁paulo	-10.62
▁counts	-10.6202
▁bo	-10.6207
▁turnout	-10.621
▁contribute	-10.6215
▁stable	-10.6216
clusive	-10.6218
▁greet	-10.622
▁inform	-10.6236
dp	-10.6237
▁athen	-10.6238
▁replac	-10.6244
▁oldest	-10.6261
▁golf	-10.6273
court	-10.6281
▁traffick	-10.6297
▁promotion	-10.6298
▁rio	-10.63
▁polar	-10.6307
▁depressi	-10.6308
▁alex	-10.6319
▁libya	-10.6323
▁employ	-10.6324
▁airports	-10.6327
lanta	-10.6335
▁imprison	-10.6342
▁rifle	-10.6342
▁loyal	-10.6343
▁assessment	-10.6344
▁dust	-10.6345
▁glacier	-10.6347
▁criticize	-10.6355
▁moore	-10.6358
▁sole	-10.6359
▁submitt	-10.6361
▁rafa	-10.6361
▁mel	-10.6367
▁wire	-10.6377
▁stepp	-10.6386
▁dam	-10.6386
▁mis	-10.6396
▁hills	-10.6402
▁athletes	-10.6406
zo	-10.6412
▁anticipat	-10.6412
stance	-10.643
▁fame	-10.644
w	-10.6444
▁restor	-10.6448
▁hang	-10.6449
▁airway	-10.6449
▁meter	-10.645
▁inch	-10.6456
▁sand	-10.6458
▁soil	-10.6463
▁lend	-10.6469
▁generate	-10.6474
▁pla	-10.6475
quo	-10.6482
▁priorit	-10.6514
iri	-10.6518
▁classifie	-10.6519
▁lobby	-10.6523
gi	-10.6523
▁qualify	-10.6523
▁caution	-10.6524
▁retain	-10.6524
▁unrest	-10.6524
delphi	-10.6524
▁laborator	-10.6524
▁tunnel	-10.6524
▁roger	-10.6524
▁donald	-10.6524
▁orange	-10.6525
▁duck	-10.6525
▁outcome	-10.6526
▁slump	-10.6526
▁respective	-10.6527
▁timor	-10.6528
▁stroke	-10.6531
oney	-10.6532
ada	-10.6533
▁residence	-10.6535
▁hawk	-10.6542
▁solid	-10.6542
▁teens	-10.6548
▁fleet	-10.6549
▁confrontation	-10.6549
▁tsv	-10.6556
▁electronics	-10.656
▁doors	-10.6565
fp	-10.6567
▁whale	-10.6569
▁employee	-10.6569
▁root	-10.657
▁robber	-10.6603
▁undermine	-10.6605
▁syrian	-10.6612
▁laugh	-10.6613
▁retailer	-10.6619
▁banner	-10.6625
▁advi	-10.6627
▁ousted	-10.6627
▁ignor	-10.6628
▁phase	-10.664
▁denounc	-10.6641
▁pray	-10.666
▁impose	-10.6663
shore	-10.6663
▁concept	-10.6666
▁gambar	-10.6668
▁hitt	-10.6669
▁organ	-10.6679
nancy	-10.6688
▁bangladesh	-10.6696
▁chant	-10.6702
▁spill	-10.6704
▁dictator	-10.6708
▁detroit	-10.6709
▁guerrilla	-10.6709
▁capitol	-10.6709
▁embryo	-10.6709
▁darwin	-10.6709
▁hamid	-10.6709
▁checkpoint	-10.6709
▁abortion	-10.6709
▁mohammad	-10.6709
▁huck	-10.6709
▁strategic	-10.671
▁flash	-10.671
▁curb	-10.671
▁gyeong	-10.671
▁pattern	-10.6711
▁extraordinar	-10.6712
▁davis	-10.6712
▁roof	-10.6712
▁freeze	-10.6721
losi	-10.6723
▁lea	-10.6741
▁breach	-10.675
▁revenue	-10.6755
▁clothe	-10.676
▁politician	-10.6762
▁murr	-10.6764
▁towns	-10.6769
▁si	-10.6774
▁securit	-10.6788
v	-10.6793
be	-10.6819
▁brun	-10.6824
▁extremists	-10.6826
▁andrew	-10.6828
▁quote	-10.6829
▁liquid	-10.6834
▁function	-10.685
▁garden	-10.6851
▁introduc	-10.6863
▁documentar	-10.6864
tar	-10.6873
▁lanka	-10.6878
▁ja	-10.688
▁pat	-10.6894
▁map	-10.6895
head	-10.6896
▁netherlands	-10.6897
▁quarterfinal	-10.6897
▁technique	-10.6897
▁exposure	-10.6897
▁twenty	-10.6897
▁creature	-10.6897
▁orlean	-10.6898
▁summon	-10.6898
▁consequence	-10.6898
▁impossible	-10.6898
▁greenhouse	-10.6898
▁seattle	-10.6899
▁yo	-10.6899
▁efficient	-10.69
▁wireless	-10.6901
tion	-10.6902
▁dawn	-10.6903
▁missou	-10.6904
▁keb	-10.6905
▁phila	-10.6905
burgh	-10.6905
▁runoff	-10.6905
▁portion	-10.6915
▁virgin	-10.692
led	-10.6921
stein	-10.6923
▁villa	-10.6932
▁mi	-10.6933
▁jo	-10.6933
▁volunteers	-10.6934
▁rac	-10.6937
▁shell	-10.6939
▁trend	-10.6952
▁colon	-10.6953
▁smash	-10.6955
▁worsen	-10.6955
▁wheel	-10.6966
cation	-10.6967
▁tension	-10.6969
▁intention	-10.6972
▁pav	-10.6973
▁hunter	-10.6987
▁polan	-10.6992
▁bribe	-10.6999
▁ambush	-10.7019
▁ir	-10.7021
▁soo	-10.7028
ball	-10.7035
ential	-10.7037
▁revive	-10.7037
▁starr	-10.704
▁mom	-10.704
▁stick	-10.7046
▁ok	-10.7046
▁manage	-10.7053
▁inspir	-10.7057
▁sang	-10.7058
▁newly	-10.707
▁submit	-10.7072
▁prior	-10.7074
▁beer	-10.7077
ated	-10.7078
▁giuli	-10.709
▁hybrid	-10.709
▁minimum	-10.709
▁swimming	-10.709
▁wildfire	-10.709
▁eve	-10.709
▁substance	-10.709
▁toilet	-10.7091
▁amendment	-10.7091
▁bankruptcy	-10.7093
▁panda	-10.7094
▁gate	-10.71
mbled	-10.7101
▁centre	-10.7103
▁rum	-10.7111
oil	-10.7112
▁laid	-10.7118
▁homeless	-10.7122
▁offender	-10.7128
▁rudd	-10.7133
▁scheme	-10.7142
▁mont	-10.7146
▁nice	-10.7158
▁core	-10.7159
▁attitude	-10.7169
▁breath	-10.7178
▁warner	-10.7179
▁viewers	-10.7184
▁moral	-10.7194
▁upset	-10.7202
▁minorit	-10.7206
▁hunting	-10.7212
board	-10.7213
▁dean	-10.7215
irai	-10.722
▁resist	-10.7225
▁legs	-10.7231
ki	-10.7252
▁combin	-10.7256
▁whales	-10.7257
▁whit	-10.7262
▁please	-10.7262
▁revolution	-10.7268
nnan	-10.7275
▁kuwait	-10.7277
▁wal	-10.728
▁counsel	-10.7281
▁plung	-10.7283
▁voluntar	-10.7286
▁merkel	-10.7286
▁testify	-10.7286
▁inauguration	-10.7286
▁panama	-10.7286
▁fulfill	-10.7286
▁stuff	-10.7287
▁evacuation	-10.7287
▁trick	-10.7287
▁competitive	-10.7287
▁timetable	-10.7288
▁greek	-10.7288
▁coca	-10.729
▁jungle	-10.7292
▁celebration	-10.7294
▁gear	-10.7294
▁del	-10.7298
▁emotional	-10.7298
▁deadlie	-10.7301
▁dec	-10.7304
▁feed	-10.7311
▁fever	-10.7319
sfeld	-10.7326
▁feb	-10.7341
▁peer	-10.7355
▁motors	-10.7362
▁bal	-10.7363
▁faction	-10.7366
▁fo	-10.7377
▁bu	-10.7378
▁stag	-10.7378
rac	-10.7383
▁compet	-10.7386
▁overcom	-10.74
▁disclose	-10.7403
ella	-10.7409
▁plate	-10.7416
▁wrapp	-10.7428
identified	-10.7435
▁amounts	-10.7437
▁escap	-10.7437
▁compromise	-10.7471
▁fin	-10.7475
▁slam	-10.7484
▁consecutive	-10.7486
▁swift	-10.7486
▁elephant	-10.7486
▁clinch	-10.7486
▁sons	-10.7486
▁aftershock	-10.7487
▁disappearance	-10.7488
▁launder	-10.7488
▁serb	-10.749
▁ioc	-10.7491
▁rodrigue	-10.7491
confirmed	-10.7491
▁inquest	-10.7492
▁proof	-10.7493
▁shots	-10.7495
▁yuan	-10.7498
ze	-10.7499
▁influ	-10.7499
▁torn	-10.7505
▁leftist	-10.7506
▁gray	-10.7508
ok	-10.751
▁simon	-10.7519
▁designer	-10.7529
▁gm	-10.753
▁investigations	-10.7541
▁attach	-10.7549
burg	-10.7552
▁worry	-10.7554
▁laho	-10.7558
▁divid	-10.7559
▁slamm	-10.7578
held	-10.7579
▁winners	-10.758
abee	-10.7594
half	-10.7598
▁defending	-10.7604
izu	-10.7605
▁rowl	-10.7608
▁albert	-10.7611
▁mall	-10.7613
▁dat	-10.7617
hdi	-10.7627
▁mandat	-10.7662
▁tropica	-10.7665
▁trained	-10.767
ba	-10.7675
▁flat	-10.7676
▁cleve	-10.768
▁latin	-10.7681
▁industri	-10.7683
▁anchor	-10.7685
▁infant	-10.7689
▁luxur	-10.769
▁concession	-10.769
▁encounter	-10.769
▁enterprise	-10.769
▁technologies	-10.769
▁spiritual	-10.769
▁cigarette	-10.769
▁constant	-10.769
▁offense	-10.769
▁landmark	-10.769
▁mortar	-10.769
▁terminal	-10.769
▁obligation	-10.769
▁nak	-10.7691
▁drill	-10.7691
▁hint	-10.7691
▁colonial	-10.7691
▁reward	-10.7695
▁arabic	-10.7696
▁meat	-10.7698
opec	-10.77
▁ambition	-10.7702
▁mor	-10.7711
▁granted	-10.7711
▁kansa	-10.7717
▁icon	-10.7719
▁fi	-10.7721
▁chole	-10.7726
▁execut	-10.7743
▁cartoon	-10.7745
▁kyu	-10.7747
▁detainees	-10.7749
▁eric	-10.775
▁euros	-10.7756
▁lion	-10.7759
▁spa	-10.7793
▁equit	-10.7809
que	-10.7811
▁stead	-10.7827
▁indicted	-10.7828
east	-10.7832
▁regret	-10.7833
standing	-10.7839
▁distribut	-10.7846
▁pointed	-10.7847
▁apologiz	-10.7852
▁expos	-10.7856
▁iron	-10.7873
▁reduc	-10.7873
▁cheap	-10.7888
▁semifinal	-10.7897
▁deficit	-10.7898
▁precaution	-10.7898
▁relax	-10.7898
▁chapter	-10.7898
▁blanket	-10.7898
▁admission	-10.7898
▁ballistic	-10.7899
▁barbara	-10.7899
▁suspicious	-10.79
▁houston	-10.7901
ron	-10.7903
▁maria	-10.7905
▁turm	-10.7905
▁desire	-10.7913
istan	-10.7925
▁malaysian	-10.7933
drew	-10.7936
▁shara	-10.7936
▁wales	-10.7941
▁bei	-10.7949
▁ron	-10.7949
▁shoulder	-10.7953
uri	-10.796
▁sao	-10.7966
▁flags	-10.7969
▁employment	-10.7981
ov	-10.7981
▁coal	-10.7983
▁hir	-10.7985
▁burst	-10.7988
iro	-10.7998
▁isolat	-10.8
▁discover	-10.8001
▁decisions	-10.8003
▁bang	-10.8004
▁tale	-10.8011
▁capabilit	-10.8016
▁dad	-10.802
▁advisor	-10.8022
▁deliberate	-10.8029
▁dominat	-10.8037
fk	-10.8039
sh	-10.8043
▁habitat	-10.8057
▁ni	-10.806
▁vessels	-10.8069
▁mart	-10.807
eva	-10.807
▁shi	-10.8075
▁gu	-10.8083
▁dry	-10.8085
▁yel	-10.8087
the	-10.81
▁mac	-10.8102
▁confess	-10.8107
▁oklahoma	-10.8111
▁transplant	-10.8111
▁belief	-10.8111
▁migrant	-10.8111
▁expansion	-10.8111
▁salmon	-10.8111
▁tornado	-10.8111
▁pipeline	-10.8112
▁respondent	-10.8113
▁insult	-10.8114
▁priest	-10.8114
▁prominent	-10.8114
▁musician	-10.8119
▁spray	-10.8121
ntao	-10.8121
▁occasion	-10.8124
▁thin	-10.8124
▁follower	-10.8127
▁pole	-10.8129
▁pour	-10.8132
▁locate	-10.8132
▁pun	-10.8132
▁presumpti	-10.8134
▁universal	-10.8136
▁instance	-10.8137
arctic	-10.8141
▁lo	-10.8152
lum	-10.8156
▁welcom	-10.8161
▁dop	-10.8166
▁bars	-10.8172
dc	-10.8188
▁frontier	-10.8191
ors	-10.82
▁strand	-10.8202
▁drawing	-10.8205
▁hasn	-10.8207
▁passport	-10.8217
▁canal	-10.8218
wright	-10.8219
▁principle	-10.822
▁uni	-10.8229
▁cards	-10.823
▁decid	-10.8234
▁stepping	-10.8236
rut	-10.8239
▁cooper	-10.8249
▁demonstrate	-10.8251
▁tay	-10.8252
▁holder	-10.8253
▁inde	-10.8256
▁sin	-10.8257
▁reverse	-10.8259
▁dominate	-10.8263
▁centur	-10.8263
long	-10.8266
▁kath	-10.827
▁berna	-10.8274
precedent	-10.8276
▁tickets	-10.8285
ko	-10.8302
▁woods	-10.8308
ehouse	-10.8312
▁prohibit	-10.8323
▁confront	-10.8324
▁ecuador	-10.8328
▁lewis	-10.8328
▁vitamin	-10.8329
▁ibrahim	-10.8331
▁tragedy	-10.8331
▁urgent	-10.8331
▁medication	-10.8331
▁empty	-10.8334
▁load	-10.8337
fer	-10.8341
▁background	-10.8341
▁loud	-10.8348
tsin	-10.835
▁persuade	-10.8357
▁adam	-10.8374
▁proceedings	-10.8377
▁publication	-10.8379
▁masters	-10.8384
▁ramo	-10.8384
nke	-10.8389
▁escalat	-10.8391
lated	-10.8404
do	-10.8419
▁cooperate	-10.8455
▁circle	-10.8456
▁libert	-10.8461
▁fake	-10.8476
▁oversee	-10.8484
▁theft	-10.8511
▁dealers	-10.8528
▁breed	-10.8535
▁denucleariz	-10.8538
▁grab	-10.8538
▁sight	-10.854
▁blog	-10.8544
▁wrap	-10.8545
▁yemen	-10.8545
▁telecom	-10.8546
▁interpret	-10.8548
▁ch	-10.855
▁consensu	-10.8551
▁disorder	-10.8551
▁evolution	-10.8551
▁extensive	-10.8551
▁telescope	-10.8551
▁evil	-10.8551
▁definite	-10.8551
▁pepper	-10.8551
▁craig	-10.8551
▁instant	-10.8551
▁dissident	-10.8551
kovic	-10.8551
▁unfair	-10.8552
▁idol	-10.8552
▁imagine	-10.8552
▁kanda	-10.8552
iscons	-10.8553
▁tribute	-10.8553
▁uncover	-10.8553
▁guideline	-10.8553
▁dragg	-10.8555
▁chamber	-10.8556
▁sweden	-10.8557
▁hide	-10.8557
▁insurgenc	-10.8557
lets	-10.8558
▁amazon	-10.8559
▁grass	-10.856
▁replacement	-10.8562
ppp	-10.8567
▁exhibit	-10.8569
▁lin	-10.8571
▁pool	-10.8588
▁happening	-10.8592
▁kitt	-10.8595
▁personally	-10.8601
viation	-10.8603
▁characters	-10.8616
ological	-10.8617
▁pm	-10.8627
▁ruler	-10.8634
▁geologic	-10.8644
▁lender	-10.8651
et	-10.8658
▁impo	-10.8658
▁chan	-10.8661
cia	-10.8664
ek	-10.8669
▁secur	-10.8676
▁philippine	-10.8681
line	-10.8695
▁mon	-10.8706
sul	-10.871
▁permissi	-10.8724
▁mountains	-10.8727
▁z	-10.8731
▁thick	-10.8738
▁expire	-10.8742
▁philip	-10.8753
▁diploma	-10.876
▁silence	-10.8764
ucky	-10.877
ison	-10.8771
▁genocid	-10.8778
▁predecessor	-10.8778
▁religion	-10.8778
▁tabloid	-10.8778
▁unexpected	-10.8778
▁bargain	-10.8778
▁extension	-10.8778
▁autonom	-10.8778
▁destination	-10.8778
▁economies	-10.8778
▁entrance	-10.8778
▁overturn	-10.8778
▁consistent	-10.878
▁exclusive	-10.878
▁snake	-10.8781
▁outlook	-10.8782
▁recommendation	-10.8782
ila	-10.8784
▁legitimate	-10.8785
▁creation	-10.8788
▁gerr	-10.8794
ius	-10.8797
▁statue	-10.8798
▁milk	-10.8799
▁ahmad	-10.8803
▁contractor	-10.8807
▁bloom	-10.8812
gt	-10.8817
▁stream	-10.8817
her	-10.8817
▁suggestion	-10.8826
▁endur	-10.884
▁diya	-10.884
▁visibl	-10.8841
▁plent	-10.8854
▁models	-10.8861
▁proceed	-10.8866
▁pan	-10.8867
bama	-10.887
▁primari	-10.8875
▁dropping	-10.8891
▁rodd	-10.8895
▁compare	-10.8895
▁marking	-10.8897
dev	-10.892
▁trace	-10.8925
▁clip	-10.8934
▁rains	-10.8935
▁tower	-10.8939
▁mer	-10.8941
▁vien	-10.8966
▁ker	-10.8969
▁flower	-10.8972
▁transform	-10.8985
▁nin	-10.8988
▁occur	-10.899
▁nigeria	-10.8992
▁teenage	-10.8995
verish	-10.8998
▁oct	-10.9
em	-10.9003
▁exploit	-10.901
▁ambulance	-10.901
▁embarrass	-10.901
▁tissue	-10.901
▁volume	-10.901
▁prosper	-10.901
▁fault	-10.9011
▁jolie	-10.9011
▁suspension	-10.9011
▁steep	-10.9011
▁zawah	-10.9011
▁lord	-10.9011
▁download	-10.9012
▁partnership	-10.9012
▁possession	-10.9013
▁grace	-10.9014
▁bow	-10.9014
▁resistance	-10.9014
▁rebound	-10.9014
▁contribution	-10.9015
▁pardon	-10.9015
▁occupie	-10.9015
▁emirate	-10.9016
▁harr	-10.9016
▁tho	-10.9022
▁jobless	-10.9022
▁gaz	-10.9022
▁crossing	-10.9025
▁grenade	-10.903
▁galaxy	-10.903
ament	-10.9035
▁hye	-10.9039
▁publisher	-10.9042
▁rent	-10.9056
▁sheet	-10.907
▁universit	-10.9098
▁matters	-10.9111
▁nazi	-10.9118
▁riding	-10.9122
▁tomb	-10.9125
me	-10.9132
▁examin	-10.9135
▁brick	-10.9146
▁fred	-10.9151
▁touris	-10.9155
▁abduction	-10.9156
pol	-10.9159
▁automaker	-10.916
▁massacre	-10.9172
▁recording	-10.9173
▁yu	-10.9174
math	-10.918
▁vision	-10.9186
▁pen	-10.9186
▁recognized	-10.9187
▁joy	-10.9189
▁predict	-10.9213
▁manufacturers	-10.9222
li	-10.9223
▁polluti	-10.9232
▁pilgrim	-10.9247
judicial	-10.9248
▁infrastructure	-10.9248
▁judiciar	-10.9248
▁skull	-10.9248
▁unacceptabl	-10.9248
▁videotape	-10.9248
▁vermont	-10.9249
▁maritime	-10.9249
▁registration	-10.9249
▁pyeong	-10.9249
▁katrin	-10.925
▁interrogation	-10.925
▁desperate	-10.925
▁shutdown	-10.925
▁statistical	-10.925
▁burden	-10.9251
▁puert	-10.9252
▁everywhere	-10.9255
▁brigade	-10.9256
▁kyung	-10.9257
▁torre	-10.9262
▁airplane	-10.9263
▁charter	-10.9264
▁confirmation	-10.9271
▁qu	-10.9271
▁dirt	-10.9272
▁melt	-10.9285
arachi	-10.9287
▁harv	-10.9289
ean	-10.9292
▁hwa	-10.9295
▁au	-10.9302
sen	-10.9311
▁taxi	-10.9312
▁factors	-10.932
harto	-10.9321
▁goalkeep	-10.9324
dari	-10.9326
▁broker	-10.9342
ell	-10.9344
▁guan	-10.9347
▁mu	-10.9351
▁principles	-10.9369
▁plays	-10.9387
▁richards	-10.9393
▁endors	-10.9394
▁dismantl	-10.9395
▁knight	-10.9397
▁pleas	-10.9398
tada	-10.9406
▁abuses	-10.9409
▁discount	-10.941
▁button	-10.9413
▁procedure	-10.9414
▁nicole	-10.9423
▁kidnapp	-10.9426
ari	-10.9432
▁hike	-10.9434
▁glas	-10.9434
▁hidd	-10.9452
▁vulnerab	-10.9484
hook	-10.9485
▁analysi	-10.9486
▁chip	-10.9488
▁fundamental	-10.949
refore	-10.9492
▁component	-10.9492
▁marathon	-10.9492
▁taxpayer	-10.9492
▁legislature	-10.9492
▁absence	-10.9492
▁monarch	-10.9492
▁regain	-10.9492
▁afr	-10.9493
▁incredibl	-10.9493
▁chicken	-10.9493
▁archaeologist	-10.9494
▁height	-10.9494
▁endorsement	-10.9496
▁principal	-10.9496
▁steal	-10.9498
▁shake	-10.9499
▁pornograph	-10.9499
▁remarkable	-10.9501
▁walter	-10.9506
▁commuter	-10.9508
min	-10.951
▁afterward	-10.9512
▁ph	-10.9516
▁libyan	-10.9518
▁rivers	-10.9522
▁magic	-10.953
most	-10.9549
▁habit	-10.9556
▁tanker	-10.9561
▁procedures	-10.9576
▁brook	-10.9589
▁mask	-10.9592
▁zoe	-10.9602
▁kun	-10.9606
▁ala	-10.9606
▁violate	-10.962
▁theme	-10.9637
▁covering	-10.9648
▁chase	-10.9661
▁vaccine	-10.9663
cut	-10.9664
▁orchestra	-10.967
▁victoria	-10.9673
▁phil	-10.9673
ova	-10.9682
▁achiev	-10.9688
ware	-10.9693
▁ke	-10.9695
▁chancell	-10.9698
▁inmate	-10.9701
▁der	-10.9702
bow	-10.9713
▁cape	-10.9715
▁launching	-10.9719
omar	-10.9727
pov	-10.9735
▁depart	-10.9739
tic	-10.974
▁classe	-10.9741
▁curfew	-10.9742
▁superior	-10.9742
▁gradual	-10.9742
▁spaniard	-10.9742
▁distress	-10.9742
▁mirror	-10.9743
▁balloon	-10.9743
▁drown	-10.9743
▁wilson	-10.9743
▁honest	-10.9744
▁graham	-10.9745
▁toyota	-10.9745
▁guang	-10.9745
▁combination	-10.9745
▁midfielder	-10.9745
▁pronounce	-10.9745
▁bb	-10.9746
▁unique	-10.9746
▁poison	-10.9747
▁myspace	-10.9747
▁reopen	-10.9747
▁ahmed	-10.9749
▁passage	-10.975
▁landscape	-10.9755
▁statistics	-10.9756
▁mice	-10.9757
▁medic	-10.9758
▁filmmaker	-10.9758
▁nair	-10.9761
▁astronomer	-10.9767
▁partial	-10.9788
▁plea	-10.9796
▁clay	-10.9801
ino	-10.9805
▁rad	-10.9808
▁raped	-10.9823
liberation	-10.9834
▁turns	-10.9835
▁lunch	-10.9836
obi	-10.9843
▁headline	-10.9859
phy	-10.9868
ioxid	-10.9873
not	-10.9893
indi	-10.9895
▁christ	-10.9901
▁rob	-10.9908
▁roma	-10.991
▁remark	-10.991
▁contribut	-10.9914
kara	-10.9921
▁sec	-10.9926
▁unna	-10.9928
▁infection	-10.9931
cheon	-10.9932
▁opponent	-10.9932
▁emerg	-10.9939
▁univers	-10.9947
▁repeat	-10.9947
▁ju	-10.9961
teen	-10.9963
▁victor	-10.9976
som	-10.9982
▁sp	-10.9985
▁parade	-10.9987
med	-10.9987
▁branch	-10.9988
▁cart	-10.9989
▁indefinite	-10.9999
▁volatil	-10.9999
▁enormous	-10.9999
▁composite	-10.9999
▁gunshot	-10.9999
▁prestig	-10.9999
▁biologist	-11
▁descend	-11.0001
▁prolong	-11.0001
▁expell	-11.0002
der	-11.0002
▁master	-11.0003
▁plunge	-11.0003
▁guild	-11.0003
▁iphone	-11.0004
▁pig	-11.0004
▁distribution	-11.0007
▁gesture	-11.001
▁coverage	-11.001
▁closure	-11.001
▁brian	-11.001
▁revis	-11.0015
▁burial	-11.0017
▁finger	-11.0019
▁mrs	-11.002
▁kaes	-11.0024
▁fare	-11.0026
▁refusal	-11.003
anamo	-11.0032
▁theory	-11.0054
▁clue	-11.0054
col	-11.0058
▁determin	-11.0065
▁te	-11.0068
▁hiding	-11.0076
▁bacteria	-11.0078
▁shap	-11.0089
▁killer	-11.0098
▁tent	-11.0099
▁nurse	-11.0101
▁dismantle	-11.0102
▁mir	-11.0114
▁deals	-11.0135
▁thus	-11.0139
▁ram	-11.0146
▁christians	-11.0155
tarian	-11.0157
▁forget	-11.0166
▁skills	-11.017
▁rigg	-11.0178
▁mere	-11.0195
▁clo	-11.0201
▁activist	-11.0205
▁harris	-11.021
oding	-11.0219
▁mistakes	-11.0228
▁amaz	-11.0229
▁craft	-11.0229
▁em	-11.0235
▁uganda	-11.0242
▁fatalit	-11.0248
sburg	-11.026
▁jets	-11.0262
▁counterfeit	-11.0262
▁encouraging	-11.0262
▁oxygen	-11.0262
▁surprising	-11.0262
▁dolphin	-11.0262
▁thirty	-11.0262
▁oregon	-11.0262
▁escort	-11.0262
▁campbell	-11.0262
▁prophet	-11.0262
▁optimistic	-11.0262
▁unanimous	-11.0262
▁teeth	-11.0262
▁mutual	-11.0263
▁mercur	-11.0263
▁slip	-11.0264
onna	-11.0264
▁examination	-11.0265
▁audio	-11.0265
▁pitts	-11.0266
remlin	-11.0266
▁gender	-11.0266
▁bahama	-11.0267
▁comply	-11.0267
▁romantic	-11.0267
▁guess	-11.0268
▁engagement	-11.0269
▁accidental	-11.0273
▁miller	-11.0275
▁subway	-11.0276
▁smart	-11.0277
▁joke	-11.0277
▁selection	-11.0279
▁sink	-11.028
▁publicist	-11.0281
▁alan	-11.0286
▁decrease	-11.0287
▁deepen	-11.0292
▁serbian	-11.0298
▁embrace	-11.0299
▁minne	-11.0304
▁wav	-11.0307
▁refuge	-11.0308
▁dallas	-11.0311
inho	-11.0311
▁preserve	-11.0321
▁challeng	-11.0324
▁ya	-11.0334
▁suk	-11.0337
iest	-11.0337
▁penn	-11.034
orry	-11.0347
▁belgi	-11.0348
▁cats	-11.035
▁update	-11.0358
▁eggs	-11.036
ou	-11.0363
▁comfortabl	-11.0364
ad	-11.0368
▁fift	-11.0369
▁endorse	-11.0376
▁jay	-11.0376
▁bears	-11.039
▁fence	-11.0403
ington	-11.0421
▁sevill	-11.0424
▁burm	-11.0425
▁venture	-11.0457
▁hanging	-11.0462
latter	-11.0462
▁matt	-11.0464
▁swor	-11.0473
▁mud	-11.0478
▁volunteer	-11.0479
vili	-11.0482
▁wash	-11.0483
▁argument	-11.0486
▁dy	-11.0486
▁troubl	-11.0492
▁sept	-11.0493
▁rev	-11.0494
▁danc	-11.0494
mond	-11.0495
ugher	-11.05
space	-11.0506
▁usa	-11.0511
▁permit	-11.0515
▁adjust	-11.0529
▁widen	-11.053
▁benjamin	-11.0532
▁citigroup	-11.0532
▁incumbent	-11.0532
▁shrink	-11.0532
▁cautious	-11.0532
▁coincide	-11.0532
▁beautiful	-11.0532
▁retreat	-11.0532
▁intervention	-11.0532
▁harbor	-11.0532
▁elevator	-11.0533
▁twel	-11.0533
▁deadlock	-11.0533
▁reconstruction	-11.0533
▁excessive	-11.0533
▁talent	-11.0533
▁probation	-11.0533
▁ibm	-11.0533
▁acid	-11.0534
▁yield	-11.0534
▁installation	-11.0534
▁manipulation	-11.0535
olla	-11.0535
▁proliferat	-11.0537
▁captor	-11.0537
▁albanian	-11.0538
ribe	-11.054
▁castle	-11.0541
▁ferg	-11.0544
▁attribut	-11.0545
▁geu	-11.0551
ago	-11.0556
▁cheong	-11.056
ebay	-11.0564
▁prov	-11.0566
▁inspire	-11.0568
▁prais	-11.0569
▁luis	-11.0569
ral	-11.0578
▁hud	-11.0593
▁mood	-11.0597
won	-11.0598
▁signing	-11.0601
▁elaborate	-11.0605
▁reviv	-11.0608
rry	-11.0614
▁armor	-11.0615
▁ag	-11.0616
▁scrap	-11.063
▁micro	-11.0636
if	-11.0649
▁forecaster	-11.0653
dong	-11.0663
egger	-11.0664
overt	-11.0667
▁hol	-11.0671
▁prostitute	-11.0681
ked	-11.0683
▁hostil	-11.0689
▁jewel	-11.0696
▁displac	-11.0696
nell	-11.0715
▁contenders	-11.0717
▁plac	-11.072
▁radi	-11.0726
▁hindu	-11.0732
stone	-11.0737
▁arrang	-11.0737
▁ranch	-11.0752
▁racial	-11.0752
▁minds	-11.0756
▁tip	-11.0758
▁admit	-11.0759
prime	-11.0759
ishu	-11.0766
▁swing	-11.0768
▁alli	-11.0769
▁diseases	-11.0769
▁intervene	-11.0775
awat	-11.0779
elite	-11.0781
sley	-11.0783
▁reiterat	-11.0788
▁sect	-11.0788
▁cambodia	-11.0791
▁portray	-11.0803
▁comprehensive	-11.081
▁crocodile	-11.081
▁episode	-11.081
▁expense	-11.081
▁schwarz	-11.081
▁dakota	-11.081
▁dinosaur	-11.081
▁aspect	-11.081
▁bolster	-11.081
▁eligib	-11.081
▁casino	-11.081
▁unpopular	-11.081
▁reputation	-11.081
▁rhetoric	-11.0811
▁abolish	-11.0811
▁basket	-11.0811
▁pirac	-11.0811
▁kidney	-11.0812
▁classroom	-11.0812
▁moga	-11.0813
mo	-11.0814
▁defector	-11.0816
▁disruption	-11.0818
▁objective	-11.0819
▁eas	-11.0823
▁ear	-11.0823
▁silver	-11.0823
▁grabb	-11.0826
▁spur	-11.083
▁attraction	-11.083
▁juan	-11.0833
▁yourself	-11.0839
▁manner	-11.0842
▁bhut	-11.0849
wine	-11.0855
▁academic	-11.0859
▁reserved	-11.0866
▁fisher	-11.0871
▁nov	-11.0874
▁bold	-11.0877
▁panic	-11.088
ably	-11.0889
▁noon	-11.089
band	-11.0892
▁opposit	-11.0895
▁taste	-11.0898
▁posts	-11.0899
▁indict	-11.0907
▁examine	-11.0917
▁defender	-11.0918
▁complicat	-11.0924
▁nose	-11.0938
▁cult	-11.0941
ev	-11.0948
▁bur	-11.095
▁argentine	-11.0955
athrow	-11.0965
▁ideal	-11.0971
ullah	-11.0984
▁deposit	-11.0998
▁fe	-11.0999
il	-11.1013
▁defin	-11.1025
▁billionaire	-11.1045
person	-11.1046
▁twist	-11.1052
▁atlant	-11.1059
sky	-11.1061
going	-11.1063
▁tactic	-11.1065
▁shah	-11.1069
▁populat	-11.1073
▁deteriorat	-11.1077
▁sha	-11.1081
went	-11.1084
▁connecti	-11.1089
prom	-11.109
▁asteroid	-11.1096
▁greenpeace	-11.1096
▁crocker	-11.1096
▁motorcycle	-11.1096
▁eager	-11.1096
▁ultra	-11.1096
▁slogan	-11.1096
▁animated	-11.1096
▁loot	-11.1096
▁approximate	-11.1096
▁motive	-11.1096
▁surf	-11.1096
▁mammal	-11.1097
▁strategist	-11.1097
▁borrow	-11.1097
▁ratings	-11.1097
▁madoff	-11.1098
▁rampage	-11.1098
ronto	-11.1098
▁extinction	-11.1099
▁revision	-11.1101
▁serge	-11.1101
▁fertil	-11.1102
▁explode	-11.1103
com	-11.1103
▁circulat	-11.1104
▁ignore	-11.1106
▁freez	-11.1106
mpson	-11.1107
▁ku	-11.1107
▁ivor	-11.1111
▁recycl	-11.1114
▁financ	-11.1115
▁requirement	-11.1115
▁observation	-11.1119
▁linds	-11.112
▁consum	-11.1126
▁tries	-11.1126
▁automatic	-11.1127
▁posting	-11.1135
▁aig	-11.1137
▁nikk	-11.1139
▁ac	-11.1145
▁amy	-11.1155
▁teaching	-11.1158
ade	-11.1159
▁publish	-11.116
nt	-11.1165
▁mp	-11.1171
▁personalit	-11.1185
▁ads	-11.119
▁challenger	-11.1205
▁chat	-11.1213
ka	-11.1227
ampa	-11.1253
▁rocky	-11.1255
mura	-11.1262
▁therap	-11.1272
lie	-11.1279
▁installed	-11.128
▁br	-11.1283
▁mc	-11.1289
▁scrambl	-11.129
▁eliminat	-11.1297
tt	-11.1299
port	-11.1301
fire	-11.1309
▁rid	-11.1312
▁ripp	-11.1322
▁wu	-11.1323
stream	-11.1337
fall	-11.1338
▁presum	-11.1345
▁gift	-11.1359
▁application	-11.1361
▁opt	-11.1371
rmed	-11.1372
tified	-11.1374
front	-11.1374
▁user	-11.1378
▁antarctic	-11.138
fish	-11.1387
▁spectac	-11.1388
▁equivalent	-11.139
▁instrument	-11.139
▁revenge	-11.139
▁denmark	-11.139
▁incentive	-11.139
▁wrongdoing	-11.139
▁crunch	-11.139
▁administrator	-11.139
▁carpet	-11.139
▁strait	-11.139
▁epicenter	-11.139
▁cardinal	-11.139
▁bedroom	-11.139
▁saint	-11.139
droe	-11.1391
▁pension	-11.1391
▁tripoli	-11.1391
▁outdoor	-11.1391
▁zap	-11.1392
▁foster	-11.1392
▁assess	-11.1392
sterol	-11.1392
▁legislator	-11.1392
▁bernard	-11.1394
oprah	-11.1394
▁detective	-11.1395
▁survival	-11.1395
▁divert	-11.1397
▁bruce	-11.1398
▁utilit	-11.1399
▁pollut	-11.14
pa	-11.14
▁pride	-11.1401
▁ethiopian	-11.1401
▁alien	-11.1401
▁anybody	-11.1403
▁shak	-11.1405
▁objection	-11.141
▁useful	-11.1418
▁tea	-11.1421
▁slaughter	-11.1422
ook	-11.1424
▁brave	-11.1425
▁boxes	-11.1429
▁atlanti	-11.1438
▁marry	-11.1439
▁purchas	-11.1441
▁agreements	-11.1441
▁limb	-11.1441
▁mas	-11.1442
▁assured	-11.1443
nba	-11.1446
my	-11.1447
▁pure	-11.146
▁shouted	-11.1463
▁rawal	-11.1467
▁coin	-11.1468
▁smil	-11.1481
▁allen	-11.1483
▁slide	-11.1487
▁eliminate	-11.149
▁laser	-11.1492
▁assume	-11.1494
▁install	-11.1496
▁expanding	-11.1498
▁designat	-11.1541
▁cole	-11.1543
▁enable	-11.155
▁nationalist	-11.1551
▁hate	-11.1556
▁tighten	-11.1565
▁parker	-11.1566
▁patriot	-11.1574
▁starts	-11.1587
▁rash	-11.1597
cher	-11.1617
▁tai	-11.1617
▁sat	-11.1624
q	-11.1626
▁happens	-11.1629
skirt	-11.1639
piece	-11.1642
bo	-11.1644
▁wo	-11.1646
▁springs	-11.1652
ward	-11.1659
ood	-11.1668
yodo	-11.1668
▁remind	-11.1669
▁dun	-11.1669
▁accompani	-11.167
▁sympath	-11.167
▁tae	-11.1676
▁musa	-11.168
die	-11.1681
▁cyber	-11.1684
▁tears	-11.1684
▁advise	-11.1685
▁exam	-11.1689
▁hire	-11.1689
▁disagree	-11.169
▁adapt	-11.1691
ura	-11.1692
▁accompany	-11.1693
▁sprawl	-11.1693
▁imminent	-11.1693
▁overhaul	-11.1693
▁pyramid	-11.1693
▁subsequent	-11.1693
▁incursion	-11.1693
▁anthem	-11.1693
▁breakfast	-11.1693
▁boast	-11.1693
▁confine	-11.1693
▁anonymous	-11.1694
▁random	-11.1694
▁hamper	-11.1694
▁ash	-11.1694
▁broadway	-11.1695
▁jenni	-11.1695
▁candidacy	-11.1696
▁assertion	-11.1698
pec	-11.1701
residential	-11.1704
▁pregnancy	-11.1704
▁eruption	-11.1706
▁ambitio	-11.1706
▁branches	-11.1707
horta	-11.1709
▁rada	-11.1712
▁empir	-11.1713
▁defect	-11.1713
▁hometown	-11.1715
▁yasu	-11.1722
▁applications	-11.1723
▁provider	-11.1724
▁phenomen	-11.1726
▁intent	-11.173
▁shooter	-11.1732
▁leap	-11.1743
▁ri	-11.1744
▁lucky	-11.1752
▁lane	-11.1773
▁experienc	-11.1793
ible	-11.1798
▁patroll	-11.18
▁automakers	-11.1807
▁lesson	-11.181
▁tap	-11.1812
▁winf	-11.1814
▁advocate	-11.1823
wear	-11.183
au	-11.1848
▁opera	-11.1852
awi	-11.1852
▁fl	-11.1854
▁donations	-11.1856
▁menu	-11.1857
▁interviewed	-11.1865
▁stalin	-11.187
▁slum	-11.1871
▁bind	-11.1875
▁hack	-11.1884
ul	-11.1887
▁ab	-11.1904
▁advanc	-11.1931
right	-11.1931
tra	-11.194
mann	-11.1945
he	-11.1957
ega	-11.1962
▁retire	-11.1963
▁pus	-11.1968
▁cri	-11.1973
allah	-11.1979
▁worri	-11.1979
▁tr	-11.1984
▁prefer	-11.1987
▁surg	-11.1992
▁digit	-11.1994
▁hip	-11.1994
▁haiti	-11.1994
ves	-11.1996
▁rove	-11.1998
▁buzz	-11.1998
ee	-11.1999
▁depict	-11.2001
▁automobile	-11.2005
▁caribbean	-11.2005
▁explanation	-11.2005
▁invitation	-11.2005
▁mammoth	-11.2005
▁pichushkin	-11.2005
▁tragic	-11.2005
▁travolta	-11.2005
▁unsuccessful	-11.2005
▁thorough	-11.2005
▁mini	-11.2005
▁fingerprint	-11.2005
▁depth	-11.2005
▁tumor	-11.2005
▁nixon	-11.2005
▁crater	-11.2005
▁diabet	-11.2006
▁textbook	-11.2006
▁website	-11.2006
▁expedition	-11.2006
▁physician	-11.2006
▁restart	-11.2006
▁echo	-11.2006
▁stronghold	-11.2006
▁facebook	-11.2006
▁graphic	-11.2006
▁implication	-11.2007
akash	-11.2007
▁tribunal	-11.2008
▁haul	-11.2008
▁spell	-11.201
▁hydro	-11.201
▁blitz	-11.201
▁merger	-11.2011
▁gibbon	-11.2011
▁combine	-11.2013
▁consultation	-11.2013
▁autops	-11.2013
▁achievement	-11.2013
zhei	-11.2017
nold	-11.2019
lmand	-11.202
▁wayne	-11.202
▁operative	-11.2022
▁symptoms	-11.2022
▁mumm	-11.2025
▁lifetime	-11.2026
▁drunk	-11.203
▁denial	-11.2037
mao	-11.2039
▁smuggling	-11.204
▁surgeon	-11.2042
tti	-11.2046
▁petrole	-11.2047
▁consideration	-11.2048
▁intensifie	-11.2048
▁shouting	-11.2061
care	-11.2064
cal	-11.2068
room	-11.2069
▁shia	-11.2073
▁generat	-11.2076
▁fisc	-11.2076
▁battles	-11.2079
▁electrical	-11.2079
try	-11.2082
▁supplier	-11.2088
▁explained	-11.2089
▁topic	-11.2091
ver	-11.21
▁shim	-11.211
▁amin	-11.211
▁tala	-11.2118
▁deck	-11.2122
▁sacrifice	-11.2126
▁bonds	-11.213
ubble	-11.2142
▁hearts	-11.2155
▁bath	-11.216
▁smile	-11.2164
▁luc	-11.217
▁exporter	-11.2171
▁developer	-11.2173
▁grade	-11.2178
▁slim	-11.2182
rotti	-11.2183
▁returns	-11.2185
cef	-11.2186
▁surpass	-11.2202
how	-11.2205
▁communicate	-11.2212
▁appli	-11.2219
▁pri	-11.2221
▁stopp	-11.2227
▁bae	-11.2227
▁om	-11.2235
bourne	-11.2239
▁stones	-11.2244
world	-11.2246
mouth	-11.2247
▁sail	-11.2251
▁stewar	-11.2257
▁spare	-11.2261
▁evacuate	-11.2261
▁briton	-11.2263
▁till	-11.2269
▁dedicat	-11.2272
tage	-11.2276
▁sum	-11.2283
▁households	-11.2286
▁designate	-11.2287
▁provision	-11.2289
▁cathedral	-11.2289
▁fif	-11.2291
raul	-11.2301
▁canne	-11.2303
▁endeavo	-11.2311
▁hui	-11.2321
▁extinct	-11.2324
▁triumph	-11.2327
▁automotive	-11.2328
▁fossil	-11.2328
▁margaret	-11.2328
▁norwegian	-11.2328
▁shepherd	-11.2328
▁aquarium	-11.2328
▁swallow	-11.2328
▁blind	-11.2328
▁silent	-11.2328
▁throat	-11.2328
▁tentative	-11.2328
▁lynch	-11.2328
▁bathroom	-11.2328
▁copyright	-11.2328
▁steam	-11.2328
▁kofi	-11.2329
▁pursuit	-11.2329
▁citizenship	-11.233
▁pact	-11.2331
▁quell	-11.2331
▁painful	-11.2331
▁equipp	-11.2332
▁jeong	-11.2333
children	-11.2334
▁outpost	-11.2334
▁reluctant	-11.2335
▁bryan	-11.2335
▁restructur	-11.2335
▁warehouse	-11.2337
▁belgian	-11.234
▁practical	-11.2346
▁jean	-11.2349
▁falluja	-11.235
▁mitt	-11.2352
▁favorable	-11.2353
▁mccart	-11.2354
▁cristian	-11.2355
▁belonging	-11.2358
▁alter	-11.2358
▁sack	-11.2359
ida	-11.2361
▁asset	-11.2364
▁hun	-11.2365
▁pad	-11.2368
▁archive	-11.2375
▁soul	-11.2378
▁luna	-11.238
▁pf	-11.2381
ho	-11.2385
▁oust	-11.2387
▁strange	-11.239
ture	-11.2391
▁ward	-11.2392
▁arguments	-11.2394
▁screening	-11.2396
▁passes	-11.2401
▁jam	-11.2411
ster	-11.2412
▁rider	-11.2427
▁joon	-11.243
▁kell	-11.2433
abao	-11.2441
▁beside	-11.2451
▁stabilize	-11.246
▁formula	-11.2463
lando	-11.2489
▁guid	-11.2493
wai	-11.2496
▁rings	-11.2503
▁gwan	-11.2504
▁advis	-11.2513
▁anna	-11.2515
tanbu	-11.253
▁acquire	-11.2542
▁lance	-11.2557
▁captives	-11.2557
bar	-11.2557
war	-11.256
hou	-11.2565
▁biolog	-11.2569
bani	-11.2572
▁investments	-11.2573
▁caps	-11.2575
tuck	-11.2576
▁proto	-11.2582
fected	-11.2583
▁clos	-11.2591
▁anim	-11.2608
▁emi	-11.2609
▁shutt	-11.261
▁ethic	-11.2613
aro	-11.2614
▁coat	-11.2622
▁mandate	-11.2623
▁aging	-11.2632
▁hi	-11.2632
▁gus	-11.2641
▁thrill	-11.2647
▁refer	-11.2648
▁audit	-11.2655
▁recogni	-11.2659
▁psycholog	-11.266
our	-11.2661
▁artificial	-11.2661
▁epidemic	-11.2661
▁okinawa	-11.2661
▁sophisticat	-11.2661
▁surplus	-11.2661
▁verify	-11.2661
▁homosexual	-11.2661
▁ceiling	-11.2661
▁mitchell	-11.2661
▁hazard	-11.2661
▁mercedes	-11.2661
▁prescription	-11.2661
▁judgment	-11.2662
▁scatter	-11.2662
▁samarra	-11.2662
▁layoff	-11.2663
▁polish	-11.2665
▁disagreement	-11.2665
▁tayyi	-11.2666
▁retirement	-11.2667
▁shopper	-11.2668
▁brush	-11.2669
▁desk	-11.2669
▁rita	-11.2671
▁legac	-11.2675
▁modest	-11.2675
▁sway	-11.2675
▁monkey	-11.2675
▁wheat	-11.2677
▁edward	-11.2677
▁horse	-11.2678
lisa	-11.2679
▁arti	-11.2682
▁fujimo	-11.2683
▁purported	-11.2684
▁assert	-11.2686
like	-11.2687
▁sideline	-11.2697
▁supervisor	-11.2698
▁conscious	-11.2699
▁donor	-11.2699
rbil	-11.2699
▁beatles	-11.2702
▁sued	-11.2702
▁resum	-11.2705
▁soft	-11.2706
ke	-11.2711
▁yan	-11.2711
gen	-11.2711
▁expression	-11.2713
▁cla	-11.2713
▁agenc	-11.2715
▁embezzle	-11.2715
▁keen	-11.2716
▁tips	-11.272
▁tropic	-11.2724
ello	-11.2727
▁projection	-11.2734
▁measur	-11.2736
▁shattered	-11.2737
▁plott	-11.2742
▁disabl	-11.2746
▁nur	-11.2749
▁rating	-11.275
▁subsidiar	-11.2751
▁cm	-11.2758
llery	-11.2763
cious	-11.2764
▁bever	-11.2768
▁lit	-11.2771
apped	-11.2771
▁lov	-11.2773
▁scare	-11.2789
▁caucus	-11.2791
kat	-11.2794
nic	-11.2795
▁immun	-11.2819
can	-11.2821
▁med	-11.2823
▁punch	-11.2826
▁matsu	-11.2831
▁format	-11.2831
▁pipe	-11.2832
▁kwang	-11.2835
▁stamp	-11.2837
▁cook	-11.284
attle	-11.2845
▁nud	-11.2845
hn	-11.2846
erald	-11.2861
rich	-11.2869
station	-11.287
▁congratulat	-11.2873
mon	-11.288
▁rely	-11.2883
▁knowing	-11.2895
▁lure	-11.2898
erial	-11.2898
▁ethan	-11.2912
▁dies	-11.2923
▁dar	-11.2926
▁discriminat	-11.2937
til	-11.2941
▁rahm	-11.2944
▁transit	-11.2949
munition	-11.2953
teria	-11.2963
▁chos	-11.2978
▁stripp	-11.2981
▁visual	-11.2981
▁widow	-11.2984
▁jer	-11.2994
▁kidnap	-11.2995
▁jihad	-11.2996
▁productiv	-11.2998
▁fernand	-11.2998
▁scream	-11.3004
▁addict	-11.3005
▁vigil	-11.3005
▁disturb	-11.3006
▁fisherm	-11.3006
elecommunication	-11.3006
▁aborigin	-11.3006
▁consortium	-11.3006
▁crystal	-11.3006
▁nervous	-11.3006
▁obstacle	-11.3006
▁substitute	-11.3006
▁sierra	-11.3006
▁convey	-11.3006
▁bishop	-11.3006
▁consent	-11.3006
▁conceal	-11.3006
▁grandfather	-11.3006
▁epic	-11.3007
▁nfl	-11.3007
▁dignity	-11.3007
▁nelson	-11.3007
▁uprising	-11.3008
▁fahr	-11.3008
▁humor	-11.3009
▁croatia	-11.3011
▁hormone	-11.3012
▁fernando	-11.3014
▁creative	-11.3014
▁susan	-11.3014
▁atrocit	-11.3015
▁lieutenant	-11.3018
▁wazir	-11.3018
▁enhance	-11.3018
▁heighten	-11.302
▁impression	-11.3021
▁steer	-11.3021
▁setback	-11.3022
quba	-11.3022
▁manipulat	-11.3022
▁ferry	-11.3023
▁sank	-11.3026
▁presentation	-11.3027
▁nick	-11.3029
▁removal	-11.303
▁guin	-11.3031
▁sprint	-11.3039
▁treasure	-11.3039
▁pastor	-11.3043
▁dance	-11.3044
▁linda	-11.3045
▁austrian	-11.3045
▁bron	-11.3046
lo	-11.305
▁grounds	-11.3052
▁arena	-11.3056
away	-11.3057
▁marie	-11.3061
▁ethical	-11.3068
▁dave	-11.307
▁ramp	-11.307
▁symbolic	-11.3073
▁ken	-11.3076
▁wang	-11.3077
▁territories	-11.3082
▁futures	-11.3083
▁antibiotics	-11.3084
some	-11.3086
▁stunning	-11.309
▁arrange	-11.3094
▁bon	-11.3098
▁matte	-11.3107
▁dense	-11.3107
▁gangs	-11.3109
▁informal	-11.3127
ck	-11.3128
▁hijack	-11.3132
▁sav	-11.3144
russel	-11.3157
▁balti	-11.3158
hip	-11.3169
▁mega	-11.3172
▁tumbl	-11.3174
ir	-11.3181
▁ak	-11.32
arade	-11.3204
air	-11.3206
▁disarm	-11.3217
▁farms	-11.3219
▁exceed	-11.3221
▁folks	-11.3228
enhei	-11.3229
ich	-11.323
▁tin	-11.3237
▁inspect	-11.3239
▁slid	-11.325
▁feeding	-11.3264
▁lope	-11.3265
▁spots	-11.3267
▁geit	-11.3277
▁antho	-11.3289
dom	-11.3291
▁preserv	-11.3296
gan	-11.3297
▁optimis	-11.3297
bank	-11.3305
▁captiv	-11.3308
hasa	-11.3311
▁coll	-11.3311
jiang	-11.3312
▁skeptic	-11.3315
stock	-11.332
▁cor	-11.3336
▁loose	-11.3345
bu	-11.3347
via	-11.335
▁deserve	-11.3351
▁swap	-11.3355
▁gil	-11.3363
▁applicant	-11.3363
▁condolence	-11.3363
▁discharge	-11.3363
▁paparazz	-11.3363
▁pioneer	-11.3363
▁pistol	-11.3363
▁plummet	-11.3363
▁reaffirm	-11.3363
▁douglas	-11.3363
▁brothel	-11.3363
▁ankle	-11.3363
▁throne	-11.3363
▁mystery	-11.3363
▁railroad	-11.3363
▁mcdonald	-11.3364
▁predominant	-11.3364
▁evaluation	-11.3364
▁deutsch	-11.3364
▁propagand	-11.3364
▁impass	-11.3365
▁niger	-11.3365
▁laureate	-11.3365
▁glori	-11.3366
▁conglomerate	-11.3366
▁knife	-11.3366
▁ownership	-11.3366
▁phillip	-11.3368
▁trash	-11.3368
▁arson	-11.3369
▁aggression	-11.337
▁aziz	-11.337
▁happiness	-11.337
▁oak	-11.3372
ja	-11.3372
▁prefecture	-11.3373
▁jiang	-11.3374
▁scrapp	-11.3375
kdo	-11.3375
▁transparent	-11.3378
▁cheaper	-11.3381
▁outlaw	-11.3383
▁rick	-11.3384
▁pink	-11.3384
▁greenland	-11.3384
▁java	-11.3386
▁cambodian	-11.3387
viel	-11.3388
▁bel	-11.3388
▁shame	-11.3388
▁rover	-11.3388
▁inventor	-11.339
▁passion	-11.339
▁wy	-11.3391
▁reasonable	-11.3393
▁nigerian	-11.3393
▁stemm	-11.3393
▁massage	-11.3397
▁pants	-11.3398
▁drought	-11.34
lene	-11.3401
ider	-11.3405
aska	-11.3405
▁jacque	-11.3413
▁lu	-11.3425
▁marc	-11.3426
▁surveys	-11.3433
▁christi	-11.3437
▁mines	-11.3442
manuel	-11.3442
▁cage	-11.3446
▁swed	-11.3446
▁hits	-11.3448
▁contra	-11.3454
▁rak	-11.3482
works	-11.3483
▁postpone	-11.3488
nebr	-11.3492
▁inner	-11.3493
▁mild	-11.3496
▁tu	-11.35
cantil	-11.3508
wa	-11.3517
▁meals	-11.3518
titude	-11.3518
penh	-11.352
▁bok	-11.3534
▁easter	-11.3534
▁unemploy	-11.3534
▁anne	-11.3534
▁jaz	-11.3553
▁sponsors	-11.3557
▁johnsto	-11.3568
ego	-11.357
▁reli	-11.3574
▁cub	-11.3587
▁cop	-11.3588
llo	-11.361
▁kiss	-11.3613
ya	-11.3617
▁mill	-11.3618
▁hassan	-11.3622
hy	-11.3624
▁roots	-11.3652
▁truc	-11.367
▁propell	-11.3693
▁tenn	-11.3695
▁instruct	-11.3701
▁arth	-11.3704
▁tut	-11.3708
▁injure	-11.3712
ran	-11.3715
ail	-11.3719
iness	-11.3722
▁flick	-11.3722
▁pal	-11.3726
▁donors	-11.3726
▁mode	-11.3726
▁columb	-11.3729
nati	-11.373
▁possess	-11.373
▁historian	-11.3734
▁jirga	-11.3734
▁junior	-11.3734
▁refrain	-11.3734
▁simultaneous	-11.3734
▁starbuck	-11.3734
▁catastroph	-11.3734
▁script	-11.3734
▁domain	-11.3734
▁oath	-11.3734
▁sibling	-11.3734
▁grim	-11.3734
▁lodge	-11.3734
▁yankee	-11.3734
▁decree	-11.3734
▁johannes	-11.3734
▁breast	-11.3734
▁ftse	-11.3735
▁intensive	-11.3735
▁pocket	-11.3735
▁circuit	-11.3735
▁thwart	-11.3735
▁bosnia	-11.3735
▁mastermind	-11.3735
▁servant	-11.3735
gow	-11.3735
▁respirator	-11.3736
▁faithful	-11.3736
▁milestone	-11.3736
▁editorial	-11.3736
▁mediator	-11.3736
▁cinc	-11.3736
▁transmission	-11.3737
▁constitute	-11.3737
▁lenno	-11.3737
▁holland	-11.3737
▁dementi	-11.3738
▁assign	-11.3738
▁logistic	-11.3738
▁trademark	-11.3738
▁elb	-11.3738
▁dug	-11.3739
▁weakness	-11.3739
▁exhibition	-11.374
▁poul	-11.374
▁flaw	-11.3741
▁segment	-11.3741
▁slush	-11.3742
▁minus	-11.3743
▁stud	-11.3743
uk	-11.3744
▁restraint	-11.3745
▁bride	-11.3746
▁files	-11.3747
▁antarctica	-11.3747
tearn	-11.3752
ssett	-11.3753
▁comb	-11.3753
▁carmaker	-11.3754
▁mob	-11.3759
▁drum	-11.3762
dale	-11.3765
▁scenario	-11.3767
▁patien	-11.3772
▁formation	-11.3774
▁annually	-11.3793
▁raw	-11.3799
▁spitz	-11.3801
▁shelves	-11.3806
▁popp	-11.3806
▁genes	-11.381
▁ranger	-11.3813
nshine	-11.3819
▁grat	-11.3824
▁rig	-11.3824
▁manufacturer	-11.3826
▁premiere	-11.3829
▁chess	-11.3846
▁arts	-11.385
▁aero	-11.386
▁sk	-11.3869
▁surviv	-11.3875
eta	-11.3878
rell	-11.3889
ola	-11.3891
oo	-11.3891
let	-11.3892
▁carl	-11.3911
▁filing	-11.3911
▁pin	-11.3913
▁lev	-11.3914
▁gambl	-11.3914
▁outline	-11.3915
▁hosts	-11.3924
▁observe	-11.3927
▁ugl	-11.393
intend	-11.3955
▁infiltrat	-11.3955
▁fines	-11.3961
▁relevan	-11.3964
lateral	-11.3965
▁sighting	-11.3968
shire	-11.3973
▁roy	-11.3977
▁neil	-11.3977
▁lotte	-11.3978
▁shipments	-11.3987
▁impos	-11.3988
▁harve	-11.4
▁tribes	-11.4002
tten	-11.4005
▁wat	-11.4012
▁op	-11.4035
nga	-11.404
waz	-11.4041
suf	-11.405
furt	-11.4055
▁intens	-11.4056
disclos	-11.4057
▁retaliati	-11.4058
▁sooner	-11.4061
▁smooth	-11.4062
enos	-11.4076
kansa	-11.4079
▁disperse	-11.4079
▁swim	-11.408
▁kam	-11.4084
ita	-11.4089
▁choos	-11.4099
▁transparen	-11.4102
▁construct	-11.4108
▁intercept	-11.4111
caust	-11.4115
▁guitar	-11.4117
▁brilliant	-11.4118
▁peanut	-11.4118
▁acquisition	-11.4118
▁kazakhstan	-11.4118
▁kuznetsov	-11.4118
▁rhode	-11.4118
▁cousin	-11.4118
▁memories	-11.4118
▁premium	-11.4118
▁nightclub	-11.4118
▁consist	-11.4118
▁curious	-11.4118
▁nerve	-11.4119
▁monster	-11.4119
▁parole	-11.4119
▁downturn	-11.4119
▁smell	-11.4119
▁shadow	-11.4119
▁transcript	-11.412
▁psychologist	-11.412
▁libby	-11.412
▁pageant	-11.4121
▁decisive	-11.4121
▁cairo	-11.4121
▁awake	-11.4122
▁rehabilitati	-11.4123
▁attractive	-11.4123
▁robotic	-11.4123
▁leonard	-11.4123
▁terrible	-11.4123
▁isolation	-11.4124
▁bench	-11.4124
▁terr	-11.4124
▁martyr	-11.4124
▁hammer	-11.4125
arian	-11.4126
▁knut	-11.4127
▁contestant	-11.4129
▁progressive	-11.413
▁kwon	-11.4132
vacu	-11.4134
▁hank	-11.4135
▁representation	-11.4136
▁indoor	-11.4137
▁moneta	-11.4139
▁rath	-11.414
▁ub	-11.4143
▁romance	-11.4144
▁gravit	-11.4144
▁zan	-11.4145
▁couch	-11.4152
ustin	-11.4154
dium	-11.4157
▁ourselves	-11.416
xvi	-11.4161
▁pile	-11.4166
▁programm	-11.4168
ged	-11.4178
▁exten	-11.4183
▁silv	-11.4189
▁reunifi	-11.4189
▁flexib	-11.4189
▁capt	-11.4193
ido	-11.4193
▁tuck	-11.4194
▁sees	-11.4197
▁gala	-11.4197
▁distribute	-11.4205
▁rattl	-11.4207
ospi	-11.4209
▁nis	-11.4215
▁cycle	-11.4219
▁terra	-11.4226
▁glen	-11.4227
▁scan	-11.4229
▁gi	-11.4233
▁spice	-11.4239
os	-11.4244
▁vol	-11.4246
▁chill	-11.4257
▁bil	-11.4263
▁sars	-11.4267
▁oscars	-11.4267
oon	-11.4272
▁rubb	-11.4277
▁choi	-11.428
olo	-11.4289
▁exclud	-11.4292
bel	-11.4308
▁tours	-11.4318
▁isolate	-11.4322
▁mess	-11.4325
▁corn	-11.4328
▁vers	-11.4332
▁rein	-11.4336
▁uncertaint	-11.434
▁julie	-11.4341
▁emphasiz	-11.4346
▁paralyz	-11.4348
▁sacr	-11.435
▁container	-11.4361
▁retrieve	-11.4364
▁drastic	-11.4383
ara	-11.4401
▁lots	-11.4406
▁cab	-11.4409
▁kil	-11.4409
▁organize	-11.4411
ala	-11.4412
▁chairs	-11.4415
▁cry	-11.4419
▁eta	-11.4422
rmal	-11.4429
▁wan	-11.4438
oli	-11.4443
itis	-11.4448
tor	-11.4449
apping	-11.4454
▁harmon	-11.4459
▁mous	-11.4466
cliff	-11.4467
appropriate	-11.4467
▁suits	-11.4473
▁bearing	-11.4476
▁span	-11.4478
▁contend	-11.4505
▁acquitt	-11.4511
▁enact	-11.4515
▁heal	-11.4516
▁excess	-11.4517
▁contingent	-11.4518
▁gadget	-11.4518
▁lincoln	-11.4518
▁sufficient	-11.4518
▁tattoo	-11.4518
▁tremendous	-11.4518
▁vegetable	-11.4518
▁kilogram	-11.4518
▁disgrace	-11.4518
▁irregularities	-11.4518
▁monument	-11.4518
▁vista	-11.4518
▁absent	-11.4518
▁premature	-11.4518
▁inhabit	-11.4518
▁overthrow	-11.4518
▁frog	-11.4518
▁tenure	-11.4518
▁notorious	-11.4519
▁donkey	-11.4519
▁excuse	-11.4519
▁copper	-11.4519
▁tomato	-11.4519
▁orthodox	-11.4519
▁bloc	-11.452
▁streak	-11.452
▁psychological	-11.452
▁boris	-11.452
▁sugar	-11.4521
▁rift	-11.4521
▁pearl	-11.4521
▁dominica	-11.4522
▁irresponsible	-11.4522
▁laura	-11.4522
▁unchang	-11.4525
▁devil	-11.4526
▁muq	-11.4527
▁mechanical	-11.4527
▁amend	-11.4528
▁blogger	-11.4529
▁grammy	-11.453
▁dock	-11.4533
▁diagnosed	-11.4534
▁accurate	-11.4537
▁belov	-11.4537
▁sensor	-11.4537
▁duk	-11.4544
▁explorer	-11.4546
▁warship	-11.4547
▁tube	-11.4547
▁lecture	-11.4556
▁santi	-11.4557
soo	-11.4557
ning	-11.4559
▁ports	-11.4564
▁comic	-11.4567
▁zimbabwean	-11.4569
▁portal	-11.4573
▁suppress	-11.4577
▁pres	-11.4577
▁div	-11.458
▁slain	-11.4581
wang	-11.4585
▁roar	-11.4588
▁philli	-11.4588
▁fruit	-11.4592
▁burg	-11.4594
ties	-11.46
▁salt	-11.4602
▁bother	-11.4615
▁improvement	-11.4619
▁belt	-11.4635
onica	-11.4636
ato	-11.4636
hal	-11.4638
arity	-11.4639
▁applie	-11.4653
shi	-11.4655
vy	-11.4657
▁sensitivit	-11.4658
▁trans	-11.4663
▁obes	-11.4665
val	-11.467
▁employers	-11.4673
▁outfit	-11.4675
▁nest	-11.468
▁interesting	-11.4694
▁din	-11.47
ists	-11.4708
▁sincere	-11.4714
▁ramad	-11.4719
▁steadi	-11.4719
▁steppe	-11.4724
▁counterterroris	-11.4726
▁rap	-11.4728
▁barry	-11.4729
aking	-11.4732
saka	-11.4737
▁prostitut	-11.4743
▁uncle	-11.4746
▁gonn	-11.4748
▁outlets	-11.4748
▁difficulty	-11.475
▁frustrat	-11.4751
▁observ	-11.476
▁ross	-11.4763
red	-11.4772
ett	-11.4776
▁roles	-11.4788
▁cooperat	-11.4793
pei	-11.4828
▁speculat	-11.4832
▁fitt	-11.4846
▁browne	-11.4849
zed	-11.4863
▁gran	-11.487
chang	-11.4877
active	-11.4882
strong	-11.4884
ux	-11.4888
▁ham	-11.4891
top	-11.4892
borne	-11.4898
▁flare	-11.4901
ario	-11.4902
▁q	-11.4904
▁choices	-11.4905
▁revise	-11.4906
▁bat	-11.4913
▁emerge	-11.4913
▁inaugura	-11.4919
▁mat	-11.492
▁midwest	-11.4925
▁neutral	-11.4926
▁reign	-11.4927
rk	-11.4927
▁avenue	-11.4935
▁bizarre	-11.4935
▁competitor	-11.4935
▁genuine	-11.4935
▁intellectual	-11.4935
▁maradona	-11.4935
▁reckless	-11.4935
▁satisfie	-11.4935
▁bmw	-11.4935
▁kashmir	-11.4935
▁qassam	-11.4935
▁coroner	-11.4935
▁vault	-11.4935
▁misdemeanor	-11.4935
▁whistle	-11.4935
▁seizure	-11.4935
▁potato	-11.4935
▁harper	-11.4935
▁negro	-11.4935
▁profound	-11.4935
▁venus	-11.4935
▁introduction	-11.4935
▁maoist	-11.4935
▁veterinarian	-11.4935
▁tamil	-11.4936
▁hatred	-11.4936
▁certificate	-11.4936
▁lyric	-11.4936
▁sequence	-11.4936
rogge	-11.4937
▁signature	-11.4937
▁fortress	-11.4937
▁colonel	-11.4937
▁bonuses	-11.4937
▁confidential	-11.4937
▁concentration	-11.4937
▁dili	-11.4938
▁ismail	-11.4938
▁infantry	-11.4939
▁jamie	-11.4939
▁sheep	-11.4939
▁collective	-11.494
▁addiction	-11.494
▁distan	-11.4941
▁flin	-11.4942
▁reunit	-11.4942
▁roug	-11.4943
▁precise	-11.4944
▁drain	-11.4944
▁slash	-11.4946
▁bulgarian	-11.4946
▁loom	-11.4952
▁beam	-11.4956
▁laurea	-11.4956
tz	-11.4957
▁iceland	-11.4957
▁bio	-11.4962
▁spurr	-11.4962
ants	-11.4964
▁garb	-11.4967
▁brig	-11.4983
▁zhang	-11.4983
▁gp	-11.4991
ions	-11.4994
▁rear	-11.4996
▁suv	-11.4998
▁slot	-11.5001
▁tooth	-11.5002
▁hell	-11.501
oster	-11.5016
▁impressi	-11.5017
▁hawa	-11.5021
▁blessing	-11.5021
per	-11.5023
▁dire	-11.5025
▁toddler	-11.5027
▁countryside	-11.5029
▁kph	-11.5035
▁alleg	-11.5038
conscious	-11.5045
▁yog	-11.5045
versh	-11.5048
▁ruin	-11.5052
wc	-11.5059
itz	-11.506
▁define	-11.5074
▁cac	-11.5076
▁crying	-11.5081
▁faye	-11.5088
▁mikh	-11.5091
▁luck	-11.5091
▁appreciate	-11.5096
▁relieve	-11.5097
▁liu	-11.5113
▁feelings	-11.5119
▁fuku	-11.5131
▁tense	-11.5131
▁concentrate	-11.5135
▁item	-11.5136
▁cleaner	-11.5138
▁medi	-11.514
io	-11.5147
▁dismiss	-11.5172
▁dispos	-11.5174
▁cel	-11.5184
adilla	-11.5185
▁authorize	-11.5188
hill	-11.5196
▁yea	-11.5205
▁assassinat	-11.5206
▁networking	-11.5217
▁gre	-11.5218
▁spike	-11.5219
ette	-11.5221
elling	-11.5222
▁unite	-11.5224
▁mori	-11.5227
kuni	-11.5228
▁poses	-11.5231
▁aug	-11.5235
row	-11.5239
▁hurl	-11.5243
ini	-11.5249
▁bodyguards	-11.5251
▁rag	-11.5263
▁bark	-11.5264
▁characteriz	-11.5275
▁permitt	-11.5278
▁hon	-11.5292
▁lamp	-11.5294
king	-11.53
▁architect	-11.5305
▁hae	-11.5306
▁nori	-11.5309
va	-11.5317
▁ratio	-11.5324
▁commemorate	-11.5332
▁digg	-11.5334
▁marr	-11.5335
▁origin	-11.5336
▁bobb	-11.5342
▁recep	-11.5345
▁estonia	-11.535
oid	-11.5353
▁monkeys	-11.5356
▁horses	-11.536
▁settl	-11.5365
▁archaeolog	-11.5367
▁courage	-11.5369
▁arroyo	-11.537
▁caretaker	-11.537
▁chocolate	-11.537
▁ingredient	-11.537
▁umbrella	-11.537
▁cricket	-11.537
▁stomach	-11.537
▁bicycle	-11.537
▁junichi	-11.537
▁definition	-11.537
▁minneapolis	-11.537
▁blunt	-11.537
▁kitchen	-11.537
▁oversight	-11.537
▁mysterious	-11.537
▁bulk	-11.537
▁fidel	-11.537
▁harass	-11.5371
▁lugg	-11.5371
▁alfred	-11.5371
▁taint	-11.5371
▁contentious	-11.5371
▁cluster	-11.5371
▁click	-11.5372
▁cancellation	-11.5372
▁comedian	-11.5372
▁exploration	-11.5372
▁grain	-11.5373
▁powder	-11.5373
▁array	-11.5373
▁consultant	-11.5374
▁slugg	-11.5375
▁justin	-11.5375
▁injection	-11.5375
▁stunt	-11.5375
▁glow	-11.5376
▁squid	-11.5376
▁drunken	-11.5376
▁ipod	-11.5377
▁fre	-11.5378
▁delight	-11.5378
▁ledger	-11.5378
▁titan	-11.5379
▁rico	-11.5379
▁chunk	-11.5379
▁deem	-11.538
▁harvest	-11.538
▁bread	-11.5383
▁ufo	-11.5384
▁siege	-11.5388
▁guardian	-11.539
▁measurement	-11.5391
▁adequate	-11.5392
▁innocen	-11.5394
▁fantas	-11.5399
▁bible	-11.5402
▁glimpse	-11.5403
▁rejection	-11.5409
▁organic	-11.5411
iling	-11.5413
▁lp	-11.5415
▁nasr	-11.5415
yama	-11.5415
▁gifts	-11.5416
▁sach	-11.5419
▁cecil	-11.5421
▁dual	-11.5423
ping	-11.5423
▁examiner	-11.5424
▁karl	-11.5424
onia	-11.5437
▁semi	-11.5445
▁khali	-11.5447
▁vest	-11.5454
▁cl	-11.5462
▁baker	-11.547
▁drag	-11.5472
▁gib	-11.5475
▁kle	-11.5478
▁protein	-11.548
▁carac	-11.5482
▁mong	-11.5486
▁convene	-11.5486
▁bodyguard	-11.549
▁meteor	-11.5497
▁cher	-11.5498
amount	-11.5502
▁demonstrat	-11.5517
▁kara	-11.5517
▁chips	-11.552
▁dama	-11.5521
nce	-11.5524
mus	-11.5537
▁cooking	-11.5549
▁linger	-11.5551
▁ci	-11.5562
▁humiliat	-11.5563
▁nk	-11.5564
▁farming	-11.5564
chum	-11.5565
▁emphasize	-11.5566
▁finalize	-11.557
witt	-11.5577
scus	-11.5577
▁grandm	-11.558
▁nash	-11.5581
pover	-11.5581
che	-11.5582
▁pave	-11.5597
▁bout	-11.56
▁foe	-11.5606
▁barak	-11.5611
nin	-11.5633
▁scholars	-11.5638
▁pills	-11.5638
▁shocking	-11.564
▁troph	-11.5652
▁municipal	-11.5652
▁extremis	-11.5654
▁accomplish	-11.5666
▁sta	-11.5674
▁meh	-11.5677
henin	-11.5678
set	-11.5687
aw	-11.5688
▁identifi	-11.5688
ber	-11.569
ative	-11.5693
▁contents	-11.5694
lena	-11.5698
▁stunn	-11.5708
win	-11.5709
▁sketch	-11.5713
yman	-11.5716
▁seller	-11.572
▁gene	-11.5721
▁pl	-11.5742
▁maha	-11.5742
▁rib	-11.5746
▁frost	-11.575
▁les	-11.5751
▁prodi	-11.5753
place	-11.5754
nan	-11.5754
▁ministr	-11.576
point	-11.577
ponte	-11.577
decided	-11.5774
▁courts	-11.5777
▁explaining	-11.5778
about	-11.5778
▁presid	-11.5784
▁climber	-11.5787
amine	-11.579
folk	-11.5795
▁lean	-11.58
▁coordinate	-11.5801
▁guatemala	-11.5804
▁romania	-11.5807
▁deport	-11.5809
▁ridicul	-11.581
▁pond	-11.5816
▁recess	-11.5821
▁imperial	-11.5823
▁column	-11.5823
▁intensify	-11.5824
nprofit	-11.5824
▁abrupt	-11.5824
▁fragil	-11.5824
▁illicit	-11.5824
▁magistrate	-11.5824
▁pharmaceutical	-11.5824
▁portrait	-11.5824
▁sumatra	-11.5824
▁multinational	-11.5824
▁librar	-11.5824
▁provocative	-11.5824
▁negligen	-11.5824
▁recount	-11.5824
▁database	-11.5824
▁diminish	-11.5824
▁fitzg	-11.5824
▁frontrunner	-11.5824
▁perception	-11.5825
▁greenspan	-11.5825
▁millenni	-11.5825
▁levinson	-11.5825
▁federline	-11.5825
▁anxious	-11.5825
▁dependent	-11.5825
▁reception	-11.5825
▁interstate	-11.5825
▁rehab	-11.5825
▁solomon	-11.5826
▁derail	-11.5826
▁informant	-11.5826
▁fantastic	-11.5826
▁ukrainian	-11.5828
▁interaction	-11.5828
▁serena	-11.5828
▁frustration	-11.5829
▁overweight	-11.5829
▁workplace	-11.5829
▁wield	-11.583
▁yale	-11.583
▁cabin	-11.583
▁interrupt	-11.583
▁slavery	-11.5831
▁handgun	-11.5831
▁mccon	-11.5831
▁creator	-11.5832
▁hick	-11.5833
▁quarte	-11.5833
▁hover	-11.5835
▁disappointment	-11.5837
▁val	-11.584
▁playoff	-11.584
▁costume	-11.5843
▁showdown	-11.5843
▁nail	-11.5847
mandu	-11.5849
▁kt	-11.585
▁preferr	-11.5853
ith	-11.5855
▁priorities	-11.5857
rod	-11.586
▁instruction	-11.5861
▁poster	-11.5863
▁wii	-11.5864
▁keat	-11.5865
▁collins	-11.5867
▁leone	-11.5867
▁hid	-11.5867
▁neal	-11.5868
▁rack	-11.587
▁batch	-11.5874
▁barely	-11.5875
ywhere	-11.5882
▁economically	-11.5883
▁fal	-11.5887
eng	-11.5887
▁jun	-11.589
▁procession	-11.5897
▁queens	-11.5901
▁bp	-11.5903
▁conceded	-11.5903
▁vanco	-11.5905
▁performer	-11.591
▁basin	-11.5913
▁lump	-11.5914
▁petro	-11.5915
pp	-11.5919
▁veni	-11.5919
▁gorillas	-11.5928
gged	-11.5933
ira	-11.5943
▁beck	-11.5946
▁filling	-11.5956
▁ferrer	-11.5961
▁horn	-11.5969
▁cannon	-11.5969
▁dig	-11.597
shima	-11.5973
▁casualt	-11.5973
▁nah	-11.5979
eera	-11.5982
▁allege	-11.5986
▁addresses	-11.5995
▁tone	-11.5998
▁koo	-11.6001
▁tribe	-11.6004
▁arrangements	-11.6008
▁ashle	-11.6011
xel	-11.6012
bound	-11.6013
▁bog	-11.6014
▁smoker	-11.6023
ives	-11.6025
▁stalinis	-11.6027
▁uncertain	-11.6031
▁adventure	-11.6032
▁tag	-11.6042
▁launche	-11.6046
▁wool	-11.6055
▁sens	-11.6062
▁str	-11.6071
▁observat	-11.6075
▁bust	-11.608
▁defi	-11.608
▁topple	-11.6082
▁pit	-11.6083
▁dorm	-11.6086
▁triple	-11.6086
▁hart	-11.6093
▁superb	-11.6096
ut	-11.6096
unes	-11.6097
▁xu	-11.6102
ancy	-11.6108
▁bounce	-11.6109
▁wag	-11.6113
ot	-11.6114
po	-11.6123
ww	-11.6124
▁melan	-11.6124
zel	-11.6125
▁spin	-11.6127
▁skinn	-11.6132
▁ze	-11.6134
▁postpon	-11.6137
lick	-11.6144
▁execute	-11.6146
will	-11.6158
▁franchise	-11.616
▁planner	-11.6165
▁buck	-11.6169
cc	-11.6188
▁resemble	-11.621
▁offend	-11.6213
▁staffer	-11.6215
▁bran	-11.622
▁zu	-11.6227
power	-11.6236
▁proven	-11.6237
specifi	-11.6247
▁memorab	-11.6247
shift	-11.625
▁greg	-11.625
▁ol	-11.626
▁wipe	-11.6263
cna	-11.6265
▁goh	-11.627
▁occasional	-11.6272
▁pelo	-11.6281
▁va	-11.6281
▁ethiopia	-11.6282
▁valid	-11.6283
▁behead	-11.6284
erran	-11.6291
▁scrutin	-11.6292
scope	-11.6292
▁categori	-11.6293
▁grip	-11.6293
▁contradict	-11.6294
▁bore	-11.6297
▁extract	-11.63
pollo	-11.63
▁artifact	-11.63
▁battalion	-11.63
▁cosmonaut	-11.63
▁efficienc	-11.63
▁excerpt	-11.63
▁implant	-11.63
▁inflict	-11.63
▁merchant	-11.63
▁quarantine	-11.63
▁seafood	-11.63
▁tycoon	-11.63
▁anxiet	-11.63
▁oxford	-11.63
▁dentist	-11.6301
▁himalaya	-11.6301
▁mislead	-11.6301
▁persistent	-11.6301
▁unilateral	-11.6301
▁boulder	-11.6301
▁malawi	-11.6301
▁keith	-11.6301
▁brink	-11.6301
▁hispanic	-11.6301
▁flock	-11.6301
▁blake	-11.6302
▁dictatorship	-11.6302
▁workforce	-11.6302
▁verification	-11.6302
▁cinema	-11.6302
▁fiction	-11.6303
▁piano	-11.6303
▁shwe	-11.6303
▁reinforcement	-11.6303
▁gibb	-11.6303
▁wander	-11.6303
▁deportation	-11.6303
aker	-11.6303
▁foley	-11.6303
▁atleti	-11.6303
▁salarie	-11.6304
▁emanuel	-11.6304
▁basque	-11.6306
▁logo	-11.6306
▁headache	-11.6307
▁soften	-11.6307
▁quest	-11.6308
▁overlook	-11.6309
berra	-11.631
▁forth	-11.631
▁dragon	-11.6311
▁facial	-11.6311
▁honey	-11.6311
onga	-11.6311
▁prediction	-11.6312
▁rubber	-11.6313
▁auditor	-11.6313
▁citi	-11.6313
▁glad	-11.6316
▁trac	-11.6316
▁staple	-11.6317
▁owen	-11.6317
tact	-11.6317
rbach	-11.632
▁gallery	-11.6323
▁noise	-11.6323
▁pu	-11.6326
▁franco	-11.6327
▁establishment	-11.633
▁liais	-11.6331
gm	-11.6333
▁timing	-11.6336
▁fold	-11.6337
▁expresse	-11.6337
▁juror	-11.6338
aho	-11.6339
▁qualifier	-11.634
▁tender	-11.6341
▁nec	-11.6341
▁upgrade	-11.6351
▁seasonal	-11.6353
▁helpful	-11.6354
▁ark	-11.6354
▁sharon	-11.6354
rkele	-11.6363
▁utter	-11.6371
▁realiz	-11.6375
▁lucas	-11.6379
▁entitl	-11.6379
▁claren	-11.638
▁lim	-11.639
▁campaigner	-11.6392
▁caffein	-11.6397
▁edit	-11.6397
▁yell	-11.6397
▁accelerate	-11.6397
▁fier	-11.6398
fc	-11.6405
hrai	-11.6405
▁subsid	-11.6409
▁lawn	-11.6409
▁hacker	-11.6415
▁speculate	-11.6416
aware	-11.6419
hi	-11.6421
▁conscien	-11.6421
cade	-11.6422
mz	-11.6422
▁tolerate	-11.6426
▁winger	-11.6427
con	-11.6427
▁commodit	-11.6428
▁lak	-11.6429
▁neo	-11.643
▁finals	-11.6438
▁ears	-11.6439
▁highlights	-11.644
▁nu	-11.6444
▁airliner	-11.6449
▁tongue	-11.6449
oma	-11.6451
af	-11.6456
gang	-11.646
▁kg	-11.6466
▁intel	-11.6475
ssif	-11.6476
om	-11.6477
▁raj	-11.6478
▁denounce	-11.6479
▁pirate	-11.648
▁contender	-11.648
▁layer	-11.6481
▁pic	-11.6491
▁plain	-11.6491
▁supervis	-11.6494
ali	-11.6498
aki	-11.65
ethane	-11.6501
nintend	-11.6506
▁captive	-11.6507
▁assurance	-11.6515
egu	-11.6518
▁shipment	-11.6521
▁jimm	-11.6524
unch	-11.6524
▁russe	-11.6527
▁trailer	-11.6528
▁skill	-11.653
bala	-11.6534
▁reinstate	-11.6547
▁org	-11.6548
▁collaps	-11.656
yi	-11.6562
etic	-11.6562
▁holed	-11.6564
▁slope	-11.657
▁confusi	-11.6573
▁contaminat	-11.6575
▁odi	-11.6576
▁provok	-11.6579
▁nurs	-11.6579
▁guarded	-11.6585
▁sim	-11.659
▁franc	-11.6607
hen	-11.661
▁analyze	-11.6615
ud	-11.6626
▁plains	-11.6627
▁stockpile	-11.6634
hmer	-11.6634
▁lover	-11.6635
▁explor	-11.6645
▁fur	-11.665
▁wings	-11.665
▁enhanc	-11.6653
▁seeming	-11.6654
lima	-11.666
▁overwhelm	-11.6663
▁vin	-11.6671
▁stumbl	-11.668
ston	-11.668
▁dell	-11.6693
rway	-11.6697
▁hak	-11.6699
oming	-11.6707
▁dann	-11.6708
▁vo	-11.6709
▁mem	-11.6711
▁chronic	-11.672
▁riders	-11.6722
▁applau	-11.6727
▁hamburg	-11.6731
qaw	-11.6731
▁necessar	-11.6733
▁societ	-11.6734
▁gro	-11.6742
▁thi	-11.6744
planes	-11.6749
wealth	-11.675
cheong	-11.675
▁rotat	-11.6751
ow	-11.6753
ilia	-11.6753
cha	-11.6755
hand	-11.676
oka	-11.6762
▁foods	-11.6764
rank	-11.6765
ndrome	-11.6769
map	-11.6771
▁watcher	-11.6772
▁monet	-11.6777
▁bump	-11.6779
▁heir	-11.6781
▁algeria	-11.6782
▁significan	-11.6785
▁authentic	-11.6786
▁inject	-11.6795
▁ideolog	-11.68
▁abraham	-11.68
▁albatross	-11.68
▁barricade	-11.68
▁biofuel	-11.68
▁calendar	-11.68
▁demilitariz	-11.68
▁engulf	-11.68
▁gossip	-11.68
▁juvenile	-11.68
▁newcastle	-11.68
▁prototype	-11.68
▁stalemate	-11.68
▁wheelchair	-11.68
▁curator	-11.68
▁exxon	-11.68
▁lesbian	-11.68
▁pretend	-11.68
▁eleven	-11.68
▁chapel	-11.68
▁wrist	-11.68
▁nickname	-11.6801
▁keynote	-11.6801
▁disclosure	-11.6801
▁trap	-11.6801
▁rogue	-11.6801
▁zheng	-11.6801
▁fiber	-11.6801
▁collaboration	-11.6801
▁vocal	-11.6801
▁calorie	-11.6802
▁collar	-11.6802
▁revelation	-11.6802
bhumi	-11.6802
▁beverage	-11.6803
▁snack	-11.6803
▁gator	-11.6804
▁predator	-11.6804
▁cruel	-11.6804
iora	-11.6804
▁instructor	-11.6805
▁bypass	-11.6805
▁referee	-11.6806
▁contemporar	-11.6808
▁spouse	-11.6809
▁bias	-11.6809
▁cordon	-11.681
▁barrage	-11.681
▁youngster	-11.681
▁medit	-11.6811
▁conservationist	-11.6812
▁tenor	-11.6812
▁djo	-11.6812
▁confession	-11.6813
▁township	-11.6813
▁griffi	-11.6814
▁acceptance	-11.6816
▁whipp	-11.6817
▁kiev	-11.6818
▁avert	-11.6818
▁inspiration	-11.6819
cular	-11.6822
▁thriller	-11.6824
▁jos	-11.6825
▁dealer	-11.6826
▁plume	-11.6831
ility	-11.6832
▁readers	-11.6834
▁spann	-11.6834
itive	-11.6835
▁ferrar	-11.6841
ate	-11.6842
▁composer	-11.6844
▁motivat	-11.6852
ket	-11.6853
eon	-11.6855
▁extraditi	-11.6864
▁phu	-11.6865
fa	-11.6866
rosa	-11.6867
▁coerc	-11.6869
▁applaud	-11.6875
▁jp	-11.6876
▁alma	-11.6883
bin	-11.6884
▁bleed	-11.6887
▁evans	-11.6893
▁vincen	-11.6897
▁sid	-11.6897
ano	-11.6897
▁scuffle	-11.6899
▁keeper	-11.69
enver	-11.6901
▁bidd	-11.691
▁arabian	-11.6913
▁explore	-11.6917
ulous	-11.6922
▁ravag	-11.6933
▁wip	-11.6934
▁dodge	-11.6939
▁dwindl	-11.6949
▁laute	-11.6952
▁owe	-11.6968
otic	-11.6971
▁underscore	-11.6976
▁homicide	-11.6976
▁blockbuster	-11.698
ula	-11.6982
▁prizes	-11.6983
▁monte	-11.699
sef	-11.6993
▁cartel	-11.6998
▁math	-11.7005
▁perin	-11.7007
▁tapes	-11.7008
▁swear	-11.7009
▁torrent	-11.7012
▁extremist	-11.7014
▁napoli	-11.7022
▁bend	-11.7031
ito	-11.7039
▁folk	-11.705
▁tam	-11.705
▁underst	-11.7052
▁lander	-11.7052
ap	-11.7053
▁bet	-11.7054
stitution	-11.7056
▁fann	-11.7059
▁chased	-11.7061
▁companion	-11.7063
▁amo	-11.7066
▁passports	-11.7067
▁pub	-11.7072
uda	-11.7075
▁bros	-11.7086
▁cycl	-11.7087
▁claus	-11.7091
▁por	-11.7094
▁intelligent	-11.7095
▁discs	-11.7096
▁espi	-11.71
nbar	-11.7102
▁comet	-11.7107
▁mann	-11.711
ill	-11.7112
▁depos	-11.7117
▁gad	-11.7135
tano	-11.7135
veral	-11.7137
lash	-11.7143
▁tun	-11.7143
▁kay	-11.7147
▁troubles	-11.715
▁thoughts	-11.7151
▁scratch	-11.7158
lloy	-11.7163
▁carve	-11.7165
▁wheels	-11.7173
▁den	-11.7179
▁horrifi	-11.7179
▁galla	-11.718
ci	-11.7186
▁cord	-11.7195
kto	-11.7197
▁tune	-11.7201
▁entr	-11.7201
▁disk	-11.7205
bs	-11.7208
shed	-11.7209
▁julia	-11.7209
▁avail	-11.7209
dwin	-11.722
▁bol	-11.7223
▁depriv	-11.7235
▁cope	-11.7237
esi	-11.7241
▁erect	-11.7252
▁lag	-11.726
▁bern	-11.7261
▁shoulders	-11.7264
▁borne	-11.7271
▁absolute	-11.7271
▁physic	-11.7278
▁gh	-11.7282
grid	-11.7285
▁bor	-11.7288
▁psychiatr	-11.729
udh	-11.7297
ef	-11.7306
▁jamaica	-11.7308
▁spen	-11.7308
made	-11.7308
▁stir	-11.7309
▁haniy	-11.731
▁pois	-11.7312
▁lakes	-11.7312
▁restrain	-11.7314
▁ignit	-11.7314
what	-11.732
▁devot	-11.7322
▁convincing	-11.7327
▁embargo	-11.7327
▁emperor	-11.7327
▁external	-11.7327
▁gorbachev	-11.7327
▁hectare	-11.7327
▁kangaroo	-11.7327
▁mechanism	-11.7327
▁parallel	-11.7327
▁perspective	-11.7327
▁rwanda	-11.7327
▁unauthori	-11.7327
▁unconditional	-11.7327
▁unlawful	-11.7327
▁eacute	-11.7327
▁evangelical	-11.7327
▁jacob	-11.7327
▁parachute	-11.7327
▁technician	-11.7327
▁spree	-11.7327
▁bipartisan	-11.7327
▁robust	-11.7327
▁solving	-11.7327
▁miracle	-11.7327
▁steroid	-11.7327
▁cameroon	-11.7327
▁antiquit	-11.7327
▁evasion	-11.7327
▁clerk	-11.7327
▁confederation	-11.7327
▁spiral	-11.7327
▁unofficial	-11.7327
▁forensic	-11.7327
▁thunder	-11.7327
▁monaster	-11.7327
cute	-11.7327
▁helmet	-11.7327
▁storage	-11.7327
▁premise	-11.7327
▁proclaim	-11.7327
▁consulate	-11.7328
▁differ	-11.7328
▁furni	-11.7328
▁lugo	-11.7328
▁comparison	-11.7328
▁lifestyle	-11.7328
afa	-11.7328
▁supermarket	-11.7328
▁maneuver	-11.7328
▁constructive	-11.7328
▁rhino	-11.7328
▁cough	-11.7329
▁spider	-11.7329
▁valuable	-11.7329
▁meteorologist	-11.7329
▁manual	-11.7329
▁chadian	-11.733
▁trump	-11.733
▁salary	-11.733
▁plug	-11.7331
▁spiel	-11.7331
▁cream	-11.7331
▁garner	-11.7332
▁cure	-11.7332
▁uncomm	-11.7333
▁picket	-11.7333
▁unbeat	-11.7333
▁downplay	-11.7333
▁coastline	-11.7334
▁lobbyist	-11.7334
arov	-11.7335
▁therapist	-11.7335
▁kasp	-11.7335
▁privilege	-11.7337
▁favorites	-11.7338
▁soap	-11.7338
▁rim	-11.7339
▁foil	-11.734
▁leaf	-11.734
▁mullah	-11.734
▁courthouse	-11.7343
▁bare	-11.7343
▁drift	-11.7345
▁jang	-11.7347
▁gram	-11.7348
▁swat	-11.735
▁bru	-11.735
▁hyper	-11.7351
▁doom	-11.7351
▁bubble	-11.7352
▁policymaker	-11.7352
▁trek	-11.7356
▁vick	-11.7357
▁leather	-11.7357
▁lyon	-11.736
▁usher	-11.7363
gb	-11.7363
▁carla	-11.7364
▁pancreati	-11.7364
uki	-11.7369
course	-11.7369
▁cheat	-11.7373
ai	-11.7374
▁warhead	-11.7377
▁charr	-11.738
spoke	-11.7381
▁persi	-11.7385
nder	-11.7385
▁tail	-11.7385
▁beache	-11.7386
▁buyout	-11.7387
▁dot	-11.7387
▁qala	-11.74
▁infringe	-11.7401
tha	-11.7402
▁mai	-11.7408
▁colomb	-11.7408
▁gust	-11.7408
▁craz	-11.7409
lary	-11.7411
▁blues	-11.7411
▁micke	-11.7422
▁andrea	-11.7432
▁bamb	-11.7435
▁karim	-11.7435
▁destabilize	-11.7436
▁ful	-11.7445
rin	-11.7447
▁hostilit	-11.7452
▁interfer	-11.7453
▁doo	-11.7453
▁soda	-11.7457
tel	-11.7464
▁costa	-11.7478
▁infections	-11.7479
▁brake	-11.7492
▁hood	-11.7498
hem	-11.7507
▁regulate	-11.7509
▁helen	-11.751
van	-11.7518
▁acquir	-11.752
ique	-11.7521
▁emotions	-11.7525
asha	-11.7525
▁conventional	-11.7528
▁unhapp	-11.753
▁assassinate	-11.753
▁kissing	-11.7533
ature	-11.7534
and	-11.7543
▁scholar	-11.7548
▁bayer	-11.7549
▁towers	-11.7552
eong	-11.7552
▁bent	-11.7552
▁pill	-11.7553
nese	-11.7556
▁ensur	-11.7557
▁mus	-11.7564
bright	-11.7569
▁evolv	-11.7574
▁fu	-11.7576
▁ivanov	-11.7584
▁solo	-11.7585
▁clippe	-11.7593
ock	-11.7596
afford	-11.76
att	-11.7602
▁slowing	-11.761
▁breathe	-11.7618
▁rud	-11.762
▁cliff	-11.7635
▁shaf	-11.7643
kov	-11.7647
▁roj	-11.7654
▁sore	-11.7658
▁separat	-11.7664
▁qualifi	-11.7665
▁compos	-11.7669
bon	-11.7673
iers	-11.7675
▁metro	-11.7678
capri	-11.7679
ndra	-11.7679
▁fla	-11.7683
▁excite	-11.7686
▁outbreaks	-11.7687
▁educat	-11.7688
▁snatch	-11.7688
ire	-11.7699
rative	-11.7707
▁winston	-11.7709
break	-11.7714
▁hoi	-11.7715
▁seeker	-11.7716
ories	-11.7729
▁hom	-11.7731
▁mos	-11.7735
▁frighten	-11.7737
▁revenues	-11.7741
▁assum	-11.7749
▁amuse	-11.7751
ab	-11.7751
▁henri	-11.7757
▁cu	-11.7769
▁improvements	-11.7771
▁munic	-11.7773
sterda	-11.7776
▁glove	-11.7776
uma	-11.7777
ology	-11.7781
▁exception	-11.7783
▁accelerat	-11.7783
play	-11.7784
▁substanti	-11.7784
▁volcani	-11.7784
▁philosoph	-11.7786
▁nh	-11.7786
▁kor	-11.7796
▁hoon	-11.7797
▁billy	-11.7798
grade	-11.781
▁chok	-11.7819
▁assure	-11.782
▁tipp	-11.7824
ries	-11.7829
jab	-11.783
ox	-11.7831
box	-11.7834
gio	-11.7836
▁graves	-11.7838
ife	-11.7839
▁dish	-11.7842
▁scam	-11.7843
▁debat	-11.7846
eful	-11.7848
▁dodg	-11.7852
▁christin	-11.7858
cover	-11.7859
▁orchestrat	-11.7867
▁nichols	-11.7868
▁loya	-11.7868
▁kumar	-11.7875
▁doubl	-11.7878
▁veterinar	-11.7881
▁blank	-11.7882
▁compatriot	-11.7882
▁crawford	-11.7882
▁fatigue	-11.7882
▁immense	-11.7882
▁messenger	-11.7882
▁precinct	-11.7882
▁ritual	-11.7882
▁subpoena	-11.7882
▁athletic	-11.7882
▁bahrain	-11.7882
▁machete	-11.7882
▁tikrit	-11.7882
▁reprocess	-11.7882
▁heaven	-11.7882
▁mismanage	-11.7882
▁pandemic	-11.7882
▁adjourn	-11.7882
▁wholesale	-11.7882
▁ailment	-11.7882
▁staunch	-11.7882
▁translator	-11.7882
▁fabio	-11.7882
▁splash	-11.7882
▁defence	-11.7883
▁litvin	-11.7883
▁lehman	-11.7883
▁appall	-11.7883
▁norris	-11.7883
▁abdel	-11.7883
▁gauge	-11.7883
▁baggage	-11.7883
▁translation	-11.7883
▁feud	-11.7883
▁horror	-11.7883
▁jerem	-11.7883
▁reservation	-11.7884
▁jefferson	-11.7884
▁embark	-11.7884
▁crippl	-11.7884
lroo	-11.7885
▁landfall	-11.7885
▁lavish	-11.7885
▁brent	-11.7885
▁ancestor	-11.7886
▁centimeter	-11.7886
▁cigar	-11.7886
▁francois	-11.7886
▁considerably	-11.7887
▁outrageous	-11.7887
▁newborn	-11.7888
▁distributor	-11.7888
▁sadden	-11.7888
▁miserable	-11.7888
▁cott	-11.7889
▁vary	-11.789
▁cruz	-11.7891
▁weird	-11.7892
▁boot	-11.7893
▁nike	-11.7893
▁transformation	-11.7894
▁hardship	-11.7894
▁chimp	-11.7894
▁tick	-11.7894
▁seminar	-11.7895
▁liqu	-11.7895
▁complication	-11.7896
▁alcoholic	-11.7896
▁backward	-11.7896
▁marij	-11.7897
▁nichol	-11.7897
thy	-11.7899
▁sicken	-11.7899
jeon	-11.79
▁hog	-11.7903
▁detector	-11.7903
▁forgot	-11.7904
bane	-11.7905
▁mobil	-11.7905
▁dod	-11.791
esco	-11.791
▁festiv	-11.7912
▁spectators	-11.7912
dorf	-11.7916
▁liga	-11.7919
▁jaw	-11.7919
him	-11.7922
▁orient	-11.7925
▁stricke	-11.7926
▁hook	-11.7927
▁lynn	-11.7929
▁temp	-11.7931
▁capitalist	-11.7933
▁stair	-11.7933
▁inning	-11.7935
yushch	-11.7936
dominant	-11.7936
▁chau	-11.7938
onda	-11.7945
▁trainer	-11.7948
▁collid	-11.7949
▁roller	-11.7953
uous	-11.7953
mont	-11.7955
kia	-11.7961
▁prop	-11.7965
rine	-11.7966
ge	-11.7978
mates	-11.7979
▁pric	-11.7984
▁kean	-11.7986
tting	-11.7986
▁bart	-11.7994
claren	-11.8
▁graz	-11.8005
▁smuggle	-11.8006
▁irritat	-11.801
▁independents	-11.8013
▁prey	-11.8015
▁sai	-11.802
▁skipp	-11.803
▁penguins	-11.8031
lese	-11.8031
used	-11.8049
ks	-11.8051
phis	-11.8052
ision	-11.8053
▁detonate	-11.8056
ped	-11.8057
▁snapp	-11.8061
▁marin	-11.8067
▁hut	-11.807
▁qud	-11.8072
▁edg	-11.8076
▁chae	-11.8079
▁wise	-11.8083
▁floren	-11.8083
▁doll	-11.8085
▁analyz	-11.8094
▁gamba	-11.8095
▁serial	-11.8098
▁dear	-11.8104
▁trauma	-11.8107
▁um	-11.8111
▁lashe	-11.8122
tina	-11.8129
▁cred	-11.8134
▁donat	-11.8141
eh	-11.8149
jani	-11.8149
▁disc	-11.815
▁toppl	-11.8152
▁sacred	-11.8159
▁expose	-11.816
▁unifi	-11.8164
▁gill	-11.8164
descent	-11.8175
▁relocate	-11.8175
▁mour	-11.8176
▁outage	-11.818
▁consolidat	-11.8184
mun	-11.8186
▁lucian	-11.8198
▁bot	-11.8199
▁pak	-11.8201
▁serv	-11.8202
ise	-11.8209
▁ivan	-11.8213
▁brac	-11.8213
ize	-11.8216
▁invade	-11.8219
tta	-11.822
▁clap	-11.8221
▁armis	-11.823
▁internationally	-11.8234
▁cancell	-11.8238
▁interfere	-11.825
tis	-11.8257
vich	-11.8261
▁facilitate	-11.8264
adic	-11.8265
atic	-11.827
print	-11.8283
▁lovers	-11.8285
▁dose	-11.8293
▁bre	-11.8295
▁kb	-11.83
▁barks	-11.8302
▁dissolve	-11.8305
schne	-11.8323
▁juli	-11.8324
ement	-11.8324
rous	-11.8324
jo	-11.8333
sud	-11.8333
▁distinct	-11.8334
▁renounce	-11.834
inous	-11.8353
eira	-11.8354
▁candle	-11.8355
nc	-11.8361
▁kn	-11.8366
▁intimidat	-11.8378
tech	-11.838
ima	-11.8385
▁sensation	-11.8385
ide	-11.8391
▁sci	-11.84
nnie	-11.8408
acas	-11.8409
▁concede	-11.8409
ac	-11.8411
fi	-11.842
▁comput	-11.842
▁chuck	-11.8421
scale	-11.8423
▁char	-11.8429
aron	-11.843
▁valen	-11.8431
mmy	-11.8432
▁bruis	-11.8449
trick	-11.8449
ecd	-11.8453
▁bands	-11.8454
▁nominate	-11.8455
▁kh	-11.8456
ky	-11.8457
▁clemen	-11.8458
uana	-11.846
▁hari	-11.8462
▁jams	-11.8463
▁peta	-11.8465
▁distort	-11.8465
▁porn	-11.8465
▁dissatisf	-11.847
▁archipelag	-11.847
▁hamilton	-11.847
▁integrity	-11.847
▁jupiter	-11.847
▁mbeki	-11.847
▁quebec	-11.847
▁reconsider	-11.847
▁skyscraper	-11.847
▁technological	-11.847
▁dynast	-11.847
▁firearm	-11.8471
▁pedestrian	-11.8471
▁cemeter	-11.8471
▁dormitor	-11.8471
▁tariff	-11.8471
▁delicate	-11.8471
▁improper	-11.8471
▁humpback	-11.8471
▁renown	-11.8471
▁dmitr	-11.8471
▁foreclosure	-11.8471
▁gloom	-11.8471
▁luft	-11.8471
▁filipino	-11.8471
▁definitive	-11.8471
▁clown	-11.8471
▁rhythm	-11.8471
▁ditch	-11.8471
▁noodle	-11.8471
▁safeguard	-11.8471
▁stint	-11.8471
▁slaying	-11.8471
▁theatre	-11.8471
▁globo	-11.8471
▁falter	-11.8471
▁armenian	-11.8471
▁adj	-11.8471
▁darling	-11.8471
▁commentator	-11.8472
▁disband	-11.8472
▁advertisement	-11.8472
orenst	-11.8472
▁hutchins	-11.8472
▁yoko	-11.8473
▁forthcoming	-11.8473
▁absorb	-11.8473
▁jacket	-11.8473
▁gangster	-11.8474
▁floodwater	-11.8474
▁fritz	-11.8475
▁dignitar	-11.8475
▁feat	-11.8475
uver	-11.8475
▁persist	-11.8476
▁ste	-11.8477
▁installment	-11.8477
▁alvar	-11.8477
▁kaka	-11.8477
oi	-11.8477
▁davyd	-11.8477
▁waiver	-11.8478
▁memo	-11.8478
▁xp	-11.8478
▁canyon	-11.8478
▁canoe	-11.848
▁checkup	-11.848
▁reef	-11.848
vinen	-11.848
▁zahi	-11.8481
▁sheik	-11.8481
▁liberia	-11.8481
▁defiant	-11.8481
▁gripp	-11.8482
▁carriage	-11.8483
▁magnetic	-11.8485
▁sampl	-11.8485
acent	-11.8485
▁scientolog	-11.8486
▁roland	-11.8488
▁sultan	-11.8489
▁scorch	-11.8491
▁kook	-11.8492
▁passionate	-11.8493
▁homeowner	-11.8493
▁console	-11.8494
▁baton	-11.8495
▁woke	-11.8496
rasmus	-11.8497
▁cake	-11.8498
▁jem	-11.8499
zvo	-11.85
▁boil	-11.8503
▁pra	-11.8507
▁buffet	-11.851
▁khala	-11.8513
luster	-11.8514
bye	-11.8516
▁stranger	-11.8516
▁spat	-11.8518
▁vanish	-11.852
▁verifi	-11.8522
▁lawless	-11.8526
▁depressed	-11.8545
▁samba	-11.8549
▁sau	-11.855
cent	-11.8559
▁blackout	-11.8562
▁perch	-11.8562
fax	-11.8567
yuz	-11.8569
ochi	-11.8575
state	-11.8584
▁starv	-11.8587
▁inhal	-11.8592
ference	-11.8597
niste	-11.8604
▁rub	-11.8609
▁merit	-11.8612
▁precedent	-11.8617
▁masa	-11.8618
ix	-11.8623
vin	-11.8629
aria	-11.8631
ulu	-11.8633
▁snap	-11.8634
ink	-11.8635
ua	-11.8639
pe	-11.864
▁rem	-11.8654
▁males	-11.8654
▁rage	-11.8655
riel	-11.8662
▁vaccines	-11.8663
▁butter	-11.8664
▁rust	-11.8668
▁recommends	-11.8669
▁jud	-11.8669
▁bury	-11.867
▁aut	-11.8681
▁blade	-11.8703
▁receiver	-11.8714
▁suz	-11.8714
▁cre	-11.8714
nnis	-11.8716
▁bounc	-11.8716
lit	-11.8728
napoli	-11.8728
nstein	-11.873
▁pine	-11.8733
▁fuse	-11.8737
pate	-11.8737
▁sala	-11.8738
▁partisan	-11.8745
▁donate	-11.8748
ition	-11.8749
▁provoke	-11.875
▁sue	-11.8751
▁retract	-11.8754
▁manufacture	-11.8755
▁mates	-11.8758
ateur	-11.8759
▁funn	-11.8762
▁credibl	-11.8765
ram	-11.8767
▁pedr	-11.877
och	-11.8772
▁morocc	-11.8773
▁stabiliz	-11.8781
▁lighter	-11.8786
oria	-11.8787
▁attribute	-11.8788
▁corre	-11.8788
wick	-11.8788
rwin	-11.8794
▁squeez	-11.8795
▁corpse	-11.88
▁kyong	-11.8811
▁cris	-11.8812
▁serie	-11.8813
▁complicate	-11.8824
▁undermin	-11.8835
▁bash	-11.8849
▁mari	-11.8855
ax	-11.8855
▁entit	-11.8863
▁donation	-11.8871
▁arl	-11.8873
▁elector	-11.8874
▁iranians	-11.8879
riza	-11.8883
zi	-11.8886
▁lett	-11.8887
▁holm	-11.8901
▁maru	-11.8909
▁arch	-11.8916
▁berk	-11.8927
lan	-11.8928
awa	-11.8936
▁initiat	-11.8939
ngdu	-11.8941
▁lunche	-11.8942
▁kel	-11.8945
hang	-11.8946
▁ruins	-11.8946
▁mario	-11.8948
▁accessor	-11.8956
▁genom	-11.8968
sang	-11.8975
old	-11.8976
▁ruth	-11.8985
▁levi	-11.8988
▁blackmail	-11.9
odor	-11.9
▁dip	-11.9003
formed	-11.9012
▁default	-11.9016
▁persuad	-11.9016
▁emm	-11.9021
▁gigg	-11.9021
▁intentional	-11.9021
▁compil	-11.9027
▁beard	-11.9031
▁boycotted	-11.9034
▁admitt	-11.9039
▁correction	-11.904
beat	-11.904
continent	-11.9045
constitutional	-11.9045
▁skip	-11.9045
▁cana	-11.9045
deal	-11.9048
▁desir	-11.9051
nom	-11.907
stair	-11.9074
▁fundrais	-11.9076
uart	-11.9077
▁shower	-11.9082
▁capita	-11.9082
eval	-11.9086
due	-11.9087
anana	-11.9089
▁mint	-11.9091
ite	-11.9092
▁conspir	-11.9092
▁archbishop	-11.9095
▁azerbaijan	-11.9095
▁centrifuge	-11.9095
▁defensive	-11.9095
▁diarrhea	-11.9095
▁eagle	-11.9095
▁explicit	-11.9095
▁fragment	-11.9095
▁mosquito	-11.9095
▁nutrient	-11.9095
▁temblor	-11.9095
▁wizard	-11.9095
▁corridor	-11.9095
▁paramilitar	-11.9095
▁sanctuar	-11.9095
▁surname	-11.9095
▁unearth	-11.9095
▁exaggerat	-11.9096
▁mogul	-11.9096
▁sculpture	-11.9096
▁vendor	-11.9096
▁abnormal	-11.9096
▁resurgen	-11.9096
▁overheat	-11.9096
▁standstill	-11.9096
▁inherit	-11.9096
▁submarine	-11.9096
▁justify	-11.9096
▁dynamic	-11.9096
▁provocation	-11.9096
▁reunion	-11.9096
▁textile	-11.9096
▁chemist	-11.9096
▁roadblock	-11.9096
▁rooftop	-11.9096
▁skeleton	-11.9096
▁excellent	-11.9096
▁overshadow	-11.9096
▁siberia	-11.9096
▁elegan	-11.9096
▁annul	-11.9096
▁rebuke	-11.9096
▁heavyweight	-11.9096
▁abram	-11.9096
▁stump	-11.9096
▁facto	-11.9096
▁meltdown	-11.9096
▁felon	-11.9096
▁halloween	-11.9096
▁hanaro	-11.9097
atero	-11.9097
▁description	-11.9097
▁enron	-11.9097
▁feather	-11.9097
▁robinson	-11.9097
▁veer	-11.9097
▁orientation	-11.9097
▁estrange	-11.9098
▁leverage	-11.9098
▁courageous	-11.9098
▁overdose	-11.9098
▁rejoin	-11.9098
▁gerald	-11.9098
▁disturbance	-11.9098
nam	-11.9098
▁notify	-11.9099
▁conner	-11.9099
▁interactive	-11.9099
▁cur	-11.91
▁blacksburg	-11.91
▁deterrent	-11.91
▁shortfall	-11.91
▁kirk	-11.9101
▁coloss	-11.9103
▁breakdown	-11.9104
▁cle	-11.9105
▁foul	-11.9105
▁moroccan	-11.9106
▁dismissal	-11.9106
▁nile	-11.9108
▁ryo	-11.9109
▁zambia	-11.9109
▁crest	-11.9112
▁reassure	-11.9112
▁portrayal	-11.9112
▁reap	-11.9114
▁yemeni	-11.9115
▁anymore	-11.9118
▁budd	-11.9119
▁fledg	-11.912
▁algerian	-11.912
▁slapp	-11.912
▁pleasure	-11.912
▁fisheries	-11.9124
▁collide	-11.9125
▁bris	-11.9135
▁assembl	-11.9136
▁plantation	-11.9138
▁horribl	-11.9139
▁max	-11.9139
▁bund	-11.9142
▁mineral	-11.9143
▁qara	-11.9143
▁valentin	-11.9147
▁patch	-11.9148
▁wishes	-11.9151
▁ghan	-11.9155
▁rever	-11.9159
▁showcase	-11.9162
▁moss	-11.9163
▁motivation	-11.9166
▁maul	-11.9168
shmi	-11.9168
▁vera	-11.9169
gar	-11.917
▁zay	-11.9177
▁yass	-11.9178
▁gue	-11.9178
▁valeri	-11.9179
▁walkout	-11.9181
▁reel	-11.9182
rimp	-11.9189
ew	-11.9189
▁tackl	-11.9197
▁burk	-11.92
▁particles	-11.9202
▁klo	-11.9202
▁tian	-11.9214
▁forbidd	-11.9219
▁deb	-11.9221
▁ros	-11.9225
nver	-11.9225
▁exceptional	-11.9231
diaz	-11.9232
uc	-11.9235
▁nano	-11.9239
vian	-11.9241
▁inflammat	-11.9245
▁sabotage	-11.9245
▁naf	-11.9246
▁stoke	-11.9256
▁hilar	-11.9268
errill	-11.9269
olmer	-11.9273
▁emergenc	-11.9278
▁leaning	-11.9281
dson	-11.9286
▁barb	-11.93
uso	-11.9301
▁zin	-11.9303
we	-11.9303
▁cheon	-11.9306
ailing	-11.9325
▁listing	-11.9325
cca	-11.9333
▁dome	-11.9341
▁congratulate	-11.9344
▁sword	-11.9348
▁waterway	-11.9355
▁tan	-11.9372
▁invad	-11.9375
▁tortur	-11.9376
ilo	-11.938
coni	-11.9387
▁bernie	-11.939
anda	-11.94
▁zo	-11.9402
▁fog	-11.9403
▁squeeze	-11.9405
▁maure	-11.9406
▁cy	-11.9411
ken	-11.9411
action	-11.9417
ylan	-11.9418
▁pod	-11.9431
▁clan	-11.9433
▁robbe	-11.9434
▁relation	-11.9437
eparation	-11.944
▁lap	-11.9447
pi	-11.945
▁outlet	-11.9452
rek	-11.9459
unt	-11.9467
ovic	-11.9468
▁pap	-11.947
▁tier	-11.9474
▁rand	-11.9475
▁zi	-11.9485
▁mandel	-11.949
▁pale	-11.9497
chen	-11.95
ik	-11.9502
▁hano	-11.9506
hk	-11.9509
▁reinforce	-11.9509
▁recogniz	-11.951
▁za	-11.9532
▁naga	-11.9533
▁tur	-11.9535
italia	-11.9536
▁repli	-11.9538
teau	-11.9538
▁crumbl	-11.9539
▁para	-11.954
▁dependenc	-11.9541
take	-11.9541
▁eva	-11.9543
▁nett	-11.9565
▁arise	-11.9565
aiss	-11.9567
▁reliev	-11.957
mble	-11.9572
▁reliabl	-11.9573
▁deer	-11.9574
zawa	-11.9577
law	-11.9588
earby	-11.9597
ica	-11.9599
kawa	-11.9602
▁todd	-11.9611
▁wilder	-11.9612
▁motivate	-11.9619
▁merc	-11.9622
▁stabb	-11.9623
▁pas	-11.9623
pping	-11.9624
▁lis	-11.9628
bes	-11.9637
▁crist	-11.9644
▁hal	-11.9644
related	-11.9646
iko	-11.965
▁litter	-11.9651
▁balk	-11.9656
ngue	-11.9671
idf	-11.968
are	-11.9685
▁exo	-11.9686
kind	-11.9686
▁bri	-11.9687
▁wie	-11.9687
▁stre	-11.9693
▁killers	-11.9706
secretary	-11.9712
▁neuro	-11.9712
abel	-11.9719
▁hawkin	-11.9726
reze	-11.9727
▁territori	-11.9731
▁esta	-11.9731
▁papa	-11.9732
▁polit	-11.9736
▁bless	-11.9743
▁bulgaria	-11.9743
▁drinker	-11.9747
▁wei	-11.975
▁spawn	-11.9758
▁heath	-11.9758
▁aggravat	-11.9759
iquit	-11.9759
▁orphan	-11.9761
lihood	-11.9761
▁charisma	-11.9762
hansa	-11.9762
▁accumulate	-11.9762
▁affidavit	-11.9762
▁barclay	-11.9762
▁charlotte	-11.9762
▁malfunction	-11.9762
▁nephew	-11.9762
▁paraguay	-11.9762
▁precondition	-11.9762
▁sanchez	-11.9762
▁unleash	-11.9762
▁unnecessar	-11.9762
▁pneum	-11.9762
▁reshuffl	-11.9762
▁vomit	-11.9762
▁gorge	-11.9762
▁bystander	-11.9762
▁thumb	-11.9762
▁sherpa	-11.9762
▁vinci	-11.9762
▁johansson	-11.9762
▁minimiz	-11.9762
▁minimal	-11.9762
▁warlord	-11.9762
▁enlist	-11.9762
▁grocer	-11.9762
▁memoir	-11.9763
▁lawrence	-11.9763
▁redeployment	-11.9763
▁coffin	-11.9763
▁email	-11.9763
▁blacklist	-11.9763
▁clamp	-11.9763
▁orphanage	-11.9764
▁garrison	-11.9764
▁spacewalk	-11.9764
▁stroll	-11.9764
▁roam	-11.9764
▁spotlight	-11.9764
▁adolescent	-11.9765
▁bennett	-11.9765
▁scal	-11.9766
▁swamp	-11.9766
▁verbal	-11.9766
▁derby	-11.9766
▁nutrition	-11.9766
▁pilgrimage	-11.9767
▁mag	-11.9767
▁peel	-11.9768
▁scout	-11.9768
▁regiment	-11.9768
▁migration	-11.9768
▁cramp	-11.9768
▁inevitabl	-11.9768
▁martial	-11.9769
▁pur	-11.977
▁lenient	-11.977
▁battlefield	-11.9771
▁luther	-11.9771
▁chopper	-11.9772
▁benoi	-11.9772
dysse	-11.9773
▁zeb	-11.9774
▁hideout	-11.9774
alkati	-11.9774
▁hinder	-11.9775
▁wagon	-11.9776
aah	-11.9776
▁matchup	-11.9777
▁barney	-11.9777
▁farmland	-11.9777
▁rental	-11.9783
▁classmate	-11.9783
▁swam	-11.9787
wi	-11.9787
▁tenth	-11.9788
▁jogg	-11.9791
▁brewer	-11.9792
▁olive	-11.9792
▁outlin	-11.9793
▁amber	-11.9794
▁hugh	-11.9794
▁feli	-11.9794
▁meyer	-11.9796
▁fried	-11.9798
▁masse	-11.98
▁pot	-11.9801
▁swarm	-11.9803
▁exercis	-11.9805
▁teach	-11.9805
▁thorn	-11.9806
▁ameli	-11.9808
▁cox	-11.9814
▁reiterate	-11.9816
▁reminder	-11.9817
▁devote	-11.9819
▁grove	-11.982
▁extradit	-11.9821
yev	-11.9822
▁raz	-11.9826
▁rout	-11.9827
▁impressed	-11.9828
▁stray	-11.9829
▁interviewer	-11.9831
▁eco	-11.9831
▁doming	-11.9832
▁rupe	-11.9833
rada	-11.9835
▁compile	-11.9838
▁raft	-11.984
▁wrestl	-11.9843
▁cove	-11.9844
▁provisional	-11.9846
▁reminiscen	-11.9846
▁gra	-11.9846
ague	-11.9847
irming	-11.9847
▁hen	-11.9848
▁freezer	-11.9848
▁reproducti	-11.985
ery	-11.985
pisco	-11.9851
▁interven	-11.9851
▁gere	-11.9854
▁industrializ	-11.9857
▁salam	-11.9859
iffe	-11.9859
▁nabi	-11.9859
▁soak	-11.9862
rgency	-11.9863
▁pesh	-11.9867
maker	-11.987
▁nap	-11.9871
▁ger	-11.9873
▁vip	-11.9882
▁stirring	-11.9884
▁refiner	-11.9885
ji	-11.9887
▁builder	-11.989
▁stimulate	-11.9896
▁tide	-11.9898
aire	-11.99
▁mobiliz	-11.9904
▁defuse	-11.9904
▁bureaucrat	-11.9906
crates	-11.9913
▁mason	-11.9917
▁quota	-11.9918
▁rec	-11.9923
▁ip	-11.9927
▁accommodate	-11.993
▁hijacker	-11.9934
▁dash	-11.9952
diac	-11.9955
▁xi	-11.9961
▁resistan	-11.9968
▁adel	-11.9986
zemi	-11.9988
agen	-11.9992
▁rode	-11.9999
uz	-12.0001
inal	-12.0002
▁fey	-12.0007
▁machi	-12.0008
ires	-12.0008
▁hy	-12.0016
▁reviews	-12.0017
▁destructi	-12.0018
▁gum	-12.0023
▁pul	-12.0028
▁daw	-12.0031
sman	-12.0035
thur	-12.0037
▁xian	-12.0037
eigh	-12.0046
bert	-12.0056
▁disciplin	-12.006
nis	-12.0062
▁hend	-12.0067
▁clause	-12.0075
▁spect	-12.0076
eba	-12.0077
▁lago	-12.0079
▁kati	-12.0081
battle	-12.0081
▁casp	-12.0082
▁credi	-12.0087
▁fascinat	-12.0093
sule	-12.0094
▁suite	-12.0095
▁zhu	-12.0096
acks	-12.0098
eaten	-12.0102
oval	-12.0102
ti	-12.0107
gue	-12.0107
nction	-12.0112
▁kan	-12.0119
▁closet	-12.0122
sif	-12.0128
▁enabl	-12.0129
▁seo	-12.0129
▁marco	-12.013
▁concentrat	-12.0132
▁prosecut	-12.0139
▁viag	-12.0141
aved	-12.0141
hry	-12.0144
▁resource	-12.0148
▁advisors	-12.0151
▁timo	-12.0153
▁crossings	-12.017
▁quantit	-12.0177
tun	-12.0183
▁sanit	-12.0193
▁periodic	-12.0201
▁kwan	-12.0201
▁anticipate	-12.0201
op	-12.0204
chon	-12.0205
▁mediate	-12.0213
ft	-12.0213
▁mm	-12.0214
lain	-12.0217
▁finn	-12.022
hita	-12.0221
▁yama	-12.0221
▁casual	-12.0225
yu	-12.0226
▁dav	-12.0239
▁wil	-12.024
▁fam	-12.0241
▁belly	-12.0263
▁morale	-12.0267
▁sag	-12.0268
ark	-12.0274
enna	-12.0274
▁calculate	-12.0278
▁roo	-12.028
reva	-12.0281
▁jav	-12.0293
▁insider	-12.0298
▁cal	-12.0303
▁appreciat	-12.0306
onso	-12.031
lula	-12.0311
▁duja	-12.032
voi	-12.0322
▁supervisi	-12.0325
▁trapp	-12.0327
▁jess	-12.0329
gate	-12.0338
▁translate	-12.0357
▁compensate	-12.0357
▁embezzl	-12.0359
▁clutch	-12.0361
▁vacan	-12.0368
▁vil	-12.0368
▁firefight	-12.0378
▁integrate	-12.0379
immer	-12.0391
▁proportion	-12.0392
▁von	-12.0392
fan	-12.0406
▁banker	-12.0418
drop	-12.0424
▁blend	-12.0425
frame	-12.0425
model	-12.0426
together	-12.0426
morning	-12.0426
▁continuous	-12.0428
▁domini	-12.0429
morgan	-12.0429
▁ib	-12.0432
gomer	-12.0434
▁prest	-12.0435
▁deserves	-12.0438
▁shau	-12.0442
▁extinguish	-12.0443
▁heel	-12.0446
▁tele	-12.0448
ologist	-12.0449
ffen	-12.0451
stability	-12.0451
all	-12.0458
▁reluctan	-12.0461
heim	-12.0461
tana	-12.0461
kins	-12.0461
▁envelope	-12.0462
kin	-12.0469
roads	-12.0469
▁laund	-12.0469
▁evacu	-12.0473
▁corrupt	-12.0473
▁abdulla	-12.0474
▁pediatric	-12.0476
▁clarify	-12.0476
▁convenience	-12.0476
▁curtain	-12.0476
▁fugitive	-12.0476
▁gondola	-12.0476
▁jaguar	-12.0476
▁jurisdiction	-12.0476
▁lithuania	-12.0476
▁mathematic	-12.0476
▁motorbike	-12.0476
▁ossuar	-12.0476
▁rainforest	-12.0476
▁rendition	-12.0476
▁ritchie	-12.0476
▁salvador	-12.0476
▁specify	-12.0476
▁acclaim	-12.0476
▁evident	-12.0476
▁fortunate	-12.0476
▁relegat	-12.0476
▁telegraph	-12.0476
▁erotic	-12.0477
▁dupre	-12.0477
▁superstar	-12.0477
▁muhammad	-12.0477
▁gilbert	-12.0477
▁blanchett	-12.0477
▁freud	-12.0477
▁hajj	-12.0477
▁envision	-12.0477
▁emmanuel	-12.0477
▁cyberspace	-12.0477
▁throng	-12.0477
▁buff	-12.0477
▁expulsion	-12.0477
▁ceasefire	-12.0477
▁eduard	-12.0477
▁hoop	-12.0477
▁crab	-12.0478
▁thieves	-12.0478
▁tread	-12.0478
▁annoy	-12.0478
▁physicist	-12.0478
▁imagination	-12.0478
▁exert	-12.0478
▁volley	-12.0478
▁motel	-12.0478
▁frantic	-12.0478
▁perpetrator	-12.0478
▁footprint	-12.0478
▁elbow	-12.0478
misunderstanding	-12.0479
▁phrase	-12.0479
▁imam	-12.0479
▁nickel	-12.0479
▁collaborator	-12.0479
▁zebra	-12.0479
▁shunn	-12.048
▁ideological	-12.048
▁invention	-12.048
▁fool	-12.048
▁racist	-12.0481
▁systematic	-12.0481
▁jihadist	-12.0481
▁thigh	-12.0483
▁adaptation	-12.0483
▁aisle	-12.0483
▁fundamentalist	-12.0483
▁pupp	-12.0483
▁swimmer	-12.0483
▁normalization	-12.0484
▁peek	-12.0484
▁interpretation	-12.0485
▁nightmare	-12.0485
fo	-12.0485
▁multimillion	-12.0486
▁billboard	-12.0486
▁deaf	-12.0486
▁emitt	-12.0487
has	-12.0487
▁baptist	-12.0489
▁authoritarian	-12.0489
▁refineries	-12.049
guet	-12.0491
▁foment	-12.0491
▁sulli	-12.0492
▁steelers	-12.0493
▁tran	-12.0495
▁trench	-12.0495
▁shootout	-12.0496
ritis	-12.0496
▁wrestler	-12.0496
asso	-12.0498
▁spaceship	-12.05
▁jamaican	-12.0503
▁ridge	-12.0503
▁colli	-12.0504
▁hogan	-12.0505
▁combatant	-12.0509
▁everton	-12.0509
▁molest	-12.0511
▁crane	-12.0512
▁irra	-12.0513
una	-12.0514
▁versa	-12.0514
▁incit	-12.0515
▁conductor	-12.0516
▁adventurer	-12.0517
▁libi	-12.0517
▁skidd	-12.0521
▁decent	-12.0523
▁oz	-12.0527
▁governors	-12.0528
▁succession	-12.053
uez	-12.0537
▁seinfeld	-12.0538
▁fosse	-12.0539
▁defy	-12.054
▁darre	-12.0541
▁indirect	-12.0543
▁mock	-12.0543
atus	-12.0544
▁dipped	-12.055
text	-12.0557
▁philipp	-12.0557
▁enthusiastic	-12.0563
errez	-12.0568
▁charl	-12.057
▁wong	-12.057
ore	-12.057
▁lexi	-12.0572
ake	-12.0591
▁lah	-12.0593
▁finalists	-12.0598
emptive	-12.0605
▁paradi	-12.0607
▁humane	-12.0607
thic	-12.0609
▁creditor	-12.0611
▁hik	-12.0613
▁geo	-12.0613
▁clone	-12.0614
▁alme	-12.0616
▁packs	-12.0617
▁ic	-12.062
▁pir	-12.0621
aewoo	-12.0623
▁stil	-12.0626
▁fend	-12.063
▁slice	-12.063
▁offset	-12.0633
▁stam	-12.0635
▁revers	-12.0641
▁minded	-12.0642
xis	-12.0642
▁bro	-12.0643
▁secretari	-12.0643
safe	-12.0651
▁decorat	-12.0654
▁shre	-12.0654
▁tile	-12.0661
lis	-12.0664
▁dancer	-12.0665
toff	-12.067
nants	-12.0671
▁yun	-12.0676
▁exhaust	-12.0689
▁bucking	-12.0694
▁enforc	-12.0698
▁stevens	-12.0699
▁regrett	-12.0708
ico	-12.0712
▁slashing	-12.0715
▁lan	-12.0715
▁audiences	-12.0715
▁gunfi	-12.0718
▁scho	-12.0719
▁plagu	-12.072
▁sund	-12.072
ussi	-12.0723
▁uphold	-12.0727
▁dori	-12.0734
▁sup	-12.0737
istic	-12.0741
▁claudi	-12.0743
▁communicat	-12.0745
ue	-12.0747
▁mul	-12.0753
▁paw	-12.0765
ears	-12.0772
anxi	-12.0772
▁dian	-12.0774
▁qui	-12.0776
▁estra	-12.0778
▁bir	-12.0794
▁integrati	-12.0796
▁deplor	-12.0797
▁retaliat	-12.0798
than	-12.0801
ehan	-12.0803
▁lal	-12.0806
▁pett	-12.0812
▁underline	-12.0819
▁kas	-12.0828
▁armi	-12.0829
pot	-12.083
pl	-12.0834
fraction	-12.0841
bola	-12.0841
tte	-12.085
▁robin	-12.0854
abo	-12.0856
▁dive	-12.0857
▁gard	-12.0861
awar	-12.0865
▁pizz	-12.0872
▁interrogat	-12.0878
▁hatch	-12.0879
ersen	-12.0887
▁tumble	-12.0892
▁webb	-12.0893
▁gamble	-12.0898
▁hungar	-12.0899
▁kha	-12.0912
▁vent	-12.0915
ph	-12.0923
ites	-12.0927
▁participati	-12.0929
gs	-12.093
zone	-12.0931
▁jitter	-12.0933
illa	-12.0935
▁burt	-12.094
illy	-12.0945
▁mcc	-12.0949
▁shout	-12.0949
▁mali	-12.0959
▁stat	-12.0962
▁forge	-12.0967
▁transmitt	-12.0982
▁coaster	-12.0992
▁malign	-12.0998
▁fle	-12.0999
horn	-12.1001
▁rug	-12.1007
▁rocker	-12.1011
▁nawa	-12.102
▁gag	-12.1022
▁lang	-12.1026
▁alg	-12.1032
▁chatt	-12.1041
egas	-12.1042
▁cro	-12.1043
▁log	-12.1049
▁patt	-12.1052
▁jab	-12.1054
▁origins	-12.1061
▁harle	-12.1068
▁prescrib	-12.1078
▁censor	-12.108
tice	-12.1087
ctic	-12.11
▁dora	-12.1104
▁hans	-12.1118
▁render	-12.112
erber	-12.113
▁schn	-12.1133
▁stirr	-12.1138
▁elde	-12.1142
▁norm	-12.1152
decent	-12.116
▁boni	-12.1163
liga	-12.1163
era	-12.117
▁deter	-12.1172
▁seeds	-12.1178
▁galax	-12.118
▁gotte	-12.119
uster	-12.1193
roll	-12.1195
around	-12.1195
look	-12.1197
▁logg	-12.1198
four	-12.1201
▁bibl	-12.1205
▁boundar	-12.1207
▁freight	-12.1208
▁messag	-12.1209
niya	-12.1211
▁ump	-12.1212
hurt	-12.1215
▁readi	-12.1219
reau	-12.1229
▁cull	-12.1232
▁emphasi	-12.1238
▁tribun	-12.1242
▁happi	-12.1244
▁aggregate	-12.1246
▁bodlander	-12.1246
▁chimpanzee	-12.1246
▁eyewitness	-12.1246
▁insufficient	-12.1246
▁plaintiff	-12.1246
▁scooter	-12.1246
▁scowcroft	-12.1246
▁tarmac	-12.1246
▁ultimatum	-12.1246
▁upheaval	-12.1246
▁adolf	-12.1246
▁frequenc	-12.1246
▁neglect	-12.1246
▁overflow	-12.1246
▁resurrect	-12.1246
▁administer	-12.1246
▁delinquent	-12.1246
▁sporadic	-12.1246
▁voyage	-12.1246
life	-12.1246
▁comrade	-12.1246
▁namdaemu	-12.1246
▁warrior	-12.1246
▁sindh	-12.1246
▁mauritania	-12.1246
▁ecosystem	-12.1246
▁jalal	-12.1246
▁embroi	-12.1246
▁leopard	-12.1246
▁identical	-12.1246
▁polanski	-12.1246
▁knox	-12.1246
▁smurf	-12.1246
▁refund	-12.1246
▁quadruple	-12.1246
▁sermon	-12.1246
▁barroso	-12.1246
▁delaware	-12.1246
▁bimbo	-12.1246
▁resemblance	-12.1246
▁anglican	-12.1246
▁vague	-12.1246
▁bulb	-12.1246
▁meghani	-12.1246
▁rope	-12.1246
▁cedar	-12.1247
▁faint	-12.1247
▁complicit	-12.1247
▁analog	-12.1247
▁mixture	-12.1247
▁celtic	-12.1247
▁bachelor	-12.1247
▁discard	-12.1248
▁snowfall	-12.1248
▁salute	-12.1248
▁workshop	-12.1248
▁enrollment	-12.1248
▁characteristic	-12.1248
eille	-12.1249
▁bulldozer	-12.1249
▁ginger	-12.1249
▁flatten	-12.1249
▁rabbit	-12.1249
▁primate	-12.1249
▁compell	-12.125
▁elvi	-12.125
▁abdomen	-12.125
▁aggravate	-12.125
▁psychiatrist	-12.125
▁quinn	-12.125
▁legitima	-12.125
▁marble	-12.125
▁unfold	-12.1251
ussain	-12.1251
▁reptile	-12.1251
▁gown	-12.1251
▁calculation	-12.1251
▁purse	-12.1252
▁canister	-12.1253
▁feminin	-12.1253
▁bite	-12.1253
ukov	-12.1253
▁insight	-12.1254
▁intimate	-12.1254
▁strapp	-12.1254
▁void	-12.1256
▁kennel	-12.1256
▁heroic	-12.1256
▁roche	-12.1256
▁viru	-12.1256
▁krug	-12.1257
▁downgrade	-12.1257
▁shotgun	-12.1258
▁thaw	-12.1258
▁weightless	-12.1259
▁burri	-12.1259
▁assignment	-12.1259
▁feast	-12.1259
▁disneyland	-12.126
▁deliberation	-12.126
kanit	-12.126
▁qin	-12.126
tious	-12.126
▁prohibition	-12.1261
▁frenz	-12.1261
▁bun	-12.1262
▁chef	-12.1263
▁collector	-12.1263
▁cypr	-12.1265
▁calder	-12.1266
▁rip	-12.1267
▁sniff	-12.1268
▁compris	-12.127
▁braun	-12.1273
▁motorist	-12.1274
▁hillside	-12.1276
heddin	-12.1276
▁montrea	-12.1276
▁petrol	-12.1276
iz	-12.1277
▁coward	-12.1282
▁modifie	-12.1283
▁realistic	-12.1283
▁startup	-12.1284
▁flies	-12.1284
▁entertainer	-12.1285
▁degrad	-12.1286
▁affection	-12.1288
▁reconn	-12.1295
▁lat	-12.1297
▁evaluate	-12.1298
▁myth	-12.1298
▁balco	-12.1299
▁undern	-12.13
▁hallway	-12.1303
worth	-12.1304
▁meal	-12.1305
▁stark	-12.1306
▁stack	-12.1306
▁overture	-12.1307
ahn	-12.1308
▁dogged	-12.1309
▁trev	-12.1309
▁prob	-12.131
lept	-12.1311
▁lament	-12.1311
▁cultivat	-12.1314
▁viewing	-12.1316
▁camill	-12.1317
rov	-12.132
▁lynd	-12.1323
▁fax	-12.1323
▁shall	-12.1323
▁lari	-12.133
res	-12.1333
ipped	-12.1334
▁proportional	-12.1338
▁abn	-12.1341
vo	-12.1341
ushi	-12.1342
▁berl	-12.1343
▁schult	-12.1344
caul	-12.1351
▁mona	-12.1357
chemical	-12.1357
▁relian	-12.1358
▁cite	-12.1362
▁laborer	-12.1363
▁munition	-12.1367
▁downer	-12.1369
▁programme	-12.1369
▁ounces	-12.1371
ines	-12.1384
▁associates	-12.1386
bee	-12.1388
▁dill	-12.1392
▁disapprov	-12.1397
enberg	-12.1399
▁collud	-12.1399
▁cam	-12.1403
▁pier	-12.1403
▁dresse	-12.1408
▁influen	-12.1418
▁gam	-12.1425
▁commando	-12.1436
ama	-12.1444
▁seasons	-12.1454
rei	-12.1455
▁shaky	-12.1467
▁sake	-12.1471
▁popul	-12.1472
glasses	-12.1473
▁hindus	-12.1473
▁ann	-12.1476
▁publicize	-12.1483
trust	-12.1487
▁normaliz	-12.1491
▁mili	-12.1496
▁toshi	-12.1496
▁watt	-12.1499
▁allocat	-12.1508
enza	-12.1508
▁oman	-12.151
▁confus	-12.1512
▁flo	-12.1512
pt	-12.1515
▁lime	-12.1515
▁freeway	-12.1517
▁gase	-12.1522
ncy	-12.1523
▁cling	-12.1528
nian	-12.1529
▁pools	-12.1537
▁leno	-12.154
wn	-12.1543
▁mono	-12.1546
▁yah	-12.155
wp	-12.1553
pb	-12.157
▁qua	-12.1576
▁seon	-12.1578
elhof	-12.1579
▁ripple	-12.1586
▁cater	-12.1588
sibility	-12.1591
▁fetch	-12.1592
oppo	-12.1599
▁usage	-12.1602
rgen	-12.1603
▁prosecute	-12.1613
grow	-12.1617
▁vai	-12.1621
▁tightening	-12.1623
▁astonish	-12.1623
ouf	-12.1626
emory	-12.1629
oc	-12.1634
ski	-12.1634
▁reut	-12.1638
cb	-12.1644
nsu	-12.1649
▁sights	-12.166
workers	-12.1661
matic	-12.1661
▁thriv	-12.1664
▁taj	-12.1667
ame	-12.1667
dell	-12.1675
▁biograph	-12.1681
tikh	-12.1683
▁nim	-12.1684
▁notable	-12.1685
▁finaliz	-12.169
dero	-12.1691
kee	-12.1694
eb	-12.1694
▁fuji	-12.1695
▁nts	-12.1707
▁disclos	-12.1711
▁beak	-12.1713
▁discipline	-12.1718
▁highland	-12.1734
▁opener	-12.1746
▁rafi	-12.1752
▁ung	-12.1753
▁arrangement	-12.1753
▁dh	-12.1757
▁lips	-12.176
▁dai	-12.1765
saw	-12.1768
▁schum	-12.1771
▁pol	-12.1789
▁nova	-12.1795
zak	-12.1797
▁shells	-12.1802
bury	-12.1804
▁gabriel	-12.1805
oros	-12.1805
bur	-12.1807
eur	-12.181
▁bong	-12.182
velt	-12.182
clara	-12.182
▁leve	-12.1821
▁tangib	-12.1828
▁cp	-12.1833
▁hur	-12.1833
unting	-12.1835
mother	-12.1836
▁compuls	-12.1838
onian	-12.1839
diane	-12.1845
▁nasir	-12.1846
hwa	-12.1846
▁intentions	-12.1864
▁maid	-12.1867
▁dim	-12.1868
▁tyrann	-12.1871
rap	-12.1877
saki	-12.1883
▁shatter	-12.189
▁albums	-12.1904
▁beg	-12.1914
umn	-12.1918
▁flavor	-12.1923
dida	-12.1924
▁cate	-12.193
▁preach	-12.193
cker	-12.1933
dian	-12.1938
▁admire	-12.1941
acio	-12.1942
▁silic	-12.1949
▁jen	-12.195
ru	-12.1951
▁riches	-12.1952
▁yeon	-12.1955
harmonic	-12.1963
yeh	-12.1979
▁stockhol	-12.1987
iji	-12.199
▁josh	-12.1994
▁litera	-12.1996
zio	-12.2001
oke	-12.2005
▁wow	-12.2006
▁integrat	-12.2015
▁revel	-12.2018
achi	-12.2019
▁fab	-12.202
log	-12.2025
ria	-12.2026
schle	-12.2026
nutrition	-12.2027
conduct	-12.2028
sleep	-12.2029
foot	-12.2031
▁mot	-12.2033
▁advoca	-12.2034
▁hotte	-12.2036
chai	-12.2038
taka	-12.2039
▁wend	-12.2041
avoid	-12.2042
▁seale	-12.2044
▁hyo	-12.2045
ork	-12.2048
▁roth	-12.2051
▁uncla	-12.2053
▁saga	-12.2054
▁lava	-12.2056
▁albania	-12.2061
rose	-12.2064
▁mechanic	-12.2065
▁bike	-12.2066
marked	-12.2067
▁strategi	-12.2071
▁clint	-12.2072
▁wacho	-12.2072
▁flip	-12.2072
mpact	-12.2076
▁worship	-12.2079
▁palestin	-12.2079
▁panmunj	-12.2079
▁abolition	-12.2079
▁accomplice	-12.2079
▁alejandr	-12.2079
▁avalanche	-12.2079
▁awkward	-12.2079
▁brawl	-12.2079
▁cantaloupe	-12.2079
▁carnival	-12.2079
▁cockpit	-12.2079
▁constituenc	-12.2079
▁discontent	-12.2079
▁disqualifi	-12.2079
▁enclave	-12.2079
▁grylls	-12.2079
▁juventu	-12.2079
▁leisure	-12.2079
▁madagascar	-12.2079
▁memorandum	-12.2079
▁pavilion	-12.2079
▁rockefeller	-12.2079
▁trinidad	-12.2079
▁futurist	-12.2079
▁namibia	-12.2079
▁outnumber	-12.2079
▁skyrocket	-12.2079
▁unhcr	-12.2079
▁aurora	-12.2079
▁caesar	-12.2079
▁backpack	-12.2079
▁connor	-12.2079
▁specimen	-12.2079
▁thymus	-12.2079
▁cheetah	-12.2079
▁abdom	-12.2079
eutic	-12.2079
▁blackberr	-12.2079
▁morici	-12.2079
▁mujah	-12.2079
▁superjumbo	-12.2079
▁glory	-12.2079
▁paleontologist	-12.2079
▁flank	-12.2079
▁desktop	-12.2079
▁suitcase	-12.2079
▁prevail	-12.2079
▁creek	-12.2079
▁preview	-12.2079
▁unify	-12.2079
▁patern	-12.2079
▁intoxicat	-12.2079
▁unreasonabl	-12.208
▁qualification	-12.208
▁fertilizer	-12.208
▁cesar	-12.208
▁mcqu	-12.208
▁forehand	-12.208
omaha	-12.208
▁refrigerator	-12.208
▁crouch	-12.208
▁cubic	-12.208
▁resent	-12.208
▁muddy	-12.2081
▁gym	-12.2081
▁revoke	-12.2081
▁columnist	-12.2081
▁patent	-12.2081
▁stalk	-12.2081
▁commemoration	-12.2082
▁boulo	-12.2082
▁headphone	-12.2082
▁straw	-12.2083
▁ricard	-12.2083
▁architecture	-12.2083
▁dynamit	-12.2083
▁zhe	-12.2083
▁guti	-12.2083
▁feline	-12.2083
▁touchdown	-12.2083
▁bradley	-12.2084
▁fabrication	-12.2084
▁marshall	-12.2085
iband	-12.2086
▁relate	-12.2086
▁abductee	-12.2086
▁iceberg	-12.2087
▁innovation	-12.2088
clusion	-12.2088
ane	-12.2088
ollea	-12.2089
▁compatible	-12.2091
▁depiction	-12.2091
▁hopkin	-12.2092
▁ayres	-12.2092
▁windsor	-12.2093
▁balkan	-12.2093
▁lame	-12.2093
▁dimensional	-12.2093
ehr	-12.2093
▁electorate	-12.2094
▁turkmen	-12.2094
▁colorful	-12.2095
▁admir	-12.2095
▁cement	-12.2095
▁barber	-12.2095
▁groom	-12.2096
▁diwa	-12.2097
▁rewrit	-12.2097
▁sniper	-12.2098
▁counselor	-12.2099
▁mountainside	-12.21
▁parliamentarian	-12.21
▁woodland	-12.2101
nica	-12.2101
▁downward	-12.2102
▁nat	-12.2102
eads	-12.2104
wadd	-12.2105
▁flush	-12.2105
▁hoff	-12.2105
steps	-12.2106
▁clement	-12.2107
▁pegg	-12.2107
▁wax	-12.2108
▁claw	-12.2108
▁temper	-12.2109
▁affiliat	-12.211
▁betray	-12.211
▁stiff	-12.2112
▁xiao	-12.2113
▁sunny	-12.2114
▁escalator	-12.2115
sville	-12.2115
▁hospitalization	-12.2118
▁deflect	-12.2119
▁worm	-12.2121
cer	-12.2122
▁flexibilit	-12.2125
▁hernan	-12.2125
▁endeavor	-12.2125
▁upward	-12.2131
nnah	-12.2132
▁gins	-12.2134
oir	-12.2137
lender	-12.214
▁indicator	-12.214
▁cram	-12.2142
▁ascend	-12.215
dah	-12.2161
▁kc	-12.2164
▁processor	-12.2165
zan	-12.2166
fest	-12.2168
▁casa	-12.2173
▁heft	-12.2173
sour	-12.2173
▁candid	-12.2174
▁cald	-12.218
▁frig	-12.2181
▁approache	-12.2181
▁charm	-12.2182
▁mistaken	-12.2183
▁saber	-12.2183
▁optim	-12.2184
libu	-12.2186
cheema	-12.2189
▁agrees	-12.2189
▁sreb	-12.2192
▁skeptical	-12.2195
hafi	-12.2196
▁gaul	-12.2197
▁oliver	-12.2197
▁rajas	-12.22
▁tsa	-12.2202
▁eun	-12.2213
▁nia	-12.2213
rjee	-12.2214
▁verifiabl	-12.2217
▁arche	-12.2219
moto	-12.222
▁jeon	-12.222
▁booster	-12.2224
▁ent	-12.2225
▁biting	-12.2228
cini	-12.2232
▁hugg	-12.2233
eem	-12.2235
abad	-12.2239
▁pg	-12.224
ging	-12.2248
▁porter	-12.2249
tty	-12.2255
▁educate	-12.226
▁shorten	-12.2265
▁egg	-12.2268
▁controller	-12.227
▁bra	-12.2275
rup	-12.2276
ating	-12.2276
▁eisen	-12.2278
▁attendants	-12.2281
ruz	-12.2288
▁exhausted	-12.2288
bol	-12.2289
▁initiate	-12.2297
ott	-12.2298
hu	-12.2298
vi	-12.2301
▁ana	-12.2301
pache	-12.2303
▁fabr	-12.2305
▁lied	-12.2306
▁eli	-12.2307
▁fr	-12.2307
ahab	-12.231
▁incorporate	-12.2311
▁consume	-12.2311
▁shank	-12.2331
▁shand	-12.2331
▁gunn	-12.2334
wau	-12.2336
lett	-12.2337
▁exchang	-12.2338
▁nuts	-12.234
▁alexandr	-12.2347
▁cr	-12.2348
yah	-12.2353
▁georgian	-12.2357
▁pessimist	-12.2361
▁levee	-12.2367
▁banda	-12.2368
▁ruba	-12.2369
▁pie	-12.237
▁wade	-12.2372
▁asha	-12.2373
of	-12.2375
▁pitcher	-12.2376
oni	-12.2392
▁moussa	-12.2394
▁meteorolog	-12.2394
▁heroin	-12.2396
▁generators	-12.2402
▁predicts	-12.2403
▁solt	-12.2404
▁tutori	-12.2411
▁remed	-12.2412
cla	-12.2415
▁naha	-12.2416
▁obstruct	-12.2421
▁consolidate	-12.2425
▁justifi	-12.2427
riq	-12.2431
stice	-12.2432
bbie	-12.2433
▁subsidi	-12.2434
▁dare	-12.244
ob	-12.2458
▁covert	-12.2472
▁quant	-12.2473
ili	-12.2477
metric	-12.2477
ieu	-12.248
say	-12.2484
itu	-12.249
▁lip	-12.2497
▁kerch	-12.25
▁commute	-12.25
▁vill	-12.2507
▁notion	-12.2511
▁excavat	-12.2524
▁preced	-12.2534
igat	-12.2537
tner	-12.254
gne	-12.2545
▁mae	-12.2553
▁dedicate	-12.2558
▁lars	-12.2575
▁joan	-12.2577
▁emotion	-12.2594
▁preference	-12.2594
▁chungchon	-12.2599
▁alba	-12.2601
▁disma	-12.2601
▁defian	-12.2602
wf	-12.2603
vani	-12.2618
▁bearer	-12.2621
▁champ	-12.2626
▁gal	-12.2631
▁grad	-12.2637
▁syn	-12.2639
▁advocat	-12.2642
yar	-12.2643
▁eurosta	-12.2646
▁generator	-12.2649
▁lash	-12.2657
▁athlete	-12.2659
▁forci	-12.2666
lumin	-12.2666
ttle	-12.2669
▁tri	-12.2675
▁whiske	-12.2675
▁interfa	-12.2687
▁intrigu	-12.2693
▁saba	-12.2697
bal	-12.2697
▁sting	-12.2703
mill	-12.2704
pinning	-12.2704
▁employer	-12.2706
rel	-12.271
▁relat	-12.2712
▁bab	-12.2713
▁arabs	-12.2716
▁mirr	-12.2718
▁dece	-12.272
use	-12.2728
▁vet	-12.2731
ndell	-12.2732
▁trends	-12.2733
▁maps	-12.2735
▁kana	-12.2736
▁drac	-12.2737
agar	-12.2737
ven	-12.274
believ	-12.2751
lm	-12.2756
lp	-12.2756
▁thrive	-12.2758
cak	-12.2765
▁beta	-12.2769
rat	-12.2771
dullah	-12.2775
▁kat	-12.2779
▁plen	-12.2786
▁convict	-12.2793
▁unfit	-12.281
▁garri	-12.2812
▁purge	-12.2829
retz	-12.283
▁ele	-12.2831
▁tal	-12.2835
▁gentle	-12.2836
anga	-12.2837
uck	-12.2844
bun	-12.2846
cry	-12.2859
▁infring	-12.2859
▁settlements	-12.2865
▁recorder	-12.2871
▁reads	-12.2872
uted	-12.2878
▁seas	-12.288
lynn	-12.2887
tract	-12.2898
▁satisfact	-12.29
▁ironic	-12.29
lusive	-12.2903
ghi	-12.2904
▁suf	-12.2907
▁sour	-12.2918
▁downsiz	-12.2919
▁ramm	-12.2925
phone	-12.2925
fayette	-12.2933
▁intra	-12.2934
week	-12.2934
taek	-12.2936
▁def	-12.2936
gone	-12.2939
smith	-12.2939
media	-12.294
league	-12.2941
▁fayya	-12.2942
awful	-12.2948
trapped	-12.2948
hallow	-12.2952
hold	-12.2955
position	-12.2955
dog	-12.2956
▁invent	-12.2958
▁wrangl	-12.296
tu	-12.296
▁server	-12.2963
lana	-12.2965
▁profession	-12.2966
▁bras	-12.2968
rgis	-12.2969
▁jeopard	-12.297
▁divisi	-12.298
▁interact	-12.2981
▁innovati	-12.2984
▁kad	-12.2985
▁albe	-12.2986
▁obsess	-12.2987
▁boon	-12.2988
▁buoy	-12.2988
▁kazakh	-12.2988
▁appetite	-12.2988
▁audiotape	-12.2988
▁autobiograph	-12.2988
▁ayurved	-12.2988
▁berezovsky	-12.2988
▁crawl	-12.2988
▁culprit	-12.2988
▁demographic	-12.2988
▁disregard	-12.2988
▁djamena	-12.2988
▁erratic	-12.2988
▁fowler	-12.2988
▁gwen	-12.2988
▁indiscriminate	-12.2988
▁jetliner	-12.2988
▁loophole	-12.2988
▁ordinance	-12.2988
▁outflow	-12.2988
▁portfolio	-12.2988
▁rebuff	-12.2988
▁rethink	-12.2988
▁souvenir	-12.2988
▁tanzania	-12.2988
▁yugoslav	-12.2988
▁clergy	-12.2988
▁demolish	-12.2988
▁dreamliner	-12.2988
▁swirl	-12.2988
▁steadfast	-12.2988
▁contagio	-12.2988
▁snapshot	-12.2988
▁mistreat	-12.2988
▁module	-12.2988
▁sleeve	-12.2988
▁abstain	-12.2988
▁fraudulent	-12.2988
▁trunk	-12.2988
▁curtail	-12.2988
▁antenna	-12.2988
▁seismic	-12.2988
▁encrypt	-12.2988
▁unwilling	-12.2988
▁biometric	-12.2988
▁grape	-12.2988
▁cadet	-12.2988
▁cowboy	-12.2988
▁minivan	-12.2988
▁ericsson	-12.2988
▁grasp	-12.2988
▁empower	-12.2988
▁juice	-12.2989
▁diaries	-12.2989
▁charismatic	-12.2989
▁mafia	-12.2989
▁bourse	-12.2989
▁categorical	-12.2989
▁ansa	-12.2989
▁jelly	-12.2989
▁evict	-12.2989
▁furious	-12.2989
▁goddess	-12.2989
▁ecsta	-12.2989
▁crescent	-12.2989
▁breez	-12.2989
▁tigr	-12.2989
▁tanner	-12.2989
▁arrow	-12.2989
▁infra	-12.2989
▁hedge	-12.2989
▁mimic	-12.2989
▁fetus	-12.299
▁edmund	-12.299
▁sophi	-12.299
atorium	-12.299
▁esp	-12.299
▁anthropolog	-12.299
▁hosseini	-12.299
▁realign	-12.299
▁tusk	-12.299
▁protester	-12.299
▁racket	-12.2991
▁meadow	-12.2991
▁scoop	-12.2991
▁graduation	-12.2991
▁recit	-12.2991
▁churn	-12.2991
▁lieber	-12.2991
▁airlift	-12.2991
▁yuko	-12.2991
▁birthrate	-12.2991
▁latitude	-12.2992
▁elliot	-12.2992
▁bandit	-12.2993
▁stoppage	-12.2993
▁luke	-12.2993
▁freak	-12.2994
▁generous	-12.2994
▁interceptor	-12.2994
▁marketplace	-12.2994
▁specialize	-12.2995
▁thankful	-12.2995
▁amass	-12.2996
▁jas	-12.2996
▁submerg	-12.2996
▁incur	-12.2997
▁artwork	-12.2997
▁thoms	-12.2997
▁educator	-12.2997
▁elisa	-12.2997
▁cogniti	-12.2998
▁valve	-12.2998
▁interruption	-12.2998
▁sca	-12.2999
▁pew	-12.2999
▁adjustment	-12.3
▁secularist	-12.3
moon	-12.3
▁pierce	-12.3001
▁jorge	-12.3001
▁housekeeper	-12.3005
▁som	-12.3005
▁chew	-12.3005
▁crusader	-12.3007
▁perez	-12.3009
▁mauric	-12.3009
lines	-12.3011
▁terrifi	-12.3012
▁banana	-12.3014
leet	-12.3015
▁fein	-12.3015
sha	-12.3015
▁loung	-12.3016
▁solicit	-12.3016
▁fundraiser	-12.3018
▁condon	-12.302
▁commun	-12.3022
▁ngo	-12.3025
▁snu	-12.3025
▁airship	-12.3026
▁induce	-12.3028
▁hammon	-12.303
rc	-12.3034
▁carat	-12.3035
▁mcle	-12.3035
▁pinn	-12.3039
▁equalise	-12.3039
▁clever	-12.3041
▁lapse	-12.3041
▁fabric	-12.3042
▁maldiv	-12.3044
▁aaa	-12.3045
▁flagg	-12.3045
▁kinne	-12.3046
▁lagg	-12.3048
▁loosen	-12.3049
▁scann	-12.3049
▁kraus	-12.3049
▁mortal	-12.3049
▁violator	-12.305
▁dismay	-12.3055
▁blanc	-12.3057
▁forceful	-12.306
▁fist	-12.306
▁accompanie	-12.3061
▁capitalism	-12.3063
▁ratifi	-12.3063
▁reper	-12.3064
▁iq	-12.3069
▁zane	-12.3071
kong	-12.3072
▁forgive	-12.3074
▁reno	-12.3077
▁mcnam	-12.3078
▁kiku	-12.3079
roy	-12.3086
▁burre	-12.3091
▁syndicate	-12.3094
▁messi	-12.3097
▁jonat	-12.3101
▁tablet	-12.3103
▁boob	-12.3104
bul	-12.3105
▁singaporean	-12.3111
▁brod	-12.3116
▁abilit	-12.3121
▁simulate	-12.3122
▁borg	-12.3122
tze	-12.3125
▁incorporat	-12.3129
choles	-12.3133
▁expir	-12.3138
▁garr	-12.314
estero	-12.3142
▁porch	-12.3144
▁blazer	-12.3149
▁cardiov	-12.315
nso	-12.3151
elli	-12.3152
▁samuel	-12.3155
alban	-12.3159
▁shui	-12.3163
▁conciliat	-12.3166
▁icr	-12.3176
▁hydra	-12.3177
bly	-12.318
hiko	-12.3189
▁helms	-12.3197
zuma	-12.3205
▁giro	-12.3206
▁imp	-12.3209
stable	-12.3212
lar	-12.3217
▁camel	-12.3221
▁painter	-12.3223
▁tro	-12.3224
ast	-12.3224
soon	-12.3225
richt	-12.3229
▁tract	-12.3229
▁intimidati	-12.3231
stra	-12.3236
▁jett	-12.3241
▁certifi	-12.3241
ryl	-12.3245
▁calculat	-12.325
▁dissolv	-12.3254
lamin	-12.3264
▁withstand	-12.3265
▁eras	-12.3267
dic	-12.327
pat	-12.3272
▁barad	-12.3277
▁giz	-12.3279
▁lai	-12.328
▁jessi	-12.3281
▁julian	-12.3285
▁verge	-12.3286
▁roos	-12.329
▁ryd	-12.3297
▁af	-12.3299
▁mao	-12.3299
wall	-12.33
▁header	-12.3303
oda	-12.3308
▁tzi	-12.3308
▁supplements	-12.3309
ovi	-12.3316
▁anton	-12.3317
▁repressi	-12.3319
▁xia	-12.3321
▁enroll	-12.3328
sch	-12.333
shu	-12.3335
erous	-12.3337
▁uneas	-12.3343
yongsan	-12.3346
▁perish	-12.3348
▁kenne	-12.335
▁directions	-12.3353
▁retriev	-12.3357
▁hyde	-12.3367
nson	-12.3368
▁divin	-12.3371
▁cosmo	-12.3375
trophy	-12.3376
▁displace	-12.3376
▁rile	-12.3377
▁zai	-12.3382
▁footballer	-12.3387
ddy	-12.339
uci	-12.339
dis	-12.34
▁pi	-12.34
▁frustrate	-12.3404
▁liberate	-12.3406
▁flourish	-12.3408
umi	-12.341
▁bully	-12.3411
▁drops	-12.3417
▁sacking	-12.3422
▁jamm	-12.3428
▁zealander	-12.3432
jaf	-12.3433
llan	-12.3434
▁perceiv	-12.3436
▁soli	-12.3444
pon	-12.3445
▁poke	-12.3445
▁gome	-12.3448
▁fen	-12.3455
▁grill	-12.3456
▁printer	-12.3456
▁destroyer	-12.3462
▁relocat	-12.3466
▁gallu	-12.3467
▁stampede	-12.3468
▁gall	-12.3472
▁birdie	-12.3475
sche	-12.3481
▁tel	-12.3491
▁bait	-12.3514
▁adventures	-12.3523
vac	-12.3533
▁lav	-12.3537
▁gir	-12.3538
▁prai	-12.3541
▁exclude	-12.3544
▁snipe	-12.3544
▁sequel	-12.3545
▁ferri	-12.3548
▁hamm	-12.3551
hart	-12.3556
▁sik	-12.3557
▁gong	-12.356
je	-12.3572
cin	-12.3578
▁gia	-12.358
▁vit	-12.3595
▁verse	-12.3606
▁disguis	-12.3607
smo	-12.3612
▁regulat	-12.3614
▁surrogate	-12.3614
oom	-12.3614
inos	-12.3617
▁mubar	-12.3622
ically	-12.3627
▁jeopardize	-12.3629
▁bain	-12.363
▁drawings	-12.3631
▁flowing	-12.3632
▁wis	-12.3633
▁underscor	-12.3638
▁supplement	-12.3645
▁physiolog	-12.3646
▁missionar	-12.3647
▁pont	-12.365
▁smuggl	-12.3655
▁diver	-12.3656
▁duch	-12.3664
cable	-12.3665
▁dera	-12.3671
▁attache	-12.3671
▁devi	-12.3675
▁sto	-12.3681
▁sands	-12.3682
▁equalize	-12.3683
▁attitudes	-12.3688
▁escalate	-12.3689
▁reserv	-12.3695
▁germ	-12.3698
omi	-12.3705
▁chic	-12.3711
asia	-12.3714
▁dott	-12.372
▁earl	-12.3722
pc	-12.3726
▁carre	-12.3727
doch	-12.3731
▁shan	-12.3739
▁hay	-12.374
▁replica	-12.3749
▁foray	-12.3752
iff	-12.3753
▁gwang	-12.3754
ngal	-12.3757
▁tit	-12.3763
▁jee	-12.3768
▁greeting	-12.3771
▁una	-12.3773
▁geographic	-12.3779
▁shaha	-12.3785
▁mit	-12.3788
▁confiscat	-12.3801
▁lonely	-12.3802
▁ober	-12.3816
now	-12.3822
▁deng	-12.3827
▁preside	-12.3839
ure	-12.384
▁embrac	-12.3844
bre	-12.3847
▁belts	-12.3847
▁normalize	-12.3853
▁yin	-12.3853
▁grind	-12.3863
dam	-12.3867
terrestrial	-12.3884
hard	-12.3885
▁stipulate	-12.3888
▁nikol	-12.3889
▁enthusiast	-12.389
▁fonda	-12.3899
▁ev	-12.3906
rity	-12.3915
▁rebuil	-12.3915
▁astronom	-12.3917
▁eld	-12.3919
jord	-12.3919
paste	-12.3921
ashi	-12.3924
▁sham	-12.3929
stands	-12.3929
▁residenc	-12.3931
▁entertain	-12.3933
etz	-12.3934
sphere	-12.3934
adequate	-12.3936
blaze	-12.3938
committee	-12.3938
parents	-12.3938
▁shu	-12.3939
news	-12.3942
technology	-12.3943
▁capitaliz	-12.3944
sense	-12.3947
watch	-12.3948
izing	-12.3951
jean	-12.3951
visibl	-12.3953
wanted	-12.3953
▁bah	-12.3956
▁coo	-12.3956
shot	-12.3957
▁doug	-12.3964
▁restructure	-12.3964
▁magnet	-12.3966
▁sweat	-12.3967
▁patron	-12.397
▁prominen	-12.3973
▁pardo	-12.3973
▁hardline	-12.3973
▁snub	-12.3976
▁horm	-12.3977
eth	-12.3978
▁ensu	-12.3979
▁mobilize	-12.3982
▁bankrupt	-12.3982
▁sar	-12.3982
▁distract	-12.3984
▁pharmac	-12.3985
▁luz	-12.3988
▁absurd	-12.3988
▁blizzard	-12.3988
▁disadvantage	-12.3988
▁dysfunction	-12.3988
▁matthew	-12.3988
▁netscape	-12.3988
▁pacify	-12.3988
▁precarious	-12.3988
▁recharge	-12.3988
▁soprano	-12.3988
▁spontaneous	-12.3988
▁surcharge	-12.3988
▁thirteen	-12.3988
▁alligator	-12.3988
▁belarus	-12.3988
▁complement	-12.3988
▁cuisine	-12.3988
▁revamp	-12.3988
▁deforest	-12.3988
▁inviting	-12.3988
▁tgv	-12.3988
▁transgender	-12.3988
▁detach	-12.3988
▁basilica	-12.3988
▁cambridge	-12.3988
▁rupture	-12.3988
▁senegal	-12.3988
▁telecast	-12.3988
▁theoretical	-12.3988
▁gymnast	-12.3988
▁wrinkle	-12.3988
▁rutger	-12.3988
▁solemn	-12.3988
▁landlord	-12.3988
▁zhao	-12.3988
▁anorexi	-12.3988
▁kashiwa	-12.3988
▁cosmetic	-12.3988
▁turbine	-12.3988
▁itinerar	-12.3988
▁wrack	-12.3988
▁pelvi	-12.3988
▁twitter	-12.3988
▁purple	-12.3988
▁dispel	-12.3988
▁mitch	-12.3988
▁jockey	-12.3988
▁osbourne	-12.3988
▁pharaoh	-12.3988
▁emphatic	-12.3988
▁relentless	-12.3988
▁vigorous	-12.3988
▁disconnect	-12.3988
▁pinpoint	-12.3988
▁malicious	-12.3988
▁commend	-12.3988
▁arrowhead	-12.3988
▁stymie	-12.3989
▁kirch	-12.3989
▁newcomer	-12.3989
▁affirm	-12.3989
▁effig	-12.3989
▁mudslide	-12.3989
▁sandbag	-12.3989
▁arraignment	-12.3989
▁ravine	-12.3989
▁taunt	-12.3989
▁triang	-12.3989
▁lizard	-12.3989
▁reclaim	-12.3989
▁screw	-12.3989
▁unfreez	-12.3989
▁preemptive	-12.3989
▁shrunk	-12.3989
▁humid	-12.3989
▁screenplay	-12.3989
▁spew	-12.399
▁bolivia	-12.399
▁sitcom	-12.399
▁intermedia	-12.399
▁pleasant	-12.399
▁czar	-12.399
▁sidewalk	-12.399
▁vigilant	-12.399
▁ghost	-12.399
▁temptation	-12.399
ngchon	-12.399
▁katz	-12.3991
▁hamza	-12.3991
▁condom	-12.3991
▁arsen	-12.3991
▁paek	-12.3991
▁drummer	-12.3991
▁reneg	-12.3991
▁narco	-12.3992
▁cremation	-12.3992
▁shrugg	-12.3992
▁haq	-12.3992
▁unlock	-12.3992
▁dumpling	-12.3992
▁distraction	-12.3993
▁funnel	-12.3993
▁pinch	-12.3994
▁compass	-12.3994
▁solace	-12.3994
▁newsweek	-12.3995
▁derive	-12.3996
▁booth	-12.3997
list	-12.3997
▁decoration	-12.3997
▁waive	-12.3997
▁fluid	-12.3998
▁jamestown	-12.3998
▁feedback	-12.3999
▁baek	-12.3999
▁surgical	-12.4
kistan	-12.4
▁elysee	-12.4
▁chinook	-12.4001
werp	-12.4002
▁laurent	-12.4002
▁intestin	-12.4003
▁riddle	-12.4003
▁slap	-12.4004
▁complian	-12.4004
▁slovakia	-12.4004
▁tasmania	-12.4004
▁mansion	-12.4004
gon	-12.4005
▁marx	-12.4005
▁contributor	-12.4005
quille	-12.4005
lley	-12.4006
▁handset	-12.4006
▁nan	-12.4009
▁totalitarian	-12.401
rai	-12.401
nger	-12.4011
▁ritz	-12.4012
▁playground	-12.4013
▁spectacle	-12.4013
▁zahar	-12.4013
tilin	-12.4016
▁prevalen	-12.4016
▁taka	-12.4017
▁siren	-12.4018
▁newsroom	-12.4018
▁vonn	-12.4021
▁nobu	-12.4023
culty	-12.4023
▁alban	-12.4024
▁ignite	-12.4024
▁taji	-12.4026
mat	-12.4028
▁heather	-12.4029
▁dweller	-12.403
otherap	-12.4032
▁rhe	-12.4032
▁estonian	-12.4034
▁necessity	-12.4036
mara	-12.4037
quet	-12.4039
▁chiap	-12.4042
▁stain	-12.4046
▁offence	-12.4047
▁mold	-12.4047
▁abundan	-12.4049
▁lb	-12.4051
▁rework	-12.4052
eller	-12.4054
▁taek	-12.4054
▁citation	-12.4057
▁directive	-12.4058
▁berg	-12.4059
▁fluctuat	-12.4059
hni	-12.4062
▁shade	-12.407
▁merv	-12.4082
▁jok	-12.4084
▁biti	-12.4086
▁shaw	-12.4086
▁sneaker	-12.4087
▁angri	-12.4088
pine	-12.4092
uman	-12.4092
▁stoning	-12.4094
riano	-12.4095
▁timeline	-12.4095
▁tsuyo	-12.4096
varna	-12.4096
nsei	-12.4097
▁insurer	-12.4098
▁shutter	-12.4099
▁candles	-12.41
▁unsur	-12.41
▁merck	-12.4101
fold	-12.4104
habi	-12.4108
uro	-12.4108
▁pluck	-12.4109
veh	-12.4109
▁khalil	-12.411
▁salvage	-12.4114
▁bashir	-12.4118
effer	-12.4125
▁kua	-12.4127
▁beast	-12.4129
fann	-12.413
ntana	-12.4134
▁navigat	-12.4134
▁lek	-12.4135
▁fluor	-12.4135
▁swelling	-12.4136
▁lemon	-12.4137
bouc	-12.4139
rugg	-12.4147
▁shine	-12.4147
▁cruiser	-12.4148
ych	-12.4149
▁suck	-12.415
▁meg	-12.4151
andel	-12.4155
yak	-12.4155
▁wonders	-12.4158
▁fond	-12.4159
▁haa	-12.4161
▁explains	-12.4168
▁confiscate	-12.4178
▁gregor	-12.4185
▁endless	-12.4186
▁ec	-12.4192
▁fractur	-12.42
cyclist	-12.4201
shin	-12.4203
▁reveren	-12.4211
▁couri	-12.4213
▁bald	-12.4221
oui	-12.4226
book	-12.423
▁distincti	-12.423
▁hush	-12.4232
▁marlboro	-12.4234
▁celesti	-12.4236
▁emb	-12.4244
▁baba	-12.4246
▁scarce	-12.425
▁shaun	-12.4252
tractor	-12.4254
aux	-12.4263
bas	-12.4266
▁outsider	-12.4271
dez	-12.4271
▁merchandise	-12.4272
tenberg	-12.4272
ii	-12.4273
▁brisk	-12.4275
wich	-12.4277
▁burge	-12.4278
pulsion	-12.4287
▁branc	-12.4287
▁rama	-12.4292
▁assumption	-12.4299
ched	-12.43
rdin	-12.431
▁ull	-12.431
▁natali	-12.4315
amba	-12.4321
▁mesh	-12.4327
▁behave	-12.4327
▁electro	-12.4343
▁barn	-12.4343
▁sara	-12.4343
▁vir	-12.4347
mert	-12.4352
nie	-12.4363
dler	-12.4366
▁py	-12.4366
▁mri	-12.437
▁espan	-12.4372
nate	-12.4373
▁homer	-12.4373
▁pause	-12.4381
▁abd	-12.4381
▁disguise	-12.4385
drome	-12.4386
▁mosle	-12.4389
▁deliberat	-12.4391
▁moderniz	-12.4396
thura	-12.4399
gram	-12.4409
nda	-12.4409
▁hijacking	-12.4413
▁exceeding	-12.4414
▁flyer	-12.4416
▁grapple	-12.4421
▁inconvenience	-12.4434
▁baa	-12.4437
tics	-12.4442
▁conscript	-12.4445
▁ft	-12.4454
▁prag	-12.4454
joy	-12.4455
▁masha	-12.4457
▁rational	-12.4463
ert	-12.4467
▁undertake	-12.4468
oul	-12.4474
gues	-12.4486
▁brace	-12.4488
▁wm	-12.4491
▁ira	-12.4493
ammar	-12.4494
afe	-12.4494
rock	-12.4497
▁abound	-12.45
▁turki	-12.45
▁resettle	-12.4502
▁robbi	-12.4503
enne	-12.4511
▁tira	-12.4513
▁fri	-12.4513
▁lind	-12.4514
pun	-12.4515
▁dishe	-12.4516
tai	-12.452
▁loser	-12.4525
▁qual	-12.453
holm	-12.4531
evic	-12.4538
avaro	-12.4546
dental	-12.4548
▁barre	-12.4551
unker	-12.4553
chu	-12.4557
▁fume	-12.4557
osa	-12.4559
elo	-12.456
▁erode	-12.4563
lov	-12.4566
mes	-12.4567
▁russ	-12.4567
▁discourage	-12.457
▁smithson	-12.4574
▁schu	-12.4582
usch	-12.4583
▁trafficker	-12.4583
▁awe	-12.4585
ker	-12.4596
▁adrian	-12.4607
▁dri	-12.4608
vara	-12.4608
▁lou	-12.4623
▁joo	-12.4623
▁geno	-12.4624
mmunity	-12.4624
ika	-12.4625
mate	-12.463
rne	-12.4636
▁lac	-12.4637
▁allerg	-12.4637
▁fabricat	-12.4643
▁refin	-12.4644
▁wald	-12.4644
▁dart	-12.4648
shan	-12.465
▁venet	-12.4658
▁destruct	-12.4659
hoe	-12.4665
onym	-12.4667
imon	-12.4667
ice	-12.4671
▁gem	-12.4677
irna	-12.4679
▁dine	-12.4684
oxid	-12.4685
▁kau	-12.4693
▁conceiv	-12.4703
▁corpora	-12.4705
eij	-12.4708
▁blu	-12.4711
▁structur	-12.4712
▁duran	-12.4712
▁adulter	-12.4715
▁tani	-12.472
tia	-12.472
▁claud	-12.4723
▁plague	-12.4725
nz	-12.4735
▁skier	-12.4736
gery	-12.4739
▁spar	-12.4743
▁pits	-12.4744
ff	-12.475
▁dj	-12.4751
glio	-12.4754
closure	-12.4756
etcher	-12.476
ouad	-12.4769
▁detainee	-12.4774
▁casting	-12.4774
▁phon	-12.4774
▁abba	-12.4777
gaz	-12.4781
ariya	-12.4784
▁mend	-12.4792
ellen	-12.4795
▁disabilit	-12.4799
▁jol	-12.4802
▁graduat	-12.4813
gay	-12.4819
▁retiree	-12.4826
▁licens	-12.4829
▁cheese	-12.483
cat	-12.4831
kova	-12.4831
▁repatriat	-12.4833
mega	-12.4836
▁characterize	-12.4837
pinal	-12.484
▁alga	-12.4849
▁toddlers	-12.4853
▁gat	-12.4855
▁atom	-12.4861
▁fracture	-12.4868
▁activate	-12.487
▁duo	-12.4874
▁tha	-12.4874
▁frankl	-12.4878
ameter	-12.4882
▁fruits	-12.4893
▁extradite	-12.4894
▁tame	-12.4896
▁natal	-12.4896
leban	-12.4899
▁jian	-12.4909
▁toleran	-12.4912
▁sunda	-12.4913
tian	-12.4917
▁caffe	-12.4921
comfortabl	-12.4924
zad	-12.4926
▁boo	-12.4927
word	-12.493
▁lid	-12.4931
▁appreciati	-12.4932
▁ruben	-12.4932
▁conceive	-12.4933
▁fade	-12.4936
▁scarf	-12.4939
mosh	-12.494
▁nois	-12.4942
▁cio	-12.4943
▁satisfy	-12.4944
▁ego	-12.4944
cock	-12.4949
▁beneficia	-12.4951
boy	-12.4956
ole	-12.4956
aimi	-12.4961
▁elevat	-12.4965
▁spite	-12.4966
▁alp	-12.4966
▁piro	-12.4968
▁lens	-12.498
wha	-12.4981
garve	-12.4982
▁imagin	-12.4989
▁sneak	-12.499
▁decreas	-12.499
badi	-12.4991
lift	-12.4994
▁dominan	-12.4994
▁wh	-12.5007
▁blacks	-12.5017
mitag	-12.5018
▁bois	-12.5021
igan	-12.5022
▁circu	-12.5025
diari	-12.5034
▁equ	-12.5038
tsuo	-12.5039
▁sel	-12.504
ready	-12.504
▁psycho	-12.5044
cube	-12.5045
walk	-12.5045
▁defer	-12.5045
convenient	-12.5046
predictabl	-12.5047
accurate	-12.5048
effective	-12.5049
economic	-12.5049
government	-12.5049
affected	-12.5049
daughter	-12.505
▁vik	-12.505
season	-12.5051
▁iz	-12.5051
▁nativ	-12.5052
fox	-12.5054
spring	-12.5054
▁suicid	-12.5055
accessib	-12.5056
help	-12.5056
dana	-12.5061
match	-12.5061
roar	-12.5062
▁comprise	-12.5064
▁glamo	-12.5065
▁godd	-12.5072
▁enthusias	-12.5073
heard	-12.5076
brew	-12.5078
▁wolfe	-12.5081
money	-12.5081
▁inability	-12.5083
yub	-12.5083
▁americ	-12.5083
▁numb	-12.5086
owed	-12.5091
▁yoshi	-12.5092
▁flour	-12.5095
▁cripple	-12.5095
▁eavesdropp	-12.5097
▁distr	-12.5099
▁daimler	-12.5099
▁derelict	-12.5099
▁straddl	-12.5099
▁aeronautic	-12.5099
▁apprehend	-12.5099
▁boulevard	-12.5099
▁consequent	-12.5099
▁demolition	-12.5099
▁entrepreneur	-12.5099
▁friction	-12.5099
▁grizzl	-12.5099
▁handcuff	-12.5099
▁immoral	-12.5099
▁involuntar	-12.5099
▁kilowatt	-12.5099
▁liechtenstein	-12.5099
▁microwave	-12.5099
▁occupy	-12.5099
▁recipient	-12.5099
▁remittance	-12.5099
▁susceptib	-12.5099
▁unravel	-12.5099
▁uruguay	-12.5099
▁vicinity	-12.5099
▁banteng	-12.5099
▁detergent	-12.5099
▁avatar	-12.5099
▁manhunt	-12.5099
▁mcclinto	-12.5099
▁pundit	-12.5099
▁whirl	-12.5099
▁classify	-12.5099
▁octopus	-12.5099
▁graveyard	-12.5099
▁lodging	-12.5099
nthia	-12.5099
▁conspirator	-12.5099
▁hemorrhag	-12.5099
▁magoni	-12.5099
▁smear	-12.5099
▁wilkins	-12.5099
▁marriot	-12.5099
▁turtle	-12.5099
▁discord	-12.5099
▁imbalance	-12.5099
▁indigen	-12.5099
▁pupil	-12.5099
▁dissent	-12.5099
▁aviv	-12.5099
hygien	-12.5099
▁entail	-12.5099
▁quirk	-12.5099
▁nonviolen	-12.5099
▁acquaintance	-12.5099
▁procure	-12.5099
▁essay	-12.51
▁gaffe	-12.51
▁polygam	-12.51
▁organisation	-12.51
▁gharial	-12.51
▁masterpiece	-12.51
▁snowstorm	-12.51
▁idris	-12.51
▁roast	-12.51
▁grievance	-12.51
▁chipmaker	-12.51
▁minibus	-12.51
▁nongovernment	-12.51
▁accommodation	-12.51
▁graff	-12.5101
▁butterfl	-12.5101
▁scour	-12.5101
▁attire	-12.5101
▁overreact	-12.5101
▁clover	-12.5101
▁luxurious	-12.5101
▁entice	-12.5101
▁barbour	-12.5102
emic	-12.5102
orrow	-12.5102
▁haircut	-12.5102
▁wiretapp	-12.5102
rogba	-12.5102
ilja	-12.5102
▁termination	-12.5102
▁toxin	-12.5103
▁gigabyte	-12.5103
▁dangl	-12.5103
▁hague	-12.5103
▁sift	-12.5103
▁exemption	-12.5103
imeter	-12.5103
▁corral	-12.5103
▁gartner	-12.5103
▁curricul	-12.5103
▁aspiration	-12.5104
▁elevation	-12.5104
▁cair	-12.5104
▁rainbow	-12.5104
▁fringe	-12.5104
▁flawless	-12.5104
▁tamper	-12.5104
▁exploitati	-12.5104
▁walt	-12.5105
▁marvel	-12.5105
▁carving	-12.5105
▁downpour	-12.5106
▁novelist	-12.5106
tisa	-12.5106
▁sunlight	-12.5106
▁anthr	-12.5106
▁depot	-12.5106
▁doctrine	-12.5106
▁chick	-12.5106
▁organism	-12.5107
▁milos	-12.5107
choa	-12.5107
▁vander	-12.5107
▁yuri	-12.5107
▁admiral	-12.5108
▁summar	-12.5109
▁carli	-12.5109
▁premeditat	-12.5109
okou	-12.511
▁subscriber	-12.511
lein	-12.5111
▁cynical	-12.5111
▁runaway	-12.5111
▁tenet	-12.5111
▁mound	-12.5112
▁injustice	-12.5113
▁jabal	-12.5113
▁filter	-12.5113
▁fiance	-12.5113
▁holz	-12.5113
midt	-12.5113
▁mccle	-12.5114
▁composition	-12.5114
▁audition	-12.5114
▁adorn	-12.5115
▁respectful	-12.5115
wire	-12.5116
▁hoard	-12.5116
▁jolt	-12.5116
▁unsc	-12.5116
nberg	-12.5117
▁sauer	-12.5117
▁mongolia	-12.5118
▁fioren	-12.5119
▁obeid	-12.5121
▁galv	-12.5121
▁appa	-12.5122
▁maggi	-12.5123
▁sixteen	-12.5124
▁parr	-12.5125
▁lux	-12.5127
▁prim	-12.5128
span	-12.5128
▁ventilat	-12.5129
▁weiss	-12.5129
▁covet	-12.5129
▁fiji	-12.513
▁heller	-12.5131
ohn	-12.5131
▁worshipper	-12.5131
▁worthless	-12.5132
▁corona	-12.5132
▁nye	-12.5132
▁overpower	-12.5133
▁lax	-12.5134
▁congregation	-12.5134
▁borough	-12.5135
▁cache	-12.5136
▁oba	-12.5136
▁okay	-12.5136
▁smol	-12.5137
▁matur	-12.5137
▁milita	-12.5139
▁kisses	-12.5139
▁transformers	-12.514
▁vulnerabilit	-12.5145
▁mukas	-12.5147
▁veil	-12.5148
▁earnest	-12.5148
▁shann	-12.5149
▁polite	-12.515
ducat	-12.5151
▁satan	-12.5151
▁deteriorate	-12.5152
▁nouri	-12.5156
▁institutional	-12.5156
iena	-12.5158
▁mwan	-12.5159
▁sphere	-12.516
▁gravitation	-12.516
▁ashes	-12.516
▁latino	-12.5161
▁bolsh	-12.5163
▁mum	-12.5166
▁alessandr	-12.5167
▁bombard	-12.5171
▁scanner	-12.5173
▁bugg	-12.5173
▁stutt	-12.5174
▁widower	-12.5174
▁mok	-12.5175
▁rightful	-12.5175
▁wol	-12.5176
▁tao	-12.5176
▁mut	-12.5176
▁trinit	-12.5177
rief	-12.5178
▁rightist	-12.5178
▁pil	-12.518
▁designation	-12.5181
▁hallow	-12.5182
thle	-12.5182
guel	-12.5186
▁indecen	-12.5187
nova	-12.5188
▁dom	-12.5191
▁rubin	-12.5191
▁zhi	-12.5193
▁sharpen	-12.5197
▁meddl	-12.5199
▁wit	-12.52
suit	-12.5202
▁bragg	-12.5203
▁lick	-12.5205
▁pressur	-12.521
rome	-12.5211
▁emitter	-12.5211
▁examples	-12.5212
▁calib	-12.5217
▁unha	-12.5221
▁lankan	-12.5222
▁satisfactor	-12.5226
oven	-12.5228
▁qur	-12.5229
▁tactical	-12.5238
▁qing	-12.5243
▁llc	-12.5243
▁santos	-12.5244
▁kristin	-12.5245
▁beneficiar	-12.525
▁thu	-12.525
▁lombard	-12.5252
egan	-12.5253
ased	-12.5254
pick	-12.5256
niels	-12.5257
▁scarlet	-12.526
▁matri	-12.5261
▁registr	-12.5262
doo	-12.5266
▁brew	-12.5267
▁skylin	-12.5267
▁fury	-12.5268
▁arter	-12.5269
slaughter	-12.5273
▁rb	-12.5274
▁lauren	-12.5276
▁hiker	-12.5276
▁yuca	-12.5281
▁corte	-12.5281
▁penetrat	-12.5284
▁ancest	-12.5285
▁lonel	-12.5288
▁twister	-12.5289
▁legg	-12.529
▁embed	-12.5297
▁dp	-12.5301
gie	-12.5303
robe	-12.5306
▁tat	-12.5306
▁accessib	-12.5311
▁bonsa	-12.5312
roz	-12.5313
▁skirt	-12.5315
▁kup	-12.5319
▁downside	-12.5324
▁hashim	-12.5325
▁curv	-12.5326
▁slick	-12.5327
▁tee	-12.5327
▁consultati	-12.533
lastic	-12.5332
▁visitation	-12.5336
▁dictate	-12.534
enay	-12.534
▁bells	-12.5345
▁kampu	-12.5346
▁parish	-12.5347
▁hil	-12.5347
mise	-12.535
lab	-12.5356
▁mun	-12.5359
raged	-12.5361
▁wink	-12.5366
jid	-12.5366
▁dayton	-12.5367
▁slate	-12.5368
▁fest	-12.5369
▁goul	-12.5373
▁mod	-12.5373
▁wealthie	-12.5374
▁knot	-12.538
▁hoy	-12.538
escent	-12.5384
rough	-12.5385
slow	-12.5387
▁rok	-12.5395
ecker	-12.5398
vision	-12.5399
▁ellis	-12.54
▁moai	-12.54
nant	-12.54
▁sali	-12.5401
ians	-12.5403
▁yush	-12.5404
▁legislat	-12.5406
▁judd	-12.541
▁distinguish	-12.541
▁coupons	-12.5415
▁yachts	-12.5416
▁disposa	-12.5422
▁campo	-12.5422
▁santor	-12.5425
▁mello	-12.5427
▁unfor	-12.5428
▁equaliz	-12.543
▁glea	-12.5431
bei	-12.5441
▁fig	-12.5443
▁damp	-12.5445
▁ichi	-12.5445
lissa	-12.5447
yung	-12.5451
▁confuse	-12.5453
▁pontif	-12.5456
pal	-12.5456
▁maur	-12.5459
dka	-12.5459
▁likeness	-12.5463
▁pha	-12.5464
gu	-12.5467
▁cheng	-12.5471
▁jaip	-12.5471
▁malt	-12.5471
▁councilor	-12.5473
rani	-12.5478
afsha	-12.5481
ema	-12.5483
prk	-12.5486
rage	-12.5493
▁utilize	-12.5493
▁robes	-12.5493
dolph	-12.5495
▁hum	-12.5495
▁qualifie	-12.5497
ollen	-12.55
ichi	-12.5507
▁rotte	-12.5507
▁jar	-12.5511
▁gaill	-12.5515
wage	-12.5519
▁jia	-12.5525
cchi	-12.5528
▁spik	-12.5534
▁sarco	-12.5534
▁perk	-12.5536
hor	-12.5543
▁avian	-12.5546
▁chai	-12.5557
▁eclipse	-12.5562
aq	-12.5569
▁servers	-12.5573
▁marul	-12.5576
young	-12.5576
elipe	-12.5577
▁tallie	-12.5577
zhn	-12.5581
▁kaz	-12.5583
▁humble	-12.5583
▁defamat	-12.5588
az	-12.5594
▁abductions	-12.5596
▁poet	-12.5598
oslo	-12.56
napped	-12.5601
kka	-12.5601
▁chon	-12.5609
▁misus	-12.5615
issan	-12.5616
▁sander	-12.5616
iar	-12.5616
▁stretche	-12.5621
▁unsee	-12.5623
souf	-12.5623
kfa	-12.5626
▁breeder	-12.5626
▁abide	-12.563
etsk	-12.563
▁tracker	-12.5635
haria	-12.5636
poly	-12.5644
▁gert	-12.565
▁oral	-12.5653
▁terminate	-12.5655
▁clima	-12.5658
pears	-12.5664
▁frederic	-12.5668
▁stitche	-12.5668
▁trooper	-12.5687
▁unnerv	-12.5698
▁renam	-12.57
▁prof	-12.5701
rshad	-12.5703
bach	-12.5712
heng	-12.5718
▁washing	-12.5722
iba	-12.5727
▁attende	-12.5728
▁toast	-12.5735
▁commons	-12.5736
arat	-12.5748
▁perceive	-12.5755
▁activat	-12.576
▁outfield	-12.5771
medic	-12.5772
▁aston	-12.5772
asahi	-12.5775
▁alleviate	-12.5782
▁robe	-12.5787
▁mute	-12.5788
▁duc	-12.5788
lam	-12.5793
▁lange	-12.5797
▁colo	-12.5799
▁holi	-12.58
sam	-12.5811
vp	-12.5815
endo	-12.5815
▁kazu	-12.5821
lem	-12.5826
erno	-12.5827
onic	-12.5832
▁alta	-12.5832
▁afar	-12.5835
▁deco	-12.5835
▁relie	-12.5839
keeper	-12.5839
▁marian	-12.5847
▁dail	-12.5852
▁dair	-12.5853
ska	-12.5853
▁cosm	-12.5856
gh	-12.5865
▁mutilat	-12.5869
tri	-12.587
▁dona	-12.5871
▁kab	-12.5873
▁zub	-12.5873
cu	-12.588
▁skid	-12.5884
▁desp	-12.5888
achel	-12.589
low	-12.5895
▁blockbusters	-12.5897
apolis	-12.5901
▁stranding	-12.5901
ech	-12.5905
▁levin	-12.5915
eston	-12.5915
▁sock	-12.5928
▁updat	-12.5929
ain	-12.5931
▁christo	-12.5942
▁kal	-12.5942
fusion	-12.5944
▁pear	-12.5947
▁swell	-12.5952
▁gila	-12.5954
▁meri	-12.5956
▁stri	-12.5959
▁impersonat	-12.596
▁insert	-12.5968
▁mani	-12.5968
▁cas	-12.5969
▁intern	-12.597
▁facilitat	-12.5971
science	-12.5976
riyad	-12.5977
▁stimulat	-12.5981
fe	-12.5981
▁wastes	-12.5985
▁atta	-12.5986
▁jenn	-12.599
uni	-12.5993
▁arc	-12.5997
dder	-12.5999
▁piz	-12.5999
▁tremor	-12.6
▁hurdle	-12.6
▁yacht	-12.6002
pur	-12.6004
▁accomplishment	-12.6005
▁penguin	-12.6012
▁oppress	-12.6012
rou	-12.6016
▁roadway	-12.6017
athan	-12.6019
▁pillar	-12.6024
▁unt	-12.6026
▁proteins	-12.6031
▁idi	-12.604
xi	-12.604
roid	-12.6059
▁marker	-12.6066
poon	-12.6073
▁mariner	-12.6092
▁defus	-12.6092
▁victori	-12.6104
lli	-12.6108
▁solan	-12.6109
▁forbid	-12.6111
▁coupon	-12.612
▁coma	-12.6122
lf	-12.6123
▁aspir	-12.6125
▁kma	-12.6129
▁guse	-12.6131
▁mara	-12.6137
rail	-12.6138
▁spotte	-12.6138
▁samp	-12.614
nne	-12.6141
▁tama	-12.6143
▁aq	-12.6145
▁assemble	-12.6146
▁pend	-12.6148
▁stab	-12.6152
omo	-12.6156
▁confe	-12.6157
▁lik	-12.6165
yud	-12.6168
osan	-12.617
mps	-12.6175
ender	-12.6176
lee	-12.6179
iti	-12.6186
oise	-12.6189
▁liberaliz	-12.6189
ratt	-12.6194
▁berger	-12.6198
▁stereo	-12.6201
▁encircl	-12.6202
▁chil	-12.6205
tent	-12.6211
pper	-12.6214
▁yasuhi	-12.6223
▁hono	-12.6226
ppe	-12.6233
▁tub	-12.6234
fia	-12.6236
▁yul	-12.6241
▁robb	-12.6249
▁suppressi	-12.6251
▁dipp	-12.6254
▁logic	-12.6257
▁flore	-12.6258
idge	-12.6259
load	-12.626
▁whaler	-12.6265
▁thrust	-12.627
ister	-12.6272
▁mau	-12.6273
uddin	-12.6273
▁manipulate	-12.6276
gher	-12.6279
comm	-12.6279
zine	-12.6282
▁demo	-12.6283
embe	-12.6284
nix	-12.6285
nourishe	-12.6288
▁euthan	-12.6293
▁secre	-12.6295
gawa	-12.6296
case	-12.6296
bridge	-12.6297
realistic	-12.6297
tooth	-12.6298
▁expo	-12.6298
stroke	-12.6298
▁spoil	-12.6298
historic	-12.6299
brook	-12.6299
hawk	-12.6299
graduate	-12.6299
▁euph	-12.6299
pour	-12.6301
style	-12.6301
swam	-12.6304
nott	-12.6304
▁kum	-12.6305
▁lieutenants	-12.6306
▁zem	-12.6306
▁paralysi	-12.6306
▁legalize	-12.6307
reason	-12.6307
fried	-12.6308
siege	-12.6311
▁infuriate	-12.6317
▁pag	-12.6319
kaya	-12.6322
▁emer	-12.6322
osu	-12.6323
trayal	-12.6324
▁olympia	-12.6327
▁disast	-12.6329
▁emir	-12.6329
thma	-12.6331
▁lenien	-12.6334
master	-12.6336
▁scrub	-12.6339
▁morris	-12.634
lom	-12.6341
▁eject	-12.6342
▁beau	-12.6343
▁homo	-12.6343
▁snag	-12.6343
▁bug	-12.6345
▁reconstruct	-12.6345
slaught	-12.6347
▁bjor	-12.6348
▁spam	-12.6349
cussion	-12.6349
▁clarifi	-12.6349
▁rheumato	-12.6349
▁dharams	-12.6349
▁montenegr	-12.6349
▁bikini	-12.6349
▁brazen	-12.6349
▁chechnya	-12.6349
▁dilemma	-12.6349
▁fountain	-12.6349
▁incorrect	-12.6349
▁kiosk	-12.6349
▁mishandl	-12.6349
▁modify	-12.6349
▁nanotube	-12.6349
▁orangutan	-12.6349
▁pablo	-12.6349
▁permafrost	-12.6349
▁pesticide	-12.6349
▁prejudice	-12.6349
▁remorse	-12.6349
▁scapegoat	-12.6349
▁semiconductor	-12.6349
▁stupid	-12.6349
▁subtitle	-12.6349
▁torchbearer	-12.6349
▁unpleasant	-12.6349
▁blatant	-12.6349
▁encroach	-12.6349
▁linguistic	-12.6349
▁tumult	-12.6349
▁arrogan	-12.6349
▁nullify	-12.6349
▁reprimand	-12.6349
▁scully	-12.6349
▁uninhabit	-12.6349
▁glorify	-12.6349
▁qantas	-12.6349
▁entrench	-12.6349
▁oleg	-12.6349
▁sapien	-12.6349
funct	-12.6349
▁glitch	-12.6349
▁mahmud	-12.6349
▁ernest	-12.6349
▁archeologist	-12.6349
▁conversion	-12.6349
▁piercing	-12.6349
▁tweak	-12.6349
▁horizontal	-12.6349
▁shroud	-12.6349
▁thirst	-12.6349
▁scourge	-12.6349
▁outsourc	-12.6349
▁snoop	-12.6349
▁halper	-12.6349
▁vivid	-12.6349
▁electrocut	-12.6349
▁bookstore	-12.6349
▁picnic	-12.635
▁blunder	-12.635
▁ivanko	-12.635
▁irreversibl	-12.635
▁reschedul	-12.635
▁eradicat	-12.635
▁assailant	-12.635
▁tirade	-12.635
▁fabian	-12.635
▁chechen	-12.635
▁timber	-12.635
▁slaughterhouse	-12.635
▁humbert	-12.635
▁ovation	-12.635
▁bombardier	-12.635
▁gunbattle	-12.6351
▁undervalue	-12.6351
▁perennial	-12.6351
▁regroup	-12.6351
▁bancroft	-12.6351
▁calif	-12.6351
▁grue	-12.6351
▁pervasive	-12.6352
▁mulia	-12.6352
▁sunset	-12.6352
▁persecut	-12.6352
▁payroll	-12.6352
▁orchard	-12.6352
▁playboy	-12.6352
▁financier	-12.6353
▁pharmacist	-12.6353
▁giovan	-12.6353
▁dealership	-12.6353
▁eros	-12.6353
▁neural	-12.6353
▁niece	-12.6353
▁exhaustive	-12.6353
▁turbulence	-12.6354
▁tailor	-12.6354
▁eldor	-12.6354
▁rehearsal	-12.6354
▁livelihood	-12.6354
lobo	-12.6354
▁annex	-12.6354
▁appliance	-12.6354
osexual	-12.6354
▁trumpet	-12.6355
▁hoax	-12.6355
▁rapper	-12.6355
usnes	-12.6355
▁mountaineer	-12.6355
▁precis	-12.6355
▁cylinder	-12.6355
▁wolve	-12.6355
▁mattress	-12.6356
▁excavation	-12.6356
▁deception	-12.6356
▁realtor	-12.6356
▁imperialist	-12.6356
▁cristi	-12.6356
▁crusade	-12.6357
▁contamination	-12.6357
▁lauder	-12.6358
▁feasibl	-12.6358
▁socialite	-12.6358
▁neat	-12.6358
▁poach	-12.6358
▁microbe	-12.6358
▁audi	-12.636
▁lurk	-12.636
▁appointee	-12.636
▁witch	-12.636
▁snagg	-12.636
▁partition	-12.636
▁postcard	-12.636
▁plow	-12.6361
▁shave	-12.6361
▁reversal	-12.6361
▁distortion	-12.6361
▁monro	-12.6362
ourage	-12.6364
▁keyboard	-12.6364
▁alternate	-12.6364
▁trampled	-12.6364
▁cjd	-12.6365
mela	-12.6365
▁stride	-12.6365
▁huang	-12.6365
▁bachel	-12.6366
ternate	-12.6366
▁harmless	-12.6367
▁sitter	-12.6368
▁hoist	-12.6368
▁walton	-12.6369
▁relic	-12.637
guide	-12.6371
▁selloff	-12.6372
gam	-12.6373
▁pedophile	-12.6373
▁acquittal	-12.6373
▁liar	-12.6374
▁stave	-12.6375
iah	-12.6376
▁defection	-12.6376
▁reeves	-12.6376
▁surre	-12.6376
▁baile	-12.6376
▁clogg	-12.6377
▁tasting	-12.6377
▁loft	-12.6378
▁schoolgirl	-12.638
▁evangelist	-12.6381
▁haunt	-12.6382
▁wobble	-12.6383
▁cutback	-12.6384
▁spillway	-12.6386
▁yank	-12.6387
▁astro	-12.6388
▁protestant	-12.6389
▁cervi	-12.6389
▁cellar	-12.6393
▁beekeeper	-12.6394
▁backhand	-12.6394
gia	-12.6395
▁parma	-12.6395
▁bundle	-12.6396
▁pow	-12.6397
▁polk	-12.64
ality	-12.6403
▁lobbie	-12.6404
ulsan	-12.6405
▁tempt	-12.6406
▁euthanize	-12.6407
▁makeover	-12.6408
▁convenient	-12.641
▁recreation	-12.6411
▁curti	-12.6413
▁torri	-12.6416
▁freighter	-12.6417
▁kiln	-12.6417
▁kilo	-12.6417
aikon	-12.6419
▁limon	-12.642
▁etc	-12.642
▁reput	-12.6422
▁ponder	-12.6423
▁showroom	-12.6423
▁spurt	-12.6427
▁cabo	-12.6428
▁prudent	-12.643
tter	-12.6431
▁insur	-12.6434
▁bids	-12.6434
▁bestsell	-12.6434
▁grader	-12.6439
▁gonu	-12.644
ingles	-12.6441
lic	-12.6442
▁compromis	-12.6452
▁subversi	-12.6453
hall	-12.6453
▁alegr	-12.6453
▁culminate	-12.6456
▁illustrate	-12.6456
▁leon	-12.6456
max	-12.6456
▁shortcoming	-12.6457
kham	-12.6458
▁lent	-12.6458
▁suff	-12.6461
rash	-12.6462
▁midland	-12.6464
▁hendri	-12.6467
▁balanc	-12.6467
ucinic	-12.6468
▁honduras	-12.6469
▁eyebrows	-12.6469
iman	-12.647
pag	-12.647
▁allah	-12.6471
▁chamb	-12.6471
▁francesc	-12.6476
noble	-12.6478
▁allowance	-12.6481
▁cav	-12.6482
kar	-12.6482
extraterrestrial	-12.6483
agh	-12.6483
uli	-12.6485
▁responsibl	-12.6488
▁shum	-12.6488
▁conrad	-12.649
▁denn	-12.6493
ttered	-12.6494
▁bac	-12.6494
ere	-12.6495
▁mama	-12.6497
▁bloodie	-12.65
▁nico	-12.6501
▁afl	-12.6502
agong	-12.6503
▁roan	-12.6505
▁suffocat	-12.6508
▁lar	-12.6508
cott	-12.6509
ehead	-12.6509
▁salad	-12.6509
▁defaulter	-12.6516
▁lith	-12.6517
▁keller	-12.6522
▁smog	-12.6524
▁coral	-12.6527
imo	-12.653
ex	-12.6533
mid	-12.6534
▁refuel	-12.6536
raped	-12.6537
▁krist	-12.6537
▁hai	-12.6542
▁curl	-12.6546
▁spru	-12.6552
▁homi	-12.6554
▁shuk	-12.6555
▁haas	-12.6555
hamel	-12.6555
▁marty	-12.6555
agliar	-12.6558
▁molecul	-12.6559
▁gasp	-12.6559
wind	-12.656
▁implicat	-12.6564
▁patter	-12.6569
▁countrymen	-12.6571
hue	-12.6574
▁bidders	-12.6575
weight	-12.6576
▁amir	-12.6577
ough	-12.6578
▁hacke	-12.6579
illo	-12.6584
net	-12.6584
▁piled	-12.6592
eppel	-12.6595
▁bao	-12.6596
▁tas	-12.6599
▁fc	-12.6599
alai	-12.6606
▁kins	-12.6606
ile	-12.6606
pr	-12.6611
▁rhon	-12.6613
rang	-12.6618
for	-12.6629
▁locke	-12.6636
▁hos	-12.6637
▁glid	-12.664
▁labe	-12.664
▁neutralize	-12.6642
▁adhere	-12.665
▁gut	-12.665
ashkar	-12.6652
tui	-12.6652
▁maximize	-12.6653
inches	-12.6653
▁siddiq	-12.6658
▁insects	-12.6662
andra	-12.6666
ssels	-12.6667
passionate	-12.6668
▁qata	-12.6669
ving	-12.6672
▁nou	-12.6681
▁billow	-12.6688
▁functional	-12.669
gura	-12.6692
▁hemi	-12.6696
▁frightening	-12.6696
link	-12.6699
▁consula	-12.6707
▁tremors	-12.6711
▁hurdles	-12.6711
▁sule	-12.6723
▁rin	-12.6726
▁fraz	-12.6728
▁ike	-12.6729
▁hasten	-12.6738
▁converter	-12.6742
epp	-12.675
▁wada	-12.675
qi	-12.6752
isch	-12.6762
▁stephens	-12.6765
▁rena	-12.6767
▁chilling	-12.6772
mas	-12.6791
environmentalist	-12.6793
nage	-12.6797
▁sheer	-12.6804
▁strat	-12.6806
▁whisk	-12.6814
▁kost	-12.682
uto	-12.6824
▁shir	-12.6826
▁illuminat	-12.6829
▁naka	-12.6834
▁lookout	-12.6841
ption	-12.6841
xa	-12.6843
▁extort	-12.6846
▁median	-12.6853
▁chery	-12.6857
▁isabell	-12.6857
▁tab	-12.6865
▁inundate	-12.6866
lice	-12.6874
eef	-12.6875
▁ventur	-12.6877
▁acr	-12.6881
isman	-12.6882
aj	-12.6885
▁hale	-12.6888
▁karr	-12.6893
▁tep	-12.6897
▁crand	-12.6899
table	-12.6901
▁glamor	-12.6902
▁glue	-12.6903
▁divulge	-12.6905
lix	-12.6907
▁nong	-12.6908
▁eater	-12.692
▁murderer	-12.6931
▁tripp	-12.6934
ols	-12.6935
kill	-12.6937
▁swede	-12.6939
icker	-12.6956
rie	-12.696
▁seb	-12.6964
▁akh	-12.6969
▁chem	-12.6971
▁hatha	-12.6982
▁shahr	-12.6983
▁commut	-12.6983
▁idle	-12.6985
▁arr	-12.699
▁tenzin	-12.699
fid	-12.6992
knesse	-12.6995
jin	-12.6999
isse	-12.7009
fm	-12.7019
rum	-12.7019
ps	-12.7027
▁pains	-12.7028
iku	-12.703
▁foresee	-12.703
▁revitaliz	-12.7031
erick	-12.7038
▁marcos	-12.7053
uchi	-12.7054
▁muha	-12.706
▁mol	-12.7063
▁alto	-12.7066
ifa	-12.7067
▁vern	-12.7067
▁angle	-12.7068
▁hab	-12.707
mp	-12.7072
▁handler	-12.7075
▁politicize	-12.7078
▁demi	-12.7078
▁teres	-12.708
user	-12.708
▁basa	-12.7081
ib	-12.7083
▁benit	-12.7088
▁tarnish	-12.7089
▁yasa	-12.709
▁clai	-12.7093
▁terminat	-12.7094
mir	-12.7098
▁dor	-12.71
▁begg	-12.7104
▁congesti	-12.7104
▁hashem	-12.7125
▁cau	-12.7126
▁importer	-12.7129
▁inju	-12.7131
▁askari	-12.7132
▁incon	-12.7144
oya	-12.7152
▁tyle	-12.7155
tour	-12.7155
mb	-12.7161
▁corners	-12.7165
liot	-12.7166
ides	-12.7173
▁grappl	-12.7177
elman	-12.7177
nch	-12.7178
aries	-12.7185
▁rah	-12.7185
▁hubb	-12.7195
▁ador	-12.7198
▁riche	-12.7207
▁hp	-12.7211
rus	-12.7214
ien	-12.7214
▁crowe	-12.7215
rance	-12.7221
oto	-12.7223
aden	-12.7231
▁sac	-12.7241
▁hiroshi	-12.7241
▁salvati	-12.7245
ety	-12.7256
hei	-12.7261
▁zaina	-12.7267
▁slamme	-12.7271
▁caste	-12.7274
▁hayd	-12.7275
▁brow	-12.7276
illian	-12.7279
sco	-12.7282
ahi	-12.7282
▁menac	-12.7289
▁carne	-12.729
itzer	-12.7298
▁socio	-12.7304
fu	-12.7306
utt	-12.7308
▁obi	-12.7308
▁dou	-12.7309
▁carol	-12.7316
▁gravel	-12.7318
ency	-12.732
▁huddl	-12.7322
usted	-12.7325
▁chul	-12.733
zar	-12.7331
▁gwa	-12.7334
▁worrying	-12.7336
▁lau	-12.7339
▁kla	-12.7353
acher	-12.7358
▁conven	-12.7358
▁originat	-12.7364
▁petra	-12.737
▁compassion	-12.7374
enez	-12.7381
oper	-12.7381
flation	-12.7389
zer	-12.7396
▁underlin	-12.7397
▁huddle	-12.7398
terres	-12.7404
▁variation	-12.7405
rafa	-12.7413
▁hander	-12.7421
asco	-12.7423
▁helm	-12.7425
▁insect	-12.7429
py	-12.7435
▁tang	-12.7442
▁gorilla	-12.7442
▁semiti	-12.7443
▁stephan	-12.7443
▁antibiotic	-12.7444
reach	-12.7444
tle	-12.7447
▁marti	-12.7449
dou	-12.7449
erner	-12.7452
▁integra	-12.7452
eu	-12.7453
▁attendant	-12.7454
gas	-12.7456
▁migrat	-12.7457
ellwe	-12.7463
lion	-12.7464
rick	-12.7472
nier	-12.7474
▁unrel	-12.7475
▁spi	-12.7486
▁gha	-12.7491
▁helsin	-12.7494
▁puzzle	-12.75
lude	-12.7504
▁overtake	-12.7511
zy	-12.7518
▁garro	-12.7519
▁inflat	-12.752
▁stok	-12.752
▁baku	-12.7523
▁seab	-12.7523
▁hoe	-12.7526
▁flam	-12.7528
pression	-12.755
▁kuo	-12.7552
▁storie	-12.7555
▁grani	-12.7556
lson	-12.7556
logy	-12.7566
▁tow	-12.7568
lb	-12.7569
▁evacuat	-12.7569
▁reset	-12.7572
▁surprises	-12.7576
glo	-12.7578
▁clu	-12.7588
▁insure	-12.7588
▁gur	-12.7589
▁exhibited	-12.759
▁bam	-12.7597
halifa	-12.7614
mple	-12.7617
▁paddle	-12.762
osis	-12.7622
du	-12.7622
▁entitle	-12.7623
speak	-12.7627
may	-12.7631
▁yam	-12.7658
▁lex	-12.766
▁slavi	-12.7666
▁upgrad	-12.7666
▁transmit	-12.7669
▁advers	-12.767
otti	-12.7672
gart	-12.7673
▁trim	-12.7674
▁heli	-12.7675
mur	-12.7676
▁underse	-12.7677
▁halle	-12.7677
▁lamb	-12.7679
▁lyn	-12.7683
bras	-12.7688
▁imag	-12.7693
▁const	-12.7693
make	-12.7699
▁revol	-12.7701
omic	-12.7702
▁ter	-12.7703
▁necessit	-12.7708
ratify	-12.7709
announc	-12.7712
▁destin	-12.7715
▁pino	-12.7723
girls	-12.7723
pleasure	-12.7726
blood	-12.7727
meyer	-12.7727
account	-12.7727
electric	-12.7727
drift	-12.7727
first	-12.7727
proof	-12.7728
fair	-12.7728
chrys	-12.7728
complete	-12.7728
storm	-12.773
stopp	-12.773
▁faw	-12.773
boat	-12.7731
izer	-12.7731
broken	-12.7732
famous	-12.7734
▁bolivar	-12.7735
▁reassur	-12.7738
lund	-12.7739
uchov	-12.774
assa	-12.774
tight	-12.7741
▁wrest	-12.7741
doubted	-12.7742
elho	-12.7745
tical	-12.7747
kma	-12.7748
▁reunite	-12.7752
tub	-12.7752
▁quo	-12.7753
wenge	-12.7753
▁adm	-12.7754
einfeld	-12.7754
cken	-12.7754
▁dimension	-12.7757
▁allergi	-12.7758
▁exclusi	-12.7758
▁automat	-12.776
▁terroriz	-12.7761
linda	-12.7762
▁identi	-12.7762
finger	-12.7763
ep	-12.7767
▁sc	-12.7767
mulate	-12.7768
▁seren	-12.7768
▁galler	-12.7769
▁enlarge	-12.7769
▁hunke	-12.777
▁exempt	-12.7773
▁manifest	-12.7775
ratchet	-12.7775
ellin	-12.7776
▁surroga	-12.7776
▁lace	-12.7777
▁disgr	-12.7778
nuptial	-12.7778
▁aberdeen	-12.7778
▁abstention	-12.7778
▁allegiance	-12.7778
▁anaconda	-12.7778
▁ascertain	-12.7778
▁avocado	-12.7778
▁caricature	-12.7778
▁constituent	-12.7778
▁contaminant	-12.7778
▁dungeon	-12.7778
▁dwarf	-12.7778
▁elicit	-12.7778
▁etiquette	-12.7778
▁expenditure	-12.7778
▁geopolitic	-12.7778
▁greyhound	-12.7778
▁imperative	-12.7778
▁insomnia	-12.7778
▁instinct	-12.7778
▁leicester	-12.7778
▁limousine	-12.7778
▁maverick	-12.7778
▁nostalgi	-12.7778
▁pamphlet	-12.7778
▁piccolo	-12.7778
▁python	-12.7778
▁shockwave	-12.7778
▁unfavorabl	-12.7778
▁unmistakabl	-12.7778
▁unwelcome	-12.7778
▁vegetarian	-12.7778
▁vegetation	-12.7778
▁blasphem	-12.7778
▁blissitt	-12.7778
▁cochran	-12.7778
▁curiosit	-12.7778
▁incarcerat	-12.7778
▁overcrowd	-12.7778
▁stylish	-12.7778
▁cocktail	-12.7778
▁culver	-12.7778
▁embolden	-12.7778
▁handshake	-12.7778
▁jealous	-12.7778
▁neighbour	-12.7778
▁questionnaire	-12.7778
▁schwartz	-12.7778
▁succumb	-12.7778
▁trespass	-12.7778
▁uproot	-12.7778
▁vehement	-12.7778
▁disgust	-12.7778
▁newsletter	-12.7778
▁disparit	-12.7778
▁mothball	-12.7778
▁whisper	-12.7778
▁encompass	-12.7778
▁necklace	-12.7778
▁wreath	-12.7778
▁anguish	-12.7778
▁inherent	-12.7778
▁lobster	-12.7778
▁astrophysic	-12.7778
▁wreak	-12.7778
▁magellan	-12.7778
▁songwriter	-12.7778
▁diagnosis	-12.7778
▁futile	-12.7778
▁parcel	-12.7778
▁thunderstorm	-12.7778
▁xavi	-12.7778
▁proficien	-12.7778
▁siphon	-12.7778
▁ardent	-12.7778
▁galile	-12.7778
▁homepage	-12.7778
▁horizon	-12.7778
▁mortem	-12.7778
▁shantytown	-12.7778
▁commence	-12.7778
▁hotspot	-12.7778
▁waheed	-12.7778
▁sororit	-12.7778
▁zogb	-12.7778
▁minaret	-12.7778
▁habitual	-12.7778
▁megawatt	-12.7778
▁conquer	-12.7778
▁rookie	-12.7778
▁bracket	-12.7778
▁soundtrack	-12.7778
▁boutique	-12.7778
▁franz	-12.7778
▁discredit	-12.7778
▁kindergarten	-12.7778
▁enslav	-12.7778
▁ransack	-12.7778
▁silk	-12.7778
▁hippo	-12.7778
▁sculptor	-12.7778
▁headscar	-12.7778
▁intersection	-12.7778
▁macedonia	-12.7778
▁hinck	-12.7778
▁texture	-12.7778
▁exonerat	-12.7778
▁trouser	-12.7778
▁peddl	-12.7778
▁drench	-12.7779
▁auctioneer	-12.7779
▁sparse	-12.7779
▁fissi	-12.7779
▁notebook	-12.7779
▁reorganize	-12.7779
▁simmon	-12.7779
▁lafa	-12.7779
shep	-12.7779
▁mujahid	-12.7779
▁improvis	-12.7779
venir	-12.7779
▁mcew	-12.7779
▁harrod	-12.7779
▁stockhausen	-12.7779
▁oxf	-12.7779
▁schill	-12.7779
▁horde	-12.778
▁irving	-12.778
▁anthropologist	-12.778
▁pediatrician	-12.778
▁arbitrat	-12.778
▁cereal	-12.778
▁backyard	-12.778
▁roberson	-12.778
▁clump	-12.778
bard	-12.778
▁ferment	-12.778
▁subdue	-12.778
▁poetry	-12.778
wan	-12.778
▁hungarian	-12.778
▁wig	-12.7781
▁adamant	-12.7781
▁snarl	-12.7781
▁koala	-12.7781
▁siem	-12.7781
▁dividend	-12.7781
▁outburst	-12.7781
▁spearhead	-12.7781
▁cali	-12.7781
▁stringent	-12.7781
▁variable	-12.7782
▁spacesuit	-12.7782
▁gersh	-12.7782
▁platini	-12.7782
▁pumpkin	-12.7782
▁ventilator	-12.7782
pena	-12.7782
▁streamline	-12.7782
▁marque	-12.7782
▁guitarist	-12.7782
▁subtle	-12.7782
▁inexperience	-12.7782
▁quail	-12.7783
▁zhong	-12.7783
▁vaccinat	-12.7783
▁niche	-12.7783
▁censure	-12.7783
▁magdalen	-12.7783
▁angola	-12.7783
tacean	-12.7783
▁seafar	-12.7783
▁repay	-12.7784
▁dampen	-12.7784
▁latif	-12.7784
▁foam	-12.7784
egis	-12.7784
▁cheek	-12.7784
▁earmark	-12.7785
▁doctorate	-12.7785
▁vertical	-12.7785
▁crossfire	-12.7785
▁coax	-12.7785
▁lexus	-12.7785
dience	-12.7785
▁flagship	-12.7785
▁paranoi	-12.7785
▁unload	-12.7786
▁meditation	-12.7786
▁pristin	-12.7786
▁loch	-12.7787
▁kolk	-12.7787
▁impatient	-12.7787
▁delete	-12.7787
▁pelt	-12.7787
found	-12.7787
kagi	-12.7787
▁rapist	-12.7788
▁baham	-12.7788
▁strive	-12.7788
▁occurrence	-12.7788
▁accura	-12.7788
▁morrison	-12.7789
▁medina	-12.7789
▁blockade	-12.7789
▁breathtaking	-12.7789
▁slur	-12.7789
▁trove	-12.779
▁underdog	-12.779
▁hollow	-12.779
▁kingsto	-12.779
▁potts	-12.7791
▁reposition	-12.7791
▁myeong	-12.7792
▁kurt	-12.7792
ogury	-12.7793
grass	-12.7793
▁aguil	-12.7794
▁holling	-12.7794
▁trimm	-12.7795
blanc	-12.7795
▁intruder	-12.7795
▁adversari	-12.7795
▁peril	-12.7796
▁raven	-12.7796
▁swee	-12.7796
▁flopp	-12.7797
▁pix	-12.7797
▁upload	-12.7797
tomed	-12.7798
▁grassland	-12.7798
▁ral	-12.7798
▁agitat	-12.7798
▁whip	-12.7798
▁zombie	-12.7798
▁wrongful	-12.7799
▁interception	-12.7799
▁saucer	-12.7799
▁align	-12.78
▁waterboard	-12.78
▁equator	-12.78
▁sanja	-12.7801
▁gadda	-12.7801
▁cramm	-12.7802
▁chronicle	-12.7802
ktra	-12.7802
▁efp	-12.7803
▁privatiz	-12.7803
▁notori	-12.7803
▁saeed	-12.7803
▁decry	-12.7805
▁ferre	-12.7805
▁donggu	-12.7805
▁ghana	-12.7806
▁trio	-12.7806
▁mukh	-12.7806
▁limitations	-12.7807
▁hypothes	-12.7807
ynov	-12.7808
▁tilt	-12.7809
▁sober	-12.7809
▁cavaliers	-12.7809
▁christen	-12.7809
▁dani	-12.7809
▁badge	-12.7811
▁optical	-12.7812
▁boj	-12.7815
stage	-12.7815
▁infuriat	-12.7815
▁knockout	-12.7816
xter	-12.7817
irelessly	-12.7818
▁resonat	-12.7819
▁chua	-12.7819
▁sagg	-12.782
▁cont	-12.782
▁fogg	-12.782
▁bolivarian	-12.7821
▁kwak	-12.7822
▁roberts	-12.7824
▁bono	-12.7825
vasive	-12.7825
mund	-12.7826
▁dumb	-12.7827
fication	-12.7828
▁analys	-12.7828
▁svet	-12.783
▁rhy	-12.7832
▁brighten	-12.7832
croft	-12.7834
▁scribe	-12.7835
▁mcde	-12.7835
ads	-12.7836
▁bruise	-12.7836
▁tata	-12.7838
▁crematori	-12.7839
▁bode	-12.7839
▁olli	-12.784
▁colom	-12.7841
▁gand	-12.7842
istani	-12.7844
▁tril	-12.7844
▁abductor	-12.7847
▁kuwaiti	-12.7848
▁validate	-12.7848
ui	-12.785
▁ecolog	-12.7851
▁kiri	-12.7853
▁divo	-12.7854
▁reggi	-12.7854
▁loath	-12.7856
▁bumper	-12.7857
▁hurried	-12.7858
▁sesh	-12.7859
▁communiqu	-12.7862
acle	-12.7863
▁villain	-12.7865
dine	-12.7867
▁withhold	-12.7869
▁haze	-12.7869
▁motorway	-12.787
▁parasite	-12.7871
▁cola	-12.7872
bagh	-12.7873
▁brandish	-12.7875
▁gani	-12.7875
▁nutritional	-12.7875
▁jali	-12.7875
▁toughen	-12.7878
hbo	-12.7878
▁bangladeshi	-12.7879
▁poise	-12.788
▁imply	-12.7885
▁wesley	-12.7891
▁tram	-12.7894
ldp	-12.7896
▁digest	-12.7898
nts	-12.79
▁nang	-12.7901
▁kap	-12.7902
▁burger	-12.7903
▁commemorat	-12.7903
▁caul	-12.7904
▁continuously	-12.7904
▁durham	-12.7905
▁hopeless	-12.7906
▁fraternit	-12.7907
guo	-12.7912
▁arlen	-12.7913
▁consolidati	-12.7914
▁kaise	-12.7915
▁atkins	-12.7915
slav	-12.7919
▁bucha	-12.7921
▁pian	-12.7922
uca	-12.7922
▁dior	-12.7926
cesc	-12.7927
iyad	-12.7929
▁idiot	-12.7935
zburg	-12.7937
▁soba	-12.7938
baz	-12.794
hamble	-12.7945
▁specifi	-12.7947
▁elevate	-12.7947
▁propeller	-12.7947
▁sellout	-12.795
▁mik	-12.7952
▁yaki	-12.7955
▁peni	-12.7955
▁moderat	-12.7957
▁mast	-12.7959
▁shedd	-12.7959
▁rene	-12.7961
▁sprinter	-12.7963
▁khaz	-12.7964
suke	-12.7965
▁graphi	-12.7965
▁joking	-12.7968
▁inscription	-12.7971
▁hana	-12.7971
sworth	-12.7977
▁salem	-12.7977
alph	-12.7982
allest	-12.7984
alo	-12.7985
▁lebr	-12.7986
▁fink	-12.7992
opoul	-12.7996
▁buckle	-12.7997
leak	-12.7998
▁padd	-12.8002
▁mayo	-12.8003
lander	-12.8004
face	-12.8008
▁postur	-12.8009
▁wanna	-12.8011
desta	-12.8012
▁khu	-12.8014
otto	-12.8017
▁smoothly	-12.8017
▁slipper	-12.8023
▁narrat	-12.8031
▁porto	-12.8031
▁unionist	-12.8031
hoo	-12.8035
assi	-12.8035
▁payout	-12.8041
▁grey	-12.8041
▁replie	-12.8048
▁shrive	-12.8051
hofst	-12.8051
uku	-12.8056
▁rex	-12.8058
babil	-12.8058
▁puzzl	-12.8063
▁billionaires	-12.8064
▁hanky	-12.8067
▁rica	-12.8071
▁airb	-12.8075
▁marcia	-12.8076
▁alaskan	-12.8077
untle	-12.8077
cragg	-12.8081
▁merg	-12.8085
tive	-12.8086
▁reside	-12.8087
cuz	-12.8088
▁busi	-12.8089
mitt	-12.8092
umu	-12.8093
rko	-12.8093
zhu	-12.8095
▁harden	-12.8097
▁refine	-12.8099
▁abou	-12.8099
▁getty	-12.8099
▁oppressi	-12.8102
▁ponte	-12.8104
▁kwa	-12.8106
mission	-12.8107
▁tarant	-12.8112
▁ce	-12.8112
▁cato	-12.8121
▁lease	-12.8122
zzy	-12.8125
▁gye	-12.8131
▁rott	-12.8133
currence	-12.8134
▁glance	-12.8138
▁smiley	-12.8146
▁polariz	-12.815
▁reconvene	-12.8153
▁belated	-12.8154
shiro	-12.816
uil	-12.816
hara	-12.816
stick	-12.8173
▁jima	-12.8174
efe	-12.8178
▁favorabl	-12.8184
illionaire	-12.8187
usa	-12.8195
▁repress	-12.8198
▁rancher	-12.8198
▁pillars	-12.82
▁accomplishments	-12.8201
arro	-12.8203
▁genital	-12.8204
▁lew	-12.8207
dahn	-12.821
byl	-12.8212
▁strick	-12.8213
vuit	-12.8217
▁abb	-12.8219
mposition	-12.8222
▁info	-12.823
▁dole	-12.8236
▁azim	-12.8237
▁zal	-12.8239
rna	-12.8243
▁sab	-12.8247
ridge	-12.8249
▁alerts	-12.825
rkus	-12.825
▁bach	-12.8251
▁subsidiz	-12.8253
eiffe	-12.8254
np	-12.8255
▁slop	-12.8258
gro	-12.826
▁intrigue	-12.8272
hat	-12.8274
▁herman	-12.8275
▁ble	-12.8277
▁cer	-12.8277
▁rai	-12.8281
▁gol	-12.8283
▁volk	-12.8286
▁lud	-12.8286
▁cruis	-12.829
inne	-12.8292
mphan	-12.8294
▁fak	-12.8296
iyan	-12.83
tick	-12.8301
urance	-12.8302
iki	-12.8306
ugh	-12.8309
errone	-12.8313
rw	-12.8315
▁notic	-12.833
▁bustl	-12.8331
▁liner	-12.8333
▁conditional	-12.834
▁stein	-12.8343
▁kah	-12.8345
▁mach	-12.8347
▁youn	-12.8349
▁riv	-12.8351
▁batt	-12.8351
fill	-12.8365
▁gloss	-12.8374
▁hosh	-12.8374
▁ridde	-12.8375
▁crisscross	-12.8383
▁sol	-12.8384
▁cube	-12.8392
yanni	-12.8392
▁loren	-12.8394
iable	-12.8401
▁weave	-12.8405
▁stra	-12.8408
gye	-12.8414
▁sig	-12.8418
▁proceeding	-12.8419
▁patrioti	-12.8422
▁raf	-12.8424
magh	-12.8426
yong	-12.8427
▁calve	-12.8427
oga	-12.8432
▁lark	-12.8436
lla	-12.844
▁vindicat	-12.8445
▁circl	-12.8446
▁vari	-12.8447
▁tung	-12.8449
▁vas	-12.8456
▁fah	-12.8456
▁til	-12.8467
▁whi	-12.8473
▁promoter	-12.8477
▁brass	-12.8478
▁amal	-12.8479
▁baron	-12.8482
▁aft	-12.8485
▁gale	-12.8485
scription	-12.8486
▁choke	-12.8486
▁hasti	-12.8489
▁hyp	-12.8503
▁beards	-12.8506
ssi	-12.8509
ebol	-12.8512
nmen	-12.8514
esha	-12.8516
▁depress	-12.8519
▁rive	-12.8519
▁nai	-12.852
▁disco	-12.852
▁workout	-12.8522
hel	-12.8523
zing	-12.8526
▁hats	-12.8535
▁graf	-12.8538
azar	-12.8545
shop	-12.8549
▁strangl	-12.8554
▁shard	-12.8555
▁aches	-12.8558
▁taba	-12.8569
sey	-12.8573
took	-12.8573
▁wali	-12.8574
▁rus	-12.8576
gara	-12.8582
▁kono	-12.8582
▁revitalize	-12.8585
[...]
