<pad>	0
<s>	0
</s>	0
<unk>	0
▁.	-3.22252
을	-3.60629
는	-3.73431
의	-3.74923
▁	-3.84269
은	-3.99439
를	-4.08504
가	-4.34594
에	-4.36753
▁,	-4.43445
이	-4.43827
고	-4.7161
에서	-5.12509
한	-5.15933
로	-5.18946
▁이	-5.26364
▁일	-5.26931
인	-5.29514
▁그	-5.36547
으로	-5.43486
▁있다	-5.46951
과	-5.47017
와	-5.57482
▁고	-5.58328
도	-5.64863
▁수	-5.66265
▁밝혔다	-5.72139
▁말했다	-5.74456
할	-5.80684
▁년	-5.89995
▁있는	-5.92387
하고	-5.97885
지	-6.00928
다	-6.09808
▁전	-6.18947
했다	-6.21956
▁대한	-6.22641
하는	-6.2393
▁위해	-6.24324
▁이번	-6.29868
▁미국	-6.31181
▁전했다	-6.32232
▁한	-6.32411
▁월	-6.33003
▁지난	-6.39756
▁현지시간	-6.42644
▁정부	-6.42797
며	-6.43889
▁대해	-6.49957
던	-6.5314
▁중	-6.53642
▁미	-6.53783
▁며	-6.54065
기	-6.54312
된	-6.54342
해	-6.56404
나	-6.57767
▁것으로	-6.57933
▁명	-6.58697
▁것	-6.59786
에게	-6.61465
▁명이	-6.61583
▁것이라고	-6.62932
▁있다고	-6.69926
으며	-6.70424
▁그러나	-6.71741
▁것을	-6.72464
▁더	-6.76857
히	-6.77055
s	-6.77516
▁이라크	-6.77538
스	-6.78696
게	-6.84997
▁다른	-6.85318
자	-6.87273
▁명의	-6.88951
▁대통령	-6.91222
▁중국	-6.92339
하게	-6.92941
운	-6.94954
이다	-6.9632
▁한편	-6.96841
▁북한	-6.98953
▁또	-7.00055
▁이라고	-7.00131
▁약	-7.00553
▁오바마	-7.00743
▁만	-7.01486
▁주	-7.02154
지만	-7.02627
▁경찰	-7.04509
▁등	-7.05164
▁에	-7.06979
▁총리	-7.07085
▁대변인	-7.07939
▁후	-7.0837
들이	-7.08664
리	-7.09942
하기	-7.11065
▁많은	-7.11331
▁위한	-7.1225
▁우리	-7.13128
▁부시	-7.13267
▁통해	-7.13436
▁이후	-7.14017
만	-7.14703
하지	-7.1531
▁영국	-7.16721
▁대통령은	-7.17036
▁내	-7.17603
▁세	-7.18376
적인	-7.18528
▁가장	-7.19168
하며	-7.19399
▁두	-7.20667
들	-7.2126
▁동안	-7.21294
했으며	-7.2156
▁같은	-7.21716
까지	-7.22618
▁것이다	-7.23304
▁한국	-7.24336
▁않았다	-7.25411
될	-7.2631
시	-7.30976
▁말	-7.3121
▁개	-7.34012
▁주장했다	-7.3428
상	-7.34447
▁세계	-7.34457
▁가	-7.35273
▁할	-7.35753
트	-7.35758
▁바	-7.35979
▁한다	-7.36099
▁될	-7.36514
▁이들	-7.36954
▁현재	-7.372
▁달러	-7.37215
어	-7.37774
▁문제	-7.37929
▁있	-7.37955
▁때	-7.38123
▁것은	-7.38612
라	-7.38805
드	-7.38817
▁관련	-7.38887
▁또한	-7.39035
▁이상	-7.41657
면	-7.42812
▁일부	-7.4371
▁대	-7.43939
▁알	-7.44092
사	-7.44259
▁the	-7.44409
▁보도했다	-7.44487
으나	-7.44782
서	-7.45412
▁덧붙였다	-7.45434
▁최근	-7.45546
및	-7.45688
▁시	-7.45813
▁했다	-7.46306
▁지역	-7.46545
▁경우	-7.4715
▁영화	-7.47291
▁있었다	-7.47447
했다고	-7.50233
▁자신의	-7.50866
▁모든	-7.5135
▁것이	-7.52529
▁후보	-7.5293
했던	-7.53799
▁새로	-7.54205
▁함께	-7.55525
▁시간	-7.56003
▁당시	-7.56024
▁미군	-7.5625
▁라고	-7.56679
수	-7.56694
일	-7.56816
주	-7.59203
▁일본	-7.59309
거	-7.60216
▁그리고	-7.60349
▁경제	-7.60475
▁조사	-7.61207
됐다	-7.61573
▁로	-7.61755
에따르면	-7.6183
야	-7.61999
▁계획	-7.62354
▁뒤	-7.63789
▁cnn	-7.64446
성	-7.65954
▁예정이다	-7.66403
▁수도	-7.6683
▁결과	-7.67378
▁모두	-7.67418
▁설명했다	-7.67536
▁s	-7.67718
▁to	-7.67854
▁있습니다	-7.684
▁있으며	-7.69117
▁러시아	-7.70312
▁몇	-7.70751
▁파키스탄	-7.70766
▁처음	-7.71033
▁프랑스	-7.7128
라고	-7.71826
도록	-7.72633
▁아직	-7.72779
▁에서	-7.72826
▁유엔	-7.73448
▁당국	-7.73581
간	-7.74533
보다	-7.74636
▁차	-7.75036
▁큰	-7.75071
▁없다	-7.7513
▁위	-7.75367
▁공격	-7.75662
▁사실	-7.75896
▁이란	-7.76146
진	-7.76419
▁하는	-7.76496
▁이스라엘	-7.77065
▁사고	-7.77106
치	-7.77324
▁계속	-7.77697
▁경기	-7.78365
▁나	-7.79165
▁제	-7.79394
해야	-7.79836
▁분	-7.79943
▁회담	-7.80554
▁그녀	-7.80878
▁국가	-7.81158
▁지난해	-7.81193
▁사건	-7.81226
▁올해	-7.8165
▁대통령이	-7.8234
니	-7.82785
부	-7.83483
▁민주당	-7.83635
들을	-7.83981
▁사람들	-7.83981
비	-7.84168
▁않을	-7.84686
▁클린턴	-7.85154
이라고	-7.85284
르	-7.85372
▁열린	-7.85481
▁억	-7.8582
▁지	-7.8582
▁이날	-7.86581
하다	-7.86792
▁비	-7.87313
▁라	-7.874
▁성명	-7.87404
아	-7.88004
한다	-7.88441
대	-7.88839
때문에	-7.8925
했	-7.89275
선	-7.89462
했습니다	-7.89682
▁번째	-7.90234
▁발표했다	-7.90845
▁발생한	-7.91536
적	-7.91774
▁사	-7.91946
장	-7.9197
면서	-7.92224
▁지원	-7.92328
▁받고	-7.92385
▁받았다	-7.92617
▁테러	-7.92719
▁달	-7.9333
▁존	-7.93615
▁하고	-7.9367
▁다시	-7.94834
▁미국의	-7.94861
▁발표	-7.95219
하	-7.95709
▁그들	-7.96104
▁여성	-7.96272
▁된다	-7.96447
▁of	-7.96711
크	-7.96877
▁관계자	-7.97117
▁이라	-7.9723
▁가운데	-7.97865
▁핵	-7.98325
▁a	-7.98335
▁오	-7.98734
하여	-7.99357
▁반	-7.99557
▁사람들이	-7.99618
▁있을	-7.9965
▁사망했다	-7.99698
입니다	-7.99781
즈	-8.00577
▁사람	-8.0084
▁주요	-8.00847
▁의해	-8.01188
화	-8.01457
▁조	-8.01508
▁이에	-8.02598
에도	-8.02701
부터	-8.02878
었다	-8.03301
▁됐다	-8.03329
당	-8.03454
▁해	-8.03925
▁초	-8.04568
▁국제	-8.04625
▁장관	-8.04743
▁인해	-8.05055
에따라	-8.05457
적으로	-8.05584
▁데	-8.05822
이나	-8.06079
습니다	-8.06085
▁대부분	-8.06169
▁결정	-8.06855
▁첫	-8.0742
▁사망	-8.07719
▁선거	-8.07755
하지만	-8.07952
▁않은	-8.0807
▁안	-8.08079
▁채	-8.08079
▁아	-8.08081
▁조치	-8.08334
▁관계	-8.08395
소	-8.08506
▁자	-8.0878
▁보고	-8.09056
▁시위	-8.09154
처럼	-8.0969
길	-8.09914
세	-8.1031
전	-8.10346
▁tv	-8.10634
▁혐의로	-8.10813
▁아프간	-8.10871
▁군	-8.11095
이며	-8.1151
▁지금	-8.11513
원	-8.11575
▁이미	-8.11619
▁거	-8.11624
용	-8.11887
▁기록	-8.12586
에서는	-8.13167
▁번	-8.13331
▁승리	-8.13426
하면서	-8.14292
▁마	-8.14594
▁연구	-8.15054
▁정보	-8.1571
▁위치한	-8.15711
▁매우	-8.15926
▁있었	-8.16161
프	-8.16666
▁팔레스타인	-8.1711
▁원	-8.17178
였	-8.17324
▁이슬람	-8.17618
▁회사	-8.18114
▁때문	-8.18245
보	-8.18451
마	-8.19096
로부터	-8.19268
▁총	-8.19277
레	-8.19301
▁없는	-8.19359
▁기자	-8.19623
▁노	-8.19846
▁방문	-8.19968
▁피해	-8.20099
▁비난	-8.20198
▁줄	-8.20246
▁km	-8.20403
e	-8.20459
됐	-8.20947
le	-8.20949
▁유럽	-8.21037
타	-8.2132
▁추가	-8.21321
▁살	-8.21458
되어	-8.21939
▁오늘	-8.21974
▁부	-8.22086
▁in	-8.2215
▁뉴욕	-8.2216
▁않고	-8.22338
▁의원	-8.22421
▁한다고	-8.22902
▁강	-8.23009
명	-8.23077
우	-8.23245
▁조지	-8.23549
▁탈레반	-8.23562
▁대선	-8.2368
▁있다는	-8.24053
▁아이	-8.24141
▁지지	-8.24296
ing	-8.24655
▁호주	-8.24718
▁인도	-8.24907
식	-8.25044
▁다	-8.25275
▁년간	-8.25456
▁점	-8.25466
▁어떤	-8.25553
바	-8.25603
▁정도	-8.25639
▁잘	-8.2574
▁기	-8.25832
디	-8.25984
▁지적했다	-8.26169
▁활동	-8.26384
▁대표	-8.26684
▁joins	-8.26706
돼	-8.2676
▁독일	-8.26816
▁우려	-8.26861
였다	-8.26895
질	-8.26908
▁혐의	-8.27532
▁소속	-8.27801
▁인터넷	-8.27864
d	-8.28179
▁원문기사보기	-8.28264
라는	-8.28315
▁시장	-8.2839
▁포함	-8.28425
▁새	-8.28876
안	-8.28982
티	-8.29033
▁올림픽	-8.29073
▁간	-8.29129
했지만	-8.2919
파	-8.29211
▁감독	-8.29247
▁내용	-8.29342
▁개의	-8.29344
제	-8.29483
▁협상	-8.29576
▁하지	-8.29795
▁프로그램	-8.30096
▁최고	-8.30361
▁예정	-8.30709
▁대학	-8.30796
▁매케인	-8.30901
▁상원의원	-8.31818
▁성	-8.31927
▁부상	-8.31946
▁차량	-8.3206
▁w	-8.32182
▁없다고	-8.32442
▁m	-8.32468
▁관리	-8.32667
▁여러	-8.32847
▁구	-8.33009
y	-8.33076
함	-8.33142
▁않는다	-8.33194
미	-8.33231
▁받은	-8.3363
▁보고서	-8.33753
▁못했다	-8.34116
▁발생했다	-8.34189
▁입장	-8.34866
되었다	-8.34962
려	-8.35165
▁주장	-8.35195
▁개월	-8.35344
▁상	-8.35479
▁언론	-8.35604
▁요구	-8.35774
▁사용	-8.35836
▁하	-8.36404
▁의회	-8.36536
합니다	-8.36609
▁카	-8.36694
ed	-8.36893
오	-8.37106
▁도	-8.37139
▁박사	-8.37649
▁오후	-8.37958
되는	-8.38321
▁폭탄	-8.38347
린	-8.38393
국	-8.38445
▁시작	-8.38687
러	-8.38889
▁배	-8.39147
▁판매	-8.3922
코	-8.39538
▁보	-8.39564
토	-8.39701
구	-8.39882
▁전쟁	-8.40054
▁북한이	-8.40114
▁모습	-8.40123
권	-8.40711
▁발생	-8.4073
▁보도	-8.40807
관	-8.40897
이었다	-8.41057
▁미얀마	-8.41442
▁기술	-8.41781
▁단체	-8.42139
▁인터뷰에서	-8.42151
▁남자	-8.42312
▁자동차	-8.42634
▁준비	-8.43025
▁된	-8.43089
▁석방	-8.4342
산	-8.43439
▁컴퓨터	-8.43728
▁생각	-8.44004
▁앞으로	-8.44049
▁이러	-8.44071
▁있어	-8.44111
▁곳	-8.44404
▁나는	-8.44675
▁않	-8.44765
▁터키	-8.45052
▁갖고	-8.452
▁것에	-8.45218
카	-8.45224
▁현지	-8.45491
▁공화당	-8.45666
▁마지막	-8.45811
▁검찰	-8.46057
▁강조했다	-8.46106
▁방송	-8.4631
차	-8.46372
▁ap	-8.46433
▁병원	-8.46452
되지	-8.46607
▁변화	-8.46667
▁경찰이	-8.46947
▁합의	-8.47173
▁개발	-8.47241
▁무	-8.47358
▁인쇄	-8.47462
▁떨어진	-8.47588
내	-8.47692
▁가진	-8.47751
▁상황	-8.47865
되고	-8.48355
▁교수	-8.48393
들에게	-8.48407
▁앞서	-8.48473
▁반대	-8.4848
▁여	-8.48511
▁정책	-8.48551
▁해결	-8.4857
▁우주	-8.48694
▁않았	-8.48788
▁오전	-8.49207
▁남부	-8.49356
▁힐러리	-8.4937
▁폭발	-8.49422
하는데	-8.49657
▁비난했다	-8.49722
▁사이	-8.49747
▁주지사	-8.4982
▁지도자	-8.50008
▁오는	-8.50175
▁미국과	-8.50211
▁물	-8.50344
▁피	-8.50363
▁독해	-8.50384
▁차례	-8.50441
▁스페인	-8.50603
▁평화	-8.50684
설명	-8.50959
▁규모	-8.51069
▁버락	-8.51097
▁자신이	-8.51108
▁집	-8.51405
▁백악관	-8.51809
▁정	-8.51983
▁날	-8.52157
▁상태	-8.52166
▁아시아	-8.52583
▁증가	-8.52625
▁다음	-8.52913
▁야당	-8.53065
▁노력	-8.53326
▁이어	-8.53331
▁의사	-8.53501
▁미국이	-8.53642
▁원문	-8.53863
▁지난달	-8.53888
노	-8.54096
모	-8.54235
릴	-8.54293
▁없었다	-8.54369
▁투표	-8.54397
▁도시	-8.5469
었던	-8.54953
▁이탈리아	-8.55136
▁치료	-8.55195
브	-8.55519
▁좋은	-8.55635
▁무샤라프	-8.55893
▁인근	-8.55989
법	-8.56055
▁지역에서	-8.56215
는데	-8.56225
군	-8.56386
물	-8.56547
▁관한	-8.56579
하기로	-8.56633
▁볼	-8.56713
▁있지만	-8.56742
▁연방	-8.5682
al	-8.56821
▁신	-8.5696
▁이용	-8.5716
▁이를	-8.57433
▁아무	-8.57738
▁마리	-8.57797
▁타	-8.57906
▁전문가들	-8.58074
▁파	-8.5812
▁없이	-8.58127
▁가지	-8.58315
▁보인다	-8.58438
▁당	-8.58568
▁이런	-8.58674
▁영향	-8.58692
▁안전	-8.58884
호	-8.59119
단	-8.59297
조	-8.59365
▁여행	-8.5962
으로부터	-8.59663
▁이름	-8.59682
정	-8.59986
들의	-8.60077
▁까지	-8.60377
▁매	-8.60573
▁최소	-8.60599
c	-8.60661
▁불	-8.60731
직	-8.60916
▁않다	-8.61129
▁생산	-8.61199
▁양	-8.61259
▁보다	-8.61315
▁금융	-8.61547
▁가족	-8.6168
▁사망자	-8.61726
▁불법	-8.61737
▁가능성	-8.61784
▁저	-8.61813
▁미국은	-8.61831
▁장	-8.61954
데	-8.62263
▁김	-8.6227
신	-8.62346
▁미사일	-8.62383
▁팀	-8.62523
▁이전	-8.62731
▁행사	-8.62941
▁산	-8.63025
온	-8.63129
▁연기	-8.63157
▁위협	-8.63173
▁밤	-8.63238
▁중요한	-8.63252
▁하나	-8.63331
▁상승	-8.63417
▁리	-8.63518
▁공식	-8.63685
난	-8.63898
▁역사	-8.64038
▁재	-8.64128
u	-8.64246
▁artic	-8.64254
▁최초	-8.64361
▁와	-8.6437
▁검사	-8.64383
씨	-8.64403
▁년에	-8.64692
▁논의	-8.64772
▁for	-8.64822
▁만에	-8.64933
▁주둔	-8.65086
중	-8.65163
▁모	-8.65462
임	-8.65562
▁알카에다	-8.65574
▁외	-8.65878
▁알려졌다	-8.65973
▁없	-8.66156
▁사태	-8.66175
박	-8.66267
▁포인트	-8.66608
▁비행기	-8.6664
▁유	-8.6666
했었다	-8.66687
▁발언	-8.67141
▁정치적	-8.67817
▁대통령과	-8.67821
▁지구	-8.67877
피	-8.67901
하도록	-8.68021
▁돈	-8.68033
▁가격	-8.68294
계	-8.68683
▁씨	-8.68709
▁말했습니다	-8.68717
▁법원	-8.68749
▁용의자	-8.68854
▁이야기	-8.68862
▁필요	-8.69
▁방법	-8.69101
▁은행	-8.6911
터	-8.69117
▁호	-8.69126
▁관심	-8.69226
▁반면	-8.69275
▁주민들	-8.6938
▁것입니다	-8.69725
▁역할	-8.69844
▁부토	-8.70082
▁사망한	-8.70091
점	-8.70153
루	-8.7042
▁코리아	-8.70949
▁무기	-8.71048
▁자신들	-8.71207
▁대해서	-8.713
▁열	-8.71374
▁런던	-8.71375
방	-8.71391
▁불구하	-8.71412
▁자금	-8.71479
▁벌이	-8.71529
▁일간	-8.71707
▁서비스	-8.71772
▁조직	-8.71808
▁회장	-8.71828
포	-8.71856
▁정치	-8.71898
▁살해	-8.72084
▁적	-8.72292
▁학교	-8.72355
▁자신	-8.72409
▁반군	-8.72411
▁최대	-8.72564
측	-8.72643
▁e	-8.72655
▁전에	-8.72672
력	-8.72745
▁수사	-8.72819
▁심	-8.72958
▁위험	-8.73044
▁인질	-8.73351
들과	-8.73444
▁거래	-8.73591
▁발	-8.73649
▁관계자들	-8.7373
체	-8.7383
▁한나라당	-8.73996
▁기업	-8.74058
▁것이라는	-8.741
▁골	-8.74118
▁출신	-8.74257
▁높은	-8.74307
▁소	-8.74334
▁인용	-8.74464
▁중단	-8.7452
▁코	-8.74527
▁뉴스	-8.74695
▁지난주	-8.74848
발	-8.74864
▁북부	-8.74887
▁언급	-8.75122
▁바그다드	-8.75143
▁공	-8.75183
▁의하면	-8.75289
▁올	-8.75435
▁군사	-8.7553
▁공급	-8.75668
됐다고	-8.75837
▁가능성이	-8.75861
▁강력	-8.75902
사전	-8.75917
▁자살	-8.76202
▁표	-8.76212
▁게임	-8.7636
▁천	-8.7646
자들	-8.76467
요	-8.76476
해서	-8.76525
▁소식	-8.76601
▁만명	-8.76667
▁투자	-8.76688
▁더욱	-8.76831
▁뜻	-8.76844
▁건물	-8.76862
▁공동	-8.77144
▁선	-8.77238
▁시위대	-8.77303
▁왔다	-8.77484
▁부족	-8.7752
▁알고	-8.77676
▁특	-8.7786
▁지역에	-8.77862
여	-8.77907
▁못	-8.78104
▁선수	-8.78168
▁것이며	-8.78309
▁국경	-8.7842
▁n	-8.78641
더	-8.78642
▁우승	-8.78764
▁아버지	-8.78779
위	-8.78837
▁서울	-8.79005
시킬	-8.79126
츠	-8.79179
▁고위	-8.79435
o	-8.79541
▁법	-8.79671
▁부인	-8.79723
▁레	-8.79823
▁아니다	-8.80278
▁필요한	-8.80382
▁어제	-8.8043
▁핵무기	-8.8073
▁앞	-8.80879
▁나라	-8.80897
▁이와	-8.81087
▁병력	-8.81155
이자	-8.8138
든	-8.81412
▁되는	-8.81499
▁korea	-8.81551
▁법안	-8.81593
동	-8.81648
▁하루	-8.81734
형	-8.81748
▁아이들	-8.82049
▁시작했다	-8.82051
▁사르코지	-8.82065
▁감소	-8.82109
▁금지	-8.8218
▁확인	-8.82474
▁com	-8.825
▁운동	-8.82541
▁위기	-8.82546
▁하마스	-8.82692
▁티베트	-8.8274
▁라이스	-8.82774
▁포	-8.82815
▁행위	-8.82824
▁결국	-8.83089
키	-8.83104
▁않는	-8.83114
▁요청	-8.8316
▁충돌	-8.83173
▁서	-8.83343
▁아들	-8.83376
▁독립	-8.8341
▁만달러	-8.83433
▁폭탄테러	-8.83491
런	-8.83555
▁아침	-8.83766
▁발견	-8.83782
▁전화	-8.83785
▁보호	-8.83812
이라는	-8.83878
▁이제	-8.83938
▁기간	-8.83943
▁그것	-8.84015
▁관련된	-8.84033
▁각	-8.84261
란	-8.8428
▁기자회견에서	-8.84351
▁인	-8.8436
하겠다고	-8.84377
▁콜롬비아	-8.84446
회	-8.84476
▁동영상	-8.84577
된다	-8.84581
위원회	-8.84675
▁행동	-8.84809
▁공항	-8.84856
▁국방부	-8.84867
▁la	-8.84983
▁아니라	-8.85124
▁건강	-8.85188
실	-8.85233
하자	-8.85245
▁보였다	-8.85303
n	-8.85315
▁직접	-8.85323
▁이같	-8.85757
문	-8.85763
▁브라운	-8.85842
▁스	-8.85981
▁남성	-8.85985
▁으로	-8.86065
하려	-8.8616
▁노무현	-8.86182
▁캘리포니아	-8.86204
▁워싱턴	-8.86232
하면	-8.86239
▁여부	-8.86241
er	-8.86262
▁위해서	-8.86488
▁and	-8.86549
시켰다	-8.866
▁사람이	-8.86765
▁억원	-8.86967
▁타고	-8.87069
▁받을	-8.87384
▁상원	-8.87658
▁있고	-8.8771
종	-8.87855
▁비행	-8.87899
▁eu	-8.87991
날	-8.88728
▁자유	-8.8882
▁주택	-8.88884
▁보안	-8.89163
▁건설	-8.89179
▁역시	-8.89412
▁대화	-8.89529
▁특별	-8.8998
학	-8.9004
▁어떻게	-8.90111
▁대사	-8.90212
t	-8.90602
▁이유	-8.90683
▁수준	-8.90828
▁년까지	-8.9085
▁열리는	-8.90929
▁음악	-8.90998
▁p	-8.91055
▁시신	-8.91113
▁회의	-8.91148
▁받았	-8.91207
▁이유로	-8.91406
한다고	-8.91435
▁베이징	-8.91523
▁빌	-8.91705
▁협력	-8.91741
▁호텔	-8.91973
▁연설	-8.92072
▁판결	-8.92156
▁폴	-8.92186
▁사회	-8.92197
▁문제에	-8.92332
▁폐쇄	-8.92372
▁곧	-8.92382
▁철수	-8.92382
▁년대	-8.92448
▁사건에	-8.92646
▁국무부	-8.92698
▁손	-8.92768
▁문	-8.92911
▁드	-8.931
그	-8.93207
▁숨졌다	-8.933
▁타임즈	-8.93451
▁에너지	-8.93555
▁석유	-8.93777
b	-8.93814
▁데이비드	-8.93823
긴	-8.93953
▁위원회	-8.93957
감	-8.94061
▁한국인	-8.94073
친	-8.9408
▁발사	-8.94126
다고	-8.94134
▁아프가니스탄	-8.94219
유	-8.94262
급	-8.94428
▁막	-8.94508
▁신문	-8.94589
▁박	-8.94649
▁실	-8.94903
하던	-8.95141
▁온	-8.9517
▁하락	-8.95372
▁기회	-8.95389
▁체포	-8.95557
네	-8.95569
경	-8.95581
▁있게	-8.95596
▁월에	-8.95597
▁대선후보	-8.95734
▁진행	-8.95874
▁방안	-8.95957
▁말하는	-8.95968
공	-8.9612
▁변호사	-8.96137
▁과학자들	-8.96212
혀	-8.96478
설	-8.96521
▁공개	-8.96523
▁같다	-8.96575
▁종	-8.96658
▁증거	-8.96686
▁도로	-8.96689
▁d	-8.9671
▁범죄	-8.9677
▁수술	-8.96971
▁승인	-8.96974
▁현	-8.96991
▁내년	-8.97008
▁있기	-8.97025
버	-8.97044
▁생활	-8.97048
▁남	-8.97074
져	-8.97158
▁양국	-8.9729
▁구조	-8.97371
▁전망	-8.97618
▁전세계	-8.97673
▁발견했다	-8.97868
▁주변	-8.97908
▁작전	-8.97914
▁너무	-8.97929
▁아니	-8.97957
▁우	-8.97992
▁눈	-8.9802
▁교육	-8.98023
▁납치	-8.98052
▁대규모	-8.9808
졌다	-8.9815
▁임무	-8.98153
▁요구했다	-8.98166
▁통신	-8.98175
▁입	-8.98335
재	-8.98427
▁멕시코	-8.98464
▁생각한다	-8.98581
▁훈련	-8.9883
▁사업	-8.99083
▁길	-8.99501
심	-8.99584
하려는	-8.99759
▁어린이	-9.00027
▁비디오	-9.00066
▁인구	-9.00096
▁의견	-9.0011
지는	-9.00152
▁저장	-9.00246
▁개인	-9.00261
▁co	-9.00271
▁만원	-9.00283
▁동물	-9.00301
▁재개	-9.00422
▁재판	-9.00511
울	-9.00528
▁시도	-9.00661
▁성공	-9.00801
▁화재	-9.0081
▁나타났다	-9.00917
▁결혼	-9.00924
▁경고	-9.00946
▁정상	-9.01061
▁이동	-9.01092
▁애	-9.01131
반	-9.01204
▁목표	-9.01238
▁전투	-9.01242
▁약어표	-9.01277
▁앞두고	-9.01279
▁힘	-9.01303
▁예정이라	-9.01437
▁대사관	-9.01523
▁포함한	-9.01528
▁비롯	-9.01689
▁어	-9.01733
민	-9.02165
▁성장	-9.02304
▁심각한	-9.02308
▁통	-9.02413
▁했다고	-9.02457
▁레바논	-9.02467
▁사진	-9.02507
▁로버트	-9.02516
▁행정부	-9.02518
▁딸	-9.02603
▁관할	-9.02645
▁전체	-9.02699
▁민간인	-9.027
로서	-9.02708
량	-9.02868
▁억달러	-9.02927
▁인간	-9.03024
▁아닌	-9.03341
▁것이라	-9.03423
▁난	-9.03476
▁태국	-9.0354
▁방	-9.03599
▁편	-9.03654
▁판사	-9.03786
▁여전	-9.03805
병	-9.0383
▁해외	-9.03958
▁못하	-9.04026
▁안에	-9.04051
▁g	-9.0407
▁스타	-9.04165
으로써	-9.04183
▁경선	-9.04249
▁출전	-9.04278
▁치	-9.04447
스트	-9.04727
▁c	-9.04885
▁여객기	-9.05019
영	-9.05169
m	-9.0517
▁경기에서	-9.05269
▁수치	-9.05422
청	-9.05449
▁제안	-9.05852
되었	-9.05882
▁국민	-9.06159
▁인도네시아	-9.06214
▁대신	-9.06275
▁촉구했다	-9.06535
▁수입	-9.06568
▁명과	-9.06607
너	-9.06642
st	-9.06645
▁친	-9.06756
▁작은	-9.06844
▁메	-9.06946
▁친구	-9.06975
▁건	-9.07057
교	-9.07124
▁퍼센트	-9.07149
▁밝혀졌다	-9.07176
속	-9.072
슨	-9.07322
▁가지고	-9.07339
▁네	-9.0744
하라	-9.07507
▁산업	-9.0761
▁그들의	-9.07776
▁인정	-9.07803
▁입은	-9.0789
▁마이클	-9.08017
▁예	-9.08057
▁헬기	-9.08066
▁경	-9.08202
▁이상이	-9.08421
▁지도자들	-9.08429
▁푸틴	-9.08454
▁최종	-9.08459
▁규정	-9.08546
판	-9.08569
▁대회	-9.08597
▁b	-9.08611
▁열차	-9.08611
▁마을	-9.08631
▁국민들	-9.08714
▁온라인	-9.08725
▁제재	-9.08933
▁선택	-9.09141
연	-9.09143
▁경쟁	-9.09161
▁안보	-9.0921
▁들	-9.09293
▁입었다	-9.09345
▁아기	-9.0935
▁예상	-9.09682
▁us	-9.09736
역	-9.09749
▁f	-9.09763
▁바로	-9.09765
▁폭력	-9.09774
▁시설	-9.09995
▁당신	-9.10218
강	-9.1028
▁알리	-9.10345
▁받아	-9.10362
▁환경	-9.10449
▁이라크에서	-9.10499
▁브라질	-9.10669
▁증시	-9.10683
워	-9.10889
a	-9.11072
▁항	-9.11143
▁사임	-9.11226
행	-9.11357
p	-9.11404
▁말한다	-9.11465
▁얼마	-9.11512
▁메시지	-9.11581
▁인권	-9.11603
▁부대	-9.11631
▁라디오	-9.11679
▁연합	-9.11843
▁살고	-9.11884
▁그들이	-9.11995
▁un	-9.12062
▁무장	-9.12081
▁이것	-9.12369
▁본	-9.12379
▁밝힌	-9.12471
▁배우	-9.1252
▁대의원	-9.12603
▁아프리카	-9.12708
▁수단	-9.12714
▁여자	-9.12767
▁경고했다	-9.12872
▁대만	-9.12885
▁돌	-9.12917
▁필요하다	-9.12985
▁만약	-9.13005
▁관리들	-9.13053
▁그런	-9.13081
▁개선	-9.13271
▁중인	-9.13299
▁보내	-9.13315
▁미국인	-9.13352
▁속	-9.13432
▁측	-9.13439
▁도움	-9.13512
▁팔	-9.13562
▁힐	-9.13818
▁서로	-9.13851
▁외국	-9.13877
▁걸	-9.14011
▁남편	-9.14102
▁출연	-9.14145
▁운영	-9.14152
▁즉	-9.14208
▁화요일	-9.14373
r	-9.14377
▁책임	-9.14429
▁반응	-9.1447
▁의장	-9.14475
후	-9.14481
▁발표한	-9.14633
▁확보	-9.14756
▁비해	-9.14795
▁계약	-9.14844
▁시스템	-9.14955
▁항공	-9.15005
▁외국인	-9.15189
▁지수	-9.15212
▁케냐	-9.15245
▁벌였다	-9.15439
▁밝혔	-9.15444
복	-9.155
▁주식	-9.15507
▁관계자가	-9.15751
▁세금	-9.15788
▁홍콩	-9.15801
▁담	-9.15805
론	-9.15931
▁가치	-9.1606
▁원인	-9.16362
▁지방	-9.16449
▁광고	-9.165
▁없을	-9.16562
▁스미스	-9.16658
▁소송	-9.1679
▁약속	-9.16949
▁시즌	-9.16974
▁여명	-9.17072
있는	-9.17093
▁짐바브웨	-9.17134
건	-9.17237
▁부부	-9.17346
▁과거	-9.17463
▁같이	-9.17641
▁기록했다	-9.17671
▁미국에서	-9.17713
▁중동	-9.17737
금	-9.17739
▁공연	-9.17758
▁베	-9.17866
▁on	-9.17875
무	-9.18005
▁상당	-9.18056
▁사무총장	-9.18094
▁내렸다	-9.18282
▁해안	-9.18489
▁시아파	-9.18577
▁연료	-9.18643
었다고	-9.18742
▁거리	-9.1887
▁빈	-9.18989
▁밖에	-9.18997
▁디	-9.19095
▁만나	-9.19256
통	-9.1977
▁총선	-9.19806
▁일정	-9.19904
▁일본의	-9.20004
▁유지	-9.20039
▁각각	-9.2005
▁권리	-9.20095
▁평균	-9.20174
▁앤	-9.20351
음	-9.20432
▁년부터	-9.20436
▁부통령	-9.20457
출	-9.20504
▁다리	-9.20535
▁정권	-9.2058
▁제작	-9.20651
▁해군	-9.207
▁웹사이트	-9.20732
▁플로리다	-9.20751
▁감시	-9.20793
▁작품	-9.20812
▁비용	-9.20918
▁파업	-9.21036
▁기대	-9.21085
▁합의했다	-9.21455
▁시험	-9.21532
▁나오	-9.21557
▁않아	-9.21579
▁제품	-9.21605
▁가스	-9.21613
▁국내	-9.21754
엔	-9.21895
▁다양	-9.21923
▁개최	-9.22125
▁처리	-9.22315
▁텍사스	-9.22355
▁환자	-9.22431
▁사이에	-9.22492
▁구성	-9.22598
▁소식통	-9.22663
팀	-9.22758
▁위원장	-9.22852
▁주말	-9.22898
류	-9.23028
k	-9.23055
▁국영	-9.23127
▁과정에서	-9.23168
▁암	-9.23204
▁사건이	-9.23258
▁대가	-9.23297
증	-9.23302
작	-9.23318
했을	-9.2332
▁내무부	-9.2354
▁학생	-9.23542
▁이수지	-9.23547
▁여름	-9.2355
▁걸쳐	-9.23557
de	-9.23603
▁발견됐다	-9.23618
▁인상	-9.2371
▁담당	-9.23899
▁회	-9.23965
es	-9.24295
▁하기	-9.24339
▁완전	-9.24506
▁be	-9.24506
▁지명	-9.24586
▁항공사	-9.24763
석	-9.24818
▁것과	-9.24872
시켜	-9.24942
▁결정했다	-9.251
▁상황이	-9.25125
▁강제	-9.25148
▁동부	-9.25437
▁선고	-9.2549
앞서	-9.25568
▁주민	-9.25629
▁이곳	-9.25687
▁유일	-9.25691
▁그룹	-9.25698
▁부상했다	-9.25813
품	-9.25831
▁벌	-9.25836
▁키	-9.25955
래	-9.26294
▁대상으로	-9.26317
▁동	-9.26318
▁h	-9.26586
▁온몸	-9.26641
▁후세인	-9.26643
▁주재	-9.26711
▁캐나다	-9.26972
▁단	-9.27056
▁무장세력	-9.2711
분	-9.27233
▁촬영	-9.27447
▁페	-9.27509
▁되었다	-9.27528
▁직원	-9.27581
▁바란다	-9.27697
▁바이러스	-9.27698
▁k	-9.2782
▁어머니	-9.27844
본	-9.27853
▁기사	-9.27855
인한	-9.28157
▁베네수엘라	-9.28229
▁익명	-9.28229
▁압력	-9.28236
▁야후	-9.28238
▁알려진	-9.28247
기도	-9.28257
▁놓	-9.28367
▁갈	-9.2847
▁불만	-9.2853
▁서부	-9.28699
▁곳에서	-9.28801
▁발견된	-9.28857
▁주간	-9.2889
▁제공	-9.28926
해왔다	-9.29111
▁상대로	-9.29226
▁기상캐스터	-9.29301
저	-9.29375
▁루	-9.29475
▁국가들	-9.29504
▁마치	-9.29532
▁누	-9.29687
두	-9.29791
▁파병	-9.29847
▁차베스	-9.29849
▁로마	-9.29957
▁통제	-9.29961
약	-9.30013
▁통과	-9.3006
▁남한	-9.30108
▁일까지	-9.30151
▁인기	-9.30194
▁여론	-9.30238
▁여론조사	-9.30252
▁북핵	-9.30381
▁이래	-9.30407
▁희망	-9.30465
▁민주주의	-9.30468
▁왕자	-9.30678
▁요청했다	-9.30745
▁대변인이	-9.30921
기구	-9.30989
▁패	-9.31073
▁경찰에	-9.31117
▁추	-9.31172
▁집단	-9.31188
▁받는	-9.31243
i	-9.3143
▁논쟁	-9.31474
▁유권자들	-9.31474
▁진압	-9.31507
▁책	-9.31534
▁커	-9.3156
▁크게	-9.31569
▁소녀	-9.31695
하였다	-9.31698
▁자료	-9.31728
▁회복	-9.31757
▁받지	-9.31917
었습니다	-9.31962
힌	-9.32033
▁밝혔습니다	-9.32071
▁사망하	-9.32094
▁예상된다	-9.32102
▁하원	-9.32156
▁총격	-9.32222
▁위성	-9.32397
▁사과	-9.32399
▁사령관	-9.32408
▁때까지	-9.32413
▁접근	-9.32532
▁복귀	-9.3259
▁버스	-9.32593
▁되고	-9.32639
▁변호사는	-9.32705
▁사는	-9.33193
▁별	-9.33351
한다는	-9.33378
▁수출	-9.3341
▁있지	-9.33521
중인	-9.33521
h	-9.33612
▁인터뷰	-9.33675
▁센터	-9.337
▁탑승	-9.33707
▁쿠바	-9.3375
▁발전	-9.33767
▁강한	-9.33776
▁사퇴	-9.33959
케	-9.3397
▁밝히	-9.34076
록	-9.34133
▁거대	-9.34133
▁수상	-9.34164
▁연	-9.34201
▁최악	-9.34276
▁무장단체	-9.34291
▁나온	-9.34343
▁전국	-9.34478
색	-9.34481
줄	-9.34512
▁적이	-9.34523
▁마크	-9.34616
▁암살	-9.34698
▁백	-9.34779
▁따른	-9.34848
▁의료	-9.34848
▁국회	-9.34849
▁실험	-9.3489
기로	-9.34966
▁머리	-9.3515
▁일부터	-9.35184
▁토	-9.35227
▁아니라고	-9.35266
▁도움이	-9.35293
▁음식	-9.35305
▁평가	-9.35394
하겠다	-9.35422
▁세력	-9.35445
▁죽음	-9.35543
▁제한	-9.35668
▁사실이	-9.35712
▁수색	-9.35737
테	-9.35771
료	-9.35958
▁성폭행	-9.35983
▁받게	-9.36085
▁임기	-9.36103
▁의미	-9.36181
▁적어	-9.36187
개	-9.36193
▁되어	-9.36311
▁u	-9.36359
처	-9.36372
▁헌법	-9.36509
▁필리핀	-9.36567
▁한다는	-9.36619
f	-9.3663
▁강화	-9.36729
▁상원의원이	-9.36751
▁질문	-9.36756
▁기지	-9.36913
▁명령	-9.36948
▁nasa	-9.37149
▁매년	-9.37162
갈	-9.37307
층	-9.37312
▁월요일	-9.37448
▁파리	-9.37453
▁달리	-9.37547
▁차이	-9.37572
▁동료	-9.37578
▁파견	-9.37751
▁있음	-9.37807
▁주도	-9.37861
▁확인했다	-9.37917
▁선수들	-9.37949
▁정부와	-9.37953
▁중국은	-9.3799
▁시간이	-9.38077
등	-9.38078
▁이집트	-9.38083
▁가자지구	-9.38136
▁못한	-9.38153
▁학생들	-9.38168
▁가능한	-9.38174
▁사우디	-9.38324
대로	-9.38385
▁들어	-9.38517
▁무역	-9.38523
▁시리아	-9.38573
▁가졌다	-9.38655
▁북한에	-9.38704
▁감염	-9.38749
▁항공기	-9.38761
▁칸	-9.38853
되기	-9.38907
▁파괴	-9.38914
▁어느	-9.38918
▁두고	-9.38986
▁언급했다	-9.38997
▁자세	-9.39033
▁인질들	-9.39038
▁거부	-9.39074
▁고통	-9.39091
▁나왔다	-9.39092
▁인수	-9.39107
▁공격으로	-9.3935
on	-9.3938
▁기소	-9.3942
▁뇌	-9.39557
쳐	-9.39579
▁고용	-9.39737
▁개혁	-9.3978
▁밝히지	-9.39788
▁찾아	-9.3992
업체	-9.40174
근	-9.40304
▁보냈다	-9.40307
동안	-9.4036
▁t	-9.40387
▁외교	-9.404
l	-9.40622
▁사람들을	-9.40649
▁나머지	-9.40709
▁이끄는	-9.40711
▁명으로	-9.40741
▁영어	-9.40807
▁후에	-9.40982
▁사랑	-9.40984
다면	-9.41103
▁중에	-9.41117
생	-9.41199
▁구체적	-9.41321
▁권력	-9.4134
▁사형	-9.4138
락	-9.41387
▁설명	-9.41414
▁향해	-9.41414
▁개국	-9.41439
▁긴장	-9.41444
▁사람들에게	-9.41552
▁부상자	-9.41589
았다	-9.41676
▁지진	-9.41824
▁살인	-9.41828
▁관해	-9.41877
▁병사	-9.41893
▁병	-9.419
▁식량	-9.41918
른	-9.41968
▁인물	-9.41977
지역	-9.41996
g	-9.42009
▁신고	-9.42065
▁올랐다	-9.42136
▁아내	-9.42235
▁군대	-9.42346
▁안정	-9.42386
▁전시	-9.42425
▁희생자	-9.42481
튼	-9.42492
▁공습	-9.42505
▁장면	-9.42512
▁제임스	-9.42537
▁지나	-9.42594
▁일자리	-9.42666
▁국무장관	-9.42756
탄	-9.42817
▁싶다	-9.43156
▁잘못	-9.43157
▁소재	-9.43182
▁붕괴	-9.43205
▁전기	-9.43247
시키는	-9.43256
▁업체	-9.43305
▁허가	-9.43429
▁맥	-9.43455
▁의원들	-9.4346
▁참석	-9.43781
▁다음달	-9.4379
▁흑인	-9.43842
양	-9.4389
▁막기	-9.44005
업	-9.44032
▁위반	-9.44086
▁만큼	-9.44296
▁미군이	-9.44319
▁자회담	-9.4436
▁비밀	-9.4439
▁목숨	-9.44402
▁정상회담	-9.44405
으로서	-9.44581
▁되지	-9.44652
쉬	-9.44686
장을	-9.44956
▁예측	-9.44992
▁기관	-9.45003
▁팬들	-9.4502
▁오른	-9.45049
것	-9.45076
▁숨지고	-9.45153
▁주장하고	-9.45158
▁설치	-9.4523
▁질	-9.45329
▁부모	-9.45412
▁허리케인	-9.45664
▁국방장관	-9.45667
▁수천명	-9.45685
▁자체	-9.45699
▁선정	-9.45717
▁구매	-9.45749
▁만들어	-9.45889
▁질문에	-9.45896
▁나이	-9.46027
▁모델	-9.46171
▁위로	-9.46214
▁제기	-9.46293
▁소말리아	-9.46301
▁어떠한	-9.46301
▁임시	-9.46374
▁소리	-9.46433
ar	-9.46486
▁비판	-9.46491
▁해야	-9.46539
▁쇼	-9.46785
▁잡	-9.46827
들에	-9.46866
▁왜	-9.46975
▁마음	-9.4698
▁시기	-9.47206
▁마련	-9.47232
▁진	-9.47322
센터	-9.47463
▁달러에	-9.47485
하기도	-9.47521
▁끝에	-9.47548
▁확대	-9.47587
▁물론	-9.47616
▁마약	-9.47616
▁일반	-9.47622
망	-9.47699
▁받	-9.47825
▁계획이	-9.48079
▁당선인	-9.48088
▁곳에	-9.48096
▁따라	-9.48127
▁시카고	-9.4816
▁유로	-9.48174
▁선출	-9.48221
▁사장	-9.48251
▁외무부	-9.4826
▁사원	-9.4826
▁수요일	-9.48288
▁중앙	-9.48317
▁작업을	-9.48359
▁갖	-9.48432
▁문화	-9.48479
▁j	-9.48505
▁칼	-9.48575
▁넘는	-9.48603
▁여성이	-9.48684
▁섬	-9.48695
▁실시	-9.48761
커	-9.48817
▁석	-9.48826
▁시민	-9.48856
▁직원들	-9.48952
▁되	-9.4905
▁움직임	-9.49239
▁뿐	-9.4927
▁접촉	-9.49642
▁입고	-9.49745
▁자리	-9.49849
▁감	-9.49889
▁정부에	-9.49939
▁해리	-9.50053
▁유명한	-9.50089
▁베컴	-9.50212
▁찰스	-9.50231
▁경제적	-9.50244
▁세기	-9.50278
▁시행	-9.50323
▁양측	-9.50341
▁이란이	-9.504
회사	-9.50442
▁목적	-9.50469
▁추진	-9.50578
▁이달	-9.5058
▁도착	-9.50585
▁참가	-9.50592
▁선언	-9.506
▁금	-9.50621
▁배치	-9.50806
▁종교	-9.5085
▁fbi	-9.50879
▁교전	-9.51005
▁내려	-9.51049
▁심장	-9.51069
▁제조	-9.51154
▁존스	-9.51157
인들	-9.51163
▁발생해	-9.51179
▁혼란	-9.5119
▁이라크에	-9.51198
거리	-9.51241
리자	-9.51306
▁어려움	-9.51551
▁출마	-9.51568
▁넘	-9.51604
▁추락	-9.51615
▁아베	-9.51618
▁전력	-9.51669
▁연구소	-9.51776
▁게	-9.51843
▁대중	-9.51864
▁야	-9.5188
▁수익	-9.51882
▁사상	-9.51897
▁사진을	-9.51964
▁아주	-9.52046
▁교통	-9.52113
▁미래	-9.52173
▁전문가	-9.52174
▁관련해	-9.52186
▁외무장관	-9.52224
▁휴대폰	-9.52224
▁긴급	-9.52226
베	-9.5229
▁일요일	-9.52314
▁북	-9.52387
▁자녀	-9.5242
▁korean	-9.52585
▁나가	-9.52621
▁사항	-9.52722
마다	-9.52778
▁샤	-9.52829
▁피해자	-9.52842
▁상대	-9.52884
▁귀	-9.529
▁지도자인	-9.52953
▁진출	-9.5299
림	-9.53021
▁부분	-9.53067
▁자국	-9.532
었	-9.53214
▁병원에	-9.53253
▁잠	-9.53335
▁비슷	-9.53385
▁신원	-9.53518
ion	-9.53525
▁시상식	-9.53589
▁국제사회	-9.53599
▁경험	-9.53608
▁최고의	-9.53657
▁결의안	-9.53806
▁누구	-9.53969
주의	-9.54184
▁고문	-9.54185
▁검토	-9.54266
▁유권자	-9.54279
▁선두	-9.54296
▁총재	-9.54327
▁전달	-9.54399
▁여명이	-9.54447
▁주민들이	-9.54466
▁착륙	-9.54481
▁주가	-9.54527
▁거주하	-9.54682
▁교회	-9.54735
▁충격	-9.54816
▁대법원	-9.54837
▁집중	-9.54864
▁현장	-9.54898
▁작년	-9.5494
▁게이츠	-9.54976
▁로켓	-9.54983
▁절차	-9.54986
▁사무실	-9.54989
▁공군	-9.55071
되	-9.55119
▁것인지	-9.55129
▁정당	-9.5518
▁승객	-9.55225
▁분쟁	-9.55278
▁가질	-9.55306
플	-9.55338
메	-9.55388
v	-9.55422
▁젊은	-9.55639
▁그리스	-9.5567
▁체포됐다	-9.55736
▁끝	-9.55742
시키고	-9.55769
▁선거에서	-9.55798
▁허용	-9.55853
▁카운티	-9.55889
▁폭력사태	-9.5598
각	-9.56003
tal	-9.56007
▁순간	-9.56014
▁유명	-9.56071
만이	-9.56104
▁엘	-9.56135
▁인사	-9.56178
▁항의	-9.56252
▁위치	-9.56277
▁목표로	-9.56353
▁이전에	-9.56482
▁빨	-9.56483
▁월부터	-9.56501
▁목요일	-9.5651
▁해제	-9.56634
▁is	-9.56687
▁여사	-9.56714
▁구속	-9.56825
이었	-9.56911
▁관광	-9.56926
▁반대하는	-9.5695
▁노조	-9.56956
▁보기	-9.57001
퍼	-9.57116
▁숨진	-9.5712
▁쿠	-9.57239
▁정말	-9.57244
▁방문한	-9.57277
▁위에	-9.57323
▁현대	-9.57362
▁id	-9.57465
▁출발	-9.5753
▁수석	-9.57567
▁군인	-9.578
싼	-9.578
▁표현	-9.57859
▁대응	-9.57969
▁극	-9.58173
an	-9.58247
▁일이	-9.58412
▁단지	-9.58463
▁코소보	-9.58519
▁동결	-9.58528
▁이라크전	-9.5853
▁총기	-9.58551
▁판	-9.58567
▁가까	-9.58707
▁보여주	-9.58727
▁연장	-9.58814
▁전략	-9.58825
▁임명	-9.58905
있다	-9.58992
▁실패	-9.59005
▁추정	-9.59105
▁퍼	-9.59158
en	-9.59186
협회	-9.59191
렸다	-9.59207
▁나타나	-9.59244
▁스위스	-9.59272
투	-9.59335
정부	-9.59454
▁여성들	-9.59541
▁패배	-9.59594
▁올라	-9.59606
▁가량	-9.59766
▁영	-9.59813
▁약간	-9.59823
▁국립	-9.59964
▁변	-9.59969
▁잉글랜드	-9.59974
▁몇몇	-9.59974
▁신화통신	-9.59976
▁유세	-9.60022
▁남북	-9.60031
▁지지자들	-9.60054
아니라	-9.60061
▁매일	-9.60115
▁제거	-9.60173
▁들고	-9.60238
렌	-9.60346
▁있는지	-9.6035
▁보이는	-9.60456
▁불리	-9.60474
▁사이트	-9.60673
▁판단	-9.60733
액	-9.60752
▁도중	-9.60835
▁차기	-9.60903
▁피트	-9.60906
▁크	-9.60934
▁마일	-9.6095
▁당했다	-9.60953
▁도전	-9.60968
▁회담에서	-9.61078
▁작업	-9.61262
▁윌리엄	-9.61298
▁버지니아	-9.61342
▁연속	-9.61354
▁걱정	-9.61358
되었습니다	-9.61385
▁조건	-9.61401
▁bbc	-9.61453
▁고양이	-9.61458
▁유죄	-9.61491
▁밝혀지지	-9.61492
센	-9.6154
▁카메라	-9.61549
▁감사	-9.61558
▁대형	-9.61582
▁연합군	-9.6159
남	-9.61633
▁압박	-9.61737
했는데	-9.61774
배	-9.61779
▁약물	-9.61842
▁작성	-9.61925
장관	-9.61983
▁결	-9.62092
지도	-9.62114
▁다이애나	-9.62156
▁도쿄	-9.62173
▁블레어	-9.62196
▁스포츠	-9.62286
▁나토	-9.62307
▁소비자	-9.62307
쿠	-9.62317
표	-9.62422
▁자주	-9.62449
▁체포했다	-9.62478
▁여당	-9.62587
▁급	-9.62771
▁올메르트	-9.62948
▁스스로	-9.6295
▁전까지	-9.62968
▁노래	-9.62989
▁군부	-9.63019
▁분노	-9.63071
로써	-9.63078
▁효과	-9.63117
리아	-9.63199
▁관광객	-9.63334
▁주의	-9.63419
▁탄	-9.6348
or	-9.63527
턴	-9.63555
▁오래	-9.63575
▁연설에서	-9.63616
▁분기	-9.6367
집	-9.63674
ly	-9.63678
▁오랫동안	-9.63706
▁탁신	-9.63706
▁할리우드	-9.63706
▁핵심	-9.63771
단체	-9.63805
초	-9.63816
▁실수	-9.63849
▁만든	-9.63851
▁노동	-9.63902
▁한반도	-9.64006
▁취소	-9.64087
시키기	-9.64181
▁병원에서	-9.64272
▁아마	-9.64319
▁가능	-9.64388
▁빠른	-9.6447
▁비상사태	-9.64471
▁대비	-9.64521
▁확실히	-9.6453
ra	-9.64566
▁옷	-9.64627
▁분석	-9.6463
▁없어	-9.64705
▁내부	-9.64737
▁영국의	-9.64785
▁r	-9.6483
▁장기	-9.64862
▁이와같	-9.64888
▁참여	-9.64902
▁됐	-9.6493
▁집회	-9.65183
▁주에서	-9.65232
▁겪고	-9.65238
▁그렇게	-9.65238
▁직후	-9.65247
▁성적	-9.65368
▁높이	-9.65425
▁전통	-9.65433
하다고	-9.65453
▁뉴	-9.65639
▁굴	-9.65665
자들이	-9.65714
▁문서	-9.65786
▁운행	-9.6589
▁보건	-9.65938
▁사기	-9.66005
▁홍보	-9.66008
▁담배	-9.66025
▁수백명	-9.66039
▁마무리	-9.66051
▁개봉	-9.66057
▁구호	-9.66071
▁동시	-9.66116
▁실제	-9.66286
▁프로젝트	-9.66347
▁떠나	-9.66355
스러운	-9.66531
▁new	-9.66688
tp	-9.66759
▁기억	-9.66762
▁맞아	-9.66795
▁크리스토퍼	-9.66795
▁감축	-9.668
▁산불	-9.66807
▁오랜	-9.66819
▁화성	-9.66838
▁조작	-9.66847
▁글	-9.66922
링	-9.6695
자인	-9.6698
▁테	-9.67003
▁투입	-9.67147
▁re	-9.67168
▁대책	-9.67279
절	-9.67351
▁이밖에	-9.67582
▁처벌	-9.67585
▁샤리프	-9.67586
▁원자로	-9.67605
▁조금	-9.67637
▁의심	-9.67657
▁제출	-9.67686
▁단계	-9.67743
▁알게	-9.67788
▁능력	-9.67842
했는지	-9.68013
▁완화	-9.68071
▁차지했다	-9.68074
이지만	-9.68083
▁여왕	-9.68154
▁애플	-9.68194
▁실시된	-9.68212
▁넣	-9.68246
▁북한과	-9.68253
▁중심	-9.68279
▁크리스마스	-9.68372
▁민병대	-9.68376
▁스피어스	-9.68376
▁우크라이나	-9.68376
▁알려지	-9.68447
▁내각	-9.68463
▁증가했다	-9.68465
▁ms	-9.68467
▁빠르	-9.68485
▁cat	-9.68491
▁초기	-9.68503
▁수천	-9.68519
▁윌리엄스	-9.68539
▁생	-9.68586
▁당선	-9.68605
년	-9.68622
▁집행	-9.68666
▁가족들	-9.68673
▁요	-9.68709
준	-9.6881
▁망명	-9.68818
▁집에서	-9.68855
▁둔	-9.68922
▁수행	-9.69053
▁청와대	-9.6906
▁만명이	-9.69107
▁폭풍	-9.69151
▁난민	-9.69155
▁버	-9.69161
▁iaea	-9.69176
니다	-9.69191
▁보이고	-9.69194
▁나타냈다	-9.69238
▁주년	-9.69267
▁수정	-9.69333
왔다	-9.69349
▁그러	-9.69362
▁목사	-9.6938
목	-9.69413
▁소장	-9.69444
페	-9.69449
회의	-9.69512
▁지배	-9.69518
▁위기에	-9.69568
▁보좌관	-9.69636
▁한국은	-9.69666
▁조정	-9.69759
인지	-9.69788
▁의원이	-9.69821
▁부인했다	-9.69878
담	-9.69931
▁말레이시아	-9.69935
▁따	-9.69945
▁후보에	-9.69977
▁높다	-9.69982
▁무가베	-9.69983
▁일어난	-9.69983
▁배럴	-9.69989
▁cia	-9.69992
▁수백	-9.70022
▁영상	-9.70036
▁날씨	-9.70041
▁하며	-9.70111
▁받기	-9.70134
▁시작된	-9.70143
승	-9.70161
▁미국인들	-9.70229
▁발생할	-9.70269
▁오르	-9.70282
하였	-9.70338
하길	-9.70364
▁속에	-9.70367
▁보안관	-9.70374
▁블로그에	-9.7038
▁보장	-9.70407
▁그중	-9.70511
▁상황에서	-9.70512
▁가수	-9.70638
▁넘어	-9.70698
▁이미지	-9.70718
▁법률	-9.70748
▁법적	-9.70752
▁네덜란드	-9.70795
▁찾기	-9.70795
▁치안	-9.70861
▁고려	-9.70913
▁말하고	-9.70955
▁없었	-9.71066
▁근무	-9.7108
만한	-9.71119
▁중이다	-9.71156
번	-9.71168
매	-9.71203
족	-9.7129
▁그에게	-9.71302
▁월까지	-9.71303
w	-9.71431
랑	-9.71464
ch	-9.71501
▁세르비아	-9.71598
▁먼저	-9.71619
▁스티브	-9.7162
▁약속했다	-9.71622
▁찬성	-9.71645
자가	-9.71718
▁부정	-9.71859
▁목소리	-9.71874
▁공장	-9.71898
▁않겠다	-9.71947
▁경찰과	-9.71964
▁밀	-9.71986
▁마감	-9.72064
▁구성된	-9.72085
▁장소	-9.7214
▁보낸	-9.72196
다른	-9.72288
▁어려	-9.72325
▁위험한	-9.7234
▁등록	-9.72417
▁술	-9.72418
▁듯	-9.72423
▁하워드	-9.72448
▁엄마	-9.72449
▁kg	-9.72454
▁과학	-9.72464
▁ht	-9.72466
▁기후	-9.72493
▁최신	-9.72525
▁작가	-9.72548
▁고든	-9.72598
▁의혹	-9.72608
▁프라이머리	-9.72624
▁중국이	-9.72646
름	-9.72647
▁기자회견	-9.72677
▁보이지	-9.72703
▁나무	-9.72725
▁방해	-9.72732
▁이용해	-9.72752
겠다	-9.72834
▁비상	-9.72858
태	-9.73027
냐	-9.73132
▁협의	-9.73184
▁north	-9.73275
▁나섰다	-9.73275
▁규제	-9.73277
▁네팔	-9.73279
▁asp	-9.73283
▁사례	-9.73298
▁대표팀	-9.73335
▁지급	-9.73372
▁마드리드	-9.73386
▁시민들	-9.73423
▁사용하는	-9.73429
▁폐	-9.73571
▁수니파	-9.73724
▁남성이	-9.73729
▁의한	-9.73779
▁전자	-9.73793
▁사상자	-9.73862
씩	-9.73918
기간	-9.74032
흐	-9.74074
▁머물	-9.74107
▁찾는	-9.74115
▁노대통령	-9.7412
▁수가	-9.74168
▁후보로	-9.74286
▁대단	-9.74303
▁떨어져	-9.74307
▁대표단	-9.74307
▁다쳤다	-9.74362
▁긴	-9.74387
▁크기	-9.74406
입	-9.74425
ment	-9.74483
▁않기	-9.74682
▁실시한	-9.74809
▁못할	-9.74887
▁현장에	-9.7489
▁한미	-9.749
▁쿠르드	-9.74957
▁캠프	-9.74963
▁침체	-9.74966
▁알려져	-9.74966
▁진입	-9.74971
▁교체	-9.74975
▁확산	-9.7498
▁최소한	-9.75071
▁영향력	-9.7513
시킨	-9.75146
▁연구진	-9.75174
볼	-9.75407
▁홍수	-9.75414
▁대통령에게	-9.75534
시간	-9.75565
▁증언	-9.75618
▁권	-9.7564
▁소지	-9.75712
▁집계	-9.75732
▁시작됐다	-9.75749
▁과정	-9.75791
▁축구	-9.75816
▁모하메드	-9.75818
▁아바스	-9.75852
▁있는데	-9.76008
ce	-9.76031
▁태도	-9.76154
▁만들	-9.76165
빌	-9.7617
샤	-9.76192
▁고래	-9.76196
▁촉구	-9.7634
▁테러로	-9.76599
▁장난감	-9.76682
▁분위기	-9.76689
▁구글	-9.76693
▁토니	-9.7675
▁원조	-9.76762
광	-9.76767
▁웹사이트에	-9.76791
▁인정했다	-9.76809
▁비자	-9.76841
▁만드는	-9.76893
살	-9.76972
▁집권	-9.77002
▁시리즈	-9.77008
▁프리	-9.77064
▁니콜라	-9.77107
▁얼굴	-9.77134
▁취임	-9.77136
방송	-9.77155
▁나와	-9.77237
▁해당	-9.77293
▁하락했다	-9.77339
▁깊	-9.77346
▁향	-9.77425
이라	-9.77466
▁역사적	-9.77477
▁헤	-9.77536
▁경계	-9.77545
▁정확한	-9.77549
▁farc	-9.77551
▁태풍	-9.77552
▁점령	-9.77573
언	-9.77591
▁주로	-9.77619
천	-9.77625
▁없습니다	-9.77646
▁얻었다	-9.77684
▁경찰관	-9.77754
▁추정되	-9.77813
▁말한	-9.77972
▁당선자	-9.78012
▁명에	-9.78027
▁슈	-9.7811
▁실제로	-9.78177
리스	-9.78196
▁들었다	-9.78227
▁특사	-9.78312
▁박물관	-9.78347
▁본부	-9.78372
▁확신	-9.78395
▁체	-9.78423
▁i	-9.78423
▁저녁	-9.78426
▁피터	-9.78428
하려고	-9.78597
▁성인	-9.78611
열	-9.78612
▁전문	-9.78639
▁쉽게	-9.78646
▁민간	-9.78738
ies	-9.78931
▁당한	-9.78949
으면	-9.78962
▁남북한	-9.79195
▁부동산	-9.79227
▁축하	-9.79234
▁소년	-9.79304
▁south	-9.79311
▁김정일	-9.79311
▁아르헨티나	-9.79311
▁테이프	-9.79311
▁도착했다	-9.79372
▁송	-9.79389
겠다고	-9.79426
▁놀라	-9.79479
▁대체	-9.79483
▁자신들이	-9.79499
▁투	-9.79528
▁아부	-9.79537
되면서	-9.79639
당국	-9.79679
▁캐	-9.79729
▁허	-9.79731
▁가격이	-9.79774
▁임	-9.79775
▁하다	-9.79803
▁세대	-9.79805
▁진행되	-9.79904
▁소비	-9.80022
▁유사	-9.80082
▁등이	-9.801
해졌다	-9.80115
▁강도	-9.80129
▁토요일	-9.80204
▁말리키	-9.80204
▁콘돌	-9.80206
▁시대	-9.80258
▁at	-9.80326
▁중요하다	-9.80363
▁후반	-9.80386
▁떨어졌다	-9.80478
▁문제로	-9.80487
▁지불	-9.80523
까	-9.80581
▁사용할	-9.80584
▁돼	-9.80829
▁살해한	-9.80867
범	-9.80877
▁보여	-9.80905
▁연루	-9.80983
▁운전	-9.80989
▁총장	-9.81082
▁개입	-9.81093
▁with	-9.81105
씬	-9.81105
▁활용	-9.81111
▁상황에	-9.81115
▁뛰어	-9.81123
▁타격	-9.81124
편	-9.81127
▁침해	-9.81136
▁신속	-9.81145
▁휴가	-9.81169
▁한국과	-9.81183
▁입국	-9.81188
▁반발	-9.81203
▁백만	-9.81227
ation	-9.81274
▁무사	-9.81341
▁평양	-9.81349
▁만들었다	-9.81435
▁장치	-9.81439
▁왕	-9.81469
▁장군	-9.81765
은행	-9.81785
▁제시	-9.81796
▁오하이오	-9.81891
▁형	-9.81942
▁수십	-9.81958
▁징역	-9.81999
▁연락	-9.82027
▁영국에서	-9.82028
▁지출	-9.82096
▁웹	-9.82101
▁시위자들	-9.82134
▁우주선	-9.82156
▁기타	-9.82157
말	-9.82258
▁힐튼	-9.82263
외	-9.82296
예	-9.82346
국가	-9.82357
▁숨	-9.82368
▁이곳에서	-9.82511
▁연결	-9.82591
추	-9.82602
▁지적	-9.82787
▁맺	-9.82851
▁적용	-9.82854
▁매장	-9.82872
▁창	-9.8288
▁영국군	-9.82889
▁기구	-9.82922
▁엘리자베스	-9.82931
▁드라마	-9.82932
▁검색어	-9.82981
▁참석한	-9.83009
▁물질	-9.83016
▁결혼식	-9.83027
격	-9.8308
▁않으면	-9.83104
때	-9.83165
▁경기에	-9.83188
▁아파트	-9.83256
▁평	-9.83265
먼	-9.83309
▁복제	-9.83327
렸	-9.83342
ic	-9.83351
책	-9.83365
▁어린	-9.83405
▁태	-9.83423
▁월드컵	-9.83514
▁국	-9.83539
활동	-9.83543
▁승무원	-9.83737
▁대처	-9.83744
▁요구한	-9.83745
▁외교부	-9.83819
▁토론	-9.83828
▁미국에	-9.83837
▁긍정적	-9.83857
▁페일린	-9.83857
▁협조	-9.83857
▁fta	-9.83864
▁페르베	-9.83866
한다면	-9.83874
▁모른다	-9.83879
▁유럽연합	-9.83879
▁쉬	-9.83898
▁들어가	-9.83904
▁형성	-9.83908
수가	-9.83914
▁국장	-9.83985
▁환영	-9.84046
▁해고	-9.84282
▁속에서	-9.84305
▁자산	-9.84337
▁제외	-9.84414
▁수용	-9.84517
▁인식	-9.84538
▁요구하는	-9.8456
▁없다는	-9.84581
시설	-9.84696
▁보이	-9.84731
us	-9.84732
▁소프트웨어	-9.84792
▁열린우리당	-9.84792
▁방식	-9.84793
▁결론	-9.84805
▁민	-9.84808
▁끝난	-9.84816
현	-9.84828
▁재정	-9.84836
▁원유	-9.84861
▁통화	-9.84869
▁협정	-9.84874
▁대출	-9.84905
▁l	-9.85048
▁일반적	-9.8507
▁클럽	-9.85127
▁일환	-9.85153
▁수반	-9.85168
▁동맹	-9.85356
만에	-9.85387
빈	-9.8539
▁오픈	-9.85639
▁예방	-9.85696
▁언제	-9.85728
▁싱가포르	-9.85735
▁잭슨	-9.85735
▁매들린	-9.85735
▁리버풀	-9.85736
▁벌금	-9.85739
▁현장에서	-9.85746
▁개정	-9.85771
▁절반	-9.85775
▁귀국	-9.85779
▁갖추	-9.85783
▁조종사	-9.85818
▁저지	-9.85835
▁공화당의	-9.85839
스타	-9.85843
▁방어	-9.85891
레이	-9.85984
▁체포된	-9.86093
▁임신	-9.86121
령	-9.86179
▁승	-9.86289
▁소유	-9.86415
▁포함되어	-9.86519
▁범인	-9.86673
▁iraq	-9.86688
▁핵실험	-9.86691
▁사이클론	-9.86692
▁변경	-9.86705
▁신경	-9.86736
▁수감	-9.86823
▁걸어	-9.86886
▁울	-9.86947
▁선포	-9.86957
▁신뢰	-9.8697
▁자격	-9.86997
▁총선에서	-9.87004
▁이틀	-9.87027
▁고속도로	-9.87049
맨	-9.87086
▁심리	-9.87387
▁되면	-9.87406
▁조사하고	-9.87419
결	-9.87568
in	-9.8758
▁ac	-9.87642
▁자살폭탄테러	-9.87645
▁cbs	-9.87649
▁뉴질랜드	-9.87649
▁케네디	-9.87652
▁론스타	-9.87652
▁축제	-9.87674
▁루이스	-9.87682
▁나달	-9.87693
▁ceo	-9.87695
▁트럭	-9.877
▁역	-9.87708
▁이것이	-9.8773
▁공식적으로	-9.87759
▁금리	-9.87779
▁성화	-9.87813
▁충분	-9.87852
블	-9.88021
▁동의	-9.88141
▁부패	-9.88244
졌	-9.88418
▁이들이	-9.88469
▁왔	-9.88486
▁한번	-9.88492
▁빠져	-9.88619
▁캠페인	-9.8862
▁에이즈	-9.88629
▁투자자들	-9.88648
▁실행	-9.88649
▁지지하는	-9.88656
▁신용	-9.88668
▁압둘라	-9.88686
▁헤럴드	-9.88694
▁심슨	-9.88764
▁예산	-9.88831
▁용의자들	-9.88857
▁터키군	-9.88889
▁세트	-9.88915
▁이해	-9.88973
▁회사들	-9.89024
▁이르는	-9.89053
▁일어나	-9.891
▁재산	-9.89148
▁이혼	-9.89189
▁길이	-9.89211
▁지지율	-9.89255
채	-9.89374
달	-9.89376
▁진정	-9.89394
▁동원	-9.89408
▁대피	-9.89417
춘	-9.89564
▁우라늄	-9.896
▁포르투갈	-9.89601
▁힘든	-9.89637
▁엔	-9.89731
▁관	-9.89743
▁중이라고	-9.89746
▁통합	-9.89767
▁풀	-9.89767
▁안보리	-9.89853
▁자연	-9.89859
▁행진	-9.8995
▁포드	-9.89984
▁성공했다	-9.89988
▁곳으로	-9.90017
▁삼	-9.90171
▁지지자	-9.90179
율	-9.90205
▁층	-9.90212
▁지진으로	-9.90267
▁an	-9.90385
▁일본은	-9.90396
▁기자들	-9.90431
▁펜실베이니아	-9.90486
규	-9.90492
한영	-9.90561
▁휘발유	-9.9059
▁반기문	-9.90593
▁육군	-9.90611
▁민주화	-9.90613
▁드러났다	-9.90619
달하는	-9.90621
▁속도	-9.90624
▁쥐	-9.90625
▁올렸다	-9.9071
▁평화적	-9.90754
▁주고	-9.90842
▁진술	-9.90909
대한	-9.90931
▁중국과	-9.90966
▁테러가	-9.91057
변	-9.91112
▁총리와	-9.91115
▁했	-9.91197
▁그린	-9.91219
▁철회	-9.91292
▁한국군	-9.91443
▁당선인은	-9.91449
▁조사에서	-9.9156
▁워싱턴에서	-9.91575
▁시드	-9.91584
▁믿고	-9.9159
▁좋지	-9.9159
▁첼시	-9.91592
▁학살	-9.91594
▁ppp	-9.91594
▁로봇	-9.91598
▁주인공	-9.91601
▁나쁜	-9.91602
▁향후	-9.91603
▁차관보	-9.91614
▁소개	-9.91619
▁리비아	-9.9162
시장	-9.91643
▁학대	-9.91693
▁가입	-9.91701
▁설립	-9.91714
▁중국에서	-9.91817
▁목	-9.91817
술	-9.919
▁회담에	-9.91952
▁근	-9.92119
▁경선에서	-9.92131
ational	-9.92184
▁벨	-9.92215
▁아랍	-9.92332
▁주일	-9.92496
▁이하	-9.92532
▁교황	-9.92564
▁얘기	-9.92601
▁휴전	-9.92604
▁답변	-9.92604
▁내린	-9.9262
▁입양	-9.92621
▁센트	-9.92629
▁면	-9.92646
▁통치	-9.92684
▁해결하기	-9.92809
▁개월간	-9.9282
▁목격자들	-9.92824
x	-9.92968
▁집에	-9.92972
▁학생들이	-9.92972
▁상품	-9.92994
▁외부	-9.93022
▁전면	-9.93089
▁참	-9.93091
킨	-9.93102
ia	-9.93109
습	-9.93156
머	-9.9322
▁포함해	-9.93236
▁지도부	-9.9327
▁생명	-9.93331
▁밝혀	-9.93372
랜드	-9.93377
▁필	-9.93492
▁중에는	-9.93495
▁의도	-9.93505
▁협회	-9.93532
▁해리포터	-9.93621
훨	-9.93621
▁국제유가	-9.93622
▁벌어진	-9.93624
▁불참	-9.93631
▁음모	-9.93634
▁아카데미	-9.93656
▁반정부	-9.93669
문제	-9.93732
▁잔해	-9.93737
놓고	-9.9384
▁유리	-9.94071
▁선거운동	-9.94098
▁공개했다	-9.94104
항	-9.9411
▁편지	-9.94152
시키	-9.9424
창	-9.9435
▁차지	-9.94452
▁잡지	-9.94488
▁대의	-9.94506
▁장비	-9.94552
▁정부군	-9.94584
▁콘서트	-9.94652
▁앨범	-9.94656
▁dna	-9.94657
▁질환	-9.94658
▁방침	-9.94659
▁장식	-9.94663
▁가득	-9.94678
▁가정	-9.94682
▁신청	-9.94711
▁체니	-9.94715
▁선물	-9.94738
▁격	-9.94748
▁손실	-9.94808
▁폐지	-9.94969
사건	-9.94998
▁향하	-9.9502
▁랭킹	-9.95023
▁응	-9.95128
스터	-9.95134
▁회담이	-9.95253
▁충분한	-9.95272
▁벌인	-9.95582
었고	-9.9562
▁바다	-9.95639
▁여기	-9.95688
▁기념	-9.95688
▁맨체스터	-9.95692
▁화산	-9.95704
▁영토	-9.95727
▁진행된	-9.95753
▁며칠	-9.95776
▁레이스	-9.95838
▁요구하고	-9.95897
통신	-9.95932
▁성향	-9.95971
▁의료진	-9.96033
▁공원	-9.96046
▁준	-9.96132
▁수집	-9.96177
▁방법으로	-9.96205
▁바람	-9.96233
ro	-9.96268
▁킹	-9.96432
▁관광객들	-9.96498
▁주장하는	-9.96511
▁정신	-9.96517
▁언급하지	-9.96555
▁접	-9.96592
▁못했	-9.96621
▁짐	-9.96676
▁예정이	-9.96724
▁부활	-9.96744
▁무릎	-9.96746
▁페더러	-9.96746
▁맨유	-9.96754
▁기능	-9.96762
▁웨스트	-9.96774
▁내에	-9.96805
▁특정	-9.96807
▁대북	-9.96875
▁폭	-9.96918
▁것보다	-9.96953
앙	-9.96959
▁who	-9.96978
▁바그다드에서	-9.96988
▁밀란	-9.97006
▁콜	-9.97009
▁보상	-9.97056
▁기업들	-9.97074
▁이익	-9.97148
▁시절	-9.97204
▁머	-9.97208
필드	-9.97311
▁방지	-9.97424
▁방문할	-9.97458
▁계획에	-9.97677
골	-9.97684
▁다니	-9.97807
▁이메일	-9.9781
▁다르푸르	-9.97811
▁대다수	-9.97814
▁접속	-9.97822
정책	-9.97844
▁강경	-9.97879
▁행	-9.97937
▁회원국	-9.97943
▁성과	-9.97987
re	-9.98034
독	-9.9814
▁혹	-9.98145
▁죽	-9.98149
▁지도	-9.98161
it	-9.98163
▁대결	-9.98189
▁파타	-9.98263
▁소니	-9.98268
▁터	-9.9837
▁유가	-9.9842
▁이스라엘과	-9.9845
지에	-9.98519
▁노동자	-9.98533
▁척	-9.98625
▁고객	-9.98626
▁존재	-9.98659
조치	-9.9866
해지	-9.98855
▁사드르	-9.98884
▁president	-9.98885
▁밖으로	-9.98885
▁헤즈볼라	-9.98885
▁세계대전	-9.98886
▁폭행	-9.98892
▁영변	-9.98893
▁리콜	-9.98894
▁이웃	-9.98894
▁야생	-9.98899
▁기도	-9.98913
▁폭우	-9.98913
힐	-9.98934
▁방문했다	-9.98947
▁생각하고	-9.98994
▁원하는	-9.99034
▁다이아몬드	-9.99038
▁크리스	-9.9911
▁서명	-9.99175
▁대통령에	-9.99177
▁잃었다	-9.9919
▁존슨	-9.99221
▁적절한	-9.99234
▁생존	-9.9926
▁협상이	-9.99264
▁지하	-9.99288
▁마이크	-9.99421
th	-9.9963
▁직	-9.99669
▁주는	-9.99715
▁스티븐	-9.99721
▁지키	-9.9992
낼	-9.99936
▁이번주	-9.99951
▁멸종	-9.99971
▁온난화	-9.99972
므로	-9.99985
서는	-9.99992
▁마틴	-9.99994
▁진실	-10
▁출시	-10
▁모습이	-10.0001
▁잠시	-10.0008
▁밖에서	-10.0012
▁will	-10.0012
▁아이들이	-10.0014
▁장관이	-10.0015
▁아일랜드	-10.0017
▁취할	-10.0019
▁생존자	-10.0023
▁빅	-10.0025
톤	-10.0034
▁발표된	-10.0034
▁상어	-10.0034
▁분야	-10.0047
▁모양	-10.0049
▁이스라엘군	-10.0053
쯤	-10.0053
장에서	-10.0058
▁강조	-10.0059
ri	-10.0072
▁나서	-10.0072
랜	-10.0078
지르	-10.0083
립	-10.0089
찬	-10.0102
▁내전	-10.0107
▁태평양	-10.0107
▁현지시각	-10.0107
▁nbc	-10.0108
▁버마	-10.0111
▁심문	-10.0112
쇼	-10.0116
▁경찰서장	-10.0116
▁의무	-10.0118
▁목격자	-10.0123
▁포기	-10.0131
▁바라고	-10.0131
▁심각	-10.0136
탈	-10.0136
▁자기	-10.0137
▁말합니다	-10.0142
▁말라	-10.0142
▁내용이	-10.015
▁니	-10.0153
▁논란	-10.0172
▁올랐	-10.018
▁예상했다	-10.0186
레스	-10.0189
▁차드	-10.0191
▁억류	-10.0201
▁질병	-10.0202
▁기준	-10.0207
▁쿠데타	-10.0218
▁갑자	-10.0218
▁보면	-10.0219
▁체결	-10.022
▁우선	-10.0222
▁보였	-10.0223
▁서방	-10.0224
▁밑	-10.0229
▁제도	-10.0234
▁가자	-10.0234
원들	-10.0239
▁경보	-10.0241
자로	-10.0245
▁전망이	-10.0247
축	-10.0249
▁합	-10.0253
클	-10.0262
▁사건과	-10.0269
▁pa	-10.0293
▁음반	-10.0302
킬	-10.0307
▁둘	-10.0315
▁스테	-10.0322
▁힘들	-10.0328
▁찾고	-10.0331
▁일주일	-10.0331
▁핵시설	-10.0335
▁보통	-10.0336
▁수백만	-10.0339
▁구제	-10.0345
▁사건으로	-10.0358
▁담당자	-10.0359
▁아래	-10.0369
▁입원	-10.0374
▁인하	-10.0379
▁선박	-10.0381
▁사실상	-10.0394
▁의식	-10.0394
▁가까이	-10.0403
합	-10.0408
▁보고했다	-10.0412
관리	-10.0415
▁cm	-10.0424
▁묻	-10.043
▁공격이	-10.0434
▁현재까지	-10.0436
죠	-10.0444
▁대부분이	-10.0444
젠	-10.0444
▁달라이라마	-10.0444
▁이렇게	-10.0444
▁훌륭	-10.0444
▁파운드	-10.0444
둔	-10.0445
▁복구	-10.0445
▁격차	-10.0447
▁수요	-10.0451
▁일리노이주	-10.0451
취	-10.0453
▁베트남	-10.0455
▁달성	-10.0456
섬	-10.0461
▁원제	-10.0461
▁만날	-10.0474
▁돌아가	-10.0474
▁원한다	-10.0477
▁부문	-10.0483
▁일본에서	-10.0516
▁외교적	-10.0517
들어	-10.0527
영한	-10.0532
장이	-10.0534
겠	-10.0539
▁케	-10.0545
▁톤	-10.0552
▁레이	-10.0553
불	-10.0554
▁업계	-10.0557
▁나이지리아	-10.0559
▁흡연	-10.0559
▁카르자이	-10.0559
▁교환	-10.056
▁최선	-10.0561
▁동반	-10.0562
연합	-10.0562
▁걸릴	-10.0564
▁치러진	-10.0566
▁신임	-10.0567
▁되기	-10.0568
▁신호	-10.0574
만큼	-10.0576
손	-10.0576
▁전반	-10.0576
▁수감자	-10.059
▁환자들	-10.0594
▁처	-10.0594
▁교	-10.0596
▁요원	-10.0599
움	-10.0599
▁교도소	-10.0605
▁대상	-10.0605
▁빛	-10.0609
▁노출	-10.0611
▁벤	-10.0612
▁가구	-10.0613
▁제안했다	-10.0616
▁as	-10.0618
▁사용되	-10.0618
▁조사에	-10.0622
▁남아	-10.0627
▁실시되	-10.0633
▁된다고	-10.0642
▁입었	-10.0643
▁투어	-10.0644
▁광산	-10.0657
ir	-10.0664
▁영화제	-10.0668
▁에드워즈	-10.0675
▁다우존스	-10.0675
▁라운드	-10.0676
▁설득	-10.0676
▁폭동	-10.0677
▁차전	-10.0682
▁공중	-10.0682
▁시작한	-10.0684
봉	-10.0686
▁느끼	-10.0687
▁각국	-10.0688
▁일본이	-10.0695
▁검색	-10.0699
불어	-10.0703
받	-10.0708
▁국제적	-10.0715
▁화	-10.072
▁있어서	-10.0722
▁본사	-10.0734
▁다우	-10.0742
슈	-10.0745
▁근거	-10.0756
성이	-10.0757
▁동물원	-10.0759
▁소환	-10.0772
▁사인	-10.0791
▁국왕	-10.0792
▁덴마크	-10.0793
▁오스트리아	-10.0793
▁복잡	-10.0793
▁노력하고	-10.0793
▁단순	-10.0794
▁공공	-10.0796
▁절	-10.0801
돌	-10.0811
▁폐기	-10.0812
▁소수	-10.0815
▁시장에서	-10.0817
▁프로	-10.0824
쳤다	-10.0845
▁시위에	-10.0848
▁브	-10.0856
▁철도	-10.0869
▁감정	-10.0873
▁목적으로	-10.0875
▁군인들	-10.088
▁모인	-10.0889
사는	-10.0893
▁맞서	-10.0895
▁지진이	-10.0897
▁증명	-10.0899
▁그와	-10.0902
했음	-10.0905
▁그것이	-10.091
▁누군가	-10.0912
▁봄	-10.0914
▁기존	-10.0914
▁성관계	-10.0915
▁매각	-10.0915
▁부담	-10.0916
▁소설	-10.0917
▁삼성	-10.0919
▁북측	-10.0922
▁책임자	-10.0922
▁전투기	-10.0928
▁카드	-10.0932
▁차관	-10.0933
엘	-10.0933
▁복용	-10.0934
▁이사	-10.0936
▁팬	-10.0942
▁웃	-10.0945
▁지휘	-10.0951
으	-10.0969
▁지연	-10.097
있	-10.0973
▁합동	-10.0977
▁대기	-10.0983
▁상점	-10.0998
▁ba	-10.1008
사를	-10.1013
▁계속되고	-10.1014
▁주기	-10.1015
후드	-10.1018
▁의지	-10.102
덴	-10.1029
셔	-10.1029
▁서울에서	-10.103
빠진	-10.1031
▁많다	-10.1033
▁방글라데시	-10.1033
▁주한미군	-10.1033
▁japan	-10.1033
▁고등학교	-10.1033
▁농축	-10.1033
▁마카오	-10.1033
▁칠레	-10.1033
▁새끼	-10.1034
▁커피	-10.1036
▁도입	-10.1037
▁당신이	-10.1037
▁상승했다	-10.1038
▁공산당	-10.104
려고	-10.1045
겐	-10.1061
라도	-10.1066
▁내릴	-10.107
▁대답	-10.1075
▁부근에서	-10.1082
▁휴	-10.1085
▁즉각적	-10.109
▁부르	-10.1092
▁청소년	-10.1092
▁늘	-10.1095
려는	-10.1095
▁사전	-10.1095
▁수용소	-10.1101
▁마르	-10.1116
▁그림	-10.1116
▁지시	-10.1133
▁경기장	-10.1144
기관	-10.1144
랄	-10.1148
▁어린이들	-10.1148
▁불안	-10.115
칠	-10.1152
▁스웨덴	-10.1155
▁네트워크	-10.1155
▁순방	-10.1156
▁검거	-10.1156
▁남아공	-10.1156
▁기본	-10.1157
▁됩니다	-10.1158
▁발병	-10.1159
▁상처	-10.116
▁사담	-10.116
되면	-10.1163
▁부여	-10.1165
▁예비	-10.1166
▁따라서	-10.1166
▁점차	-10.1168
▁보수	-10.1174
▁조성	-10.1194
▁국회의원	-10.1195
들도	-10.1199
▁세우	-10.1205
▁회원	-10.1213
자와	-10.1219
▁식	-10.1222
▁티	-10.1223
▁전날	-10.1225
▁건의	-10.1227
▁재무장관	-10.1236
▁벌였	-10.1239
▁체제	-10.1241
▁표시	-10.1241
▁기반	-10.1242
▁장애	-10.1251
▁구입	-10.1257
▁둘러	-10.1263
▁승리했다	-10.1265
▁추적	-10.1266
▁악화	-10.1271
▁내놓	-10.1272
▁자리에서	-10.1274
▁왕세자	-10.1274
la	-10.1275
▁공항에서	-10.1276
희	-10.1276
웰	-10.1276
▁테러리스트	-10.1278
▁혜택	-10.1278
▁습격	-10.1278
▁카스트로	-10.1278
▁다니엘	-10.1279
▁증가하고	-10.1279
▁덮	-10.1279
▁극복	-10.128
▁탐사	-10.1281
▁그래서	-10.1281
▁무력	-10.1286
▁분명히	-10.1289
▁이뤄지	-10.1292
았	-10.1293
순	-10.1295
▁행성	-10.1297
▁o	-10.1298
▁말까지	-10.13
▁개방	-10.1305
▁보관	-10.1305
▁시내	-10.1309
▁사살	-10.1314
계획	-10.1314
왔	-10.1314
이어	-10.1322
드는	-10.1322
▁오브	-10.1328
▁달라	-10.1334
▁무대	-10.1343
▁기다리고	-10.1346
듯	-10.1351
▁공격에	-10.1363
▁주석	-10.137
북	-10.1373
▁나갈	-10.1374
▁반군이	-10.1377
스키	-10.1387
▁손상	-10.1388
텔	-10.1389
▁의회에	-10.1392
▁저항	-10.1394
el	-10.1397
▁실종	-10.1397
인들이	-10.1401
▁희생자들	-10.1402
▁uefa	-10.1403
▁얻기	-10.1403
▁ioc	-10.1403
▁챔피언스리그	-10.1403
▁겨울	-10.1404
▁이중	-10.1406
▁페루	-10.1407
▁무료	-10.1408
▁가옥	-10.1408
▁구출	-10.1409
▁파산	-10.1413
로운	-10.1414
웠다	-10.1415
▁명단	-10.1418
▁올린	-10.1427
▁수감자들	-10.1428
▁plan	-10.1435
▁고발	-10.1437
▁잇	-10.144
j	-10.1452
▁de	-10.1453
했기	-10.1455
▁지켜	-10.1455
▁줄어들	-10.1456
드시	-10.1463
렛	-10.1465
자는	-10.1471
▁허락	-10.1475
▁펜	-10.1476
시켰	-10.1481
▁유치	-10.1485
▁색	-10.1486
대에	-10.1487
▁수상자	-10.1494
▁it	-10.1498
관계	-10.1498
▁그동안	-10.1502
시아	-10.151
▁잔	-10.1522
▁하게	-10.1523
선수	-10.1528
▁붉은	-10.1529
▁원문기사	-10.1529
▁정확히	-10.153
▁파예드	-10.153
▁완벽	-10.153
▁운송	-10.153
▁북동부	-10.153
▁알래스카	-10.1532
▁노예	-10.1534
▁운영하	-10.1537
▁의회에서	-10.1538
▁초점	-10.1543
▁열대	-10.1546
▁권한	-10.1549
▁가졌	-10.1554
▁소식이	-10.1559
리는	-10.1566
▁고대	-10.1576
▁사라	-10.1584
▁주지	-10.1585
▁해병대	-10.1587
▁못하는	-10.1592
▁모여	-10.1595
▁기독교	-10.1597
▁경매	-10.1599
▁연구원	-10.1615
▁베이징에서	-10.1615
▁선언했다	-10.1621
사가	-10.1647
▁만일	-10.1652
▁블랙	-10.1657
▁활주로	-10.1658
▁숫자	-10.1658
▁심지어	-10.1658
▁크루즈	-10.1659
▁철저	-10.1659
▁민감	-10.166
▁자극	-10.166
▁거뒀다	-10.1666
▁바이	-10.1669
▁페이지	-10.167
▁있다면	-10.1674
▁의사들	-10.1679
▁조원	-10.1684
▁하면	-10.1689
▁고향	-10.169
▁유전자	-10.1691
▁형태	-10.1691
▁낸	-10.1693
▁제공하는	-10.1695
▁운항	-10.1698
▁공화국	-10.1701
▁샌프란시스코	-10.1702
▁거부했다	-10.1705
ers	-10.1707
영화	-10.1717
▁체계	-10.1718
항공	-10.1725
▁분명	-10.1736
▁마시	-10.1744
▁의회의	-10.1761
행위	-10.1777
▁스리랑카	-10.1783
▁마찬가지	-10.1788
▁nato	-10.1788
▁폴란드	-10.1788
▁frb	-10.1788
▁레알	-10.1789
▁커플	-10.1789
▁철군	-10.1791
▁입증	-10.1791
▁중부	-10.1793
▁분열	-10.1794
▁현금	-10.1796
▁실패했다	-10.1807
▁곳이	-10.1809
▁보고서에서	-10.1814
▁결정에	-10.1816
▁중지	-10.1817
▁부정적	-10.1817
▁탈출	-10.1823
▁군정	-10.1824
애	-10.183
숙	-10.1837
▁빙하	-10.185
▁타이	-10.1854
▁대선에서	-10.1856
▁수영	-10.1858
▁pc	-10.1861
▁경영	-10.1862
▁생각하는	-10.1882
▁깨	-10.1892
▁곡	-10.1896
해줄	-10.1898
▁이양	-10.1903
▁현상	-10.1904
▁야기	-10.1905
▁방향	-10.1907
▁중독	-10.1914
▁사우디아라비아	-10.1919
▁에어버스	-10.1919
▁보여줬다	-10.1923
▁한국에서	-10.1925
▁유감	-10.1925
▁소요	-10.1926
▁공포	-10.1926
▁서신	-10.1927
들로	-10.1928
▁사망했	-10.1932
▁호세	-10.1933
▁뼈	-10.1941
▁철	-10.1943
▁늘어	-10.1947
▁절대	-10.1948
▁싸움	-10.1953
▁이주	-10.1961
▁만난	-10.1963
▁보안군	-10.1965
▁이곳에	-10.197
▁답	-10.1971
▁안에서	-10.1973
▁폭탄이	-10.1973
▁공유	-10.1974
▁보인다고	-10.1974
▁혁명	-10.1981
▁독	-10.1983
▁신체	-10.1987
▁납치된	-10.1991
어야	-10.1998
당한	-10.2003
▁전개	-10.2004
▁뉴욕에서	-10.2005
▁강요	-10.2007
▁유나이티드	-10.2013
▁외교관	-10.2024
틀	-10.2033
▁폭격	-10.2037
▁챔피언	-10.2038
▁선거에	-10.204
▁노스캐롤라이나	-10.2043
▁노벨	-10.2048
▁태양	-10.2052
▁잃은	-10.2053
▁크라이슬러	-10.2053
▁토마스	-10.2053
▁관찰	-10.2053
▁아이디어	-10.2054
환	-10.2059
▁신발	-10.2061
▁광	-10.2068
▁실종된	-10.2068
▁발간	-10.2073
▁캘리포니아주	-10.2075
▁살아	-10.2076
▁달간	-10.2095
▁gm	-10.2097
▁계속되	-10.2098
▁런던에서	-10.21
악	-10.2101
▁고립	-10.2101
올	-10.2104
벌	-10.2107
시키려	-10.2109
딘	-10.2109
▁좋아	-10.2113
▁증권	-10.2119
▁년이	-10.212
▁기대하고	-10.2121
▁대회에서	-10.2122
▁라이트	-10.2126
▁수업	-10.2128
▁베이	-10.2128
▁찬	-10.2128
▁법정	-10.2141
▁여자친구	-10.2148
▁방송국	-10.2151
률	-10.216
도시	-10.2165
상태	-10.2176
▁값	-10.2177
겨	-10.2178
▁동티모르	-10.2188
▁라스베이거스	-10.2188
▁맞춰	-10.2188
▁리조트	-10.2188
▁타이틀	-10.2188
▁생긴	-10.219
▁형제	-10.2193
▁인생	-10.2194
▁시장에	-10.2194
▁발생하지	-10.2196
▁세계은행	-10.2198
▁쓰나미	-10.2198
누	-10.2199
▁중순	-10.2204
▁대량	-10.2207
▁무선	-10.2209
▁안전한	-10.2211
▁피해가	-10.2216
수록	-10.2217
▁받아야	-10.2218
▁콩고	-10.2223
▁이사회	-10.223
▁근처	-10.223
해주	-10.2236
뿐	-10.2238
▁분간	-10.224
▁성공적	-10.2246
션	-10.225
▁수상했다	-10.2255
▁재단	-10.2269
례	-10.227
▁만화	-10.2271
▁해변	-10.2271
il	-10.2273
▁오염	-10.2275
더라	-10.2282
▁주제	-10.2286
▁중요	-10.2291
▁이송	-10.2291
▁데이	-10.2311
▁거두	-10.2314
▁성화봉송	-10.2316
▁일리노이	-10.2317
▁사회적	-10.2318
▁김대중	-10.2325
▁엄격	-10.2325
▁논평	-10.2325
▁첫번째	-10.2325
▁두바이	-10.2325
▁불러	-10.2327
▁하원의원	-10.2327
▁은퇴	-10.2327
▁회동	-10.2329
▁돌아오	-10.233
▁모기지	-10.2331
▁구금	-10.2332
▁바르셀로나	-10.2332
▁금요일	-10.2333
▁예전	-10.2335
▁감독이	-10.2336
▁높아지	-10.2337
▁기계	-10.2338
▁총격전	-10.234
▁케리	-10.2345
▁교사	-10.2345
▁신부	-10.2346
▁하던	-10.2347
▁누리	-10.2347
▁갖게	-10.2347
▁난사	-10.2349
낸	-10.2351
▁한때	-10.2354
▁앞에	-10.2357
▁경제에	-10.2364
▁보낼	-10.2365
▁세상	-10.2372
▁시청	-10.2383
▁지시했다	-10.2386
컵	-10.2386
▁표했다	-10.2389
▁mo	-10.2393
▁명에게	-10.24
▁측근	-10.2414
▁승리한	-10.2415
▁출석	-10.242
▁클린턴이	-10.242
▁진전	-10.242
▁끌어	-10.2426
▁과학자	-10.2428
▁봤다	-10.2439
▁나누	-10.2452
▁넓	-10.2454
▁이스라엘이	-10.2457
▁리그	-10.2459
개발	-10.2462
▁태어난	-10.2464
▁외환은행	-10.2464
▁우리나라	-10.2464
▁데이터	-10.2466
▁디자인	-10.2466
▁채택	-10.2466
▁전역	-10.2466
▁불편	-10.2466
▁헨리	-10.2467
▁단속	-10.247
▁본선	-10.247
▁유력	-10.2472
▁항소	-10.2473
▁케이블	-10.2478
▁책임이	-10.2479
▁불길	-10.2479
▁진화	-10.2483
▁것이고	-10.2483
▁만들어진	-10.2486
▁위조	-10.2486
▁보유하고	-10.2489
▁사용한	-10.2489
▁기상	-10.249
▁지역으로	-10.2498
▁중대	-10.2498
▁하와이	-10.25
▁식품	-10.2505
▁보트	-10.2506
▁대학교	-10.2516
▁회의에서	-10.2517
▁니콜	-10.2524
하고자	-10.2525
우스	-10.2527
▁주한	-10.2532
▁no	-10.2547
▁뿐만	-10.2554
▁의미한다	-10.2557
▁보유	-10.2558
▁도시에서	-10.2569
▁인류	-10.257
▁호텔에서	-10.2571
▁훼손	-10.2572
▁이라크와	-10.2573
▁거절	-10.2574
자들에게	-10.2576
▁바라	-10.2582
▁추방	-10.2587
▁아이오와	-10.2597
▁강타	-10.2599
▁다수	-10.2599
▁거쳐	-10.26
▁떠	-10.2603
▁요르단	-10.2603
▁외교통상부	-10.2604
▁앓고	-10.2604
▁휴대전화	-10.2605
▁섹스	-10.2605
▁면담	-10.2606
▁abc	-10.2607
▁해결책	-10.2608
조차	-10.2608
▁신중	-10.2614
▁방화	-10.2615
▁오늘날	-10.2615
▁마쳤다	-10.2615
▁개표	-10.2617
▁여권	-10.2618
▁의석	-10.2618
▁간단	-10.2618
▁달러로	-10.262
▁지속	-10.262
▁아메리칸	-10.2621
▁친구들	-10.2625
et	-10.2631
▁예수	-10.2637
▁천만	-10.2641
▁프로그램에	-10.2648
▁이끌어	-10.2659
▁응답자	-10.2666
▁상태에	-10.2666
▁몰	-10.2668
▁명예	-10.2671
▁가했다	-10.2671
▁nu	-10.2672
▁공간	-10.2673
▁주장에	-10.2681
▁경쟁자	-10.2684
▁중국에	-10.2689
뿐만	-10.269
▁여성의	-10.2691
▁물건	-10.2692
▁분리	-10.2692
▁악	-10.2693
쳤	-10.2697
▁죽은	-10.2703
▁전쟁에	-10.2707
▁발생하는	-10.2712
▁비교	-10.2713
▁민주	-10.2717
pe	-10.2726
▁회견	-10.2729
▁주목	-10.2733
▁플레이	-10.2737
켓	-10.2738
▁고어	-10.2745
▁가슴	-10.2747
▁불능화	-10.2747
▁찾을	-10.2747
▁협박	-10.2747
▁격렬	-10.2747
▁급등	-10.2749
ial	-10.275
▁종류	-10.2751
▁무죄	-10.2752
▁참석했다	-10.2754
▁가는	-10.2759
▁발전소	-10.2762
안에	-10.2763
▁획득	-10.2764
▁홀	-10.2764
스톤	-10.2767
▁추정된다	-10.277
▁크리스티	-10.2775
익	-10.2778
▁전원	-10.2781
슬	-10.2786
▁것이었다	-10.2787
▁백인	-10.2788
▁지속적	-10.2789
▁국민들에게	-10.2799
▁아동	-10.2805
전에	-10.2806
▁논란이	-10.2808
▁린	-10.2808
▁당수	-10.2809
▁제대	-10.2813
▁부과	-10.2815
완	-10.282
▁우리당	-10.2823
▁시에	-10.2832
▁못한다	-10.2833
▁비용이	-10.2844
▁주인	-10.285
▁동성애자	-10.2853
▁미국측	-10.2854
▁표명	-10.2856
운동	-10.286
느	-10.2875
▁중재	-10.2875
▁혐의에	-10.2876
백	-10.2877
세력	-10.2879
릭	-10.288
▁벗어나	-10.2882
▁끼	-10.2884
▁이후로	-10.2886
닝	-10.2888
▁코미디	-10.2892
짝	-10.2892
▁스코틀랜드	-10.2892
▁일으킨	-10.2892
▁와인하우스	-10.2892
▁송환	-10.2893
▁저지른	-10.2894
▁나올	-10.2897
▁낸시	-10.29
▁이행	-10.2901
▁빚	-10.2903
▁요소	-10.2904
▁펼쳤다	-10.2905
▁자원	-10.2909
▁폭스	-10.2911
▁순위	-10.2917
▁업무	-10.2921
▁파악	-10.2933
▁이내	-10.2936
▁법원에	-10.2936
▁순찰	-10.2946
▁단체들	-10.2947
▁방영	-10.2951
▁물가	-10.2957
▁얼음	-10.2963
스코	-10.2963
▁돌아	-10.2965
▁한국에	-10.2973
▁보지	-10.2975
▁식당	-10.2978
산업	-10.2979
▁에도	-10.2979
상황	-10.298
▁행복	-10.298
▁폭발물	-10.2982
자금	-10.2988
▁만개	-10.2996
▁국방	-10.3001
▁불가능	-10.3005
▁기금	-10.3007
▁지목	-10.3007
se	-10.3009
▁사망자수	-10.3012
▁엄청	-10.3025
▁사용자	-10.3026
▁제기했다	-10.3028
▁리처드	-10.3035
▁못해	-10.3035
ate	-10.3039
▁곤잘레스	-10.3039
▁오사마빈라덴	-10.3039
▁블라고예비치	-10.3039
▁블라디미	-10.3039
▁얻을	-10.3039
▁합병	-10.304
▁임금	-10.3041
▁고위관리	-10.3041
▁테스트	-10.3042
▁견해	-10.3048
▁이루어졌다	-10.3049
▁확실	-10.3051
이기	-10.3052
▁쓴	-10.3054
달라고	-10.3056
▁적극적	-10.3056
▁메일	-10.3057
▁시기에	-10.3065
▁의문	-10.307
▁답했다	-10.3071
▁전해	-10.3088
총	-10.3091
▁이라크군	-10.3092
▁방법이	-10.3094
▁후보들	-10.3097
▁봉쇄	-10.3097
▁코트	-10.3099
▁델	-10.31
▁주문	-10.3103
▁세포	-10.3105
주의자	-10.311
▁수퍼	-10.3113
▁마감했다	-10.3119
▁황	-10.3124
▁푸	-10.3128
▁계	-10.313
▁경찰서	-10.3132
경제	-10.3145
▁초대	-10.3146
대학	-10.3149
▁나타내	-10.3154
▁개장	-10.3157
▁몰아	-10.3157
없이	-10.3158
아야	-10.3163
▁해양	-10.3165
스와	-10.3166
▁시점	-10.3174
밀	-10.3183
▁취재	-10.3185
▁선거캠프	-10.3189
▁북서부	-10.3189
▁화장실	-10.3189
틴	-10.319
▁숀	-10.319
▁부총리	-10.3191
▁사막	-10.3192
▁government	-10.3194
▁분석가	-10.3194
▁노동당	-10.3195
▁상공	-10.3198
▁작동	-10.3208
▁화해	-10.321
▁전환	-10.3212
▁병사들	-10.3222
▁만났다	-10.3224
▁묘사	-10.3226
▁독도	-10.323
▁재건	-10.3237
▁그리	-10.3239
▁이루	-10.3255
월	-10.3256
▁하늘	-10.3265
막	-10.3266
▁비판했다	-10.3273
▁얻어	-10.3276
암	-10.3279
▁문제들	-10.328
▁아프가니스탄에서	-10.3285
▁스키	-10.3288
람	-10.329
▁인종	-10.3307
글	-10.3311
▁자사	-10.3314
에만	-10.3319
▁짓	-10.3322
▁발언에	-10.3325
▁작	-10.3326
▁우주비행사	-10.3329
▁압둘	-10.333
▁목격	-10.3332
▁백악관에서	-10.3335
▁조기	-10.3336
▁건축	-10.3337
▁나스닥	-10.334
▁샤라포바	-10.334
▁리차드	-10.334
▁리히터	-10.334
▁복무	-10.334
▁from	-10.334
▁패트릭	-10.3341
▁핵프로그램	-10.3341
▁직업	-10.3341
▁다윈	-10.3342
▁왕실	-10.3343
▁강풍	-10.3343
▁진영	-10.3343
트리	-10.3346
▁언어	-10.3347
▁자유롭	-10.3348
▁배경	-10.3349
▁시티	-10.3351
▁생각했다	-10.3351
▁전세계적으로	-10.3353
▁직전	-10.3353
▁해임	-10.3359
▁스타일	-10.3359
▁들어갔다	-10.3359
▁정신적	-10.336
▁아니었다	-10.3363
▁차단	-10.3365
▁단어	-10.3372
▁이르	-10.3379
om	-10.3381
▁시민들이	-10.3386
▁중간	-10.3396
▁자제	-10.3397
히려	-10.34
ne	-10.3407
▁비치	-10.3411
▁합류	-10.3418
폭	-10.3421
ol	-10.3425
▁취	-10.3427
▁대상이	-10.3435
▁리드	-10.3452
▁록	-10.3455
▁세인	-10.3456
드리	-10.3466
▁공개된	-10.3466
▁맡은	-10.3468
▁골프	-10.3474
▁라이	-10.3475
▁개시	-10.3476
▁전역에	-10.3481
▁환	-10.3482
▁붙	-10.3483
▁그렇지	-10.3486
▁열어	-10.3487
▁트리	-10.3489
▁디즈니	-10.3493
▁캄보디아	-10.3494
▁남서부	-10.3494
▁받아들일	-10.3494
▁둘러싸	-10.3494
clear	-10.3494
▁영웅	-10.3494
▁케빈	-10.3495
▁원칙	-10.3495
▁축소	-10.3497
▁수십명	-10.3498
▁법무부	-10.3501
▁보복	-10.3501
▁공모	-10.3504
▁불과	-10.3505
▁공개적으로	-10.3507
▁천명	-10.3507
▁윌	-10.351
▁완전한	-10.3513
▁홈	-10.3514
견	-10.3524
▁보호하기	-10.353
▁논의하기	-10.3531
▁장례식	-10.3545
▁가능하다	-10.3546
▁탐	-10.3552
▁법안이	-10.3553
▁측정	-10.3558
▁폭락	-10.3558
▁탈	-10.3569
▁자신에게	-10.3569
▁대치	-10.3573
▁불구	-10.3576
▁시드니	-10.3577
▁의학	-10.3577
▁무엇	-10.3578
▁즉각	-10.3579
▁뒤에	-10.3584
▁거리에	-10.3591
▁진술했다	-10.3592
▁공항에	-10.3595
▁숨졌	-10.3597
ca	-10.3607
▁해적	-10.3617
▁출동	-10.3619
▁인근에	-10.363
▁말해	-10.3635
펠	-10.3641
▁유럽의	-10.3642
▁시장이	-10.3644
▁오바마와	-10.3645
▁패션	-10.3649
▁디지털	-10.365
▁마이애미	-10.365
▁비타민	-10.365
▁알코올	-10.365
▁중앙일보	-10.365
됨	-10.365
한글뉴스	-10.365
▁가택연금	-10.365
▁호랑이	-10.365
▁거듭	-10.365
▁활약	-10.365
▁자치정부	-10.3651
▁라이벌	-10.3651
▁다우지수	-10.3651
▁산사태	-10.3652
▁새벽	-10.3652
▁천재	-10.3656
▁들여	-10.3657
▁취임식	-10.3657
▁삭제	-10.3658
▁만들고	-10.366
▁조류	-10.3661
▁맥주	-10.3667
▁쌀	-10.3669
▁떠났다	-10.367
▁해산	-10.367
▁타임스	-10.3671
▁채널	-10.3674
▁이론	-10.3676
▁계획은	-10.3676
▁달려	-10.3677
▁감염된	-10.3678
스가	-10.368
▁유대인	-10.3682
▁우리에게	-10.3683
짜리	-10.3683
▁소문	-10.3686
▁보는	-10.3687
염	-10.369
▁주위	-10.3694
▁영장	-10.3696
is	-10.3701
다시	-10.3702
ve	-10.3702
▁지내	-10.3704
▁전부터	-10.3709
철	-10.3713
▁회사가	-10.3715
▁잡고	-10.3716
▁한국인들	-10.3716
▁증가한	-10.3727
▁청	-10.3728
▁평가했다	-10.3729
▁동쪽	-10.3729
▁세계적	-10.3734
lo	-10.3735
▁모스크바	-10.3741
패	-10.3743
▁주었다	-10.3749
녀	-10.375
▁싶어	-10.3753
조사	-10.377
됐었다	-10.3783
▁한국이	-10.379
▁근로자	-10.3792
pa	-10.3794
▁발굴	-10.3804
▁예상되	-10.3806
▁minister	-10.3809
▁토네이도	-10.3809
▁쌍둥이	-10.3809
▁천연가스	-10.3809
▁겨냥	-10.3809
▁법무장관	-10.3809
▁로이터	-10.3809
▁수석대표	-10.3809
▁마무	-10.3811
▁사생활	-10.3811
▁위안부	-10.3811
▁폭파	-10.3813
▁무엇보다	-10.3813
▁벨기에	-10.3813
▁북쪽	-10.3818
▁선발	-10.3819
▁초반	-10.3822
▁치열한	-10.3828
▁형사	-10.3829
▁선전	-10.3829
제를	-10.3834
극	-10.3834
▁것인가	-10.3838
▁연구팀	-10.3841
▁눈에	-10.3843
▁조합	-10.3845
▁나에게	-10.3845
▁에드	-10.3849
ta	-10.385
▁상태로	-10.3851
▁연금	-10.3856
▁돼지	-10.3863
▁부서	-10.3864
젤	-10.3868
▁호수	-10.387
▁걸린	-10.3872
부대	-10.3875
▁데에	-10.3875
▁딕	-10.388
▁out	-10.3886
▁로비	-10.3887
▁올리	-10.3888
▁노인	-10.3893
▁영국인	-10.3893
▁추산	-10.3894
▁움직이	-10.3895
▁예루살렘	-10.3895
▁가족과	-10.3897
▁키스	-10.3903
향	-10.3904
▁감행	-10.3909
왕	-10.3912
▁했었다	-10.3912
▁투표에서	-10.3915
▁분석가들	-10.3915
▁국민들이	-10.3915
카운티	-10.392
조직	-10.3921
기에	-10.3922
경찰	-10.3926
▁조약	-10.3929
▁연관	-10.3929
▁나왔	-10.3936
▁연주	-10.3944
같은	-10.3945
마자	-10.3947
▁인디애나	-10.3948
▁부근	-10.3948
▁의존	-10.3949
▁배가	-10.3961
혜	-10.3963
▁쇼핑	-10.3967
지수	-10.3968
넬	-10.3968
멸	-10.3968
▁뿌리	-10.397
▁쓰촨성	-10.397
▁아메리카	-10.397
▁결선투표	-10.397
▁침몰	-10.397
▁보스턴	-10.397
▁파트너	-10.397
▁다섯	-10.397
▁은신처	-10.397
▁황금	-10.3971
▁사찰단	-10.3972
▁부채	-10.3975
▁엔진	-10.3978
▁악어	-10.3979
▁재난	-10.398
▁생일	-10.3981
▁수위	-10.3983
▁하락세	-10.3983
▁카터	-10.3983
▁world	-10.3986
▁들어오	-10.3987
▁상승세	-10.3988
▁경력	-10.3988
▁미칠	-10.399
째	-10.3993
▁보내는	-10.3993
▁보험	-10.3994
▁쓰	-10.3994
▁조명	-10.4
▁재무부	-10.4002
경기	-10.4009
▁구조대	-10.4013
▁망	-10.4013
웨이	-10.4021
▁알카에다와	-10.4026
적이	-10.4029
▁아프간에서	-10.403
▁파티	-10.4044
▁밴드	-10.4052
▁정지	-10.4054
▁피해자들	-10.4058
▁이재민	-10.406
▁사람에게	-10.406
베나	-10.4074
풍	-10.4078
해질	-10.4084
▁연구에	-10.4095
▁지점	-10.4097
▁프레스	-10.4098
주는	-10.41
▁상징	-10.4105
▁현실	-10.4107
▁농	-10.4114
▁수리	-10.4115
▁시한	-10.4118
갑	-10.4124
▁경험이	-10.413
▁최저	-10.4131
▁차량에	-10.4133
▁pkk	-10.4134
▁늦게	-10.4134
▁마이크로소프트	-10.4134
▁비핵화	-10.4134
▁알렉산더	-10.4134
▁왼쪽	-10.4134
▁이산화탄소	-10.4134
▁좋다	-10.4134
▁키바키	-10.4134
▁득점	-10.4134
▁오딩가	-10.4134
닷컴	-10.4134
▁거짓말	-10.4135
▁his	-10.4135
▁급격	-10.4135
▁영업	-10.4136
▁아이폰	-10.4136
▁참여한	-10.4136
▁할머니	-10.4136
▁포경	-10.4137
▁체중	-10.4138
▁체코	-10.4139
▁대립	-10.4143
▁자본	-10.4144
▁초청	-10.4147
▁킬로미터	-10.4147
▁분류	-10.4148
▁근로자들	-10.4152
▁날짜	-10.4158
돼야	-10.4161
▁밥	-10.4165
▁원화	-10.4166
되어야	-10.4168
▁노선	-10.4169
▁경영진	-10.4173
▁내리	-10.4173
▁워	-10.4174
▁가동	-10.418
▁총상	-10.4194
▁앨	-10.4198
▁공사	-10.4203
▁기다리	-10.421
▁제조업체	-10.4211
▁인사들	-10.4214
▁장면이	-10.4214
▁흔들	-10.4218
잔	-10.422
▁물이	-10.422
▁떨어지	-10.4223
▁동기	-10.4227
냈다	-10.4228
▁치러	-10.4232
▁급속	-10.4235
▁일제	-10.4236
▁이란과	-10.4242
▁미국인들이	-10.4245
▁정의	-10.425
공격	-10.4252
▁로한	-10.4257
▁보석	-10.4262
▁테러와	-10.4264
거래	-10.4266
▁그대로	-10.427
▁보고서에	-10.4279
▁이식	-10.4281
▁북미	-10.4285
▁화학	-10.4291
▁든	-10.4293
좌	-10.4297
딩	-10.4299
▁옮겨	-10.4299
▁천주교	-10.4299
▁몸에	-10.4301
▁필라델피아	-10.4301
▁인플레이션	-10.4301
▁택시	-10.4301
▁over	-10.4301
▁탄압	-10.4301
한번	-10.4302
▁사냥	-10.4303
ti	-10.4303
▁소집	-10.4304
▁산림	-10.4305
▁성격	-10.4305
▁소위	-10.4309
▁다음날	-10.431
▁호소	-10.4311
▁이뤄졌다	-10.4319
▁만남	-10.4322
▁스캔들	-10.4326
▁공기	-10.4326
▁화재로	-10.4328
▁양국간	-10.4328
▁리치	-10.4329
스타인	-10.4331
▁구조대원들	-10.4331
▁언론에	-10.4334
▁통일부	-10.4339
드라	-10.4342
▁차량이	-10.4361
▁군사적	-10.4362
▁정치인	-10.4364
▁나오지	-10.4365
▁만들기	-10.4368
▁투쟁	-10.4376
▁기록한	-10.4378
▁방식으로	-10.438
▁것임	-10.4382
▁월요일에	-10.4383
▁al	-10.4386
▁여론조사에서	-10.4387
▁홍수로	-10.4391
▁순	-10.4392
된다고	-10.4393
▁분만	-10.4398
델	-10.4403
▁살이	-10.4404
▁발생했	-10.4406
▁남동부	-10.4409
착	-10.441
▁극장	-10.442
▁수상한	-10.4423
▁카페	-10.4424
새	-10.4427
▁세워	-10.443
▁출판	-10.4441
▁시각	-10.4441
um	-10.4443
▁가족들이	-10.4443
받았다	-10.4446
▁음	-10.4446
작전	-10.445
▁존중	-10.4458
▁이루어지	-10.4459
▁기대한다	-10.4463
니아	-10.4464
▁진행자	-10.4467
▁탄핵	-10.4469
▁not	-10.447
▁골키퍼	-10.447
▁남자친구	-10.447
▁구멍	-10.447
▁china	-10.4471
▁포럼	-10.4471
▁폭설	-10.4472
▁주최측	-10.4474
▁일간지	-10.4474
▁브랜드	-10.4474
▁단어장	-10.4474
▁진단	-10.4476
▁음주	-10.4476
▁날개	-10.4478
▁공대	-10.4496
▁특수	-10.4498
▁가상	-10.4506
▁수사관들	-10.4507
▁구간	-10.4507
▁예술	-10.4512
▁예를들	-10.4513
▁관계에	-10.4521
▁사법	-10.4523
▁일본과	-10.4523
▁표명했다	-10.4528
▁여행객	-10.4537
▁마비	-10.4542
▁사람들과	-10.4552
ese	-10.4552
▁미군과	-10.4552
▁숙	-10.4554
▁신사	-10.4557
베이	-10.4562
▁봉사	-10.4564
▁fa	-10.4565
▁바꾸	-10.4565
▁블	-10.4566
▁희생	-10.4567
▁주장한	-10.4572
놓	-10.4577
몬	-10.4579
▁실망	-10.4583
▁세력이	-10.459
▁사태에	-10.459
▁기소됐다	-10.4592
푸	-10.4593
▁토지	-10.4595
▁모르	-10.4596
연맹	-10.4597
▁내일	-10.4609
사항	-10.4612
▁비율	-10.4619
▁제작한	-10.4623
▁제공할	-10.4628
슨은	-10.4629
▁전통적	-10.4631
▁부상으로	-10.4639
▁대륙	-10.4639
지역에서	-10.464
▁맞는	-10.4643
▁사우스캐롤라이나	-10.4643
▁코끼리	-10.4643
▁후진타오	-10.4643
▁hiv	-10.4643
▁균형	-10.4643
립니다	-10.4644
▁종결	-10.4645
▁징역형	-10.4646
▁라덴	-10.4648
▁배후	-10.4651
▁sh	-10.4653
▁day	-10.4656
▁플라	-10.4657
▁용기	-10.466
▁기온	-10.4661
▁비교적	-10.4661
▁정식	-10.4661
▁아난	-10.4663
▁성장률	-10.4664
▁보여준다	-10.4665
▁먼	-10.4665
▁다이	-10.4673
▁마리아	-10.4675
▁확인됐다	-10.4679
▁당국자	-10.4685
▁벽	-10.469
▁갔다	-10.4696
▁고객들	-10.4706
da	-10.4709
▁출연한	-10.471
▁자신과	-10.4711
택	-10.4714
▁맡고	-10.4714
▁학	-10.4716
▁생기	-10.4722
▁스톤	-10.4728
▁초안	-10.473
▁이에따라	-10.4733
학교	-10.4735
▁위협이	-10.4735
▁조각	-10.4742
▁하나로	-10.4742
▁받는다	-10.4745
장치	-10.4747
▁청문회	-10.4757
▁했습니다	-10.4766
차량	-10.4768
▁중이었다	-10.4775
▁up	-10.478
▁최근에	-10.4781
▁올라가	-10.4781
싱	-10.4781
얼	-10.4782
놀	-10.4782
찰	-10.4789
▁토론회	-10.4797
▁방송사	-10.4797
▁보잉	-10.4798
▁폭발이	-10.4802
▁치르	-10.4804
▁낼	-10.4808
▁가게	-10.4816
▁시작했	-10.4817
▁선관위	-10.4818
▁테일러	-10.4818
▁많아	-10.4818
▁뭄바이	-10.4818
▁쿠웨이트	-10.4818
▁스트레스	-10.4818
▁계좌	-10.4819
▁show	-10.4819
▁남극	-10.482
▁여학생	-10.482
▁국제공항	-10.482
▁정상들	-10.482
▁줄리아니	-10.4821
▁케이트	-10.4821
▁스턴	-10.4822
co	-10.4823
▁미디어	-10.4825
▁거주	-10.4826
▁제목	-10.4827
력이	-10.483
▁화상	-10.483
▁실적	-10.4836
▁일으켰다	-10.4847
▁피부	-10.4847
▁정전	-10.485
▁보일	-10.4861
▁직장	-10.4861
라스	-10.4864
▁필요성	-10.4866
▁일어났다	-10.4869
▁군은	-10.4881
▁파도	-10.4886
▁가방	-10.4892
▁결과에	-10.4893
해야만	-10.4894
버그	-10.4895
▁근처에서	-10.4903
니스	-10.4903
▁도착한	-10.4907
▁날아	-10.4907
▁올려	-10.4911
그룹	-10.4923
▁이란에	-10.4926
▁과도	-10.4931
▁자택	-10.494
▁적절	-10.4943
침	-10.4945
압	-10.4948
▁문제의	-10.4948
▁끝나	-10.4955
▁대피했다	-10.4955
▁콘	-10.4959
알	-10.4961
▁놀	-10.4962
▁사용해	-10.4966
▁특파원	-10.4969
▁승려들	-10.4973
▁애도	-10.4974
▁헌	-10.4975
적이고	-10.4978
▁남부에서	-10.4979
▁선포했다	-10.4981
▁유출	-10.4988
▁하나인	-10.4989
▁가족이	-10.4989
욕	-10.4992
▁입을	-10.4993
▁비난하는	-10.4996
▁광범위	-10.4997
▁다큐멘터리	-10.4997
▁식료품	-10.4997
▁에콰도르	-10.4997
▁재검토	-10.4997
▁탱크	-10.4997
▁펠로시	-10.4997
▁마라톤	-10.4997
▁돌고래	-10.4997
▁전당대회	-10.4997
▁교통사고	-10.4997
▁가벼	-10.4997
▁예멘	-10.4997
▁nba	-10.4997
▁슈퍼	-10.4997
▁지붕	-10.4998
▁소규모	-10.4998
되며	-10.4998
▁구축	-10.4998
▁관영	-10.4999
▁보존	-10.4999
▁동생	-10.5
▁화려	-10.5001
▁관계당국	-10.5003
▁기쁘다	-10.5004
▁감바리	-10.5004
▁범행	-10.5004
▁회원국들	-10.5005
▁치명적인	-10.5015
un	-10.5016
▁다가	-10.5017
▁기차	-10.5018
▁부산	-10.5019
▁발생하고	-10.5022
▁재판관	-10.5024
▁인원	-10.5025
▁시체	-10.5031
▁조용	-10.5033
▁국적	-10.5046
▁북쪽으로	-10.5047
▁파손	-10.5048
▁사용했다	-10.5048
▁서장	-10.5049
▁죄	-10.505
▁수립	-10.5054
▁손에	-10.5064
▁일치	-10.5071
▁진행되는	-10.5076
▁무게	-10.5079
▁중단했다	-10.5082
▁참석할	-10.5085
▁물에	-10.5089
▁쓰고	-10.5098
▁총회	-10.5104
해진	-10.5108
사인	-10.5112
▁이용하는	-10.5112
▁노동자들	-10.5118
▁위인	-10.5119
▁세계적으로	-10.5123
▁내렸	-10.5142
▁프레	-10.5146
▁제출했다	-10.5147
▁침입	-10.5147
햄	-10.5148
▁경호원	-10.5161
▁착수	-10.5162
▁북극	-10.5164
탕	-10.5166
▁무슬림	-10.5167
▁분에	-10.517
▁근육	-10.5176
▁배출	-10.5177
켈	-10.5178
▁dvd	-10.5179
▁과반수	-10.5179
▁국제원자력기구	-10.5179
▁돕기	-10.5179
▁듣고	-10.5179
▁샌디에이고	-10.5179
▁캐릭터	-10.5179
▁협약	-10.5179
▁횡령	-10.5179
▁롬니	-10.5179
▁펀드	-10.5179
▁봉송	-10.5179
▁감금	-10.5179
▁일어날	-10.5179
▁지상	-10.5179
▁침공	-10.5179
▁소련	-10.5179
▁레이건	-10.518
▁운명	-10.5181
▁검문소	-10.5182
▁기밀	-10.5182
▁신규	-10.5182
▁판정	-10.5183
국인	-10.5185
▁거부권	-10.5185
▁뇌물	-10.5185
▁개정안	-10.5186
at	-10.5187
▁경관	-10.5188
▁자문	-10.5189
▁이륙	-10.5189
▁숲	-10.5193
▁마친	-10.5193
▁늘어나	-10.5198
▁반박	-10.52
▁녹	-10.5202
허	-10.5202
제도	-10.5207
어스	-10.5208
▁성당	-10.5209
▁월드	-10.521
▁일련	-10.5211
▁유럽에서	-10.5217
▁여성들이	-10.5217
age	-10.522
▁기부	-10.522
▁차지하고	-10.5225
▁충돌이	-10.5225
▁보여주고	-10.5225
▁대로	-10.5229
▁부모들	-10.5231
▁팀이	-10.5233
▁정책에	-10.5234
▁지정	-10.5235
▁ma	-10.5237
▁요리	-10.5253
▁지점에서	-10.5257
▁해안에서	-10.526
▁실시할	-10.5264
▁수배	-10.5265
▁근거로	-10.5266
▁론	-10.5268
업자	-10.5269
▁연구원들	-10.5273
▁하이	-10.5273
▁고소	-10.5282
ty	-10.5284
▁주장한다	-10.5284
▁예정인	-10.5285
▁신조	-10.5293
▁통신이	-10.5295
▁이름이	-10.5297
ary	-10.5299
법원	-10.5301
▁보냈	-10.5306
검	-10.5311
▁공약	-10.5324
곤	-10.5331
갔다	-10.5339
연구소	-10.5341
▁x	-10.5343
▁적십자	-10.5347
사태	-10.5347
▁맞추	-10.5349
im	-10.535
비아	-10.5354
▁생물	-10.5354
얀	-10.5361
▁연쇄	-10.5364
▁확장	-10.5364
▁메르켈	-10.5364
▁지하철	-10.5364
▁발휘	-10.5364
▁party	-10.5364
▁성직자	-10.5364
▁녹음	-10.5365
▁특징	-10.5365
▁영화배우	-10.5366
▁싸우	-10.5366
▁저희	-10.5366
▁당초	-10.5368
▁품	-10.5369
▁처해	-10.5369
▁안전보장이사회	-10.537
▁조지아주	-10.5372
▁래리	-10.5372
▁항구	-10.5373
위원장	-10.5375
▁모임	-10.5375
내내	-10.5376
▁붙잡	-10.5376
▁are	-10.5379
▁지분	-10.5379
▁진보	-10.538
▁하미	-10.5386
ac	-10.5388
▁승무원들	-10.5388
해왔	-10.5388
▁오하이오주	-10.5389
▁얼	-10.539
▁서울시	-10.5391
▁여지	-10.5396
▁md	-10.5396
▁선원	-10.54
▁생산량	-10.54
비치	-10.54
▁운전사	-10.5402
▁최고치	-10.5403
▁지원할	-10.5404
▁운영하고	-10.5414
ma	-10.5418
▁행사에	-10.5419
▁원숭이	-10.5421
들로부터	-10.5425
▁흥분	-10.5429
▁냈다	-10.543
▁실종자	-10.543
▁나이트	-10.5431
▁검은	-10.5437
▁달린	-10.544
▁달러화	-10.5443
▁최	-10.5444
▁누르	-10.5445
▁요금	-10.545
▁사용하지	-10.5453
▁보게	-10.5457
▁투르	-10.5458
▁주식시장	-10.5459
▁펼치	-10.546
▁있어야	-10.5461
▁발견한	-10.5461
트라	-10.5464
기업	-10.5467
ver	-10.5471
▁확정	-10.5473
▁레스토랑	-10.5475
▁계속될	-10.5476
삼	-10.5476
▁않았던	-10.548
▁확신한다	-10.5484
▁와인	-10.5488
ha	-10.5496
▁상태에서	-10.5497
▁가해	-10.5498
▁tr	-10.5498
▁브리	-10.5503
▁미치는	-10.5504
간에	-10.551
▁직원이	-10.551
▁알아	-10.5513
헌	-10.5515
▁주전	-10.5517
▁합의한	-10.5518
몰	-10.5519
▁셀	-10.5522
귀	-10.5526
군이	-10.5528
▁소매	-10.5532
정보	-10.5536
▁포로	-10.5538
▁st	-10.554
▁레드	-10.5543
닥	-10.5544
▁데일리	-10.5545
▁국가에서	-10.5547
▁중단할	-10.5547
▁생각이	-10.5547
▁미시시피	-10.5551
릿	-10.5552
픽	-10.5552
▁먹이	-10.5552
▁obama	-10.5552
▁낮추	-10.5552
▁마흐디	-10.5552
▁매니저	-10.5552
▁프랭크	-10.5552
▁항공우주국	-10.5552
▁퇴임	-10.5552
▁애완견	-10.5552
▁줄기세포	-10.5552
▁앤드류	-10.5553
▁난민촌	-10.5553
▁귀환	-10.5553
▁후보자	-10.5554
▁빌딩	-10.5554
▁쿠퍼	-10.5554
▁탄생	-10.5555
▁수사관	-10.5557
▁리처드슨	-10.5558
▁쉽지	-10.5559
▁침대	-10.556
▁소형	-10.5562
▁수송	-10.5562
▁원래	-10.5563
▁추세	-10.5563
▁매체	-10.5564
▁밝혀진	-10.5564
▁공산주의	-10.5567
▁정원	-10.5576
▁후보와	-10.558
▁동의했다	-10.5586
▁스타디움에서	-10.559
▁텍사스주	-10.5591
▁맨	-10.5591
송	-10.5592
▁등급	-10.5596
▁구역	-10.56
▁일본에	-10.5603
▁무어	-10.5603
▁다르다	-10.5604
▁동료들	-10.5606
▁증세	-10.5607
▁베르	-10.5617
▁테니스	-10.5617
벨	-10.5618
▁어렵다	-10.562
▁깊이	-10.5623
▁없게	-10.5624
▁무리	-10.5625
포드	-10.5633
▁윤	-10.5633
▁건물이	-10.5653
량이	-10.5658
▁만족	-10.5666
▁딸이	-10.5667
▁전부	-10.5675
▁작업에	-10.5679
▁전달했다	-10.5685
▁일어났	-10.5688
▁아들이	-10.569
▁추측	-10.5694
▁영화에	-10.5694
존	-10.5696
▁동맹국	-10.5699
마리	-10.5699
능	-10.57
▁물품	-10.5702
▁옆	-10.5706
▁교황은	-10.5712
▁하락한	-10.5717
▁화요일에	-10.5719
장에	-10.5719
참	-10.572
꺼	-10.5724
▁통계	-10.5734
▁애리조나	-10.5737
▁소식통이	-10.574
▁경호	-10.5742
▁말했	-10.5743
▁협상에	-10.5743
▁제정	-10.5745
▁얻고	-10.5745
▁플라스틱	-10.5745
▁foreign	-10.5745
▁옐친	-10.5745
▁화이트	-10.5745
▁침략	-10.5745
▁경기부양책	-10.5745
▁어깨	-10.5745
▁예비선거	-10.5745
▁헌법재판소	-10.5745
▁샘플	-10.5745
▁롤링	-10.5745
▁득표율	-10.5745
▁응급	-10.5746
▁솔직	-10.5746
▁복역	-10.5746
▁창출	-10.5747
▁영양	-10.5747
▁창문	-10.5748
▁다국적군	-10.5748
▁끝날	-10.5749
▁방출	-10.575
▁최저치	-10.575
▁졸리	-10.5751
어로	-10.5755
▁키우	-10.5755
▁발포	-10.5755
▁운전자	-10.5756
사의	-10.5757
▁교도소에	-10.5757
▁견	-10.5758
▁청사	-10.5765
▁미스	-10.5767
별	-10.5769
▁하루에	-10.5772
▁결과로	-10.5773
▁news	-10.5773
▁테러범	-10.5784
▁인력	-10.5784
▁식사	-10.5786
▁경비	-10.5787
▁옆에	-10.579
▁발견되었다	-10.579
▁행정	-10.5791
▁늘리	-10.5793
▁신문사	-10.5799
▁공개됐다	-10.5801
측이	-10.5815
▁즐	-10.5815
▁예정이었다	-10.5817
▁치러지	-10.5822
▁거부하	-10.5828
▁아르	-10.583
▁던지	-10.5834
▁해상	-10.5835
▁화물	-10.5836
▁촬영한	-10.5837
▁전복	-10.584
▁인근에서	-10.5846
▁겨	-10.5853
▁조건으로	-10.586
▁전반적	-10.5863
▁모색	-10.5865
▁바라는	-10.5866
▁승객들	-10.5868
속도로	-10.5868
▁카불	-10.5878
▁일으키	-10.5879
▁대항	-10.5879
▁학교에	-10.5883
▁거절했다	-10.5891
▁따르	-10.5893
▁후보인	-10.5904
▁문제와	-10.5905
▁받아들이	-10.5909
▁무고	-10.5913
▁권고	-10.5915
소를	-10.5918
시킨다	-10.5923
▁트	-10.5923
▁자리에	-10.5924
▁게재	-10.5925
▁빈곤	-10.593
넷	-10.5936
▁뮤지컬	-10.5941
▁윔블던	-10.5941
▁일으킬	-10.5941
▁퍼거슨	-10.5941
▁배터리	-10.5941
▁여겨지	-10.5941
▁프리미어리그	-10.5941
▁데이빗	-10.5941
▁노르웨이	-10.5941
▁잡아	-10.5941
▁유혈사태	-10.5941
▁브리핑	-10.5941
▁낙태	-10.5941
▁검증	-10.5941
▁상륙	-10.5941
▁빠질	-10.5941
▁외무성	-10.5942
▁방문하는	-10.5942
▁생방송	-10.5942
▁오마르	-10.5943
▁로딕	-10.5943
▁실업률	-10.5945
▁서양	-10.5946
▁알렉스	-10.5947
▁백신	-10.5947
▁드러냈다	-10.5947
▁조항	-10.5947
▁음성	-10.5948
▁american	-10.5948
▁이뤄진	-10.5948
▁접전	-10.5949
▁상호	-10.595
▁본토	-10.5951
▁발행	-10.5952
▁번역	-10.5954
▁go	-10.5958
▁용	-10.5958
▁분량	-10.5961
▁환호	-10.5964
▁지켜보	-10.5965
▁알렸다	-10.5966
▁년만	-10.5967
비용	-10.5968
▁정상화	-10.597
▁동일한	-10.5974
▁즐기	-10.5977
▁싸	-10.5979
국이	-10.5982
▁포장	-10.5983
▁제리	-10.5985
▁잡스	-10.5989
▁유도	-10.5991
▁요인	-10.5995
▁소득	-10.5997
▁명인	-10.5997
▁알지	-10.5999
금지	-10.6003
대표	-10.6003
▁후원	-10.6005
▁자택에서	-10.6007
▁생각하지	-10.6016
▁이어지	-10.6019
▁메이	-10.6022
▁매달	-10.6029
▁정권이	-10.6031
▁일본인	-10.6036
▁국기	-10.6044
▁지지한다	-10.6066
▁포기하	-10.6068
에게서	-10.6074
▁동물들	-10.6078
ity	-10.6079
▁비행사	-10.608
육	-10.608
▁연안	-10.6083
▁이민	-10.6087
▁테러에	-10.6089
▁발표됐다	-10.6089
▁실질적	-10.6098
▁심의	-10.6102
▁취해	-10.6106
▁le	-10.6109
▁지대	-10.6113
▁지지자들이	-10.6125
▁함	-10.6131
▁투표에	-10.6131
혔다	-10.6136
웅	-10.6137
▁노리	-10.6138
▁래	-10.6138
으면서	-10.614
▁느낄	-10.6141
▁얻는	-10.6141
▁오토바이	-10.6141
▁카트리나	-10.6141
▁파바로티	-10.6141
▁피라미드	-10.6141
▁징계	-10.6141
▁정거장	-10.6141
▁보이콧	-10.6141
▁라파엘	-10.6141
▁여섯	-10.6141
▁암컷	-10.6141
▁라이언	-10.6142
▁mbc	-10.6143
▁대표들	-10.6144
입어	-10.6144
▁오른쪽	-10.6145
▁상대방	-10.6146
▁통증	-10.6146
▁모금	-10.6148
▁돌파	-10.615
총리	-10.6151
▁멀리	-10.6152
▁빠지	-10.6152
▁플레이어	-10.6155
▁부실	-10.6157
▁지원하는	-10.6157
▁상원의원과	-10.6158
▁법원에서	-10.6159
▁사설	-10.616
▁산타	-10.6161
▁버리	-10.6165
▁않는다면	-10.6177
▁회의에	-10.6178
▁감소했다	-10.6181
ist	-10.6181
▁해서	-10.6181
▁do	-10.6182
▁플로리다주	-10.6183
▁해병	-10.6183
됐을	-10.6185
▁쓸	-10.6189
▁앉아	-10.6192
▁외치	-10.6194
▁소유하고	-10.6195
▁레바논군	-10.6196
▁국가로	-10.6197
▁처한	-10.6212
▁입수	-10.6219
▁참여할	-10.6221
▁실시했다	-10.6222
▁전해지	-10.6224
리스트	-10.6233
▁남자들	-10.6237
ts	-10.6238
▁계기	-10.6238
▁학생이	-10.6239
▁에어	-10.625
▁국민의	-10.6253
▁약세	-10.6254
쪽으로	-10.6255
기록	-10.6265
▁몰고	-10.6272
드로	-10.6274
▁마을에서	-10.6275
스럽게	-10.6276
▁코커스	-10.6276
데이	-10.6289
▁두번째	-10.6289
▁무장대원	-10.6289
▁육	-10.6296
▁제시했다	-10.6307
▁반영	-10.6317
▁단체인	-10.6317
▁살해했다	-10.6321
▁잠재적	-10.6324
헤	-10.6331
엄	-10.6331
▁state	-10.6333
벽	-10.6334
▁온도	-10.6336
됩니다	-10.6338
▁취한	-10.6339
▁감지	-10.6342
오는	-10.6343
▁아름다	-10.6344
▁visit	-10.6345
▁관타나모	-10.6345
▁마돈나	-10.6345
▁imf	-10.6345
▁객실	-10.6345
▁서식지	-10.6345
▁again	-10.6345
▁불가리아	-10.6345
▁화합	-10.6346
▁비틀즈	-10.6346
▁fda	-10.6346
▁테러조직	-10.635
보호	-10.635
ll	-10.6351
▁당국에	-10.6354
▁차별	-10.6356
▁전국적으로	-10.6357
▁재임	-10.6357
▁보급	-10.6358
▁재직	-10.6359
▁개편	-10.636
▁내려졌다	-10.636
▁탄소	-10.636
▁유산	-10.6361
▁도심	-10.6361
▁범인이	-10.6366
▁열렸다	-10.6372
측에	-10.6373
▁리비	-10.6374
▁대학에서	-10.6387
▁다음주	-10.6387
▁광장	-10.6393
▁조지아	-10.6399
▁불이	-10.64
▁개인적	-10.6405
▁포함돼	-10.6409
▁모건	-10.6413
▁방향으로	-10.6414
▁로스	-10.6414
▁해소	-10.6418
본부	-10.642
▁원인이	-10.642
▁군인들이	-10.6433
▁미터	-10.6448
z	-10.6449
▁v	-10.6451
▁커지	-10.6467
▁악화되	-10.6469
▁화면	-10.6472
▁제출한	-10.6478
대회	-10.6478
▁중심가	-10.648
기지	-10.6485
검사	-10.6491
▁본다	-10.6492
어서	-10.6497
▁최대의	-10.6503
▁프라이머리에서	-10.6507
▁범	-10.6508
▁소식에	-10.6511
▁해주	-10.6512
십	-10.6514
으려	-10.6515
전에서	-10.6516
▁이용한	-10.652
정도	-10.6523
▁지불하	-10.6523
로스	-10.6526
롭	-10.6535
▁상승한	-10.6536
▁부당	-10.654
▁콜로라도	-10.6543
▁뉴욕주	-10.6544
▁농장	-10.6544
▁청구	-10.6545
시대	-10.6549
램	-10.6549
걸	-10.6549
▁부딪	-10.6553
▁경기침체	-10.6553
▁끔찍	-10.6553
▁먹는	-10.6553
▁아테네	-10.6553
▁히틀러	-10.6553
룸	-10.6553
▁중남미	-10.6553
▁자유무역협정	-10.6553
▁take	-10.6553
▁공룡	-10.6553
▁에이커	-10.6554
▁관람	-10.6554
▁벽돌	-10.6554
▁급증	-10.6554
▁탈락	-10.6554
▁탄광	-10.6555
▁자선단체	-10.6555
▁talks	-10.6555
▁거짓	-10.6555
▁금액	-10.6555
니까	-10.6556
▁점검	-10.6556
이란	-10.6558
▁nk	-10.656
▁아마디	-10.656
▁야구	-10.6561
▁자신감	-10.6562
▁접수	-10.6564
▁이틀간	-10.6564
▁고급	-10.6564
▁중요성	-10.6564
▁실린	-10.6566
▁싱	-10.6568
▁인형	-10.6569
없는	-10.657
▁존경	-10.6573
▁한국은행	-10.6573
▁촉진	-10.6576
▁남용	-10.6579
기자	-10.6583
▁좋아하는	-10.6584
▁군함	-10.6585
▁강세	-10.6588
▁세웠다	-10.6589
▁포함하여	-10.659
▁겸	-10.6592
▁여러분	-10.6598
▁유발	-10.6602
▁라이브	-10.6603
▁유튜브	-10.6604
▁노력이	-10.6619
웨	-10.6631
▁각자	-10.6632
▁손해	-10.6634
▁털	-10.6637
▁so	-10.664
▁당국자들	-10.6642
▁약화	-10.6649
▁대학생	-10.6651
▁하면서	-10.6652
었는지	-10.6657
▁fir	-10.6663
▁소비자들	-10.6664
▁남편이	-10.6668
주에서	-10.6671
▁조사한	-10.6676
겠습니다	-10.6678
ter	-10.668
브라	-10.6687
▁기소된	-10.6694
▁포함됐다	-10.6694
▁상하이	-10.6697
▁미니	-10.6697
▁사용하고	-10.6701
▁맛	-10.6702
▁로브	-10.6703
▁잃었	-10.6706
겼다	-10.6711
줬다	-10.6712
▁법안에	-10.6712
▁dis	-10.6725
▁그래	-10.673
니는	-10.6741
▁여기에	-10.6744
▁건너	-10.6751
▁국가들이	-10.6751
다란	-10.6754
시오	-10.6754
▁위원	-10.6759
est	-10.6762
잉	-10.6763
않	-10.6766
▁opec	-10.6766
▁seoul	-10.6766
▁루아얄	-10.6766
▁우주왕복선	-10.6766
▁울포위츠	-10.6766
▁지지선언	-10.6766
▁허커비	-10.6766
▁징후	-10.6766
▁매춘	-10.6766
▁시라크	-10.6766
▁벌써	-10.6766
▁본격적	-10.6766
▁농업	-10.6766
▁center	-10.6767
▁파나마	-10.6767
▁드러내	-10.6767
▁범위	-10.6768
▁함유	-10.6768
▁술집	-10.6768
▁떠날	-10.6768
▁막대한	-10.6769
▁사이클	-10.6769
▁디스크	-10.6769
▁매매	-10.6771
▁통과시켰다	-10.6772
▁소행성	-10.6772
▁연계	-10.6773
▁서류	-10.6773
▁집권당	-10.6774
▁형식	-10.6774
▁승부	-10.6775
▁로저	-10.6777
▁준수	-10.6777
▁국방성	-10.6777
대가	-10.6781
▁정계	-10.6781
▁연간	-10.6783
end	-10.6785
▁자동	-10.6785
▁민족	-10.6786
네스	-10.6791
▁얼마전	-10.6792
▁직면	-10.6793
▁벌어졌다	-10.6795
▁내정	-10.6796
▁곰	-10.6796
지역에	-10.6805
▁호소했다	-10.6807
▁표면	-10.6807
vs	-10.681
▁설	-10.6813
▁내려진	-10.6813
린다	-10.6818
▁재미있	-10.682
버스	-10.6824
▁완	-10.6828
▁있었습니다	-10.683
▁있을지	-10.6832
▁나선	-10.6839
업계	-10.6841
▁하자	-10.6854
▁보조	-10.6861
▁세로	-10.6865
장인	-10.6868
▁관여	-10.6873
▁승인했다	-10.6874
팅	-10.6878
▁전역에서	-10.6881
▁포함된	-10.6884
▁기분	-10.6889
사와	-10.6897
▁매케인이	-10.6897
id	-10.6897
분께	-10.6898
▁항의하	-10.6901
▁부족하다	-10.6902
▁베를린	-10.6904
▁건강이	-10.6904
국장	-10.6905
▁어렵	-10.6905
▁여부에	-10.6908
▁바스라	-10.6908
학자	-10.6909
▁촉발	-10.6911
▁출산	-10.6913
▁불에	-10.6913
▁타임	-10.6916
▁운동가들	-10.6916
▁고장	-10.6924
장으로	-10.6931
▁참가자들	-10.6931
▁향상	-10.6933
▁대전	-10.6936
▁취하	-10.6939
▁도달	-10.6939
▁바르	-10.6944
▁me	-10.6945
▁제공한	-10.695
러스	-10.6954
▁되찾	-10.6961
▁필요로	-10.6963
▁용의자로	-10.6964
ke	-10.6967
▁bo	-10.6978
▁소탕	-10.6978
▁쓰레기	-10.6981
▁외곽	-10.6982
▁고이즈미	-10.6983
▁디자이너	-10.6983
▁베네딕	-10.6983
▁쇠고기	-10.6983
▁싶지	-10.6983
▁옮기	-10.6983
▁조승희	-10.6983
톨	-10.6983
▁포르노	-10.6983
▁sc	-10.6983
▁교섭	-10.6984
▁저항세력	-10.6984
▁품목	-10.6984
충	-10.6984
▁우울증	-10.6985
▁경향	-10.6985
▁cdc	-10.6985
▁more	-10.6985
▁정착	-10.6986
▁다룬	-10.6986
▁벗어	-10.6987
▁계산	-10.6987
팔	-10.6987
베르토	-10.6988
▁열고	-10.6989
▁핵개발	-10.6989
▁지역사회	-10.6989
▁상담	-10.699
▁왕세자비	-10.699
▁신분	-10.699
▁도살	-10.6991
▁취했다	-10.6992
▁북부에	-10.6992
▁업체들	-10.6993
▁소동	-10.6994
▁대대적	-10.6996
▁에릭	-10.6997
▁물체	-10.6998
사회	-10.6999
▁통보	-10.6999
뉴스	-10.6999
▁만년	-10.7009
▁사체	-10.701
▁나토군	-10.7011
▁지위	-10.7014
▁일이라고	-10.7015
물이	-10.7016
▁뿐이다	-10.7017
▁강전에서	-10.7019
▁희망한다	-10.7021
▁con	-10.7024
공사	-10.7025
▁서서	-10.7027
▁챔피언십	-10.7029
▁결승전에서	-10.7033
▁대법원장	-10.7035
me	-10.7035
▁지휘관	-10.7041
▁점거	-10.7042
▁도시인	-10.7044
▁고려하고	-10.7053
▁적발	-10.7053
ft	-10.7054
▁지식	-10.7055
▁농민들	-10.7056
진다	-10.7056
▁계속된	-10.7059
▁멀	-10.7063
평	-10.7064
▁걸리	-10.7065
▁유전	-10.7065
▁nation	-10.7068
▁바위	-10.7072
▁모르는	-10.7072
▁ha	-10.7075
▁되며	-10.7076
▁돌려	-10.7077
▁진지	-10.7078
▁탈레반측	-10.7081
▁상자	-10.7094
▁혼	-10.7095
▁갖는	-10.7105
▁가족들과	-10.7115
▁대통령직	-10.7122
▁게리	-10.7126
확실한	-10.7127
▁의상	-10.7128
▁맡	-10.7128
▁저자	-10.7128
▁회장이	-10.7134
▁탑승객	-10.7136
▁su	-10.7142
▁미국으로	-10.7147
▁추구하	-10.7148
▁흔	-10.715
▁합의에	-10.7152
▁모자	-10.716
▁슬	-10.7164
▁윈	-10.7172
▁상영	-10.7172
▁정보부	-10.7172
혈	-10.7174
▁요원들	-10.7175
▁봤	-10.7178
되자	-10.7178
▁무시	-10.7184
▁뉴햄프셔	-10.7188
▁들어간	-10.7189
▁ho	-10.7192
ga	-10.7193
닌	-10.7198
▁브라이언	-10.7199
▁다루	-10.72
▁사용자들	-10.72
▁공격했다	-10.7204
랭	-10.7205
▁노트북	-10.7206
▁뉴올리언스	-10.7206
▁두려움	-10.7206
▁맞고	-10.7206
▁심장마비	-10.7206
▁아닙니다	-10.7206
▁압바스	-10.7206
▁최첨단	-10.7206
▁톰슨	-10.7206
▁대서양	-10.7206
▁무너지	-10.7206
▁윈도우	-10.7206
▁온실가스	-10.7206
▁부사장	-10.7206
▁open	-10.7206
▁글로벌	-10.7206
▁이자율	-10.7206
▁멈추	-10.7206
▁우간다	-10.7206
▁연례	-10.7207
▁가짜	-10.7207
끼	-10.7208
▁붙여	-10.7208
▁파월	-10.7208
▁타밀	-10.7208
▁고유가	-10.7209
▁풍부	-10.7209
▁비서실장	-10.7209
▁갈등	-10.7209
▁관측	-10.721
▁건강에	-10.721
man	-10.7211
달러	-10.7211
▁개막	-10.7211
▁조사할	-10.7212
짐	-10.7212
▁구름	-10.7212
▁오프라	-10.7212
▁열심	-10.7215
▁받아왔다	-10.7215
▁발급	-10.7215
▁미첼	-10.7215
▁휴대	-10.7216
▁테러단체	-10.7216
▁경비대	-10.7216
▁무슨	-10.7217
▁러드	-10.7217
▁발발	-10.7217
▁선임	-10.7219
▁기증	-10.7219
했었	-10.7219
▁문구	-10.722
▁맞이	-10.7223
▁스파이	-10.7226
▁남측	-10.723
국으로	-10.7232
▁파리에서	-10.7232
▁my	-10.7233
▁헬	-10.7233
▁참석하지	-10.7234
▁신화	-10.7234
▁보건부	-10.7235
▁은행들	-10.7238
▁독일인	-10.7243
ea	-10.7244
▁정치인들	-10.7248
▁복	-10.7249
▁클	-10.7251
▁르	-10.7253
시위	-10.7264
▁부분이	-10.7266
▁기상청	-10.7269
▁time	-10.7271
ent	-10.7273
▁가중	-10.728
▁by	-10.7285
▁완료	-10.7286
▁점수	-10.7289
ice	-10.729
▁확산되고	-10.7294
▁반대로	-10.7296
▁테리	-10.7298
▁학교에서	-10.7299
ry	-10.7301
▁has	-10.7302
▁직접적	-10.7311
▁착용	-10.7316
▁증상	-10.7318
▁작업이	-10.7321
▁제작사	-10.7323
▁등장	-10.7325
▁당해	-10.733
자르	-10.7332
▁해적들	-10.7333
▁결정적인	-10.7334
스런	-10.7341
▁달러가	-10.7342
가격	-10.7344
▁마이	-10.7345
렉	-10.7351
▁시인	-10.7359
혼	-10.7366
▁경사	-10.7366
디아	-10.7368
am	-10.737
▁되었	-10.7372
▁입지	-10.7381
▁행위에	-10.7382
▁정리	-10.7383
갔	-10.7387
▁사진이	-10.7395
▁명백	-10.7396
▁동성애	-10.7398
념	-10.7399
▁파키스탄군	-10.741
▁부지	-10.742
▁반지	-10.742
▁반복	-10.7422
▁십	-10.7422
▁경매에	-10.7425
황	-10.7429
▁출입	-10.743
▁에베레스트	-10.7431
▁troop	-10.7433
▁그렇다	-10.7433
▁로드리게스	-10.7433
▁이브라힘	-10.7433
▁찾지	-10.7433
▁펼친	-10.7433
▁도요타	-10.7433
▁브래드	-10.7433
▁플루토늄	-10.7433
▁허드슨	-10.7433
▁빼앗	-10.7433
▁해수면	-10.7433
▁아마디네자드	-10.7433
▁인터폴	-10.7433
▁남아프리카	-10.7433
▁빅토리아	-10.7433
▁터널	-10.7433
▁의약품	-10.7433
▁남학생	-10.7434
▁금융위기	-10.7434
▁평화유지군	-10.7435
▁무덤	-10.7435
셀	-10.7435
▁언론과	-10.7436
▁들어갈	-10.7436
▁보도에	-10.7437
▁이루어진	-10.7437
▁예약	-10.7438
▁단행	-10.7438
폰	-10.7438
▁완성	-10.7439
▁채취	-10.7439
▁밀려	-10.744
필	-10.744
▁유통	-10.7441
폐	-10.7442
▁고위급	-10.7442
▁te	-10.7443
▁구류	-10.7444
▁포터	-10.7445
▁양쪽	-10.7445
값	-10.7448
회담	-10.7449
시스템	-10.745
▁불어	-10.7451
▁배제	-10.7452
▁적합한	-10.7452
▁남성들	-10.7452
▁군사력	-10.7453
▁양보	-10.7457
▁빠졌다	-10.7457
▁종이	-10.7458
▁임대	-10.7459
▁해체	-10.746
▁준비하고	-10.746
▁서안	-10.746
▁입법	-10.746
▁house	-10.746
▁경쟁력	-10.7464
▁코치	-10.7465
▁회수	-10.7466
▁선거법	-10.747
▁주연	-10.7471
▁햄	-10.7471
▁베리	-10.7471
roh	-10.7475
▁체포됐	-10.7479
해달라	-10.7481
▁au	-10.7481
▁반전	-10.7481
▁나타내는	-10.7486
▁벌여	-10.7487
▁남부에	-10.7488
▁선수로	-10.7499
▁향한	-10.75
▁살았	-10.7502
▁경로	-10.7504
▁코스	-10.7507
▁미래에	-10.7514
▁공무원	-10.7515
▁너무나	-10.7515
▁사면	-10.7518
▁턱	-10.7521
로우	-10.7522
▁정기적	-10.7527
▁보인	-10.7536
▁법정에서	-10.7539
▁시인했다	-10.7546
▁위험성	-10.7547
▁프	-10.7552
▁넘기	-10.7553
리그	-10.7555
▁all	-10.7556
▁논	-10.7561
▁궤도	-10.7567
▁관객들	-10.7575
▁뿐이라	-10.7586
리안	-10.7588
▁변호	-10.759
▁회전	-10.7595
▁연구에서	-10.7601
▁폴리	-10.7601
▁따뜻	-10.7606
겼	-10.7609
혔	-10.761
▁센	-10.7614
▁연대	-10.7626
▁종료	-10.763
▁쪽	-10.7639
▁기본적	-10.764
▁ai	-10.7646
퇴	-10.7646
▁야생동물	-10.7658
▁명성	-10.7661
뜨	-10.7664
▁스타벅스	-10.7665
▁나눴다	-10.7665
▁낮아	-10.7665
▁느낌	-10.7665
▁망원경	-10.7665
▁무승부	-10.7665
▁성추행	-10.7665
▁아라비아	-10.7665
▁자르다리	-10.7665
▁최우선	-10.7665
▁토크쇼	-10.7665
▁확률	-10.7665
찌	-10.7665
▁수류탄	-10.7665
▁시나리오	-10.7665
▁삭감	-10.7665
▁맥캔	-10.7666
▁에드워드	-10.7666
▁intern	-10.7666
▁하원의장	-10.7666
▁활발	-10.7666
▁긴밀	-10.7666
▁남자아이	-10.7666
▁뉴욕시	-10.7666
▁교외	-10.7667
▁머레이	-10.7667
▁물고기	-10.7667
원들이	-10.7667
▁추격	-10.7668
▁외환	-10.7668
▁송금	-10.7668
▁체류	-10.7668
▁실현	-10.7669
bush	-10.7673
▁포스트	-10.7674
▁목격했다	-10.7674
▁상금	-10.7678
▁ex	-10.7681
▁해저	-10.7681
규모	-10.7684
칸	-10.7684
▁우세	-10.7684
덕	-10.7686
▁당부했다	-10.7687
▁저질렀다	-10.7688
▁사라졌다	-10.769
▁착수했다	-10.7691
▁군이	-10.7692
▁묻는	-10.7694
▁맡았다	-10.7695
▁상업	-10.7697
▁총통	-10.7699
▁은행에	-10.77
▁이득	-10.77
코프	-10.7701
▁상세	-10.7702
▁목록	-10.7706
사업	-10.7713
널리	-10.7715
▁차질	-10.7719
▁새롭	-10.7719
▁간주	-10.7723
▁신도들	-10.7725
▁주에	-10.7727
▁의견이	-10.7729
▁제이	-10.7733
▁개인적으로	-10.7735
▁위하여	-10.7736
ick	-10.7738
▁화가	-10.7739
▁생각해	-10.7739
▁달한다	-10.7741
▁기적	-10.7742
▁중심지	-10.7742
▁주최	-10.7751
▁부검	-10.7752
▁촉구하	-10.7753
▁수행할	-10.7754
▁해당하	-10.7755
관련	-10.7756
과정	-10.7757
hi	-10.7759
버리	-10.7761
▁국가에	-10.7762
rt	-10.7769
▁제공했다	-10.7772
▁일어나는	-10.7777
▁인터넷에	-10.7783
▁압수	-10.7786
▁파키스탄에서	-10.7786
▁다르	-10.7789
▁힘들다	-10.7791
▁one	-10.7793
▁성공한	-10.78
세이	-10.7808
소리	-10.7814
▁분야에서	-10.7815
▁크다	-10.7817
▁이름으로	-10.7818
▁브로	-10.782
▁방문해	-10.7821
▁출연했다	-10.7824
▁게릴라	-10.7826
▁차례의	-10.783
▁멤버	-10.783
▁행동에	-10.7832
▁강진이	-10.7836
▁방콕	-10.7838
▁ro	-10.7839
객	-10.7841
▁칭	-10.7841
▁몰려	-10.7843
▁테러리스트들	-10.7843
▁장관과	-10.7845
키로	-10.7848
▁제시한	-10.785
▁증	-10.7851
▁탈레반이	-10.7857
▁출생	-10.7866
ut	-10.7866
▁물러나	-10.7867
▁남아있는	-10.7868
▁하에	-10.7872
▁패스	-10.7873
둘	-10.7875
행사	-10.7876
▁옹호	-10.7877
▁암시	-10.7882
▁블루	-10.7887
▁모른다고	-10.7898
징	-10.7898
▁se	-10.7899
▁진전이	-10.79
훈	-10.7902
▁york	-10.7903
▁갤런	-10.7903
▁높게	-10.7903
▁뉴델리	-10.7903
▁똑같	-10.7903
▁맞은	-10.7903
▁메드베데프	-10.7903
▁서브프라임	-10.7903
▁아웅산수치	-10.7903
▁유죄판결	-10.7903
▁세속주의	-10.7903
▁스크린	-10.7904
▁출구조사	-10.7904
▁국립공원	-10.7904
▁포셋	-10.7904
▁권총	-10.7905
▁증강	-10.7905
▁연패	-10.7905
▁say	-10.7905
기술	-10.7905
▁중앙은행	-10.7906
▁단독	-10.7906
▁카를로스	-10.7906
▁연구결과	-10.7906
▁aig	-10.7907
▁복원	-10.7907
▁연행	-10.7908
▁연출	-10.7908
▁환율	-10.7908
▁여러번	-10.7911
▁종교적	-10.7913
▁부처	-10.7915
▁수색작업	-10.7916
▁인권단체	-10.7916
▁부품	-10.7916
▁사용된	-10.792
▁고조되	-10.7922
▁활성화	-10.7922
▁뛰	-10.7923
▁우즈	-10.7925
▁재활용	-10.7925
▁its	-10.7927
짓	-10.7929
▁체포되었다	-10.793
콜	-10.793
▁유인	-10.7932
폴	-10.7933
▁루니	-10.7933
▁미성년자	-10.7934
▁카리	-10.7935
▁안내	-10.7936
감독	-10.7937
▁vi	-10.7938
▁도구	-10.7938
스티	-10.7941
▁도디	-10.7943
▁가난한	-10.7944
▁사실에	-10.7944
버렸다	-10.7947
▁맡았	-10.7949
▁정기	-10.7949
▁웨인	-10.795
▁남아있다	-10.795
▁수면	-10.7951
▁업적	-10.7956
▁대리인	-10.7957
▁공정한	-10.7959
▁두려워	-10.796
ive	-10.7963
▁선고했다	-10.7969
화된	-10.7975
▁매력	-10.7977
tor	-10.7978
내용	-10.7984
▁상당수	-10.7984
▁제치	-10.7991
▁건물에	-10.7994
▁토대	-10.7995
▁표준	-10.8
▁주권	-10.8003
▁미리	-10.8007
결과	-10.801
▁도착할	-10.8014
▁시사	-10.8015
▁이슈	-10.8017
▁기아	-10.8017
▁열었다	-10.802
▁기분이	-10.8021
▁결심	-10.8029
▁신장	-10.8033
▁위원장이	-10.8034
▁자라	-10.8039
▁러	-10.8039
▁홍	-10.8041
▁응답	-10.8042
▁딘	-10.8044
▁안으로	-10.8045
▁출두	-10.8045
▁영국과	-10.8046
▁말이	-10.8054
▁궁	-10.806
▁예정이었	-10.8061
▁인민	-10.8065
▁떨어졌	-10.8069
▁재정적	-10.8081
▁출신으로	-10.8084
▁사무	-10.809
▁판결이	-10.8095
▁th	-10.8096
났다	-10.81
▁수여	-10.8101
▁간에	-10.8104
▁기각	-10.811
▁석방됐다	-10.8114
▁제작자	-10.8117
에르	-10.8118
▁받아들여	-10.8118
▁방송에	-10.8119
쪽	-10.8123
▁공정	-10.8135
옥	-10.8136
넨	-10.8142
▁등에	-10.8144
▁국가비상사태	-10.8146
▁fifa	-10.8147
▁ibm	-10.8147
▁washington	-10.8147
▁먹고	-10.8147
▁선거관리위원회	-10.8147
▁앞섰다	-10.8147
▁얻게	-10.8147
▁하이브리드	-10.8147
▁주유소	-10.8147
▁자전거	-10.8147
▁좌석	-10.8147
▁섹시	-10.8147
▁티벳	-10.8148
▁윈프리	-10.8148
▁최루탄	-10.8148
▁교착	-10.8148
▁부양책	-10.8148
▁켈리	-10.8148
▁바꿀	-10.8148
▁사과했다	-10.8148
▁데리고	-10.8149
▁bda	-10.8149
▁급습	-10.8149
▁상관	-10.8149
▁이뤄질	-10.8149
▁돌아갈	-10.8149
▁설계	-10.815
▁앨런	-10.815
▁호송	-10.815
▁mdc	-10.815
▁독감	-10.815
▁소년이	-10.8151
▁추모	-10.8151
▁서식하	-10.8151
▁재배치	-10.8151
▁이후에	-10.8151
▁통행	-10.8154
▁막아	-10.8155
▁줄이기	-10.8156
▁심판	-10.8157
▁휴일	-10.8158
▁개체수	-10.8158
▁보증	-10.8159
▁윌슨	-10.816
▁확산되	-10.8161
▁출장	-10.8161
▁던진	-10.8161
▁서브	-10.8163
▁피난	-10.8164
윈	-10.8164
▁해석	-10.8165
▁전형적	-10.8165
▁인터	-10.8169
닉	-10.817
▁여파	-10.8174
▁도난	-10.8175
롱	-10.8175
▁않았습니다	-10.818
곡	-10.8181
▁탈북자	-10.8183
벤	-10.8183
▁김치	-10.8186
▁아미	-10.8186
▁꽃	-10.8188
▁골드	-10.8192
▁산하	-10.8193
▁외국인들	-10.8194
▁발견됐	-10.8194
수술	-10.8197
▁아프	-10.8197
▁공개하지	-10.8198
▁원장	-10.82
▁전격	-10.8203
▁외상	-10.8204
▁드레스	-10.8206
▁권고했다	-10.8209
▁명백한	-10.821
▁셰	-10.8216
▁국회에서	-10.8216
▁사라지	-10.822
▁공주	-10.8222
▁지구에	-10.823
교육	-10.823
▁피하기	-10.8232
▁관객	-10.8244
▁cd	-10.8244
▁메리	-10.8245
▁분석했다	-10.8253
나무	-10.8254
▁win	-10.8255
▁떠난	-10.8255
▁수감된	-10.8256
▁war	-10.8259
▁양자	-10.826
▁그랜드	-10.8262
▁판매량	-10.8264
▁거리에서	-10.8267
▁사안	-10.8267
▁이라크내	-10.8268
▁준다	-10.8284
▁상상	-10.8286
▁것들	-10.8286
▁발견되지	-10.829
▁지역인	-10.8296
업자들	-10.8296
▁활동에	-10.8298
▁공격한	-10.8303
▁축	-10.8305
▁거부한	-10.8305
스케	-10.8305
▁차지하는	-10.8313
▁가리	-10.8314
▁출신인	-10.8315
데스	-10.8315
▁테러범들	-10.8326
▁po	-10.8327
▁방법에	-10.8335
▁모두에게	-10.8342
▁조언	-10.8348
▁의제	-10.8349
▁서쪽	-10.8354
▁개성	-10.8355
▁얻었	-10.8358
sa	-10.836
▁모아	-10.8364
라면	-10.8367
▁동영상에서	-10.8378
▁후임	-10.8385
▁이씨	-10.8386
▁현상이	-10.8386
▁아기들	-10.8386
▁담고	-10.8387
분야	-10.8387
▁네바다	-10.8388
룰	-10.8394
콤	-10.8396
▁데이비스	-10.8397
냉	-10.8397
▁military	-10.8397
▁국제우주정거장	-10.8397
▁맨해튼	-10.8397
▁무렵	-10.8397
▁바티칸	-10.8397
▁스탈린	-10.8397
▁유람선	-10.8397
▁호나우두	-10.8397
▁깨끗	-10.8397
▁퇴진	-10.8397
▁국무총리	-10.8398
▁언덕	-10.8398
▁행렬	-10.8398
▁시티그룹	-10.8398
▁요즘	-10.8398
▁아스날	-10.8398
▁왜곡	-10.8398
▁유괴	-10.8398
▁국민투표	-10.8398
▁보조금	-10.8399
▁동참	-10.8399
▁자발적	-10.8399
▁절약	-10.8399
▁존스턴	-10.84
▁자동차업계	-10.84
▁연승	-10.84
▁창설	-10.8401
▁불안정	-10.8401
▁역임	-10.8402
▁가끔	-10.8402
▁고안	-10.8403
▁모집	-10.8403
▁연방정부	-10.8404
▁의원들이	-10.8404
됐는지	-10.8408
▁혼자	-10.8409
라데	-10.8409
▁만능	-10.841
▁열리	-10.841
▁피랍된	-10.8411
▁시골	-10.8412
▁상병	-10.8413
▁합의문	-10.8413
▁부속	-10.8414
▁수컷	-10.8415
▁위생	-10.8416
▁도청	-10.8416
▁지원금	-10.8417
▁준장	-10.8422
▁화장	-10.8422
▁눈물	-10.8425
▁군과	-10.8428
land	-10.843
▁젊은이들	-10.843
▁지나가	-10.8435
동맹	-10.8435
▁유물	-10.8436
▁퀸	-10.8439
▁발매	-10.844
타르	-10.8442
▁초에	-10.8443
▁포트	-10.8444
▁출전하지	-10.8445
▁점이	-10.8452
▁경주	-10.8454
▁매수	-10.8456
▁불가능하다	-10.8456
▁행동이	-10.8458
노조	-10.8459
▁조선	-10.8462
▁돌아와	-10.8464
▁공개한	-10.8465
무라	-10.8467
대사	-10.8473
학과	-10.8473
▁병력이	-10.8479
▁유럽과	-10.8482
▁전용	-10.8484
카르	-10.8485
▁섭취	-10.849
▁단장	-10.8491
쟁	-10.85
▁본드	-10.8501
▁학생들에게	-10.8507
위원	-10.8521
▁호주에서	-10.8523
▁유해	-10.8525
na	-10.8533
▁인정하지	-10.8542
▁취하고	-10.8547
▁별도	-10.8561
병원	-10.8563
▁내지	-10.8565
▁판다	-10.8566
▁참가한	-10.8571
▁아프간에	-10.8579
웠	-10.858
ns	-10.859
▁갔	-10.8593
▁변화에	-10.8604
▁am	-10.8605
▁지방에서	-10.861
▁이적	-10.8612
▁영화에서	-10.8615
이라면	-10.8622
▁남겨	-10.8625
▁였다	-10.8631
의원	-10.8631
▁때문이라	-10.8639
▁뉴저지	-10.8644
tion	-10.8645
▁용납	-10.8646
촌	-10.8648
▁밴	-10.8649
렐	-10.8651
▁미라	-10.8651
덤	-10.8652
two	-10.8653
▁people	-10.8654
▁가즈프롬	-10.8654
▁내무장관	-10.8654
▁디트로이트	-10.8654
▁럼스펠드	-10.8654
▁마이스페이스	-10.8654
▁믿는다	-10.8654
▁박격포	-10.8654
▁억만장자	-10.8654
▁음주운전	-10.8654
▁인명피해	-10.8654
▁저렴	-10.8654
▁창기라이	-10.8654
▁apec	-10.8654
▁러닝메이트	-10.8654
▁후지모리	-10.8654
▁라호르	-10.8654
▁피츠버그	-10.8654
▁코카인	-10.8654
▁가져올	-10.8654
▁알제리	-10.8654
▁국방위원장	-10.8654
▁아빠	-10.8654
▁미셸	-10.8654
▁돌아올	-10.8654
▁워렌	-10.8655
▁참배	-10.8656
▁산맥	-10.8656
▁lg	-10.8656
▁클라크	-10.8657
▁굿	-10.8657
▁광부	-10.8657
▁치매	-10.8658
▁발령	-10.8658
▁매입	-10.866
▁로켓포	-10.866
▁부결	-10.8661
▁의심되는	-10.8661
▁파커	-10.8662
▁개헌안	-10.8662
▁회계	-10.8663
▁시민권	-10.8663
▁회사에	-10.8668
▁구조작업	-10.8669
▁억제	-10.8669
▁약탈	-10.8675
▁걸렸다	-10.8676
뉴	-10.8677
▁던졌다	-10.868
▁분경	-10.8682
▁해방	-10.8685
▁돌아왔다	-10.8685
▁않습니다	-10.869
빙	-10.8691
▁투표율	-10.8691
균	-10.8693
▁pro	-10.8694
▁방송에서	-10.8696
보기	-10.8697
▁납치한	-10.8697
▁민간인들	-10.8697
▁진행중	-10.8698
맥	-10.8698
▁업무를	-10.8698
홀	-10.87
▁진행될	-10.8702
▁실패한	-10.8702
▁하비	-10.8704
▁한달	-10.8705
▁당일	-10.8707
▁불과하다	-10.8711
▁인치	-10.8711
자리	-10.8713
▁전쟁이	-10.8714
▁아는	-10.8715
▁강간	-10.8716
스크	-10.8719
▁덜	-10.8719
▁자치	-10.8722
▁평화상	-10.8723
▁재고	-10.8725
커스	-10.8726
▁have	-10.8732
▁빌리	-10.8733
스테	-10.8733
▁민주당이	-10.8734
돼있다	-10.8739
▁부리	-10.8741
▁클린턴과	-10.8742
▁전사	-10.8745
▁휘	-10.8752
▁나치	-10.8754
▁간부	-10.8755
▁시작됐	-10.8757
▁호텔에	-10.8762
▁것이기	-10.8767
▁크레	-10.8768
ci	-10.877
담당	-10.8771
▁북부에서	-10.8782
▁찾아내	-10.8783
▁세운	-10.8785
▁인공	-10.8787
▁유기	-10.8788
▁롤	-10.8788
▁교도소에서	-10.8797
▁부상자들	-10.8799
▁파크	-10.8799
▁여행객들	-10.8799
▁계속할	-10.8803
▁연말	-10.8804
▁수락	-10.8806
하러	-10.8807
▁피랍	-10.881
지원	-10.8814
▁가르	-10.882
▁편의	-10.8822
▁해안에	-10.8823
▁벌어지	-10.8825
▁이스라엘에	-10.8835
▁보좌관들	-10.8838
용으로	-10.8838
▁이슬라마바드	-10.8838
▁상사	-10.8841
▁웨이	-10.8851
▁페리	-10.8851
▁비극	-10.8855
li	-10.8856
이션	-10.8857
▁lo	-10.8858
▁프랑스에서	-10.8869
▁군중들	-10.887
▁재무	-10.8874
제품	-10.8874
▁이끌었	-10.8883
소한	-10.8892
더스	-10.8894
▁가즈니	-10.8896
어질	-10.89
▁에티오피아	-10.89
ff	-10.8906
▁위치해	-10.8907
핑	-10.8907
▁베어	-10.891
▁출	-10.8911
▁중점	-10.8912
냥	-10.8913
▁잇따	-10.8913
둥	-10.8914
▁high	-10.8917
▁금메달	-10.8917
▁associat	-10.8917
▁엘리베이터	-10.8917
▁최고경영자	-10.8917
껏	-10.8917
넌	-10.8917
▁북극곰	-10.8917
▁secretary	-10.8917
▁라모스	-10.8917
▁남아프리카공화국	-10.8917
▁돌아다니	-10.8917
▁넬슨	-10.8917
▁떠오르	-10.8917
▁포획	-10.8918
▁결합	-10.8919
▁재배	-10.8919
▁설정	-10.892
▁이들에게	-10.892
▁예선	-10.892
▁배심원단	-10.892
▁처형	-10.892
▁진료	-10.8921
▁대테러	-10.8921
▁마찰	-10.8921
▁실무	-10.8923
▁파편	-10.8923
호가	-10.8923
▁포경선	-10.8923
▁밀러	-10.8924
▁펄	-10.8926
▁다가오	-10.8929
▁한명	-10.8929
▁전파	-10.8929
pr	-10.893
▁환수	-10.893
▁던져	-10.8931
▁아시아에서	-10.8931
식이	-10.8931
▁사이버	-10.8931
▁난민들	-10.8932
▁반등	-10.8933
▁석방된	-10.8933
▁미셀	-10.8934
▁어디	-10.8936
▁배포	-10.8937
▁소유주	-10.8938
▁거친	-10.8939
▁사회당	-10.8941
▁사살했다	-10.8941
▁틀	-10.8942
▁사라진	-10.8943
▁수사에	-10.8944
▁찾았다	-10.8944
▁넣었다	-10.8945
▁쉬운	-10.8946
▁맞았다	-10.8948
안토니오	-10.8951
궁	-10.8957
▁먼지	-10.896
▁그곳에서	-10.896
▁기원	-10.8961
▁대비해	-10.8962
ara	-10.8964
▁전체가	-10.8966
작업	-10.8967
콘	-10.8969
▁di	-10.8971
칼	-10.8971
▁여단	-10.8973
▁캔	-10.8978
신문	-10.8981
▁치를	-10.8985
▁열기	-10.8988
률이	-10.8994
▁풍	-10.8994
점으로	-10.9001
▁성분	-10.9011
스카	-10.9014
자료	-10.902
▁확인하기	-10.9022
▁독재자	-10.9022
▁수년	-10.9029
▁전시회	-10.9029
▁써	-10.9029
▁선택했다	-10.9031
▁것일	-10.9034
▁기울	-10.9037
▁월스트리트	-10.9037
▁정부군과	-10.9039
▁제공하기	-10.9045
▁대원들	-10.9047
보드	-10.9047
▁부위	-10.905
▁남쪽	-10.9052
시장에서	-10.9052
▁표시했다	-10.9054
▁걸려	-10.9057
▁폭로	-10.9062
▁로드	-10.907
인데	-10.9075
▁보유한	-10.9076
▁약속한	-10.9082
▁유지할	-10.9082
▁축출	-10.9084
▁이른	-10.9084
▁일시적	-10.9086
▁웨	-10.9087
▁과격	-10.9098
▁모리	-10.9099
원인	-10.9102
▁회원들	-10.9106
fi	-10.9108
▁시간에	-10.9109
룬	-10.9128
버트	-10.913
라인	-10.913
▁목적이	-10.913
▁대선에	-10.9132
▁즐기는	-10.9135
▁차지한	-10.9138
▁장소에서	-10.9139
▁만났	-10.914
▁년형	-10.914
▁서한	-10.9146
▁당황	-10.9149
▁장교	-10.9151
▁사진들	-10.9156
▁바지	-10.9159
▁중상	-10.9162
▁그들에게	-10.9164
▁소유한	-10.9168
탁	-10.9172
▁일단	-10.9172
▁일원	-10.9174
bc	-10.9176
▁수요일에	-10.9178
▁벗	-10.9179
▁풀어	-10.9182
▁오스카	-10.9184
▁휩쓸	-10.9185
▁투명	-10.9186
▁human	-10.9187
▁굉장	-10.9187
▁브루니	-10.9187
▁시애틀	-10.9187
▁엉덩이	-10.9187
▁해수욕장	-10.9187
▁그린피스	-10.9187
▁흘러	-10.9187
▁크레이그	-10.9187
▁애완동물	-10.9187
▁대한민국	-10.9187
▁바하마	-10.9187
▁낭비	-10.9187
▁덴버	-10.9187
▁카지노	-10.9187
▁좌파	-10.9187
▁고등법원	-10.9187
▁브레이크	-10.9188
▁면접	-10.9188
▁스콧	-10.9188
▁무소속	-10.9188
▁동굴	-10.9188
▁밝혀냈다	-10.9188
▁슈퍼볼	-10.9188
▁오늘밤	-10.9189
▁불황	-10.9189
▁장벽	-10.919
▁추천	-10.919
▁소총	-10.919
▁텐트	-10.919
▁절감	-10.919
▁돌아온	-10.9191
▁정밀	-10.9191
▁외쳤다	-10.9191
▁생명체	-10.9192
▁유골	-10.9192
▁승점	-10.9192
▁교내	-10.9193
▁창조	-10.9193
▁치른	-10.9193
▁금속	-10.9193
▁다행히	-10.9193
▁반환	-10.9194
▁보수당	-10.9195
▁소비자들이	-10.9196
▁휴식	-10.9196
▁매출	-10.9197
▁네바다주	-10.9197
▁기념식	-10.9197
▁위축	-10.9198
학생	-10.9198
▁느낀다	-10.9199
▁인도분	-10.9201
▁단식	-10.9202
▁김씨	-10.9205
▁헐	-10.9208
▁밀어	-10.9208
▁해왔다	-10.9208
▁아민	-10.9209
▁이어졌다	-10.9209
▁화제	-10.9211
▁남미	-10.9211
▁병사들이	-10.9211
▁과제	-10.9212
▁무산	-10.9213
▁공안	-10.9213
▁활동이	-10.9215
시티	-10.9215
▁제보	-10.9217
▁소화	-10.9218
▁구단	-10.9221
칭	-10.9225
▁출연해	-10.9225
▁케이시	-10.9225
▁받아들이지	-10.9226
▁버지니아주	-10.9227
▁확인되	-10.9227
▁경찰청	-10.9229
▁분야에	-10.9231
▁남쪽으로	-10.9234
연구	-10.9234
▁유지하	-10.9235
▁할지	-10.9236
타운	-10.924
▁좋아한다	-10.9242
멜	-10.9242
▁통해서	-10.9245
척	-10.9246
▁장성	-10.9248
▁근처에	-10.9248
▁지지자들에게	-10.925
캐	-10.925
앤	-10.9251
▁원치	-10.9256
때까지	-10.9267
▁거래됐다	-10.9269
▁위협에	-10.9273
▁알라	-10.9276
타임	-10.9277
▁번지	-10.9283
▁국경지역	-10.9285
▁살아남	-10.9286
▁내리는	-10.9288
▁위안	-10.9292
▁대안	-10.9294
▁fr	-10.9299
되었는데	-10.9299
ld	-10.9299
▁강타한	-10.9301
▁복장	-10.9301
ap	-10.9302
▁언급한	-10.9306
▁제일	-10.9309
▁위장	-10.9311
▁입수한	-10.9317
▁탄도	-10.9321
하겠	-10.9323
▁러시아와	-10.9324
▁전하고	-10.9324
▁참여했다	-10.9324
▁이라크인	-10.9326
▁피어	-10.9327
▁재해	-10.933
▁처음에	-10.9331
ah	-10.9332
▁컵	-10.9336
▁최고위	-10.934
ish	-10.9343
▁클린턴에	-10.9344
▁성명서	-10.9344
▁폭력사태로	-10.9344
▁입어	-10.9349
▁명단에	-10.9352
▁신원이	-10.9358
▁시일	-10.9359
▁법적으로	-10.9365
tu	-10.9367
▁조국	-10.9373
▁na	-10.9377
▁세트에서	-10.9378
▁시청자들	-10.9384
▁종식	-10.9385
▁인정받	-10.9386
▁자녀들	-10.939
마르	-10.9391
tv	-10.9402
▁취소했다	-10.9408
벨트	-10.9411
▁목요일에	-10.9412
▁리오	-10.9414
▁장기적	-10.9417
▁친환경	-10.9421
업체들	-10.9423
▁재선	-10.9431
▁밝히기	-10.9432
▁안나	-10.9438
▁이민자들	-10.9444
▁좌절	-10.9444
▁편집	-10.9444
▁못하다	-10.9444
▁발이	-10.9445
▁sk	-10.9446
▁피고인	-10.9449
tri	-10.9449
▁상원에서	-10.945
▁우승자	-10.9461
▁england	-10.9465
▁기준금리	-10.9465
▁듣지	-10.9465
▁머리카락	-10.9465
▁버냉키	-10.9465
▁슬픔	-10.9465
▁원자바오	-10.9465
▁크로아티아	-10.9465
▁텔레비전	-10.9465
▁트라볼타	-10.9465
▁헬리콥터	-10.9465
▁호날두	-10.9465
▁규칙	-10.9465
▁유수프	-10.9465
▁침묵	-10.9465
▁스튜디오	-10.9465
▁바바라	-10.9465
▁휴스턴	-10.9465
▁election	-10.9465
▁멸종위기	-10.9465
▁신용카드	-10.9466
▁놀랄	-10.9466
▁감바	-10.9466
▁처방	-10.9466
▁숨겨	-10.9466
▁모험	-10.9466
▁논문	-10.9467
▁원주민	-10.9467
축구연맹	-10.9467
▁대선주자	-10.9467
까요	-10.9467
▁요르단강	-10.9467
▁남녀	-10.9467
▁레이저	-10.9467
▁반체제	-10.9468
▁압	-10.9468
▁도핑	-10.9468
▁구호품	-10.9468
▁방문에	-10.9469
▁알려	-10.947
▁금융시장	-10.947
▁전쟁에서	-10.9473
▁탐사선	-10.9474
▁대기업	-10.9476
▁역대	-10.9477
▁입력	-10.9477
▁일어나지	-10.9478
▁가택	-10.948
▁졸업	-10.9481
▁코피	-10.9481
▁지나치	-10.9485
▁느끼는	-10.9486
장비	-10.9489
▁첫날	-10.949
▁끝났다	-10.949
▁폴슨	-10.949
▁라울	-10.9493
▁경비원	-10.9494
▁개발한	-10.9494
▁조씨	-10.9499
▁시카고에서	-10.9499
▁복지	-10.9499
▁sp	-10.9504
▁여기서	-10.9504
▁선원들	-10.9505
▁이르기	-10.9506
▁계속하고	-10.9508
▁유명하다	-10.9512
▁개설	-10.9513
▁약품	-10.9515
▁중단됐다	-10.9518
▁결함	-10.9523
ot	-10.9524
▁민주적	-10.9526
▁작용	-10.9529
▁세가	-10.9529
투표	-10.9531
▁받으	-10.9533
▁가족들에게	-10.9535
착륙	-10.9536
▁관리자	-10.9536
서비스	-10.9537
▁선적	-10.9539
구조	-10.9541
▁이른다	-10.9541
▁절도	-10.9542
▁탈레반과	-10.9544
▁틸	-10.9545
▁군중	-10.9545
▁총리직	-10.9546
세계	-10.9546
월드	-10.9546
▁카르	-10.9552
▁결정이	-10.9553
▁바닥에	-10.9557
▁시작될	-10.9557
▁워터	-10.9559
▁결승전	-10.9562
▁처분	-10.9563
▁중반	-10.9567
▁개최된	-10.9577
▁투기	-10.9581
▁세부	-10.9589
럽	-10.9591
포트	-10.9593
▁과정에	-10.9603
▁쓰는	-10.9606
▁변호인	-10.9607
▁쳐	-10.961
하에	-10.961
▁강화할	-10.9611
시에서	-10.9613
▁배심원	-10.9615
▁탐험	-10.9616
▁조직원	-10.9618
▁대통령으로	-10.962
▁선박이	-10.9624
▁멜	-10.9625
세포	-10.9627
▁충	-10.9634
▁움직임이	-10.9635
바르	-10.9636
▁의자	-10.9638
▁남아있	-10.9641
▁연구가	-10.9642
텐	-10.9642
▁돌입	-10.9646
▁공무원들	-10.9648
▁집회에	-10.9648
카드	-10.9652
▁들어와	-10.9652
▁선출된	-10.9654
▁피살	-10.9658
▁농민	-10.9658
city	-10.9659
▁다수의	-10.9661
po	-10.9663
mb	-10.9666
▁칼리	-10.9667
▁강에	-10.967
사이트	-10.9678
▁형태로	-10.9678
▁자카르타	-10.9682
ant	-10.9686
▁날이	-10.9692
럴	-10.97
▁급락	-10.9701
▁조치로	-10.9705
▁취하지	-10.971
▁추락한	-10.9711
치료	-10.9712
▁지수가	-10.9716
▁물어	-10.9716
기때문에	-10.9718
어요	-10.9724
▁미만	-10.9731
▁넘겨	-10.9739
▁요청한	-10.9741
▁변호사들	-10.9742
▁구제금융	-10.9742
▁교육부	-10.9743
▁음료	-10.9744
▁알바니아	-10.9749
닛	-10.9751
▁court	-10.9751
▁몸값	-10.9751
▁뮌헨	-10.9751
▁산타클로스	-10.9751
▁애니메이션	-10.9751
▁애틀랜타	-10.9751
▁칸다하르	-10.9751
▁식민지	-10.9751
▁맥케인	-10.9751
▁브루스	-10.9751
▁마사지	-10.9751
▁히드로	-10.9751
▁적응	-10.9752
▁기획	-10.9752
▁집필	-10.9753
▁군사작전	-10.9753
▁금년	-10.9754
▁출국	-10.9755
▁가죽	-10.9755
▁마침	-10.9756
▁모으	-10.9756
▁새겨	-10.9756
▁권위	-10.9756
▁소유권	-10.9758
▁추문	-10.9758
▁장거리	-10.9759
▁모래	-10.9761
같이	-10.9761
▁복수	-10.9762
▁대폭	-10.9762
▁나와즈	-10.9762
▁불교	-10.9763
▁신병	-10.9764
▁주주들	-10.9766
▁다이애나비	-10.9766
▁받아들였다	-10.9767
▁편안	-10.9769
▁대령	-10.9769
▁모았다	-10.9769
▁구경	-10.977
▁있겠	-10.9771
▁예선전	-10.9772
▁알렌	-10.9774
▁효율적	-10.9778
냈	-10.978
▁상관없	-10.9781
▁관점에서	-10.9782
▁폭격기	-10.9785
▁자정	-10.9787
▁장기간	-10.9788
▁예정되어	-10.979
▁인명	-10.9791
▁태우고	-10.9792
▁주소	-10.9792
▁투자자	-10.9794
▁녹화	-10.9795
▁여아	-10.9798
▁참사	-10.9799
안보	-10.9801
▁내고	-10.9805
▁or	-10.9806
▁시계	-10.981
▁들었	-10.9811
▁차원에서	-10.9811
▁여야	-10.9812
▁주말에	-10.9814
▁발달	-10.9814
▁남성과	-10.9815
▁인도주의적	-10.9817
▁레이더	-10.9818
▁증언했다	-10.9819
▁무시하	-10.982
▁그곳에	-10.9822
▁칼라	-10.9822
슬리	-10.9824
디스	-10.9825
▁데비	-10.9825
▁제외하고	-10.983
자동차	-10.9831
▁하더라	-10.9832
▁클로	-10.9834
련	-10.9836
▁입원했다	-10.9838
베르	-10.9839
▁프로그램이	-10.984
▁특별히	-10.9844
▁중심부	-10.9844
ho	-10.9844
▁대우	-10.9845
▁돈이	-10.9847
▁구호단체	-10.9848
▁프라	-10.9857
▁확신했다	-10.9866
▁조절	-10.9867
▁있으	-10.9872
▁생존자들	-10.9874
▁week	-10.9875
▁확인된	-10.9882
▁선장	-10.9896
▁이송됐다	-10.9897
▁중계	-10.9897
▁기울이	-10.9908
▁내리고	-10.9915
돼있	-10.9917
기금	-10.9919
베리	-10.9921
▁경제학자들	-10.9926
받은	-10.9931
▁정치적으로	-10.9933
▁대회에	-10.9939
▁예술가	-10.9941
▁내게	-10.9946
▁대답했다	-10.9947
▁원하지	-10.995
▁줄리	-10.9952
▁어린이들이	-10.9953
▁있었기	-10.9953
▁top	-10.9953
▁초래	-10.9954
▁국회의원들	-10.9957
▁강화하고	-10.9962
▁명령했다	-10.9967
▁평양에서	-10.9967
▁판결에	-10.9969
ard	-10.9988
▁액	-10.9995
▁일으키는	-10.9998
▁제작된	-10.9999
▁교전이	-11.0004
able	-11.0007
▁개발에	-11.0008
▁묵	-11.0009
▁장악	-11.0011
▁열렸	-11.0019
▁재활	-11.0019
▁없애	-11.002
현정	-11.0021
▁자랑	-11.0021
▁필립	-11.0022
▁금연	-11.0022
▁실업	-11.0026
▁내용에	-11.0028
▁이슬람교	-11.0028
▁주당	-11.0028
▁강행	-11.0032
일라	-11.0038
▁세탁	-11.0044
▁securit	-11.0045
▁끊임없	-11.0045
▁느꼈다	-11.0045
▁땅에	-11.0045
▁떨어질	-11.0045
▁마케팅	-11.0045
▁많지	-11.0045
▁베어스턴스	-11.0045
▁베탕쿠르	-11.0045
▁부적절	-11.0045
▁브리트니	-11.0045
▁비즈니스	-11.0045
▁썼다	-11.0045
▁아칸소	-11.0045
▁에르도간	-11.0045
▁에스토니아	-11.0045
▁오케스트라	-11.0045
▁타협	-11.0045
▁테러지원국	-11.0045
▁펭귄	-11.0045
▁캔자스	-11.0045
▁되돌아	-11.0045
▁오렌지	-11.0045
▁prim	-11.0045
▁맥도날드	-11.0045
▁소탕작전	-11.0045
▁수만명	-11.0045
▁고릴라	-11.0046
▁bank	-11.0046
▁남기	-11.0046
▁영광	-11.0047
▁만여명	-11.0047
▁지속되	-11.0047
▁저택	-11.0048
▁버튼	-11.0048
▁조짐	-11.0049
최지	-11.005
▁엘리	-11.005
▁영감	-11.005
▁줄이는	-11.0051
▁타결	-11.0051
▁분쟁이	-11.0052
▁개념	-11.0053
▁서약	-11.0054
▁들어온	-11.0054
▁평소	-11.0055
▁포위	-11.0059
▁풀려났다	-11.0059
▁적자	-11.0059
▁식수	-11.0059
▁여유	-11.0062
▁파문	-11.0062
▁입구	-11.0062
▁mm	-11.0062
▁공조	-11.0063
▁가져다	-11.0065
▁갈라	-11.0067
▁연방준비제도이사회	-11.0068
▁적십자사	-11.0071
▁겪었다	-11.0072
▁킨	-11.0072
▁버전	-11.0072
▁저지르	-11.0075
▁유용	-11.0077
▁잡았다	-11.0077
▁하산	-11.0077
▁앞선	-11.0079
▁펼쳐	-11.0079
▁미치지	-11.0079
어진	-11.0083
▁국가인	-11.0084
▁줬다	-11.0087
▁가자지구에서	-11.0092
▁슛	-11.0094
▁적극	-11.0095
▁경우에	-11.0097
▁사회에	-11.0098
▁갖기	-11.0101
▁방문객들	-11.0102
▁해명	-11.0103
▁괴한	-11.0103
▁파일	-11.0106
농	-11.0106
▁붕괴된	-11.0115
있었다	-11.0118
▁전년	-11.0123
킹	-11.0124
이기도	-11.0127
▁싶어한다	-11.013
협정	-11.0131
떼	-11.0131
홍	-11.0131
▁나아가	-11.0133
김	-11.0134
▁한다면	-11.0136
▁주차	-11.0139
▁인도네시아에서	-11.0139
▁세관	-11.0149
▁청년	-11.0155
▁도주	-11.0157
▁헤어	-11.0157
▁성지	-11.0158
▁말하면서	-11.0166
▁건수	-11.0167
▁손자	-11.017
▁보호하고	-11.0174
▁행사에서	-11.0175
▁심사	-11.0177
▁중심에	-11.0183
▁프랑스와	-11.0185
▁동맹국들	-11.0186
▁쏟아	-11.0192
▁파손됐다	-11.0194
▁파키스탄에	-11.0196
부분	-11.0197
▁비만	-11.0197
▁오바마에	-11.0198
▁유지하기	-11.02
▁ge	-11.0203
▁재판이	-11.0205
▁소속의	-11.0205
▁국회에	-11.0206
▁통신사	-11.0208
클리	-11.0211
▁여사와	-11.0211
▁지역이	-11.0213
▁죽었다	-11.0214
▁생산하는	-11.0217
▁오리	-11.0228
▁재판에	-11.0229
▁독재	-11.0231
▁관광지	-11.0231
▁제공하고	-11.0236
선거	-11.0237
▁근무하	-11.0245
▁자금이	-11.0248
▁바닥	-11.0259
▁부르는	-11.0261
▁지원하기	-11.0262
워드	-11.0264
▁말에	-11.0265
▁논의했다	-11.0266
한국	-11.0269
▁물었다	-11.0278
▁공판	-11.0278
나갈	-11.0279
당했다	-11.0286
ance	-11.0288
▁높아	-11.0289
▁가족에게	-11.0293
▁추락했다	-11.0298
▁사람과	-11.0306
▁벌어졌	-11.0307
▁나타났	-11.031
▁사임했다	-11.0311
▁인접	-11.0314
▁요청할	-11.0315
▁의장이	-11.0319
▁파파라치	-11.0327
▁안된다	-11.0327
ext	-11.0329
널	-11.0332
▁앙	-11.0333
▁오클라호마	-11.034
렘	-11.0341
▁자행	-11.0341
▁득표	-11.0347
▁종합	-11.0347
딜	-11.0348
겔	-11.0348
눌	-11.0348
▁골든글로브	-11.0348
▁구호물품	-11.0348
▁뉴욕타임스	-11.0348
▁동유럽	-11.0348
▁야스쿠니	-11.0348
▁유니세프	-11.0348
▁일으켜	-11.0348
▁좋게	-11.0348
▁침팬지	-11.0348
▁티셔츠	-11.0348
▁포괄적	-11.0348
▁항생제	-11.0348
▁황우석	-11.0348
▁흰색	-11.0348
렁	-11.0348
캄	-11.0348
▁덕분에	-11.0348
▁유조선	-11.0348
▁다운로드	-11.0348
▁크로커	-11.0348
▁트로피	-11.0348
▁니케이	-11.0348
▁첩보	-11.0348
▁유적지	-11.0348
▁모로코	-11.0348
▁착취	-11.0348
▁혈액	-11.0348
▁press	-11.0349
▁바꿔	-11.0349
▁출범	-11.0349
▁양키스	-11.0349
▁요새	-11.0349
▁운반	-11.0349
▁kim	-11.0349
▁wto	-11.035
▁폭등	-11.035
▁대략	-11.0351
▁패리스	-11.0351
▁복권	-11.0351
▁근교	-11.0352
▁하얀	-11.0352
▁어두운	-11.0352
▁현지경찰	-11.0352
▁스텔	-11.0352
▁전체에	-11.0352
해준	-11.0352
▁풍선	-11.0352
받고	-11.0353
▁아이돌	-11.0355
▁거둔	-11.0356
▁볼튼	-11.0358
▁상반기	-11.0358
▁설문	-11.0359
▁엘바	-11.036
▁영원	-11.0361
▁지도자들과	-11.0362
▁소란	-11.0363
▁명칭	-11.0364
▁클라	-11.0364
▁차원	-11.0365
▁알려주	-11.0365
▁안전에	-11.0366
▁쏘	-11.0368
▁뒤집	-11.0368
▁고무	-11.0368
▁제프리	-11.037
후보	-11.037
▁부유	-11.037
▁모르겠다	-11.0372
▁타이어	-11.0372
▁조속	-11.0372
▁착용하	-11.0374
▁줄여	-11.0375
레나	-11.0375
▁묘지	-11.0376
▁입학	-11.0376
▁예상보다	-11.0378
▁마을에	-11.0384
▁분실	-11.0385
▁과시	-11.0385
▁전염	-11.0387
▁기권	-11.0389
▁주장했지만	-11.0391
▁채권	-11.0392
▁미시간	-11.0392
▁제방	-11.0393
▁중령	-11.0396
▁개최되	-11.0399
▁실어	-11.04
▁주류	-11.04
▁시위자	-11.0402
▁양성	-11.0403
▁투표할	-11.0408
▁트레	-11.0412
▁기리	-11.0414
▁과장	-11.0422
▁지낸	-11.0422
▁사용하기	-11.0434
생활	-11.0436
납	-11.0439
▁추구	-11.044
▁보도한	-11.0444
사령관	-11.0445
▁끄	-11.0446
▁보낸다	-11.0446
▁사랑하는	-11.0448
▁참가하	-11.0448
te	-11.0451
▁기술이	-11.0454
생산	-11.0456
조약	-11.0456
▁보내기	-11.0457
▁장악하	-11.0462
▁프레드	-11.0468
▁아시	-11.0474
▁지구에서	-11.0476
▁기자들이	-11.0477
▁장착	-11.0489
▁설치된	-11.0495
ting	-11.0501
▁제트	-11.0502
▁흥미	-11.0508
리어	-11.051
▁몽	-11.0514
우드	-11.0516
연대	-11.0521
▁증인	-11.0522
▁올리고	-11.0524
▁부문에서	-11.0536
베스	-11.0537
ml	-11.0537
▁친척	-11.0541
▁있거	-11.0546
받아	-11.0551
▁납	-11.0552
▁usa	-11.0562
리오	-11.0562
▁사용한다	-11.0564
▁신도	-11.057
▁나타난	-11.0571
차이	-11.0572
▁명에서	-11.0573
▁이해할	-11.0579
iz	-11.0588
▁가기	-11.0593
▁라인	-11.0604
▁클레	-11.0605
잡	-11.0612
▁전설	-11.0615
▁상의	-11.0615
▁환경에	-11.0616
fa	-11.0616
▁시까지	-11.0622
느냐	-11.0623
▁명시	-11.0624
▁수명	-11.0627
▁통일	-11.063
▁서울에	-11.063
▁사육	-11.0632
▁파이	-11.0641
▁표결	-11.0641
▁국무장관이	-11.0644
▁죽이	-11.0645
▁아바	-11.0646
▁지연되	-11.0647
ig	-11.0647
▁우주인	-11.0647
▁부장	-11.0655
왈	-11.0655
▁피닉스	-11.0655
▁부자	-11.0659
▁아랍에미리트	-11.066
밍	-11.066
▁afp	-11.066
▁london	-11.066
▁nfl	-11.066
▁wfp	-11.066
▁국회의사당	-11.066
▁로스앤젤레스	-11.066
▁베이루트	-11.066
▁불렀다	-11.066
▁스튜어트	-11.066
▁클루니	-11.066
▁평화협상	-11.066
▁되풀이	-11.066
▁마라도나	-11.066
▁제니퍼	-11.066
▁모바일	-11.066
▁흐름	-11.066
▁셰이크	-11.066
▁교과서	-11.066
▁린제이	-11.066
▁lpga	-11.0661
▁잔혹	-11.0661
▁취득	-11.0661
▁여자아이	-11.0661
▁진흙	-11.0661
▁페이스북	-11.0661
▁침범	-11.0661
▁칭찬	-11.0661
▁년전	-11.0661
▁정해지지	-11.0661
▁닉슨	-11.0662
▁학년	-11.0662
▁도와주	-11.0662
▁가속화	-11.0662
▁연극	-11.0662
▁호킹	-11.0662
▁전략적	-11.0663
▁워너	-11.0663
▁불평	-11.0663
▁같습니다	-11.0663
▁학위	-11.0663
▁스카이	-11.0664
▁모터	-11.0664
▁점프하	-11.0665
▁광부들	-11.0666
▁식물	-11.0666
▁추출	-11.0666
▁병역	-11.0666
▁물러	-11.0667
▁연임	-11.0668
former	-11.0668
▁극단주의자들	-11.0669
▁기습	-11.067
▁현행	-11.067
▁지방의	-11.0671
워진	-11.0671
▁뚫	-11.0671
▁유행	-11.0672
▁정교	-11.0673
said	-11.0673
▁전대통령	-11.0674
▁우방	-11.0674
▁세인트	-11.0675
▁보호하는	-11.0676
▁기술자	-11.0677
▁줄이고	-11.0679
nt	-11.0683
▁동전	-11.0685
▁참여하는	-11.0685
▁회부	-11.0686
▁격리	-11.0687
▁가축	-11.0687
▁인체	-11.0687
▁인계	-11.0689
▁정오	-11.0691
▁기후변화	-11.0692
▁당의	-11.0692
▁참여하지	-11.0693
▁비유	-11.0694
▁호화	-11.0697
▁감시단	-11.0698
▁이룩	-11.0698
▁우리베	-11.0698
▁그라운드	-11.0699
회견에서	-11.07
▁불화	-11.07
▁아이티	-11.0704
▁참석해	-11.0705
사이	-11.0705
▁나체	-11.0707
달라	-11.0708
▁성공회	-11.071
▁가자지구에	-11.071
▁시달리고	-11.0712
▁자신에	-11.0712
▁렌	-11.0713
▁반미	-11.0713
▁거주지	-11.0714
▁연방수사국	-11.072
▁머리에	-11.0725
▁실력	-11.0725
▁life	-11.0727
▁비교해	-11.0731
to	-11.0732
려진	-11.0732
▁자크	-11.0735
▁개조	-11.0739
▁무장대원들	-11.0746
▁사제	-11.0748
▁만여	-11.075
▁바다로	-11.075
▁지르	-11.0753
버릴	-11.0753
시켜야	-11.0754
▁파손되	-11.0756
투어	-11.0758
▁위협하	-11.076
▁이어질	-11.0761
▁위협했다	-11.0762
▁수용할	-11.0766
▁열정	-11.0768
시즌	-11.0771
개혁	-11.0772
▁생성	-11.0773
▁선정됐다	-11.0774
▁끝나는	-11.0775
▁단기	-11.0779
▁닐	-11.0783
▁서명했다	-11.0783
▁봉	-11.0787
통이	-11.0787
▁전범	-11.0788
▁정신과	-11.079
▁주교	-11.0794
▁때로	-11.0794
머리	-11.0795
▁인기가	-11.0798
요원	-11.0798
▁독자	-11.0801
▁해외에서	-11.0802
▁들어가는	-11.0802
버린	-11.0807
여부	-11.0809
▁뉴욕에	-11.0812
lee	-11.0815
min	-11.0818
▁청소년들	-11.0824
▁의원들에게	-11.0825
어져	-11.0827
▁노력에	-11.0841
▁man	-11.0847
레이크	-11.0848
▁아내와	-11.0862
▁오픈에서	-11.0866
▁적당	-11.0867
▁리버	-11.0868
▁염려	-11.0871
▁디스	-11.0874
▁당했	-11.0881
▁선언한	-11.0885
▁동영상에	-11.0885
▁어머니와	-11.0893
▁특이	-11.0894
▁힐튼이	-11.09
▁참가했다	-11.0902
▁학생들과	-11.0904
▁확보했다	-11.0905
▁일상적	-11.0907
▁당국과	-11.0908
▁유대	-11.0917
▁본국	-11.0919
ain	-11.0919
전쟁	-11.0921
해져	-11.0922
▁중단하고	-11.0924
▁지니	-11.0927
럼	-11.0928
▁이뤄	-11.0931
▁취급	-11.0936
▁단계에	-11.0939
▁참석하기	-11.0946
▁혼란에	-11.0948
바리	-11.0948
▁되었습니다	-11.0948
호프	-11.0955
▁정보국	-11.0957
▁남편과	-11.0958
▁모스	-11.0963
▁확고	-11.0971
퀴	-11.0971
▁지지도	-11.0972
▁루이지애나	-11.0972
꾼	-11.0975
▁승자	-11.0976
▁선거전	-11.0976
▁노스	-11.0976
▁살아가	-11.0977
▁thi	-11.0977
▁확실하지	-11.0981
▁느껴	-11.0983
팩	-11.0983
▁소방관	-11.0983
보고	-11.0983
▁재확인	-11.0983
▁url	-11.0983
▁광우병	-11.0983
▁뉴캐슬	-11.0983
▁당나귀	-11.0983
▁매머드	-11.0983
▁몸무게	-11.0983
▁무너져	-11.0983
▁이르렀다	-11.0983
▁집무실	-11.0983
▁카자흐스탄	-11.0983
잎	-11.0983
▁국가주석	-11.0983
▁맞붙	-11.0983
마누엘	-11.0983
▁김선일	-11.0983
▁대주교	-11.0983
▁무너진	-11.0983
▁중산층	-11.0983
▁글래스고	-11.0983
▁예언자	-11.0983
▁지중해	-11.0983
▁세비야	-11.0983
▁영부인	-11.0983
▁퇴치	-11.0983
▁당원	-11.0983
▁효력	-11.0983
▁수십억	-11.0983
▁쇼핑몰	-11.0983
▁연휴	-11.0984
▁아마존	-11.0984
▁벌어들	-11.0984
▁둘째	-11.0984
▁왕복선	-11.0984
▁농담	-11.0984
▁공군기지	-11.0984
▁높아졌다	-11.0984
▁레논	-11.0985
▁예배	-11.0985
▁허블	-11.0985
▁취약	-11.0985
▁유혈	-11.0985
▁몰래	-11.0985
논	-11.0985
▁할아버지	-11.0986
▁선데이	-11.0986
book	-11.0986
▁밤새	-11.0986
▁공백	-11.0987
▁may	-11.0987
▁피닉스호	-11.0989
▁제안한	-11.099
▁종양	-11.099
▁사법부	-11.0991
▁천문학자들	-11.0992
▁제패	-11.0992
▁폐기물	-11.0992
▁국민이	-11.0992
▁우연	-11.0993
▁감량	-11.0993
▁계열사	-11.0994
▁책정	-11.0994
▁기름	-11.0995
▁난동	-11.0995
▁코너	-11.0996
▁이례적	-11.0996
▁부른	-11.0998
▁감원	-11.0998
▁지속될	-11.0999
점에서	-11.1
▁정체	-11.1
▁버진	-11.1001
▁재발	-11.1002
▁off	-11.1003
▁강연	-11.1003
▁페르	-11.1004
▁성경	-11.1005
▁상위	-11.1006
▁패한	-11.1006
▁청소	-11.1008
▁fe	-11.1008
▁있었는지	-11.101
▁결의안에	-11.1011
르게	-11.1012
▁정상회의	-11.1012
▁inter	-11.1013
▁가결	-11.1015
▁공세	-11.1016
▁work	-11.1017
▁방치	-11.1018
▁전송	-11.1019
▁시경	-11.1019
ight	-11.1019
▁주장이	-11.1019
학회	-11.1022
▁넣어	-11.1022
▁비난한	-11.1023
▁공부	-11.1026
▁나란	-11.1026
▁ban	-11.1026
▁고수	-11.1027
▁air	-11.1031
▁한쪽	-11.1031
▁내정자	-11.1032
▁전례	-11.1033
▁부통령이	-11.1033
▁연이	-11.1035
▁채우	-11.1038
▁gu	-11.1039
▁라이프	-11.1041
son	-11.1042
▁지키기	-11.1042
▁원자력	-11.1043
▁광대	-11.1044
▁면적	-11.1046
▁제약	-11.1049
롤	-11.1049
▁주가가	-11.1052
▁돌리	-11.1055
▁시작되었다	-11.1057
▁현안	-11.1057
▁가정에	-11.1057
지구	-11.1059
▁기간에	-11.1062
▁낙	-11.1066
ni	-11.1072
▁리서치	-11.1073
▁발리	-11.1074
국들	-11.1076
▁고려해	-11.1078
▁비행기에	-11.1081
▁비가	-11.1081
▁가서	-11.1081
▁사업가	-11.1082
ine	-11.1083
▁하트	-11.1087
▁구상	-11.109
▁기소했다	-11.1091
▁조사하기	-11.1098
▁빙	-11.11
▁하도록	-11.1103
▁걸었다	-11.1106
▁he	-11.1112
회의에서	-11.1118
▁경영자	-11.1119
▁조사단	-11.112
ted	-11.1124
▁모스크바에서	-11.1125
▁문자	-11.1129
▁취임한	-11.1129
▁공격수	-11.1133
▁여자들	-11.1134
▁시점에서	-11.1135
▁증진	-11.1136
미국	-11.1156
▁연기했다	-11.1165
▁수비	-11.1166
▁총격으로	-11.1171
전선	-11.1172
▁출전한	-11.1172
▁총선에	-11.1182
레오	-11.1185
▁강사	-11.1193
▁you	-11.1197
봐야	-11.1199
데르	-11.1208
▁노동부	-11.121
▁포기했다	-11.1214
▁가져	-11.1216
ail	-11.1222
▁만료	-11.1224
▁새해	-11.1224
▁시작되는	-11.1227
▁탈출했다	-11.1228
▁모술	-11.1234
oo	-11.1236
▁금지하고	-11.1236
▁구하기	-11.1238
▁발의	-11.1239
▁협상단	-11.124
▁요구에	-11.124
첼	-11.1242
ian	-11.1248
▁안드레	-11.1249
▁의혹에	-11.1251
▁균	-11.1252
바로	-11.126
▁시스템이	-11.1262
▁미치	-11.1263
▁주인이	-11.1263
법안	-11.1264
▁산책	-11.1266
▁br	-11.1266
▁제공한다	-11.1271
▁판결했다	-11.1279
▁산악	-11.128
▁선고받	-11.1281
▁공학	-11.1281
bar	-11.1283
▁관리인	-11.1284
▁불가피	-11.1286
▁짜	-11.1287
▁측면	-11.129
▁펜실베니아	-11.1297
▁위스콘신	-11.1299
▁켄터키	-11.1301
▁플래	-11.1309
▁메릴랜드	-11.1311
▁오해	-11.1313
융	-11.1314
▁group	-11.1316
▁도널드	-11.1316
▁마흐무드	-11.1316
▁벤자민	-11.1316
▁상파울루	-11.1316
▁세계보건기구	-11.1316
▁우주정거장	-11.1316
▁잃지	-11.1316
▁커뮤니티	-11.1316
▁촛불	-11.1316
▁그루지아	-11.1316
▁부작용	-11.1316
▁안락사	-11.1316
▁피아노	-11.1316
▁닥터	-11.1316
▁자서전	-11.1316
▁불쾌	-11.1316
▁호르몬	-11.1316
▁퇴장	-11.1317
▁office	-11.1317
▁침투	-11.1317
▁타이완	-11.1317
▁지뢰	-11.1318
▁양육권	-11.1318
▁여배우	-11.1318
▁두뇌	-11.1318
▁녹색	-11.1318
▁조셉	-11.1318
▁인도에서	-11.1318
▁쿠르드족	-11.1319
▁홈런	-11.132
▁control	-11.132
▁연방법원	-11.132
▁승객들이	-11.132
▁해킹	-11.132
▁국가안보	-11.132
▁인디아나	-11.132
▁침수	-11.1321
▁재벌	-11.1321
▁아끼	-11.1321
▁토양	-11.1321
▁언제든	-11.1322
▁수비수	-11.1322
▁엄	-11.1323
▁유예	-11.1323
▁지닌	-11.1323
▁임박	-11.1323
▁측에서	-11.1324
▁정보기관	-11.1324
▁토론토	-11.1325
▁pi	-11.1326
▁자회담에	-11.1326
▁구단주	-11.1328
▁조종	-11.1328
▁경기도	-11.1329
▁후퇴	-11.1329
▁기초	-11.1329
▁나가는	-11.1329
▁약혼	-11.133
▁꺼	-11.133
▁교량	-11.1332
▁필리스	-11.1332
▁비준	-11.1333
▁문신	-11.1333
▁활기	-11.1334
▁닷	-11.1334
▁닭	-11.1335
▁군복	-11.1338
▁차림	-11.1338
▁일축했다	-11.1339
▁결장	-11.1339
▁구형	-11.1342
▁만명에	-11.1343
▁하버드	-11.1343
▁독일에서	-11.1344
▁지하드	-11.1345
▁요트	-11.1345
▁get	-11.1345
▁감면	-11.1348
▁군데	-11.1354
▁팜	-11.1357
▁국회의	-11.1358
▁비방	-11.1361
▁발부	-11.1361
종일	-11.1364
▁에디	-11.1364
▁확실하다	-11.1365
▁그럼	-11.1366
▁시설에	-11.1372
▁군부대	-11.1373
▁산소	-11.1374
ster	-11.1375
▁시장과	-11.138
▁모욕	-11.1386
▁비평	-11.1392
▁런던에	-11.1393
▁듀	-11.1393
▁착	-11.1393
▁자선	-11.1399
▁숨기	-11.1406
▁만나기	-11.1407
개의	-11.1413
▁거론	-11.1414
▁사회주의	-11.1417
▁카라	-11.1417
▁범죄에	-11.142
▁알았다	-11.1421
▁엠	-11.1425
▁끈	-11.1425
▁도시로	-11.1427
▁들리	-11.1428
▁이베이	-11.1429
▁경찰서에	-11.143
답	-11.1433
▁부장관	-11.1434
▁벌어지고	-11.1434
웬	-11.1438
▁기반으로	-11.1439
쓰	-11.144
▁아이들과	-11.144
ction	-11.1441
솔	-11.1442
안전	-11.1442
▁언	-11.1447
▁추진하고	-11.1447
힘	-11.1447
지오	-11.1451
▁제공해	-11.1452
▁밝혀내	-11.1452
▁우드	-11.1455
▁과학적	-11.1459
▁판사들	-11.1467
▁미소	-11.1472
▁장려	-11.1474
▁포함된다	-11.1479
▁물리치	-11.1485
▁시작해	-11.1487
▁표현했다	-11.1488
▁관계자들과	-11.149
▁강진	-11.1492
▁부상당	-11.1504
두고	-11.1504
▁향했다	-11.151
▁관중	-11.1513
율이	-11.1516
▁신문에	-11.1519
▁중에서	-11.1523
ai	-11.1542
▁북부지역	-11.1546
체제	-11.1548
▁감옥	-11.1554
하르	-11.1555
▁기다려	-11.1558
ee	-11.1559
구역	-11.1561
▁내년에	-11.1561
▁취소됐다	-11.1562
▁사이트에	-11.1563
▁상원의원에	-11.1568
▁벽에	-11.1574
▁소식통들	-11.1589
직원	-11.159
▁아이들에게	-11.16
▁내장	-11.1602
ls	-11.1602
▁문제점	-11.1603
일정	-11.162
렌스	-11.1621
▁보호할	-11.1625
▁풍경	-11.163
스틴	-11.1635
▁유입	-11.1635
▁지냈	-11.1635
기위해	-11.1638
▁동일	-11.1639
▁배급	-11.1643
▁콩	-11.1643
▁그때	-11.1648
▁국정원	-11.165
▁인자	-11.1652
효	-11.1653
▁매사추세츠	-11.1654
▁반대한다	-11.1657
튜	-11.1659
즘	-11.166
▁모니터	-11.166
▁치솟	-11.166
▁death	-11.1661
▁police	-11.1661
▁service	-11.1661
▁냄새	-11.1661
▁매코맥	-11.1661
▁맥코맥	-11.1661
▁메사추세츠	-11.1661
▁몸집	-11.1661
▁미드필더	-11.1661
▁박테리아	-11.1661
▁뱅크	-11.1661
▁블룸버그	-11.1661
▁슈워제네거	-11.1661
▁스피처	-11.1661
▁악영향	-11.1661
▁알자와히리	-11.1661
▁암스트롱	-11.1661
▁오징어	-11.1661
▁오키나와	-11.1661
▁이스탄불	-11.1661
▁친선경기	-11.1661
▁캠벨	-11.1661
▁케르비엘	-11.1661
▁프로듀서	-11.1661
▁그루지야	-11.1661
▁수하르토	-11.1661
▁재정경제부	-11.1661
▁동계올림픽	-11.1661
▁바쿠바	-11.1661
▁흥행	-11.1661
▁research	-11.1661
▁아스널	-11.1661
▁도덕적	-11.1661
▁방사능	-11.1661
▁중서부	-11.1661
▁침착	-11.1661
▁무하메드	-11.1661
▁속옷	-11.1661
▁계곡	-11.1662
▁종신형	-11.1662
▁탔다	-11.1662
▁생겨	-11.1663
▁면밀	-11.1663
▁태양열	-11.1663
▁대피령	-11.1663
▁블록	-11.1663
▁환경보호	-11.1663
▁아닐	-11.1663
▁홈페이지에	-11.1663
▁아담	-11.1663
▁요격	-11.1664
▁났다	-11.1664
▁맹세	-11.1664
▁화석	-11.1665
▁불안감	-11.1665
▁적대적	-11.1665
▁품질	-11.1666
▁총알	-11.1667
▁국왕이	-11.1667
▁피셔	-11.1667
▁소령	-11.1667
▁외교관계	-11.1668
▁존드로	-11.1668
▁교토	-11.1668
▁성행위	-11.1669
▁검토하	-11.1669
▁수백만명	-11.167
▁항복	-11.167
▁곡물	-11.167
▁지침	-11.167
▁여년	-11.167
▁대학살	-11.1671
▁참전	-11.1672
▁도망	-11.1672
▁원격	-11.1672
▁배제하지	-11.1673
▁용서	-11.1674
▁가르치	-11.1674
▁같았다	-11.1675
▁정통	-11.1676
▁얼리	-11.1677
▁제트기	-11.1679
▁도시에	-11.168
몬드	-11.1682
▁지표	-11.1682
▁사원에서	-11.1683
▁산악지역	-11.1683
▁아카데미상	-11.1684
▁시범	-11.1685
▁후보들이	-11.1687
▁필립스	-11.1688
▁만찬	-11.1691
▁댄	-11.1693
▁인정한	-11.1694
▁남았다	-11.1694
▁크리스티나	-11.1696
▁구제안	-11.1696
▁진행됐다	-11.1696
▁ka	-11.1698
▁혼다	-11.1698
▁리타	-11.17
▁붐	-11.1703
▁운하	-11.1704
▁빵	-11.1704
▁지문	-11.1706
공항	-11.1708
▁미술	-11.1709
▁곤	-11.171
▁back	-11.1711
▁정책이	-11.1712
bi	-11.1713
▁안되	-11.1715
▁단서	-11.1716
▁생겼다	-11.172
▁가난	-11.172
▁솔	-11.1721
▁지속된	-11.1725
께	-11.1727
▁상아	-11.1729
▁장악한	-11.1729
▁시위대와	-11.1733
▁캐리	-11.1736
죄로	-11.1737
▁일방적	-11.1737
▁성전	-11.1738
▁확인해	-11.1738
▁z	-11.1742
▁팬들에게	-11.1744
조정	-11.1746
▁부진	-11.1746
▁결의	-11.1747
▁윤리	-11.1747
▁포기하지	-11.1749
▁확인하는	-11.1755
리언	-11.1757
▁칼로	-11.1758
았던	-11.1759
아누	-11.1764
▁춤	-11.1765
▁집안	-11.1767
▁감옥에	-11.1771
▁일째	-11.1775
▁우리들	-11.1775
야만	-11.1776
▁강조하고	-11.1778
▁염	-11.1779
을때	-11.1785
▁아프가니스탄에	-11.1791
▁급진	-11.1793
▁기한	-11.1794
▁미친	-11.1799
▁말했지만	-11.1799
▁환영했다	-11.1802
비오	-11.1802
▁통로	-11.1803
▁반군과	-11.1806
테러	-11.1807
▁모의	-11.1807
▁du	-11.1811
▁임명된	-11.1818
밀리에	-11.1822
▁말로	-11.1827
▁돌보	-11.1832
▁그레	-11.1832
va	-11.1839
▁금지하는	-11.1842
aw	-11.1844
▁걸려있	-11.185
중이다	-11.1856
▁임원	-11.1863
ny	-11.1863
해진다	-11.1865
▁헤이	-11.1869
▁이브	-11.187
▁조치에	-11.1878
▁공원에서	-11.188
▁반대했다	-11.1881
▁중국인	-11.1883
▁후보에게	-11.1885
▁실직	-11.1887
▁목격한	-11.1893
▁car	-11.1894
▁드는	-11.1897
▁미군측	-11.19
아나	-11.191
▁듯한	-11.1915
▁장소로	-11.1916
▁광장에	-11.1923
tic	-11.1928
▁고고학자들	-11.1931
파르	-11.1933
ze	-11.1935
오르	-11.1935
▁제작자들	-11.1935
▁부근에	-11.1937
▁로라	-11.194
▁주거	-11.1955
▁쌍	-11.1956
▁기숙사	-11.1957
▁납치범들	-11.1957
▁같	-11.1958
▁일으켰	-11.196
다소	-11.1966
▁저가	-11.1967
▁폰	-11.1968
▁움직임에	-11.1973
▁경제와	-11.1973
▁나라들	-11.1978
▁면에서	-11.1982
▁박탈	-11.1985
▁건물에서	-11.199
건물	-11.1992
▁법정에	-11.1994
▁손님	-11.1998
▁제품에	-11.2001
▁중국인들	-11.2002
▁스탠	-11.2006
▁leader	-11.2007
흉	-11.2008
단이	-11.2009
부문	-11.201
픈	-11.2012
▁사무실에서	-11.2012
▁연령	-11.2016
▁천억	-11.2017
틱	-11.2018
▁캐롤	-11.2018
▁bmw	-11.2018
▁market	-11.2018
▁구스마오	-11.2018
▁놀랐다	-11.2018
▁뉴멕시코	-11.2018
▁만장일치	-11.2018
▁모하마드	-11.2018
▁브리티시	-11.2018
▁사형집행	-11.2018
▁승용차	-11.2018
▁실업수당	-11.2018
▁애틀란타	-11.2018
▁자메이카	-11.2018
▁캠퍼스	-11.2018
▁캥거루	-11.2018
▁크누트	-11.2018
▁클리블랜드	-11.2018
▁탈라바니	-11.2018
▁펼칠	-11.2018
▁피추시킨	-11.2018
▁united	-11.2018
▁김계관	-11.2018
▁세실리아	-11.2018
▁깃발	-11.2018
▁비영리	-11.2018
▁냉동	-11.2018
▁economic	-11.2018
▁빈민가	-11.2018
▁퍼트레이어스	-11.2018
▁뜨거	-11.2018
▁벨몬트	-11.2018
▁월드시리즈	-11.2018
▁issue	-11.2018
▁제라드	-11.2018
▁러셀	-11.2019
▁미망인	-11.2019
▁공략	-11.2019
▁노왁	-11.2019
▁염두	-11.2019
▁구조조정	-11.202
▁전염병	-11.202
▁메뉴	-11.202
▁face	-11.202
▁펠리	-11.202
▁무엇인지	-11.202
▁유효	-11.202
▁검찰총장	-11.202
▁격추	-11.202
▁평범	-11.202
▁완공	-11.2021
▁보석금	-11.2021
▁간섭	-11.2021
▁사마라	-11.2021
▁외교정책	-11.2021
▁천억원	-11.2021
▁감추	-11.2021
▁밀림	-11.2022
▁악재	-11.2022
▁멈	-11.2022
▁want	-11.2022
▁보상금	-11.2022
▁페리노	-11.2022
▁방북	-11.2022
▁eta	-11.2022
▁건립	-11.2022
▁국영방송	-11.2022
▁교황청	-11.2023
▁제이미	-11.2023
▁탄약	-11.2023
▁다짐	-11.2023
▁행방	-11.2024
▁chin	-11.2024
▁머피	-11.2024
▁십대	-11.2024
▁주치의	-11.2025
▁지질	-11.2025
▁북동쪽	-11.2025
▁발목	-11.2026
▁야심	-11.2026
roll	-11.2026
▁타입	-11.2027
▁안겨	-11.2027
▁구타	-11.2028
▁세균	-11.2029
▁피플	-11.2029
▁월마트	-11.203
▁왔습니다	-11.203
▁폭풍우	-11.2031
▁악성	-11.2031
▁최상	-11.2031
▁편집자	-11.2031
▁북서쪽	-11.2031
놨다	-11.2032
문화	-11.2032
▁중단하라	-11.2033
▁순찰대	-11.2035
▁대피소	-11.2036
▁was	-11.2037
▁종파	-11.2038
▁유포	-11.204
▁중장	-11.2041
▁교회에서	-11.2042
▁안건	-11.2043
▁것이냐	-11.2043
▁번영	-11.2044
▁터미널	-11.2046
▁안심	-11.2047
▁만든다	-11.2049
▁대도시	-11.2051
▁상원의원직	-11.2052
▁공개되지	-11.2054
▁기내	-11.2064
레즈	-11.2065
▁달아	-11.2066
▁유아	-11.2067
▁관료	-11.2069
▁자리잡고	-11.207
▁속한	-11.2072
▁범죄자들	-11.2074
▁맹	-11.2075
▁갖는다	-11.2077
rs	-11.208
▁메달	-11.2083
▁브라	-11.2085
시기	-11.2086
▁아버지와	-11.2087
국민	-11.2087
▁신고했다	-11.2088
▁당장	-11.2088
▁만들었	-11.2088
디어	-11.2089
▁큐	-11.2089
▁바퀴	-11.2094
▁연관된	-11.2097
ng	-11.2099
▁흐르	-11.2102
세스	-11.2104
▁양상	-11.2107
▁환영한다	-11.211
프리	-11.2111
▁전반적으로	-11.2111
티아	-11.2112
우주	-11.212
▁치고	-11.2125
▁카페인	-11.2128
▁제인	-11.213
▁지도자로	-11.213
ell	-11.2134
▁전달한	-11.2134
▁칩	-11.2135
▁매트	-11.2135
▁비극적	-11.2138
▁포착	-11.2139
▁감독상	-11.214
▁보여주기	-11.2146
▁하나이다	-11.2148
▁소유자	-11.2149
▁든다	-11.2149
▁둔화	-11.2149
▁전당	-11.2152
▁발견되	-11.2154
자들과	-11.2155
▁그쳤다	-11.2165
▁막고	-11.2166
섭	-11.2167
▁민주당과	-11.2168
▁지났	-11.2168
멘	-11.2169
▁살해하겠다	-11.217
셰	-11.217
핀	-11.2171
펜	-11.2172
▁거치	-11.2173
▁반도	-11.2177
리노	-11.2178
▁묘	-11.2181
▁방한	-11.2181
▁일정이	-11.2182
주택	-11.2186
▁피해지역	-11.2186
▁떨어지는	-11.2188
▁릭	-11.2191
스럽	-11.2191
▁불안한	-11.2194
▁가려	-11.2196
▁블로그	-11.2205
▁배로	-11.2206
▁들어있는	-11.2208
▁페이스	-11.2209
▁얼음이	-11.2211
▁모르고	-11.2213
▁제조사	-11.2216
▁기자들과	-11.2216
시키지	-11.2218
▁개최지	-11.2222
▁인정하	-11.2222
▁물리	-11.2224
▁무장괴한	-11.2224
병력	-11.2231
▁핀	-11.2232
엑	-11.2234
▁주지사와	-11.2234
▁국민에게	-11.2236
져야	-11.2239
▁시판	-11.2241
▁세라	-11.2253
▁흔적	-11.2256
▁fire	-11.2256
▁시리아와	-11.2259
▁전설적	-11.2269
▁목소리로	-11.2271
▁시작되	-11.2273
▁떼	-11.2274
▁미국에서는	-11.2275
▁대변	-11.2275
▁기어	-11.2276
▁철수시키	-11.2277
▁다음과	-11.2279
▁미트	-11.228
▁갑작스	-11.2282
▁링	-11.2283
▁si	-11.2296
프레	-11.2304
▁이라크전에	-11.2306
▁내로	-11.2306
득	-11.2309
▁란	-11.231
▁진행할	-11.231
▁시도한	-11.2324
▁열려	-11.2326
▁줄기	-11.2336
▁영국으로	-11.2338
▁부탁	-11.2339
▁오지	-11.2349
▁고속	-11.235
▁했을	-11.2354
▁덕	-11.2354
▁어려워	-11.2356
▁최대한	-11.2357
▁국가들과	-11.2363
▁암호	-11.2374
줘	-11.2376
▁당연	-11.2379
ber	-11.2379
▁케이	-11.2381
▁델타	-11.2382
직에서	-11.2382
▁미화	-11.2383
▁덧붙	-11.2383
▁콜린	-11.2383
삭	-11.2388
▁내셔널	-11.2388
▁머무	-11.2388
▁화염	-11.2389
믹	-11.2389
▁consumer	-11.2389
▁general	-11.2389
▁peace	-11.2389
▁넘어섰다	-11.2389
▁댈러스	-11.2389
▁따돌리	-11.2389
▁무책임	-11.2389
▁브로드웨이	-11.2389
▁색깔	-11.2389
▁에탄올	-11.2389
▁여동생	-11.2389
▁올바른	-11.2389
▁웨스트버지니아	-11.2389
▁저작권	-11.2389
▁초등학교	-11.2389
▁호흡기	-11.2389
▁흡수	-11.2389
▁최우수	-11.2389
▁financ	-11.2389
▁하반기	-11.2389
▁change	-11.2389
▁이벤트	-11.2389
▁chief	-11.2389
▁도메인	-11.2389
▁셔츠	-11.2389
▁call	-11.2389
▁하리리	-11.2389
▁습관	-11.2389
▁다뤄	-11.2389
▁앙겔	-11.2389
▁수하물	-11.2389
트로터	-11.2389
▁겁니다	-11.2389
▁투데이	-11.2389
▁make	-11.2389
▁개헌	-11.2389
▁비평가들	-11.2389
▁빨간색	-11.2389
▁압승	-11.2389
▁어휘	-11.239
▁유혹	-11.239
▁홀랜드	-11.239
▁이루어	-11.239
▁후계자	-11.239
▁디스커버리호	-11.239
▁열쇠	-11.239
▁결백	-11.239
▁평결	-11.2391
▁부회장	-11.2391
▁에이미	-11.2391
▁코스피	-11.2391
▁삼림	-11.2391
▁영입	-11.2392
▁arm	-11.2392
▁자치구	-11.2392
▁글렌	-11.2392
▁이른바	-11.2392
▁초대형	-11.2392
▁제재조치	-11.2393
▁전미	-11.2393
▁스위	-11.2394
▁벌금형	-11.2395
▁영역	-11.2395
▁허위	-11.2395
▁데니스	-11.2396
▁독점	-11.2398
▁도쿄에서	-11.2401
▁공통	-11.2401
▁담겨있다	-11.2402
▁외출	-11.2402
▁경위	-11.2402
▁자매	-11.2404
▁소감	-11.2405
▁agenc	-11.2407
▁자회담에서	-11.2408
▁올리는	-11.2408
▁공방	-11.2409
▁퇴직	-11.241
▁늘어났다	-11.241
▁실내	-11.241
▁악화될	-11.241
▁오락	-11.241
▁시술	-11.2411
▁리더	-11.2412
▁걸프	-11.2412
▁올릴	-11.2413
▁우파	-11.2414
▁노동력	-11.2415
▁국정	-11.2415
▁자회사	-11.2416
▁대담	-11.2417
▁동성	-11.2419
▁분출	-11.2421
▁투표권	-11.2422
▁불가피하다	-11.2423
▁도왔다	-11.2423
▁자유당	-11.2423
▁놓았다	-11.2424
▁상정	-11.2424
세요	-11.2425
티스	-11.2426
▁초래할	-11.2427
▁후보작	-11.2429
▁입장권	-11.243
트릭	-11.243
▁장착된	-11.2433
▁딜러	-11.244
▁정한	-11.2441
▁박수	-11.2442
▁사이즈	-11.2443
▁조카	-11.2444
▁백악관에	-11.2445
▁사업에	-11.2448
▁보았다	-11.2449
▁정비	-11.2451
▁iss	-11.2451
▁에스	-11.2452
▁방사	-11.2453
▁후임자	-11.2453
▁위법	-11.2453
▁상태였다	-11.2455
▁여개	-11.2456
공장	-11.2466
▁수잔	-11.2469
▁납치됐다	-11.247
▁지미	-11.2471
▁경찰들	-11.2478
▁운동가	-11.2479
▁따뜻하	-11.2484
▁관해서	-11.2485
▁암살된	-11.2486
▁입원한	-11.2489
▁위기로	-11.2491
▁지목했다	-11.2491
▁폐쇄했다	-11.2492
▁고백	-11.2493
ms	-11.2494
▁확인한	-11.2495
시키는데	-11.2498
이라도	-11.2508
▁부인과	-11.2509
▁용인	-11.2512
▁그날	-11.2513
▁될지	-11.2513
▁발생했던	-11.2515
관계자	-11.2519
▁마련했다	-11.2522
▁수성	-11.2524
방법	-11.2531
into	-11.2534
▁중유	-11.2537
▁정당이	-11.2539
▁내리기	-11.2541
접	-11.2545
▁무엇이	-11.2549
▁여진이	-11.2549
굴	-11.2553
억	-11.2554
▁맡아	-11.2554
탑	-11.2556
▁pf	-11.2556
묘	-11.2556
빛	-11.2557
▁ta	-11.256
▁여러분들	-11.2561
▁수행하	-11.2562
환경	-11.2562
ba	-11.2564
하우스	-11.2565
▁잃어버	-11.2565
▁웹사이트에서	-11.2567
푸르	-11.2568
▁톱	-11.2568
대책	-11.257
▁인적	-11.2572
▁star	-11.2573
▁펼치고	-11.2573
pp	-11.2577
way	-11.2578
▁이탈	-11.2578
▁알리기	-11.2584
▁우주에서	-11.2589
▁피신	-11.2589
▁복합	-11.2591
연구원	-11.2597
▁내주	-11.2605
▁봐	-11.2619
▁개발도상국	-11.2619
▁임신한	-11.2623
▁업	-11.2629
▁괜찮	-11.263
▁공격할	-11.2633
▁일년	-11.2638
▁주민이	-11.2638
▁sa	-11.2642
▁북한에서	-11.2642
▁각료	-11.2645
▁예상되는	-11.266
수단	-11.266
과정에서	-11.2662
▁시도했다	-11.2665
▁끝내	-11.2667
▁선보	-11.2668
▁다음으로	-11.2684
▁관심사	-11.2684
▁악의	-11.2689
▁게이	-11.269
▁공개할	-11.2691
▁측에	-11.2691
▁녹아	-11.2699
▁고려할	-11.2704
▁루스	-11.2708
▁per	-11.271
▁조달	-11.2714
▁상업적	-11.2716
▁마련하기	-11.2722
▁직면한	-11.2728
▁장관들	-11.2729
▁없기	-11.2731
▁납치했다	-11.2733
라니	-11.2735
▁참가자	-11.2736
▁펼쳤	-11.274
▁하는데	-11.2741
▁올렸	-11.2741
쉽	-11.2744
시스	-11.2745
대사관	-11.2746
▁빚어	-11.2758
▁후보자들	-11.276
▁국세청	-11.2762
▁사진에	-11.2762
▁데뷔	-11.2762
▁정찰	-11.2763
▁영구	-11.2768
쁜	-11.2769
낭	-11.2771
렬	-11.2771
쇠	-11.2772
▁끌려	-11.2773
덩	-11.2773
▁pakistan	-11.2773
▁ufo	-11.2773
▁과테말라	-11.2773
▁국가보안법	-11.2773
▁높였다	-11.2773
▁닌텐도	-11.2773
▁두개골	-11.2773
▁리얼리티	-11.2773
▁마호메트	-11.2773
▁베테랑	-11.2773
▁보건복지부	-11.2773
▁엔터테인먼트	-11.2773
▁정동영	-11.2773
▁조선중앙통신	-11.2773
▁조코비치	-11.2773
▁집행유예	-11.2773
▁추수감사절	-11.2773
▁토마토	-11.2773
▁퍼레이드	-11.2773
겹	-11.2773
▁bbk	-11.2773
▁health	-11.2773
▁당분간	-11.2773
▁싱가폴	-11.2773
▁열렬한	-11.2773
▁의구심	-11.2773
▁제네바	-11.2773
무장혁명군	-11.2773
▁콜레라	-11.2773
▁뉴욕증시	-11.2773
▁좌익	-11.2773
▁태어나	-11.2773
▁수족관	-11.2773
▁white	-11.2773
▁유태인	-11.2773
▁터뜨	-11.2773
▁링컨	-11.2773
▁원내대표	-11.2773
▁가볍	-11.2773
▁규명	-11.2773
▁의료보험	-11.2774
▁꾸준	-11.2774
▁대지진	-11.2774
▁신용위기	-11.2774
▁결렬	-11.2774
▁힌두교	-11.2774
▁혼합	-11.2774
▁검출	-11.2774
▁삼엄	-11.2774
▁참패	-11.2774
▁티켓	-11.2775
▁free	-11.2775
▁코미디언	-11.2775
▁과잉	-11.2775
▁부부의	-11.2775
▁비공개	-11.2775
▁워커	-11.2775
▁연합뉴스	-11.2775
▁배럭	-11.2775
▁설교	-11.2776
▁소방관들	-11.2776
▁호주오픈	-11.2776
▁필수	-11.2776
▁영예	-11.2776
▁노리에가	-11.2777
▁세번째	-11.2777
▁신념	-11.2777
▁검진	-11.2777
▁사찰	-11.2777
▁격분	-11.2777
▁광경	-11.2777
▁이정인	-11.2777
▁응원	-11.2778
▁깜	-11.2778
▁관행	-11.2778
▁태양계	-11.2778
▁포스터	-11.2779
▁권유	-11.278
▁계단	-11.278
▁극심	-11.278
▁더이상	-11.278
▁매춘부	-11.2781
▁지폐	-11.2781
▁저격	-11.2781
▁보수파	-11.2781
▁히트	-11.2784
▁레저	-11.2785
▁재생	-11.2785
▁발작	-11.2786
▁섞	-11.2786
▁여성에게	-11.2786
▁남겼다	-11.2787
▁suv	-11.2788
▁단호	-11.2788
▁시사회	-11.2789
▁비자금	-11.2789
▁연예	-11.279
▁돌아갔다	-11.2791
▁보류	-11.2792
▁풍자	-11.2792
▁맡게	-11.2792
▁기념일	-11.2793
▁사우스	-11.2793
▁dc	-11.2793
▁zan	-11.2795
▁밀수	-11.2797
▁빨간	-11.2797
▁거래가	-11.2799
▁장난	-11.2799
▁국면	-11.2802
▁야간	-11.2803
▁발견돼	-11.2803
위기	-11.2803
▁인플루엔자	-11.2804
▁정상적으로	-11.2805
▁방문이	-11.2805
▁현직	-11.281
▁호우	-11.281
▁통신과	-11.2811
▁애쓰고	-11.2811
▁단백질	-11.2812
▁석상	-11.2814
▁나라에서	-11.282
▁제프	-11.282
▁체인	-11.282
▁성사	-11.2821
졌습니다	-11.2823
▁작곡가	-11.2823
▁이끌었다	-11.2824
▁서있	-11.2828
▁하마스와	-11.2829
▁취해야	-11.2838
▁결승에서	-11.2839
▁년째	-11.2841
▁범죄자	-11.2845
▁심정	-11.2845
ii	-11.2846
▁잡혀있	-11.2847
▁비율이	-11.2847
▁미사	-11.2853
피크	-11.2854
▁찬사	-11.2857
▁계층	-11.2858
▁붙이	-11.286
▁논의하고	-11.2861
▁지명자	-11.2861
do	-11.2862
▁흔들리	-11.2865
▁시민단체	-11.2869
ner	-11.2872
▁판매되	-11.2883
▁부수	-11.2889
▁통상	-11.2896
▁와서	-11.2896
▁페이	-11.2896
▁오고	-11.2897
▁헤르	-11.2898
▁하원에서	-11.2902
▁리사	-11.2902
▁길에	-11.2904
▁팔려	-11.2905
▁친구들과	-11.2908
▁코커스에서	-11.2908
▁진행하는	-11.2912
▁나르	-11.2913
▁분기에	-11.2915
▁베를린에서	-11.2917
▁잡기	-11.2919
▁돌입했다	-11.2922
▁감자	-11.2925
▁보아	-11.293
▁배정	-11.2936
▁람	-11.2936
▁식으로	-11.2937
▁문화적	-11.2937
▁제기한	-11.2941
▁홀에서	-11.2942
응	-11.2942
전문	-11.2942
▁첸	-11.2943
▁가격에	-11.2945
▁수의사	-11.2945
▁결승전에	-11.2947
교회	-11.2949
▁살아있는	-11.295
▁나갔다	-11.2951
▁사무소	-11.2952
휴	-11.2953
몽	-11.2954
▁결정된	-11.2954
컨	-11.2955
▁수반과	-11.2955
오픈	-11.2959
돈	-11.2959
떨어진	-11.296
▁강화했다	-11.2964
▁해변에서	-11.2966
▁가두	-11.2967
▁조사했다	-11.2973
▁재판소	-11.2976
▁앤더슨	-11.2983
▁개국이	-11.2987
▁hd	-11.2987
▁미수	-11.299
첨	-11.299
▁러시아에서	-11.2992
▁기관들	-11.2994
▁유지하는	-11.2995
▁파고	-11.2997
▁정치범	-11.2997
▁가할	-11.3
▁여행사	-11.3
▁달에	-11.3
하일	-11.3002
수준	-11.3006
주재	-11.3011
▁에바	-11.3029
▁의견에	-11.3029
▁폭발했다	-11.303
▁비리	-11.3035
▁동원해	-11.3039
▁참모	-11.304
▁공격하는	-11.3041
▁맞이하	-11.305
▁가담	-11.3052
▁사태로	-11.3059
수사	-11.306
데일	-11.3063
▁계획한	-11.3063
▁갇혀	-11.3065
▁헌신	-11.3068
▁파르	-11.3071
▁요한	-11.3073
▁대원	-11.3075
발전	-11.3075
▁시작하는	-11.3077
▁빼	-11.3078
▁초과	-11.3084
▁기념하기	-11.3085
▁윤리적	-11.3092
▁공장에서	-11.3095
▁개막식	-11.3097
▁방문객	-11.3101
▁양곤	-11.3105
북한	-11.3105
모어	-11.3105
▁주문했다	-11.3106
▁재미	-11.3107
▁대리	-11.3109
▁위반한	-11.3115
▁방문했	-11.313
줘야	-11.3136
▁구조대원	-11.3139
▁시작하기	-11.3141
▁바탕	-11.3143
텍	-11.3145
▁무기한	-11.3152
▁버렸다	-11.3155
▁국무	-11.3155
티드	-11.3156
▁america	-11.3159
▁도움으로	-11.3159
▁q	-11.316
롬	-11.3163
▁year	-11.3164
▁어디에	-11.3165
▁중동평화	-11.3168
▁홈페이지	-11.3171
디오	-11.3171
돋	-11.3173
▁baghdad	-11.3173
▁wild	-11.3173
▁곤돌라	-11.3173
▁농작물	-11.3173
▁동남아시아	-11.3173
▁라왈핀디	-11.3173
▁로맨틱	-11.3173
▁루마니아	-11.3173
▁마닐라	-11.3173
▁무혐의	-11.3173
▁아웅산수지	-11.3173
▁얀코비치	-11.3173
▁엔데버호	-11.3173
▁이데올로기	-11.3173
▁짝짓기	-11.3173
▁카라카스	-11.3173
▁카톨릭	-11.3173
▁타블로이드	-11.3173
▁페널티킥	-11.3173
▁폴라로이드	-11.3173
▁횟수	-11.3173
룽	-11.3173
▁report	-11.3173
▁갤럭시	-11.3173
▁내비쳤다	-11.3173
▁대중교통	-11.3173
▁맞지	-11.3173
▁백화점	-11.3173
▁유망주	-11.3173
▁페르난도	-11.3173
▁로페즈	-11.3173
▁카리스마	-11.3173
▁ftse	-11.3173
▁뮤직	-11.3173
▁자이툰	-11.3173
▁테이블	-11.3173
▁살모넬라균	-11.3173
▁보스니아	-11.3173
▁소아과	-11.3173
▁평론가들	-11.3173
▁동점골	-11.3174
▁소수민족	-11.3174
▁대통합민주신당	-11.3174
▁결승골	-11.3174
▁brit	-11.3174
▁밀접	-11.3174
▁범람	-11.3174
▁가자시티	-11.3174
▁나중에	-11.3174
▁부정선거	-11.3174
▁패널	-11.3174
▁관광산업	-11.3175
▁울머	-11.3175
▁난폭	-11.3177
▁평생	-11.3177
▁오스틴	-11.3177
▁기둥	-11.3178
▁표적이	-11.3178
▁결별	-11.3179
▁종말	-11.3179
▁쇼에	-11.318
▁온천	-11.318
▁경제성장률	-11.318
▁지칭	-11.318
▁선택한	-11.318
▁심장병	-11.3181
▁연구조사	-11.3181
▁매사추세츠주	-11.3181
▁도착했을	-11.3181
▁면허	-11.3181
▁주사	-11.3182
▁바이오	-11.3182
▁억압	-11.3182
▁동행	-11.3182
▁페퍼	-11.3182
▁숨지게	-11.3183
▁감동	-11.3183
▁외각	-11.3184
▁면제	-11.3184
▁바스크	-11.3184
▁세레나	-11.3184
▁과실	-11.3184
▁책임감	-11.3185
▁관세	-11.3187
▁천연	-11.3188
▁사절	-11.3189
▁무너졌다	-11.3189
▁감안	-11.319
▁낙관적	-11.3191
▁버크	-11.3192
었으	-11.3192
▁삼았다	-11.3192
준다	-11.3193
▁줄어	-11.3193
▁조업	-11.3196
ure	-11.3196
▁연예인	-11.3196
net	-11.3201
느라	-11.3203
▁대승	-11.3204
▁국민당	-11.3205
▁여정	-11.3206
▁반란	-11.3207
▁이끈	-11.3207
▁많았다	-11.3209
▁행운	-11.3212
▁프린스	-11.3214
▁투수	-11.3214
▁어선	-11.3216
▁파악하	-11.3217
▁that	-11.3219
▁질서	-11.322
▁누드	-11.3221
▁양당	-11.3223
▁넘어서	-11.3224
▁good	-11.3235
▁후임으로	-11.3246
▁움직	-11.3247
전문가	-11.3248
▁덩어리	-11.325
ious	-11.3251
▁빗	-11.3251
▁하는지	-11.3251
베키	-11.3251
▁뒤에서	-11.3252
▁번식	-11.3253
▁이룬	-11.3257
▁샘	-11.3257
▁전선	-11.326
▁의뢰인	-11.3261
▁정치에	-11.3263
▁대처하기	-11.3264
▁모닝	-11.3264
▁까	-11.3266
▁살해됐다	-11.3269
▁걸스	-11.3276
▁신비	-11.3277
▁감기	-11.3279
▁하락했	-11.3283
▁유명인사	-11.3285
▁불과했다	-11.3286
▁방콕에서	-11.3286
▁포기할	-11.3286
▁주자	-11.329
▁행동으로	-11.3292
▁전통적으로	-11.3296
▁감행했다	-11.3302
nd	-11.3302
▁동남	-11.3303
▁줄어들었다	-11.3305
▁괴	-11.3305
학원	-11.3306
▁지정된	-11.3308
▁충고	-11.3309
▁당원들	-11.3309
▁별로	-11.3313
▁바스라에서	-11.3315
노프	-11.3315
▁지사	-11.3321
▁발생하기	-11.3322
▁경선이	-11.3322
▁내기	-11.3325
▁퇴원	-11.3326
헤드	-11.3327
▁맡기	-11.3331
▁용의	-11.3335
▁거라고	-11.3336
게이트	-11.3345
▁말하지	-11.3353
▁도시들	-11.3354
군과	-11.3356
▁구입한	-11.3358
▁행한	-11.3359
▁분명한	-11.3359
▁로한이	-11.3361
▁국경지역에	-11.3363
▁red	-11.3365
▁수감됐다	-11.3367
▁제안에	-11.3372
pt	-11.3374
▁죽을	-11.3374
즐	-11.3375
▁물질이	-11.3376
▁험	-11.3377
▁퍼지	-11.3377
▁도로에	-11.3378
▁소방	-11.3381
▁결승	-11.3381
▁선보였	-11.3382
fc	-11.3383
보고서	-11.3387
▁start	-11.3388
▁심화	-11.3389
▁정직	-11.3391
사람	-11.3393
코스	-11.3396
노동	-11.3401
▁이란에서	-11.3401
▁탑	-11.3403
▁태국에서	-11.3404
▁발표하지	-11.3406
▁관광객이	-11.3408
▁안다	-11.341
스텐	-11.3411
동물	-11.3411
총장	-11.3417
▁후안	-11.3418
▁파괴됐다	-11.3418
빌리	-11.3421
▁협정에	-11.3428
▁하겠다	-11.3436
▁남지	-11.3442
▁이어진	-11.3443
론자들	-11.3444
처리	-11.3445
▁발생한다	-11.3449
▁이목	-11.3455
▁직면해	-11.3456
▁위치에	-11.346
▁지구로	-11.3462
▁강전	-11.3467
회에서	-11.3467
모토	-11.3468
세르	-11.3473
▁공직	-11.3474
▁자연적	-11.3483
▁ps	-11.3485
▁다쳤	-11.3486
▁겐	-11.349
▁민주당원들	-11.3491
▁이외	-11.3493
▁의뢰	-11.3501
▁통근	-11.3502
▁down	-11.3507
▁제어	-11.3509
▁놓여	-11.3514
▁지원한	-11.3518
▁방송과	-11.352
▁복용한	-11.3528
▁일요일에	-11.3534
▁관료들	-11.3535
▁보여준	-11.354
▁맞았	-11.354
▁획득했다	-11.3541
ew	-11.3548
▁살리	-11.3548
▁선호	-11.3548
▁정부로부터	-11.3559
▁게임에서	-11.3559
▁감염자	-11.3561
▁한반도에서	-11.3561
▁괴한들	-11.3569
▁승리하는	-11.357
▁사정	-11.357
님	-11.3574
▁섬에	-11.3575
▁버몬트	-11.358
▁나눠	-11.3583
▁경제성장	-11.3584
▁다국적	-11.3584
▁단체에	-11.3584
쾌	-11.3587
▁여객기에	-11.3588
▁oecd	-11.359
▁wwf	-11.359
▁가톨릭	-11.359
▁몬타나	-11.359
▁무크타다	-11.359
▁버시바우	-11.359
▁부정부패	-11.359
▁브뤼셀	-11.359
▁사카쉬빌리	-11.359
▁임산부	-11.359
▁쫓겨	-11.359
▁컨퍼런스	-11.359
▁콘크리트	-11.359
▁콜레스테롤	-11.359
▁프리메라리가	-11.359
▁합참의장	-11.359
윗	-11.359
쿤	-11.359
▁금융제재	-11.359
▁로널드	-11.359
▁오마바	-11.359
▁팔루자	-11.359
▁휴양지	-11.359
▁기번스	-11.359
▁횡단	-11.359
▁힉스	-11.359
▁쟁점	-11.359
▁about	-11.359
▁뒤덮	-11.359
▁이소연	-11.359
▁주니어	-11.359
▁아지즈	-11.359
▁크리켓	-11.359
▁페인트	-11.359
▁농촌	-11.359
▁home	-11.359
▁근접	-11.359
▁소요사태	-11.3591
▁번호판	-11.3591
▁와중에	-11.3591
▁여객선	-11.3591
▁호르타	-11.3591
▁흉기	-11.3591
▁불쾌감	-11.3592
▁동북아	-11.3592
▁간첩	-11.3592
▁주장해	-11.3592
▁평창	-11.3592
▁엄중	-11.3592
▁최후	-11.3592
▁통계청	-11.3593
▁싸울	-11.3593
▁연애	-11.3593
▁이루어질	-11.3593
▁총격사건	-11.3594
▁연습	-11.3594
▁평등	-11.3594
▁활력	-11.3594
▁패션계	-11.3595
▁피델	-11.3595
▁단절	-11.3595
▁정글	-11.3596
스테이트	-11.3596
▁말라위	-11.3596
▁팔렸다	-11.3596
▁금지령	-11.3597
▁union	-11.3597
▁포격	-11.3597
▁평방	-11.3598
▁예금	-11.3598
▁테네시주	-11.3598
▁변동	-11.3599
▁rights	-11.3599
▁본래	-11.3599
▁추모식	-11.3599
▁지나친	-11.3599
돌프	-11.3599
▁테러공격	-11.3599
▁황제	-11.36
▁수년간	-11.36
▁즐거	-11.3601
▁완수	-11.3601
▁베스트	-11.3601
▁울프	-11.3603
▁스탠리	-11.3604
▁핵문제	-11.3604
잡이	-11.3604
▁급파	-11.3605
▁뉴저지주	-11.3606
▁테마	-11.3606
▁반격	-11.3606
▁철거	-11.3606
▁사격	-11.3608
▁태아	-11.3608
▁we	-11.3609
▁터진	-11.3609
▁건조	-11.3609
▁액수	-11.3609
▁질식	-11.3609
▁인도와	-11.3609
▁플로	-11.361
▁구분	-11.361
▁정유	-11.3612
▁데이트	-11.3612
▁앙리	-11.3613
▁신종	-11.3614
▁경찰청장	-11.3614
▁지도력	-11.3614
▁스노	-11.3616
라이트	-11.3617
▁분양	-11.3619
▁휩싸였다	-11.3619
▁ak	-11.3619
▁공습이	-11.362
▁외모	-11.362
▁석방했다	-11.362
▁안개	-11.3621
▁상실	-11.3621
▁분명하다	-11.3622
▁피고인들	-11.3623
▁발사된	-11.3623
▁가즈니주	-11.3624
▁일본인들	-11.3625
▁상징적인	-11.3626
▁만톤	-11.3626
▁침	-11.3627
▁문학	-11.3628
▁조그	-11.3629
▁반감	-11.3629
▁두목	-11.363
▁과일	-11.363
▁허리	-11.363
▁한국정부	-11.3633
▁작용할	-11.3636
▁루이	-11.3636
▁도박	-11.3637
▁접근할	-11.3637
▁선박에	-11.3637
▁우주비행사들	-11.3637
지도자	-11.3639
▁열린다	-11.364
법에	-11.3643
▁미쳤다	-11.3643
▁보수적인	-11.3645
▁억류된	-11.3646
▁인파	-11.3646
▁앤드	-11.3647
▁작품상	-11.3647
io	-11.3647
▁열리기	-11.3648
▁아카	-11.3649
▁이건	-11.3659
되게	-11.3664
▁압도	-11.3664
▁배아	-11.3665
▁발사한	-11.3668
▁중년	-11.3669
▁높이고	-11.367
▁심각하다	-11.3674
▁당선된	-11.3678
▁만행	-11.3679
▁전술	-11.3679
ok	-11.3681
▁개혁안	-11.3682
▁거물	-11.3683
▁독일과	-11.3684
▁박물관에	-11.3689
▁쉐	-11.3689
▁맺었다	-11.3691
▁끝내고	-11.3691
▁노동자들이	-11.3692
▁외교관들	-11.3693
▁아랍어	-11.3698
▁투자가들	-11.37
죄	-11.3701
▁켄	-11.3701
▁만족한다	-11.3701
▁은행이	-11.3704
▁일반인들	-11.3704
▁동해	-11.3705
간다	-11.3712
▁이용자들	-11.3713
be	-11.3717
▁차지할	-11.3719
ef	-11.372
아웃	-11.3721
▁이동했다	-11.3721
▁해치	-11.3722
▁수직	-11.3722
주기	-11.3723
▁교도	-11.3724
험	-11.3729
ical	-11.3733
▁수습	-11.3739
▁피로	-11.3741
작업을	-11.3742
▁여성으로	-11.3742
▁이견	-11.3743
▁열리고	-11.3746
▁방위	-11.3747
▁치료제	-11.3748
▁경쟁에서	-11.3752
▁엑스	-11.3766
▁등장하	-11.3766
▁가하고	-11.3773
▁생각되	-11.3779
ame	-11.3781
▁결정될	-11.3784
마드	-11.3786
롭게	-11.3786
▁전임	-11.3787
▁시대에	-11.379
마른	-11.379
▁설립한	-11.379
▁앤더슨은	-11.3792
▁공격하기	-11.3796
▁관대	-11.3798
▁마르코	-11.3798
▁고정	-11.3801
▁can	-11.3804
▁되면서	-11.3805
촉	-11.3805
장소	-11.3806
▁들어가기	-11.3807
▁발사했다	-11.3807
코트	-11.3809
q	-11.381
▁마이크로	-11.3815
나마	-11.3816
▁참가국들	-11.3817
사실	-11.3818
▁표기	-11.3818
▁고집	-11.3819
▁합의안	-11.3821
여행	-11.3824
머스	-11.3826
▁장소에	-11.3828
증권	-11.383
▁통과한	-11.3832
▁파괴된	-11.3832
치기	-11.3837
▁지지율로	-11.3837
▁실려	-11.3839
더미	-11.3843
▁워싱턴에	-11.3845
사이드	-11.3849
▁중재자	-11.3849
▁대학생들	-11.385
문서	-11.3851
▁난자	-11.3856
▁mi	-11.3859
ors	-11.3862
ney	-11.3863
mas	-11.3868
▁클럽에서	-11.3868
▁특파원이	-11.3881
▁장례식에	-11.3883
▁시스템에	-11.389
▁수퍼대의원	-11.3893
▁증가시키	-11.3894
▁하에서	-11.3896
▁내용이다	-11.3896
학자인	-11.3896
▁판매하는	-11.3904
해졌	-11.3904
▁칠	-11.3911
▁명명	-11.3917
▁san	-11.3921
▁노력으로	-11.3921
▁지점에	-11.3926
▁미국내	-11.3927
▁의원들과	-11.3929
▁교착상태	-11.3931
코르	-11.3945
▁치르는	-11.3945
di	-11.3955
▁인정하고	-11.3957
▁곳곳	-11.396
▁반군에	-11.3962
▁최근까지	-11.3965
▁들어갔	-11.3973
▁쓰이	-11.3974
▁토로	-11.3975
▁나갔	-11.3976
게임	-11.3977
▁울리	-11.398
▁겪었	-11.3985
ong	-11.3986
▁만대	-11.3987
▁고전	-11.3989
▁저널	-11.3991
▁pop	-11.3996
▁간다	-11.3999
▁비전	-11.4001
퍼스	-11.4002
▁중태라	-11.4004
▁도달했다	-11.4004
유지	-11.4007
▁법무	-11.4011
럭	-11.4015
▁테네시	-11.4016
▁전문의	-11.4018
▁제기되	-11.4018
▁검문	-11.4018
롯	-11.4021
▁진정시키	-11.4022
▁부상당했다	-11.4023
탔	-11.4023
▁풀려	-11.4024
▁페트로	-11.4024
▁냉전	-11.4025
셜	-11.4025
▁australia	-11.4025
▁school	-11.4025
▁그린스펀	-11.4025
▁급상승	-11.4025
▁낙하산	-11.4025
▁농산물	-11.4025
▁대량살상무기	-11.4025
▁디얄라	-11.4025
▁라우터바흐	-11.4025
▁선거캠페인	-11.4025
▁슈나이더	-11.4025
▁앨라배마	-11.4025
▁언색호	-11.4025
▁오차범위	-11.4025
▁잃게	-11.4025
▁지구온난화	-11.4025
▁카메론	-11.4025
▁테헤란	-11.4025
쭉	-11.4025
▁롱고리아	-11.4025
▁마스터스	-11.4025
▁호킨스	-11.4025
▁올랜도	-11.4025
▁유시프	-11.4025
▁저녁식사	-11.4025
▁퇴역	-11.4025
▁획기적	-11.4025
▁클레이코트	-11.4025
▁administration	-11.4025
▁정부청사	-11.4025
▁괴롭	-11.4025
▁리더십	-11.4025
▁황교수	-11.4025
▁졸릭	-11.4025
▁사냥꾼	-11.4025
▁fun	-11.4025
▁검열	-11.4025
▁six	-11.4025
▁tax	-11.4025
▁poll	-11.4025
▁gnp	-11.4025
▁자살폭탄	-11.4026
▁강화하기	-11.4026
▁아르빌	-11.4026
▁검시관	-11.4026
▁줄어든	-11.4026
▁안젤리	-11.4027
▁토끼	-11.4027
▁동맹관계	-11.4027
▁무엇인가	-11.4027
▁반도체	-11.4027
▁우편	-11.4027
▁그린랜드	-11.4027
▁자본주의	-11.4027
▁친밀	-11.4028
▁보도자료	-11.4028
▁발송	-11.4029
▁아바타	-11.4029
▁기념품	-11.4029
▁재능	-11.4029
▁선거일	-11.4029
▁증산	-11.4029
▁교역	-11.4029
▁불경기	-11.403
▁ab	-11.403
▁자유로운	-11.403
▁증오	-11.403
▁늘어난	-11.4031
▁내다봤	-11.4031
▁친절	-11.4031
▁샤론	-11.4032
▁jp	-11.4032
▁살짜리	-11.4033
▁순회	-11.4033
▁회색	-11.4033
▁서열	-11.4033
▁주머니	-11.4033
▁램	-11.4033
▁악명	-11.4033
▁교차	-11.4033
▁탈세	-11.4034
▁섬유	-11.4034
▁잔디	-11.4034
▁선거자금	-11.4034
▁한국전쟁	-11.4035
▁출간	-11.4035
▁누설	-11.4036
▁라틴	-11.4037
▁미시간주	-11.4037
▁인천	-11.4038
▁지난밤	-11.4038
▁베이비	-11.4039
▁동요	-11.4039
▁총살	-11.4039
▁상표	-11.404
▁시몬	-11.404
▁없음	-11.4041
▁호위	-11.4041
▁십만	-11.4041
▁aid	-11.4041
▁물리적	-11.4042
▁온실	-11.4042
▁파워	-11.4044
tive	-11.4045
▁태어났다	-11.4045
▁충돌했다	-11.4046
▁노벨상	-11.4047
▁생선	-11.4047
▁들어보	-11.4047
▁신설	-11.4047
▁학자들	-11.4047
▁게임에	-11.4047
▁작년에	-11.4047
▁스파이스	-11.4048
▁참수	-11.4048
센터에서	-11.4049
단계	-11.4051
▁탈당	-11.4051
▁오만	-11.4052
▁끌어들이	-11.4053
▁죄수	-11.4053
▁어미	-11.4055
▁피터슨	-11.4055
▁루디	-11.4055
▁양호	-11.4056
▁유타	-11.4056
▁정상에	-11.4057
▁본즈	-11.4059
▁국토안보부	-11.406
▁제조회사	-11.406
▁종전	-11.4061
▁선제	-11.4061
물질	-11.4062
▁받았습니다	-11.4064
▁모였다	-11.4067
▁설립자	-11.4067
▁랜드	-11.4068
▁자란	-11.4068
▁단일	-11.4069
▁비행선	-11.4072
▁주입	-11.4073
▁보호소	-11.4074
▁피우	-11.4075
▁자루	-11.4075
▁진상	-11.4075
리드	-11.4079
▁경유	-11.4079
▁못하면	-11.408
▁주정부	-11.4081
▁관여하	-11.4083
▁의사당	-11.4083
▁서울시장	-11.4083
▁매케인과	-11.4084
up	-11.4084
▁kt	-11.4085
▁이민법	-11.4085
▁주둔군	-11.4085
▁통과할	-11.4085
벨리	-11.4085
▁중국정부	-11.4086
▁싱글	-11.4087
▁끝나지	-11.4087
▁만들어내	-11.4087
▁적군	-11.4088
▁기여	-11.4091
▁들어서	-11.4092
▁프로그램과	-11.4092
▁경상	-11.4093
▁들어주	-11.4094
▁돌아가는	-11.4095
▁허용하는	-11.4095
▁되려	-11.4095
▁타운	-11.4096
▁비공식	-11.4098
▁토로했다	-11.4099
▁졸	-11.41
▁린다	-11.41
▁기대된다	-11.4102
▁년대에	-11.4106
▁서쪽으로	-11.4107
▁신성	-11.4109
▁불거	-11.4109
▁이라크인들	-11.4109
▁외계인	-11.4109
▁놀이	-11.4111
▁줄었다	-11.4114
▁한가지	-11.4114
▁성능	-11.4114
▁내리지	-11.4116
▁실종됐다고	-11.4116
ern	-11.4118
▁밝혀지	-11.4119
▁활	-11.4122
▁효과적인	-11.4125
▁샤프	-11.4127
▁의미하는	-11.4132
▁알려졌	-11.4135
▁서부지역	-11.4135
▁대신해	-11.4135
▁무서	-11.4137
▁파업이	-11.4141
▁점에서	-11.4144
▁말했었다	-11.415
▁근거지	-11.4151
▁생활에	-11.4152
▁qu	-11.4153
out	-11.4155
바니	-11.416
▁생각된다	-11.4161
▁위크	-11.4162
▁외곽에서	-11.4165
▁항해	-11.4169
▁격려	-11.4171
▁의원과	-11.4171
▁해준다	-11.4171
▁생각할	-11.4175
▁지불할	-11.4177
리코	-11.4181
▁정국	-11.4181
▁금지된	-11.4183
cent	-11.4186
▁나아	-11.4186
마저	-11.4186
▁살상	-11.4186
났	-11.419
▁싶어하	-11.4196
▁요구해	-11.4204
one	-11.4206
▁해결하는	-11.4206
윤	-11.4206
마이어	-11.4212
▁로즈	-11.4215
라트	-11.4217
▁건물들	-11.4222
▁실시됐다	-11.4224
▁식당에서	-11.4226
▁팔레스타인과	-11.4226
▁공급받	-11.4226
uni	-11.4226
▁연인	-11.4228
▁시선	-11.4228
▁증거로	-11.4233
▁공해	-11.4234
▁일종	-11.4239
재단	-11.4241
▁수행했다	-11.4249
▁바비	-11.4258
팀이	-11.4258
괴	-11.4258
톱	-11.4261
head	-11.4261
▁수행한	-11.4262
팬	-11.4264
혁명	-11.4267
▁마련된	-11.4267
▁순간에	-11.4269
번호	-11.4271
▁시작한다	-11.4273
▁효과적	-11.4274
▁멘	-11.4287
지점	-11.4289
▁국내에서	-11.4292
▁행위로	-11.4298
글리	-11.4299
방안	-11.4303
▁지배하	-11.4309
▁주도하고	-11.431
▁아프리카에서	-11.4313
▁작고	-11.4315
▁되어야	-11.4315
범죄	-11.4317
▁아파트에서	-11.4321
▁보도된	-11.4324
▁작전에	-11.4328
▁브레	-11.4333
화물	-11.4337
▁파기	-11.4338
▁지방에	-11.4341
▁다스	-11.435
▁배달	-11.4358
리트	-11.4363
▁적지	-11.4364
der	-11.4365
▁성공할	-11.4367
▁제품들	-11.4368
▁여진	-11.4369
lin	-11.4371
▁sun	-11.4374
정권	-11.4374
별로	-11.4375
▁일이었다	-11.4377
▁지어	-11.4382
▁일본군	-11.4386
▁정말로	-11.4386
▁영화화	-11.4393
예프	-11.4395
▁후송	-11.4396
▁카라치	-11.4396
▁요인이	-11.4396
▁간부들	-11.4397
▁여행자	-11.4397
▁결함이	-11.4399
▁모여들	-11.4403
▁나비	-11.4406
▁연기됐다	-11.4407
▁압도적	-11.4412
▁선포한	-11.4414
대상	-11.4421
▁def	-11.4422
▁떠났	-11.4423
▁몬	-11.4423
룩	-11.4424
▁하스	-11.4424
▁운전자들	-11.4424
▁내야	-11.4424
▁진출에	-11.4429
▁친구와	-11.4432
▁도착해	-11.4442
▁대조	-11.4448
▁선박들	-11.4451
▁중단된	-11.4457
▁위반했다	-11.4461
▁우주비행	-11.4462
▁피의자	-11.4468
▁구조됐다	-11.4471
▁파견했다	-11.4471
▁휩싸	-11.4472
▁가사	-11.4473
므	-11.4474
흘	-11.4475
▁조직원들	-11.4478
▁총기난사	-11.4479
▁땅콩	-11.4479
윙	-11.4479
헴	-11.4479
▁beijing	-11.4479
▁claim	-11.4479
▁defense	-11.4479
▁hsbc	-11.4479
▁movie	-11.4479
▁nymex	-11.4479
▁society	-11.4479
▁street	-11.4479
▁summit	-11.4479
▁system	-11.4479
▁가라앉	-11.4479
▁국제사면위원회	-11.4479
▁김경준	-11.4479
▁낮게	-11.4479
▁돈세탁	-11.4479
▁맞춘	-11.4479
▁몰디브	-11.4479
▁믿음	-11.4479
▁베스트셀러	-11.4479
▁손해배상	-11.4479
▁신천옹	-11.4479
▁아라파트	-11.4479
▁아이슬란드	-11.4479
▁애널리스트	-11.4479
▁우비넨	-11.4479
▁자이언트	-11.4479
▁전화통화	-11.4479
▁찍었다	-11.4479
▁콘텐트	-11.4479
▁페르난데스	-11.4479
▁푸에르토리코	-11.4479
▁플레이오프	-11.4479
▁해리왕자	-11.4479
넥	-11.4479
밭	-11.4479
▁가금류	-11.4479
▁가석방	-11.4479
▁무중력	-11.4479
▁황박사	-11.4479
▁갱신	-11.4479
▁자부심	-11.4479
▁폭넓	-11.4479
▁오페라	-11.4479
▁발레리	-11.4479
▁프리킥	-11.4479
▁break	-11.4479
▁차세대	-11.4479
▁진원지	-11.4479
▁후쿠다	-11.4479
▁놀랍	-11.4479
▁라시드	-11.4479
▁남서쪽	-11.4479
▁트레킹	-11.4479
▁브라더스	-11.4479
▁딜리	-11.448
▁강아지	-11.448
▁익사	-11.448
▁프레슬리	-11.448
▁설문조사	-11.448
▁선제골	-11.448
▁삭스	-11.448
▁아이팟	-11.448
ship	-11.448
▁왕궁	-11.448
▁공동성명	-11.448
▁화폐	-11.448
▁삼성그룹	-11.448
▁다툼	-11.448
▁푸켓	-11.448
▁gps	-11.448
▁포옹	-11.448
▁탑재	-11.4481
▁이틀째	-11.4481
▁인디언	-11.4481
▁지방선거	-11.4481
▁침실	-11.4481
▁메이저	-11.4481
▁물러난	-11.4482
▁투항	-11.4482
▁기부금	-11.4482
▁프라임	-11.4482
▁기차역	-11.4482
▁미술관	-11.4482
▁지저스	-11.4482
▁보건당국	-11.4483
▁fund	-11.4483
▁웃음	-11.4483
▁단축	-11.4483
▁우익	-11.4484
▁post	-11.4484
▁헌터	-11.4484
▁진열	-11.4484
▁않으려	-11.4484
▁감각	-11.4484
▁방위군	-11.4485
▁터너	-11.4485
▁해산물	-11.4485
▁다룰	-11.4485
▁빈번	-11.4485
▁석탄	-11.4485
▁무패	-11.4486
▁정교회	-11.4486
▁직위	-11.4486
▁선진국	-11.4487
▁데이브	-11.4487
▁동등	-11.4487
▁교정	-11.4487
▁시께	-11.4487
▁왕위	-11.4487
▁대기권	-11.4488
▁낙찰	-11.4488
▁북경	-11.4488
▁복부	-11.4488
▁live	-11.4489
▁변형	-11.4489
▁우려하는	-11.4489
▁선언문	-11.4489
▁공표	-11.4489
▁공범	-11.449
▁프로디	-11.449
▁사이먼	-11.449
▁나이키	-11.4491
▁디에고	-11.4491
▁국토	-11.4492
▁연정	-11.4495
교수	-11.4495
▁린치	-11.4495
▁콜린스	-11.4496
▁조각상	-11.4497
▁나온다	-11.4497
▁판명	-11.4497
▁서버	-11.4498
▁우주복	-11.45
▁콜로라도주	-11.4502
▁보리스	-11.4502
▁골든	-11.4502
▁선동	-11.4502
▁공항으로	-11.4503
▁시합	-11.4504
▁영아	-11.4504
▁비정부	-11.4505
▁솜	-11.4505
▁펴	-11.4505
▁역전	-11.4507
▁손님들	-11.4507
▁예보	-11.4508
▁호박	-11.4508
▁레노	-11.4509
▁좋았다	-11.4509
▁풀어주	-11.451
▁결성	-11.451
▁채무	-11.451
▁폐허	-11.451
▁리터	-11.4511
▁실바	-11.4512
부장	-11.4514
▁하위	-11.4515
▁딴	-11.4515
▁포도	-11.4516
▁sg	-11.4517
▁주립	-11.4518
▁능력이	-11.4519
▁근본주의	-11.4519
▁장관급	-11.4519
▁제작진	-11.452
▁상임	-11.4521
▁설치한	-11.4522
▁바그다드에	-11.4524
슬러	-11.4524
▁내려오	-11.4525
▁툴	-11.4525
▁저명	-11.4526
▁의류	-11.4526
▁시민이	-11.4527
▁주차장에서	-11.4527
여금	-11.4531
ge	-11.4532
▁연어	-11.4533
▁세르	-11.4537
▁돌아간	-11.4538
▁게시	-11.4538
▁다루는	-11.454
▁닉	-11.4541
조건	-11.4541
▁목표물	-11.4542
▁정부기관	-11.4543
▁보험사	-11.4545
▁비중	-11.4545
▁주식시장이	-11.4546
▁접어들	-11.4546
▁곳곳에서	-11.4549
▁국제법	-11.4551
▁승려	-11.4552
▁경호원들	-11.4553
▁그럴	-11.4557
▁쓰지	-11.4558
허가	-11.4559
▁본부장	-11.456
▁감독과	-11.4561
▁몰린	-11.4563
▁잔인	-11.4564
▁겁	-11.4566
▁시사했다	-11.4568
▁친구인	-11.4568
▁교황이	-11.4569
▁남부지역에서	-11.4569
▁단계적	-11.457
▁후속	-11.4572
▁영해	-11.4574
▁소행	-11.4575
▁아크	-11.4576
▁버스에	-11.4577
▁발표하면서	-11.4578
▁주목할	-11.4579
▁동부에	-11.4582
▁하퍼	-11.4582
▁템	-11.4584
속에	-11.4585
▁기르	-11.4588
▁확인하지	-11.459
▁경제학자	-11.4592
▁당선됐다	-11.4595
▁하사	-11.4595
▁한국계	-11.4596
▁병이	-11.46
ence	-11.4603
▁갇혀있	-11.4604
▁관여한	-11.4605
und	-11.4606
▁움직이는	-11.4606
▁재료	-11.4606
▁산업이	-11.4607
▁일삼	-11.461
▁팔리	-11.461
▁일부분	-11.4614
▁간호사	-11.4615
▁줬	-11.4616
▁배상	-11.4618
▁무장세력들	-11.462
▁타이거	-11.4624
▁결혼했다	-11.4624
▁박스	-11.4625
no	-11.4628
▁가계	-11.463
▁교통부	-11.4631
▁노력했다	-11.4631
▁이스트	-11.4631
해줬다	-11.4632
▁제시할	-11.4638
▁공화당원들	-11.4639
▁자신만	-11.4642
▁떠나지	-11.4644
▁숨지	-11.4649
▁space	-11.465
▁희생자들이	-11.4652
▁영화들	-11.4653
▁우주로	-11.4653
▁설립된	-11.4655
▁전반에	-11.4656
▁담겨	-11.4662
▁토론회에서	-11.4676
▁esta	-11.4681
민들	-11.4684
▁완화하기	-11.4687
▁계속됐다	-11.4687
▁이용자	-11.4693
▁베이징에	-11.4706
대통령	-11.4709
▁이유에	-11.4711
▁개들	-11.4713
▁법에	-11.4714
▁결심했다	-11.4715
form	-11.4717
▁바람에	-11.472
▁압수했다	-11.472
▁사항이	-11.4726
▁결정하기	-11.4727
특	-11.4727
▁목록에	-11.4729
딕	-11.4734
▁인터넷에서	-11.4735
풀	-11.4737
▁신체적	-11.4739
탐	-11.4741
책임자	-11.4741
밴드	-11.4742
투쟁	-11.4742
분쟁	-11.4743
학자들	-11.4747
▁프로젝트에	-11.4749
요금	-11.4756
모양	-11.4756
▁수행하는	-11.4758
▁국제적으로	-11.4758
▁폭락했다	-11.4759
▁한국측	-11.4759
▁참가국	-11.4762
▁알바	-11.4763
▁신자	-11.4765
▁가정에서	-11.4766
체계	-11.4767
▁극적	-11.4771
됐기	-11.4772
▁진도	-11.4774
통제	-11.4774
▁퇴원했다	-11.4776
▁작가들	-11.4776
▁이행하	-11.4779
▁지아	-11.478
러운	-11.4781
▁이혼했다	-11.479
하기위해	-11.479
▁발표했	-11.4795
▁한반도에	-11.4798
▁내부에	-11.48
▁그곳	-11.48
실적	-11.4801
▁나사	-11.4803
▁ira	-11.4805
웠던	-11.4808
▁차지했	-11.4809
illi	-11.4811
▁악화된	-11.4815
▁앉아있	-11.4819
▁철학	-11.4831
▁노출되	-11.4834
▁과정이	-11.484
▁드리	-11.4851
케르	-11.4851
▁ph	-11.4852
▁뒤지	-11.4853
▁지원했다	-11.4854
▁ag	-11.4857
ncy	-11.4858
▁반군들	-11.486
▁홍콩에서	-11.4864
▁직원과	-11.4866
▁집회에서	-11.4866
▁레바논에서	-11.4871
▁돼있다	-11.4875
▁잡혀	-11.4875
▁전제	-11.4877
▁중단시키	-11.488
▁시점에	-11.4883
▁유대인들	-11.489
스러워	-11.489
▁선정했다	-11.489
▁캘리포니아에서	-11.4893
▁부분에	-11.4896
▁소방대원	-11.4897
▁방문하고	-11.4899
▁여인	-11.4899
▁돌아왔	-11.49
▁항의했다	-11.49
▁실종됐다	-11.4903
▁치열	-11.4904
▁북한군	-11.4905
▁찾았	-11.4906
▁매력적	-11.4908
▁젊은이들이	-11.4915
▁불행	-11.4917
▁나타냈	-11.4918
▁근본	-11.4923
번에	-11.4923
평가	-11.4925
▁지명에	-11.4932
▁일조	-11.4934
ki	-11.4935
▁사고기	-11.4937
▁주장했	-11.4942
▁protest	-11.4943
▁미네소타	-11.4946
끔	-11.4946
▁중력	-11.4947
▁미주리	-11.4949
흥	-11.495
▁세웠	-11.4953
셋	-11.4954
▁agree	-11.4955
▁얼룩	-11.4955
벡	-11.4955
▁black	-11.4955
▁candidate	-11.4955
▁ecb	-11.4955
▁official	-11.4955
▁public	-11.4955
▁science	-11.4955
▁가로질러	-11.4955
▁그랜드슬램	-11.4955
▁라스무센	-11.4955
▁레드삭스	-11.4955
▁마터호른	-11.4955
▁맞교환	-11.4955
▁매릴랜드	-11.4955
▁믿지	-11.4955
▁불필요	-11.4955
▁비아그라	-11.4955
▁빈라덴	-11.4955
▁생태계	-11.4955
▁소렌스탐	-11.4955
▁스콜세지	-11.4955
▁스탤론	-11.4955
▁식이요법	-11.4955
▁신용경색	-11.4955
▁싫어하	-11.4955
▁얼어붙	-11.4955
▁와지리스탄	-11.4955
▁유네스코	-11.4955
▁제너럴	-11.4955
▁주미대사	-11.4955
▁질렀다	-11.4955
▁코네티컷	-11.4955
▁투탕카멘	-11.4955
▁팽팽	-11.4955
▁펌프	-11.4955
▁포틀랜드	-11.4955
▁푸에르타	-11.4955
긋	-11.4955
덟	-11.4955
▁아메드	-11.4955
▁알자지라	-11.4955
▁국가정보원	-11.4955
▁로드맵	-11.4955
▁만델라	-11.4955
▁고마움	-11.4955
▁가이트너	-11.4956
▁헝가리	-11.4956
▁남동쪽	-11.4956
▁밀리밴드	-11.4956
▁텔레콤	-11.4956
▁본거지	-11.4956
▁핑크	-11.4956
▁파이프라인	-11.4956
▁이뤄져야	-11.4956
▁아로요	-11.4956
▁외딴	-11.4956
▁거세지	-11.4956
▁journal	-11.4956
▁블레이크	-11.4956
▁납북	-11.4956
▁commission	-11.4956
▁촉구하고	-11.4956
▁몬테	-11.4956
▁버클리	-11.4956
▁불러일으키	-11.4957
▁투옥	-11.4957
▁park	-11.4957
ease	-11.4957
▁완승	-11.4957
▁재처리	-11.4958
mar	-11.4958
▁신분증	-11.4958
매치	-11.4958
▁음란물	-11.4958
▁우호적	-11.4958
용품	-11.4958
▁점유율	-11.4958
▁청색	-11.4958
▁보험금	-11.4959
▁faa	-11.4959
▁나이로비	-11.4959
▁철강	-11.496
▁정황	-11.496
▁로얄	-11.496
▁전인대	-11.496
▁러브	-11.496
▁사절단	-11.496
▁정확하게	-11.496
▁증권거래소	-11.4961
▁함정	-11.4961
▁그래함	-11.4961
▁창고	-11.4961
▁위안화	-11.4961
▁잠재력	-11.4961
▁봅	-11.4961
▁대표와	-11.4962
▁hit	-11.4962
▁교실	-11.4962
▁투병	-11.4962
▁바이든	-11.4962
▁사촌	-11.4963
▁버려진	-11.4963
▁wti	-11.4963
▁절단	-11.4963
▁부착	-11.4964
▁붙였다	-11.4964
▁은폐	-11.4964
▁유머	-11.4964
▁forces	-11.4965
▁첫째	-11.4965
▁화물선	-11.4965
▁있느냐	-11.4965
▁유언	-11.4966
▁경색	-11.4966
▁사탕	-11.4966
▁진심	-11.4966
▁긴장감	-11.4966
▁있을까	-11.4966
▁통역	-11.4967
▁노엘	-11.4967
▁앞서있다	-11.497
▁파타당	-11.4971
▁육상	-11.4971
▁인준	-11.4971
▁마샤	-11.4973
▁엔화	-11.4973
▁대통령궁	-11.4974
▁판결문	-11.4975
▁육성	-11.4975
▁시청률	-11.4976
▁드문	-11.4976
바인	-11.4977
▁애정	-11.4978
▁정당화	-11.4979
▁투하	-11.4979
▁쿠즈	-11.4979
회장	-11.498
▁달렸다	-11.498
▁자체적으로	-11.498
▁줄리아	-11.4981
▁더미	-11.4982
▁분배	-11.4983
▁박차	-11.4984
▁장애물	-11.4985
▁가이드	-11.4986
▁금융계	-11.4986
▁공공장소에서	-11.4987
▁장점	-11.4987
▁루즈	-11.4988
▁대열	-11.4989
▁치우	-11.4989
▁높았다	-11.4989
▁금주	-11.4994
▁감행한	-11.4994
▁들어있	-11.4994
▁내달	-11.4995
▁감수	-11.4996
▁취업	-11.4996
▁팔아	-11.4997
▁발명	-11.4998
▁합법적으로	-11.4998
▁전념	-11.5
▁미얀마에서	-11.5001
▁치료법	-11.5001
▁금연법	-11.5002
▁실험에	-11.5003
▁예상치	-11.5003
▁치아	-11.5003
▁펜실베이니아주	-11.5007
▁들어왔다	-11.5007
▁일정에	-11.5009
▁남부지역	-11.501
▁경찰관들	-11.5012
▁서울대	-11.5013
▁수영장	-11.5013
▁들소	-11.5014
▁크라우	-11.5014
▁합법적인	-11.5017
▁테러범이	-11.5017
▁동상	-11.5019
than	-11.5022
▁왕국	-11.5026
▁신선	-11.5028
▁의존하고	-11.5033
▁이사장	-11.5035
▁샬	-11.5037
▁인종차별	-11.504
▁문어	-11.5041
▁견디	-11.5041
▁사우	-11.5042
▁출판사	-11.5043
▁양곤에서	-11.5043
▁투표소	-11.5043
▁국가와	-11.5044
▁납치범	-11.5045
▁사단	-11.5046
▁대통령으로서	-11.505
▁자들	-11.505
▁비티	-11.5054
▁라파	-11.5054
▁올드	-11.5055
▁호주군	-11.5059
▁교착상태에	-11.506
▁전용기	-11.506
▁이행할	-11.5061
▁측면에서	-11.5061
▁우주센터	-11.5062
▁실질적으로	-11.5064
ps	-11.5067
▁조화	-11.5067
▁빼고	-11.5067
▁주심	-11.5068
▁혼인	-11.5071
▁생물학적	-11.5074
▁연맹	-11.5075
▁음와	-11.5077
▁심리학	-11.5078
▁분리주의자들	-11.5083
▁영화관	-11.5084
▁배우자	-11.5085
레시	-11.5088
▁만회	-11.5089
▁다치	-11.5094
▁꾸	-11.51
▁이슬라마바드에서	-11.5101
▁목에	-11.5106
시민	-11.5108
▁손상된	-11.5111
▁변수	-11.5113
▁토레	-11.5115
내려	-11.5116
▁등정	-11.5117
인당	-11.5121
▁이끌어내	-11.5122
▁카불에서	-11.5122
▁자바	-11.5124
▁명만	-11.5124
ift	-11.5125
▁전사들	-11.5125
▁조사팀	-11.5134
▁적게	-11.5139
▁측근들	-11.514
▁친척들	-11.5144
▁랩	-11.5146
▁고고학자	-11.5147
▁히스	-11.5154
머니	-11.5158
▁과다	-11.5159
▁궤도에	-11.5163
▁충돌해	-11.5164
▁자식	-11.5165
단체인	-11.5166
▁대응할	-11.5167
▁서명한	-11.5169
▁발효	-11.5169
▁임명했다	-11.5169
▁착용한	-11.517
▁등록된	-11.5179
▁중위	-11.5181
▁그루	-11.5183
▁엔지니어	-11.5187
tter	-11.5188
훈련	-11.5191
▁확보해	-11.5192
▁집중적	-11.5197
▁경찰관이	-11.5197
줬	-11.5198
▁잃어	-11.52
▁수용소에	-11.5202
▁모델로	-11.5205
내기	-11.5208
▁다운	-11.5208
켜	-11.5215
▁ko	-11.5215
▁유전적	-11.5222
▁컨	-11.5222
▁fc	-11.5231
▁제조업	-11.5232
▁바라보	-11.5233
컴	-11.5234
▁입히	-11.5235
첸	-11.5235
▁벨리	-11.5236
사무소	-11.5238
털	-11.5238
week	-11.5239
핵	-11.5241
▁하우스	-11.5242
▁오르기	-11.5242
금융	-11.5244
어드	-11.5244
음악	-11.5245
민족	-11.5247
▁결의안이	-11.5256
▁강화된	-11.5257
이라크	-11.5265
▁하와	-11.5265
▁우려해	-11.5266
▁일반인	-11.5266
부족	-11.5269
▁치명적	-11.5273
▁검	-11.5273
▁포기한	-11.5277
az	-11.5278
▁가나	-11.5279
공원	-11.528
노스	-11.5282
▁조차	-11.5283
▁전비	-11.5283
▁팔레스타인인들	-11.5286
있으며	-11.5288
▁파괴되	-11.5293
▁중단됐	-11.5294
▁폭발물이	-11.5295
▁고등	-11.5296
▁글로	-11.5297
▁회복하고	-11.5301
▁충족	-11.5302
상품	-11.5305
▁대면	-11.5305
cy	-11.5307
▁cur	-11.5308
▁pre	-11.5308
▁프로그램에서	-11.5313
▁확보에	-11.5314
▁노인들	-11.5315
▁관계자와	-11.5319
uri	-11.5331
tt	-11.5343
▁합법적	-11.5347
▁마련해	-11.535
▁벌여왔	-11.5351
메스	-11.5355
▁소행이라	-11.5357
▁민영	-11.5358
▁나이에	-11.5361
▁요구한다	-11.5361
▁무장세력과	-11.5362
▁해법	-11.5363
▁걸리는	-11.5364
▁처했다	-11.5367
▁공로	-11.5376
파크	-11.5377
▁기업체	-11.5377
▁교회에	-11.5381
투자	-11.5382
▁월말	-11.5384
▁위험하다	-11.5385
▁의문이	-11.539
▁외계	-11.539
▁타지	-11.539
▁wh	-11.5391
▁몰리	-11.5398
▁공산	-11.5398
▁서기	-11.54
day	-11.54
▁붕괴되	-11.5401
▁이뤄졌	-11.5402
▁가혹	-11.5403
▁격돌한	-11.5406
▁만나고	-11.5412
ark	-11.5414
카트	-11.5414
▁호스	-11.5417
▁연구자들	-11.5417
컷	-11.5419
▁트럭이	-11.542
▁중앙정보	-11.542
▁미끄러	-11.5422
▁정규	-11.5425
▁나이로	-11.5429
ition	-11.5429
▁혈	-11.5431
▁태어났	-11.5432
▁근본적	-11.5433
que	-11.5435
▁해역	-11.5436
▁시행되	-11.5436
▁밀집	-11.5441
ful	-11.5443
▁스티	-11.5444
▁기록됐다	-11.5448
▁조세	-11.5448
획	-11.5449
아주	-11.5449
▁수단으로	-11.5449
▁뒤따	-11.5452
▁혐의와	-11.5453
랙	-11.5455
돔	-11.5455
엽	-11.5455
펀	-11.5455
▁앵커	-11.5455
랫	-11.5455
뭉	-11.5455
ough	-11.5455
▁food	-11.5455
▁glob	-11.5455
▁rctv	-11.5455
▁russia	-11.5455
▁support	-11.5455
▁uae	-11.5455
▁window	-11.5455
▁www	-11.5455
▁갖췄다	-11.5455
▁갤러리	-11.5455
▁끊어	-11.5455
▁나이트클럽	-11.5455
▁네그로폰테	-11.5455
▁뉴욕상업거래소	-11.5455
▁뚜렷	-11.5455
▁매카트니	-11.5455
▁명확한	-11.5455
▁쓰러져	-11.5455
▁아흐마디네자드	-11.5455
▁영유권	-11.5455
▁와이오밍	-11.5455
▁즈보나레바	-11.5455
▁초콜릿	-11.5455
▁해안경비대	-11.5455
▁햇볕	-11.5455
▁현수막	-11.5455
▁흑자	-11.5455
뜯	-11.5455
팍	-11.5455
푼	-11.5455
▁heart	-11.5455
▁신생아	-11.5455
▁자민당	-11.5455
▁갱단	-11.5455
▁아폴로	-11.5455
▁피해여성	-11.5455
▁홈구장	-11.5455
▁딜런	-11.5455
▁로날드	-11.5455
▁포츠머스	-11.5455
▁마리화나	-11.5456
▁몰아넣	-11.5456
▁무자비	-11.5456
▁프리츨	-11.5456
▁함부르크	-11.5456
▁아이다호	-11.5456
uck	-11.5456
▁흘리	-11.5456
▁강원도	-11.5456
▁해들리	-11.5456
▁휴이트	-11.5456
▁rock	-11.5456
▁발자국	-11.5456
▁마스리	-11.5456
▁독특	-11.5456
▁게놈	-11.5456
▁연못	-11.5456
▁룰라	-11.5456
▁봉착	-11.5456
▁다이앤	-11.5456
▁가르시아	-11.5456
▁에어웨이	-11.5456
▁오스만	-11.5456
▁혜성	-11.5456
▁웰스	-11.5456
▁눈보라	-11.5456
▁출항	-11.5456
▁게시판	-11.5457
▁무하마	-11.5457
▁도미니카	-11.5457
▁혼잡	-11.5457
▁창업자	-11.5457
▁순결	-11.5457
▁잡혔다	-11.5457
▁잠비아	-11.5457
▁크로스	-11.5458
▁척추	-11.5458
▁라싸	-11.5458
▁매도프	-11.5458
▁지방법원	-11.5458
▁제이슨	-11.5458
▁사무국장	-11.5459
▁막으려	-11.5459
▁내놓았다	-11.5459
▁거슬러	-11.5459
▁돌풍	-11.5459
▁선고받았다	-11.546
▁야외	-11.546
▁바랍	-11.546
▁참의원	-11.5461
▁test	-11.5461
▁파이프	-11.5461
▁인질극	-11.5461
▁묻혀	-11.5461
▁기원전	-11.5461
▁단언	-11.5461
▁통과하	-11.5461
▁훔쳐	-11.5462
▁떨어졌습니다	-11.5462
▁메모리	-11.5463
▁이용했다	-11.5463
▁법령	-11.5464
▁독립국가	-11.5464
▁재앙	-11.5464
▁mid	-11.5465
▁해리슨	-11.5465
▁투여	-11.5465
▁통과된	-11.5465
▁악마	-11.5466
▁비참	-11.5466
▁사라질	-11.5466
▁인텔	-11.5466
▁조사결과	-11.5466
▁초드리	-11.5467
▁도착하자	-11.5467
▁막았다	-11.5467
▁걸음	-11.5467
▁인수위원회	-11.5468
▁green	-11.5468
▁관리들과	-11.5469
▁복사	-11.547
▁조립	-11.5471
▁연구하는	-11.5471
▁순수	-11.5472
▁카이로	-11.5472
▁공작	-11.5472
▁태세	-11.5473
▁조율	-11.5473
▁남긴	-11.5473
▁실감	-11.5474
light	-11.5476
▁농부들	-11.5476
▁prosecutor	-11.5478
▁부양	-11.5478
▁살리기	-11.5478
▁구두	-11.5479
▁승진	-11.5479
▁케이스	-11.548
▁다행	-11.548
▁목성	-11.5481
▁번개	-11.5482
▁배역	-11.5482
▁가져왔다	-11.5483
▁편집장	-11.5483
▁바다에	-11.5483
▁힐러리경	-11.5483
▁아이오와주	-11.5484
▁별개	-11.5484
▁들려	-11.5488
▁점심	-11.549
비드	-11.549
▁따내	-11.5491
▁정박	-11.5493
▁서구	-11.5493
▁구성원	-11.5494
▁멍	-11.5495
▁그래픽	-11.5496
▁센트럴	-11.5496
▁임상	-11.5496
▁레이드	-11.5498
▁예산안	-11.5498
▁기종	-11.5498
▁손길	-11.5498
능력	-11.55
▁심리학자	-11.5502
▁기술자들	-11.5503
▁버드	-11.5504
▁추종자들	-11.5506
▁불명	-11.5507
▁동거	-11.5507
▁마루	-11.5507
하느냐	-11.5507
▁죽였다	-11.5507
▁동력	-11.5508
▁포즈	-11.5509
적이지	-11.551
▁포크	-11.5511
▁미션	-11.5511
▁리우	-11.5511
▁도피	-11.5511
▁토드	-11.5516
▁참석하는	-11.5519
▁카디	-11.5521
▁low	-11.5523
▁티나	-11.5524
▁중립	-11.5525
▁띠	-11.5529
▁없었고	-11.553
ile	-11.5531
▁따라잡	-11.5532
▁ser	-11.5532
낸다	-11.5534
▁본인	-11.5534
ill	-11.5534
▁캐나다에서	-11.5536
▁관광객들에게	-11.5538
▁개정된	-11.5539
▁빨라	-11.5542
▁끌어내	-11.5546
▁기용	-11.5547
▁공개될	-11.5551
▁기각했다	-11.5556
▁발표되지	-11.5559
▁조심	-11.5563
▁만연	-11.5565
▁추락해	-11.5566
▁북해	-11.5566
▁무거	-11.5568
▁이제까지	-11.5569
다르	-11.5572
▁중태	-11.5572
판매	-11.5574
▁적도	-11.5578
▁ump	-11.5579
▁공격해	-11.5581
▁본회의	-11.5585
▁집어	-11.5589
▁정해진	-11.5591
▁연행됐다	-11.5596
▁두번째로	-11.5599
▁연결하	-11.56
▁지나간	-11.56
▁나타난다	-11.5601
▁길게	-11.5603
ord	-11.5606
스프링스	-11.5606
▁여왕이	-11.5606
▁마주	-11.561
▁지지했다	-11.5612
▁슈퍼대의원	-11.5615
▁빌라	-11.5617
▁시도하	-11.5618
▁ver	-11.5619
▁주시하	-11.5619
▁쓰인	-11.562
▁신뢰할	-11.5621
▁chi	-11.5622
▁부분에서	-11.5622
▁째	-11.5622
▁숨어	-11.5622
건설	-11.5625
▁잘라	-11.5627
▁버린	-11.5628
▁났	-11.563
▁몰아내	-11.5632
▁잡았	-11.5634
▁law	-11.5641
▁노린	-11.5641
water	-11.5644
아갈	-11.5645
▁해일	-11.5651
▁운영되	-11.5656
▁위협받	-11.5659
▁교사들	-11.5661
▁가져가	-11.5662
▁과거사	-11.5664
비안	-11.5665
▁이집트에서	-11.5665
▁이겨	-11.5666
▁광장에서	-11.5669
데릭	-11.5674
▁주석이	-11.5685
▁지켜보고	-11.5697
브리지	-11.57
▁head	-11.5702
▁ya	-11.5703
봤다	-11.5703
▁조사관	-11.5706
▁전경	-11.571
▁결정하지	-11.5718
▁라드	-11.5719
▁발견해	-11.572
▁주최한	-11.5721
▁납치됐	-11.5727
▁경기장에서	-11.5735
▁차이나	-11.5738
▁아서	-11.5745
▁가야	-11.5746
▁션	-11.5748
▁무대에	-11.5748
▁동물원에서	-11.5751
▁월스트리트에서	-11.5751
▁높이기	-11.5753
▁외곽에	-11.5756
휘	-11.5758
▁월터	-11.5759
물리학	-11.576
▁밀리	-11.5761
앞	-11.5762
재판소	-11.5763
▁북한측	-11.5765
전략	-11.5767
앨	-11.5767
▁시간만	-11.5771
배우	-11.5772
벨라	-11.5773
ag	-11.5775
▁대장	-11.5775
▁여당이	-11.5777
▁심리적	-11.5778
▁상점들	-11.578
▁구속했다	-11.5781
관광	-11.5782
▁보내지	-11.5788
연방	-11.5788
▁구속됐다	-11.5788
▁제국	-11.579
에너지	-11.579
▁샌프란시스코에서	-11.5797
▁동의한다	-11.5798
▁운항이	-11.5817
신원	-11.5825
단지	-11.5829
▁생산된	-11.5835
ust	-11.5844
▁정신병	-11.5851
▁주도하	-11.5861
▁하드	-11.5862
▁센터에서	-11.5864
▁제한하	-11.5866
마크	-11.5873
전화	-11.5878
▁방문한다	-11.5878
▁내부에서	-11.588
▁아사	-11.5882
ite	-11.5882
▁mp	-11.5883
▁앗아	-11.5885
▁고속도로에서	-11.5885
▁ad	-11.5894
▁대상자	-11.5895
▁않았다면	-11.5897
▁실종됐	-11.5899
▁모가디슈	-11.5902
요원들	-11.5903
▁마드리드에서	-11.591
▁십년	-11.5913
▁효율	-11.5918
▁방에서	-11.5922
▁나간	-11.5922
▁들어왔	-11.5934
▁많았	-11.5935
▁sen	-11.5936
our	-11.5936
▁설립했다	-11.594
모리	-11.5941
▁하루만	-11.5942
▁구사	-11.5947
스탄	-11.5948
▁조사하는	-11.5949
▁금요일에	-11.595
▁차장	-11.5961
▁아비	-11.5962
▁시청자	-11.5962
▁절반이	-11.5965
▁정보원	-11.5968
red	-11.5971
▁right	-11.5971
▁농부	-11.5973
븐	-11.5974
▁수개월	-11.5975
칙	-11.5977
첩	-11.5978
▁업무에	-11.5978
듬	-11.598
깃	-11.598
▁meet	-11.598
▁혐오	-11.598
▁첨단	-11.5982
뮤	-11.5982
▁economy	-11.5982
▁hostage	-11.5982
▁strike	-11.5982
▁travel	-11.5982
▁가깝게	-11.5982
▁가솔린	-11.5982
▁꿀벌	-11.5982
▁끌었	-11.5982
▁낳았다	-11.5982
▁니스텔로이	-11.5982
▁동성결혼	-11.5982
▁디스플레이	-11.5982
▁르완다	-11.5982
▁리트비넨코	-11.5982
▁메르세데스	-11.5982
▁몸싸움	-11.5982
▁미항공우주국	-11.5982
▁박정희	-11.5982
▁방코델타아시아	-11.5982
▁버틀러	-11.5982
▁베를루스코니	-11.5982
▁불매운동	-11.5982
▁선거유세	-11.5982
▁성매매	-11.5982
▁심장질환	-11.5982
▁아제르바이잔	-11.5982
▁앙카라	-11.5982
▁애틀랜티스호	-11.5982
▁요하네스버그	-11.5982
▁인공위성	-11.5982
▁자르카위	-11.5982
▁정권인수팀	-11.5982
▁조선일보	-11.5982
▁좋겠다	-11.5982
▁찍힌	-11.5982
▁칠면조	-11.5982
▁키드먼	-11.5982
▁토튼햄	-11.5982
▁핸드폰	-11.5982
늬	-11.5982
옌	-11.5982
펙	-11.5982
▁power	-11.5982
▁usgs	-11.5982
▁니제르	-11.5982
▁밀라노	-11.5982
▁스즈키	-11.5982
▁영사관	-11.5982
▁잠수함	-11.5982
▁재규어	-11.5982
▁합법화	-11.5982
콥	-11.5982
employ	-11.5982
▁나뉘어	-11.5982
▁북대서양	-11.5982
▁순이익	-11.5982
▁원자재	-11.5982
▁오사카	-11.5982
▁카펠로	-11.5982
▁사직서	-11.5982
▁비너스	-11.5982
▁징조	-11.5982
▁핀란드	-11.5982
▁와일드	-11.5982
▁셰퍼드	-11.5982
▁막바지	-11.5982
▁옥스포드	-11.5982
▁좌우	-11.5982
▁관절염	-11.5982
▁대운하	-11.5982
▁사형선고	-11.5982
▁블랙워터	-11.5982
▁반세기	-11.5982
▁페라로	-11.5982
▁프라이스	-11.5982
▁참혹	-11.5982
▁묵념	-11.5982
▁반짝이	-11.5982
▁원주민들	-11.5982
▁하이킹	-11.5982
▁즐거움	-11.5982
▁그리핀	-11.5982
▁노숙자	-11.5982
▁bill	-11.5982
▁아이튠	-11.5982
▁체첸	-11.5982
▁액션	-11.5982
▁역전승	-11.5982
▁파란색	-11.5983
point	-11.5983
▁드라이브	-11.5983
▁빠져나가	-11.5983
▁음향	-11.5983
▁놓인	-11.5983
▁휘말	-11.5983
▁인내심	-11.5983
▁move	-11.5983
▁번화가	-11.5983
▁그린존	-11.5983
▁부유층	-11.5983
▁재건축	-11.5983
▁군복무	-11.5983
▁크리스틴	-11.5984
▁바오로	-11.5984
▁관례	-11.5984
▁쉽다	-11.5984
▁곤경에	-11.5984
▁쏟아져	-11.5984
▁정회장	-11.5984
▁형벌	-11.5984
▁휴먼	-11.5984
▁노워크	-11.5984
▁불빛	-11.5984
▁꾸미	-11.5984
▁소방차	-11.5985
▁파라오	-11.5985
▁오닐	-11.5985
▁soldiers	-11.5985
▁가정집	-11.5985
▁괴물	-11.5986
▁연봉	-11.5986
▁생물체	-11.5986
▁환급	-11.5987
▁카타르	-11.5987
할때	-11.5987
▁직무	-11.5987
▁같아	-11.5988
▁연합통신	-11.5988
▁힘들었	-11.5988
▁아흐메드	-11.5988
▁이송됐으	-11.5988
▁라이더	-11.5988
▁마스크	-11.5988
▁난항	-11.5988
▁꼬리	-11.5989
▁부국장	-11.5989
▁리틀	-11.5989
▁접종	-11.5989
▁요구사항	-11.5989
▁숨져	-11.5989
시킴	-11.5989
▁미주리주	-11.599
▁샤리아	-11.599
▁가져오	-11.599
▁deal	-11.599
▁푸미	-11.5991
▁드러나	-11.5991
▁기다렸다	-11.5991
▁카누	-11.5991
▁우표	-11.5991
▁제약회사	-11.5992
▁티모	-11.5992
▁반란군	-11.5992
▁어디서	-11.5992
▁표범	-11.5992
▁사귀	-11.5993
▁난처	-11.5994
▁미시건주	-11.5994
▁속출	-11.5994
▁친분	-11.5994
▁비틀	-11.5995
▁aft	-11.5995
▁휘트	-11.5995
▁유타주	-11.5996
▁사과문	-11.5996
▁롭	-11.5997
▁구제금융안	-11.5998
▁지켜봤다	-11.5998
▁백만명	-11.5998
▁경감	-11.5999
▁루이지애나주	-11.5999
▁카렌	-11.6
▁각료회의	-11.6
▁굽	-11.6
▁타개	-11.6
▁사립	-11.6001
▁테디	-11.6001
▁그레이스	-11.6001
▁만들어졌다	-11.6002
▁벤치	-11.6002
▁생길	-11.6004
▁그런데	-11.6004
▁애리조나주	-11.6004
▁며칠간	-11.6005
뒀다	-11.6005
▁김영	-11.6006
▁넘겼다	-11.6006
▁여건	-11.6006
▁매설	-11.6008
카니	-11.6011
▁형량	-11.6012
▁해커	-11.6012
▁회복세	-11.6012
▁펜실베니아주	-11.6013
▁표정	-11.6014
▁외신	-11.6017
▁치타	-11.6018
▁거행	-11.602
▁들렸다	-11.602
▁문명	-11.6022
▁들어있다	-11.6022
▁연관성	-11.6023
▁블루스	-11.6024
▁확정된	-11.6027
▁놓치	-11.6027
▁기기	-11.6028
변화	-11.603
▁반경	-11.6031
▁주장했었다	-11.6031
▁의약	-11.6032
▁구직	-11.6032
▁총력	-11.6032
▁해왔	-11.6033
제작	-11.6033
▁돌진	-11.6034
▁날려	-11.6035
▁이빨	-11.6036
▁해외로	-11.6037
▁소원	-11.6037
▁카카	-11.6038
▁압도적으로	-11.6038
▁인내	-11.604
▁통과했다	-11.6041
▁않았기	-11.6043
▁기념하	-11.6044
▁쉴	-11.6045
ness	-11.6046
▁민족주의	-11.6046
▁수송기	-11.6047
▁불행한	-11.6048
▁책상	-11.6048
▁찔	-11.6048
▁최다	-11.6049
▁보잉사	-11.6049
▁루트	-11.605
▁레비	-11.6051
▁입원해	-11.6051
▁끝나기	-11.6051
▁벌인다	-11.6051
브레	-11.6054
▁기준에	-11.6055
▁우수	-11.6058
▁은신	-11.6059
▁퓨	-11.606
▁가담한	-11.6061
▁나포	-11.6063
바드	-11.6067
▁저하	-11.6068
▁천국	-11.6068
▁질병에	-11.6071
▁구속력	-11.6072
▁산책로	-11.6074
▁개체	-11.6075
▁국가적	-11.6076
▁자질	-11.6077
▁복도	-11.6078
▁나노	-11.6079
▁명절	-11.6079
▁예상한	-11.608
▁cut	-11.6083
▁스트리트	-11.6084
▁상징으로	-11.6085
▁한창	-11.6086
▁inc	-11.6087
▁주행	-11.6094
▁urge	-11.6096
ism	-11.6097
▁컬	-11.6097
▁모색하고	-11.61
ey	-11.6107
▁언론들	-11.6109
▁국경지역에서	-11.6115
▁정서	-11.6115
▁중단되	-11.6117
▁여론조사에	-11.612
▁이겼다	-11.6124
▁교류	-11.6125
▁호전	-11.6127
▁병장	-11.6129
▁가시	-11.6129
▁건스	-11.6131
▁적들	-11.6133
▁다닐	-11.6135
▁인사들과	-11.6136
▁인종적	-11.6139
▁단계로	-11.6141
ling	-11.6144
▁추방된	-11.6146
▁석유회사	-11.6161
▁진압하기	-11.6161
▁지시한	-11.6162
▁법규	-11.6164
정치	-11.6164
▁매도	-11.6166
▁남쪽에	-11.6167
▁청문회에서	-11.6171
타카	-11.6187
▁고독	-11.6188
▁클레이	-11.6193
▁che	-11.6193
▁사원에	-11.6196
▁희생됐다	-11.6197
▁행복한	-11.6201
▁실직자	-11.6207
action	-11.6208
▁추측이	-11.6209
arly	-11.6209
▁도발적	-11.6209
▁권했다	-11.6216
▁분주	-11.6216
곳	-11.6216
men	-11.6217
▁조심스럽	-11.6217
▁물건들	-11.6217
▁크루	-11.6226
▁이재민들	-11.6229
▁결혼한	-11.623
▁자랑하	-11.6233
▁프린	-11.6234
▁얼굴에	-11.6243
▁목적지	-11.6259
가렛	-11.626
마라	-11.626
▁시드니에서	-11.6262
▁아나	-11.6263
▁의거	-11.6263
▁거부할	-11.6264
▁환경에서	-11.6264
빨	-11.6266
▁참여하고	-11.6272
▁wid	-11.6273
▁증상이	-11.6274
▁콜로	-11.628
닐	-11.6287
▁때보다	-11.6288
▁자원봉사자들	-11.6289
▁부각	-11.6293
▁보스	-11.6293
▁이르다	-11.6293
보면	-11.6294
▁주어진	-11.6295
베라	-11.6295
▁살아있	-11.63
▁동원됐다	-11.6303
▁져야	-11.6303
hot	-11.6303
▁섭	-11.6303
밤	-11.6304
▁번호	-11.6304
▁임원들	-11.6304
▁프로그램들	-11.6311
▁bp	-11.6311
▁이어져	-11.6311
루드	-11.6313
▁만들어지	-11.6316
랩	-11.6319
ali	-11.6321
턱	-11.6322
붙	-11.6322
화씨	-11.6322
시리즈	-11.6323
▁지지해	-11.6323
▁소녀들	-11.6324
뒤	-11.6324
최초	-11.6324
진압	-11.6335
▁비난해	-11.6339
▁세상에	-11.6343
▁어기	-11.6345
▁북쪽에	-11.635
▁후보였	-11.6352
▁죽었	-11.6352
ler	-11.6352
▁국무장관과	-11.6368
▁마티	-11.6373
▁os	-11.6376
▁미미	-11.638
▁부문에	-11.6381
▁아프간군	-11.6382
방식	-11.6383
▁조사관들	-11.6393
바락	-11.6397
스트라	-11.64
▁레인	-11.64
▁권장	-11.6403
▁사용된다	-11.6403
▁명이었다	-11.6414
▁별장	-11.6417
▁이동하	-11.6418
자키	-11.6421
▁위원회에서	-11.6423
▁기독교인	-11.6423
철도	-11.643
▁제작했다	-11.6432
▁느끼지	-11.6441
▁상반	-11.6442
▁죽고	-11.6445
▁생겼	-11.6446
▁시달리	-11.6446
마트	-11.6452
▁노출된	-11.6456
▁다해	-11.6463
▁롱	-11.6465
심리	-11.6466
관리국	-11.6473
▁손실이	-11.6474
▁따르지	-11.6476
▁전차	-11.6478
▁촉진시키	-11.648
지역으로	-11.6483
▁설명하지	-11.6498
▁허용했다	-11.6499
▁좋았	-11.6501
▁현대적	-11.6504
▁존재하	-11.6506
▁유학	-11.6508
▁단계에서	-11.651
▁벌이다	-11.6513
▁corp	-11.6519
▁덧붙였	-11.6519
▁훔	-11.652
▁계열	-11.6521
대학교	-11.6522
▁극단주의	-11.6522
▁역설	-11.6525
▁바람직	-11.6527
옹	-11.6534
▁신행정수도	-11.6535
▁set	-11.6535
▁kill	-11.6536
▁힌두	-11.6537
▁살모넬라	-11.6537
▁business	-11.6537
▁california	-11.6537
▁committee	-11.6537
▁dead	-11.6537
▁epl	-11.6537
▁expect	-11.6537
▁grow	-11.6537
▁isaf	-11.6537
▁million	-11.6537
▁nhc	-11.6537
▁paris	-11.6537
▁return	-11.6537
▁개성공단	-11.6537
▁걸림돌	-11.6537
▁경기후퇴	-11.6537
▁국제올림픽위원회	-11.6537
▁금강산	-11.6537
▁긱스	-11.6537
▁남우주연상	-11.6537
▁뉴잉글랜드	-11.6537
▁늦추	-11.6537
▁독극물	-11.6537
▁라크시미	-11.6537
▁부패혐의	-11.6537
▁상임이사국	-11.6537
▁새크라멘토	-11.6537
▁샌안토니오	-11.6537
▁서둘러	-11.6537
▁선거기부금	-11.6537
▁세골렌	-11.6537
▁아프카니스탄	-11.6537
▁악천후	-11.6537
▁애슐리	-11.6537
▁엑스파일	-11.6537
▁여러차례	-11.6537
▁옮겼다	-11.6537
▁유엔사무총장	-11.6537
▁이바노비치	-11.6537
▁재결합	-11.6537
▁제퍼슨	-11.6537
▁지켰다	-11.6537
▁췌장암	-11.6537
▁쿠즈넷소바	-11.6537
▁키티호크	-11.6537
▁하드웨어	-11.6537
▁헐리우드	-11.6537
▁홍석현	-11.6537
▁화성탐사	-11.6537
▁히스패닉	-11.6537
쥬	-11.6537
쯔	-11.6537
캇	-11.6537
▁불공정	-11.6537
▁유동성	-11.6537
▁깁슨	-11.6537
▁나타날	-11.6537
▁석유수출	-11.6537
▁추기경	-11.6537
▁대법관	-11.6537
▁스프레이	-11.6537
▁승부차기	-11.6537
▁희귀	-11.6537
▁깁스	-11.6537
▁다둘라	-11.6537
▁루카스	-11.6537
▁산체스	-11.6537
▁하니야	-11.6537
▁회교도	-11.6537
▁백과사전	-11.6537
▁어쩔	-11.6537
▁즐겁	-11.6537
▁무효	-11.6537
▁욕구	-11.6537
▁개구리	-11.6537
▁바시르	-11.6537
▁music	-11.6538
▁height	-11.6538
▁플루	-11.6538
▁캐롤라인	-11.6538
▁진짜	-11.6538
▁진상조사	-11.6538
▁어렸을	-11.6538
▁교도통신	-11.6538
ress	-11.6538
▁적혀있	-11.6538
▁글로리아	-11.6538
▁게이머	-11.6538
▁탈퇴	-11.6538
▁바레인	-11.6538
▁즐겨	-11.6538
▁기념행사	-11.6538
▁sex	-11.6539
▁밀매	-11.6539
▁four	-11.6539
▁항구도시	-11.6539
▁출현	-11.6539
▁궁금	-11.6539
▁잠자리	-11.6539
▁진척	-11.6539
▁그만두	-11.6539
▁핵연료	-11.6539
▁uci	-11.6539
▁벌어질	-11.6539
▁대위	-11.654
▁big	-11.654
▁오래전부터	-11.654
▁어워드	-11.654
▁case	-11.654
▁내보냈	-11.654
▁양육	-11.654
▁잠겨	-11.654
▁어윈	-11.6541
▁쿠마르	-11.6541
▁컬럼비아호	-11.6541
▁사진기자	-11.6541
▁액체	-11.6541
▁주어지	-11.6541
▁들어올	-11.6541
▁소방서	-11.6541
▁빙산	-11.6541
▁디젤	-11.6541
▁평화협정	-11.6541
▁호황	-11.6542
▁실망감	-11.6542
▁무척	-11.6542
▁찰리	-11.6542
▁오디오	-11.6542
▁야채	-11.6542
▁변호사와	-11.6542
▁루머	-11.6543
imp	-11.6543
▁이어갔다	-11.6544
▁돌파구	-11.6544
▁국제축구연맹	-11.6544
▁오리건주	-11.6544
▁항공편	-11.6544
▁중동평화회의	-11.6545
▁attacks	-11.6545
▁에밀리	-11.6545
▁지하실	-11.6545
▁기네스	-11.6545
▁의논	-11.6546
▁수익금	-11.6546
▁변호인단	-11.6546
▁충성	-11.6547
▁강철	-11.6547
▁꺼내	-11.6548
▁누출	-11.6548
▁이뤘	-11.6549
▁빅토	-11.6549
▁모여들었다	-11.6549
▁과속	-11.6549
▁왕조	-11.6549
▁집결	-11.655
▁지었다	-11.655
▁과감	-11.6551
▁현저	-11.6551
▁출산율	-11.6551
▁탈선	-11.6552
▁밝혀질	-11.6552
▁진동	-11.6552
▁제왕	-11.6552
▁기대감	-11.6553
▁ces	-11.6553
▁어류	-11.6553
▁망치	-11.6553
▁궁극적으로	-11.6554
▁표본	-11.6555
▁부의장	-11.6555
클라	-11.6555
▁아담스	-11.6556
▁종사하	-11.6556
▁bid	-11.6557
▁소유즈	-11.6558
▁드물	-11.6559
▁로렌스	-11.6561
▁won	-11.6562
▁통제권	-11.6562
▁만평	-11.6562
▁비스타	-11.6562
▁정복	-11.6563
▁않을까	-11.6563
▁토티	-11.6565
▁상태였	-11.6565
▁코란	-11.6565
▁감당	-11.6567
▁king	-11.6567
▁안았다	-11.6568
eic	-11.6569
▁난관	-11.657
▁말레이시아에서	-11.657
주간	-11.6571
▁관람객	-11.6571
▁친미	-11.6571
▁재계	-11.6572
▁요청했	-11.6572
▁조장하	-11.6573
▁로렌	-11.6574
▁점유	-11.6575
▁거래되	-11.6575
▁사료	-11.6576
▁알아야	-11.6576
▁적법	-11.6576
▁수사팀	-11.6576
▁가져야	-11.6578
프랑	-11.6578
▁분개	-11.6579
▁성실	-11.658
▁표결에	-11.6581
▁준결승전에서	-11.6582
▁썩	-11.6582
▁파이낸셜	-11.6582
▁거울	-11.6582
▁북극해	-11.6583
거래소	-11.6585
▁주관	-11.6585
▁독자적	-11.6586
▁자재	-11.6586
자산	-11.6587
▁되는데	-11.6588
▁원형	-11.6588
▁불량	-11.6588
▁금지했다	-11.6589
▁옮겨졌다	-11.659
▁소비자들에게	-11.6593
▁운동화	-11.6595
▁스티븐스	-11.6598
▁분리된	-11.6599
▁야드	-11.6599
▁바탕으로	-11.6601
▁벗어나기	-11.6601
▁변하지	-11.6601
▁리마	-11.6602
▁제압	-11.6604
▁가혹한	-11.6604
▁지냈다	-11.6604
▁되자	-11.6608
▁확정됐다	-11.661
▁franc	-11.661
▁체스	-11.6612
▁선교	-11.6613
▁새우	-11.6617
▁눈으로	-11.6617
▁청와대에서	-11.662
▁그녀에게	-11.662
▁음식점	-11.662
▁계획이었다	-11.6621
링턴	-11.6623
▁계약서	-11.6624
▁배우들	-11.6624
▁자국민	-11.6626
▁주말까지	-11.6627
▁군용	-11.663
▁발표되	-11.6631
▁명씩	-11.6634
▁쿠폰	-11.6635
▁클라인	-11.6635
▁내역	-11.664
▁bet	-11.6643
▁반대해	-11.6644
▁삼바	-11.6644
▁카라치에서	-11.6648
▁선서	-11.665
▁육지	-11.6651
▁위권	-11.6652
▁지질학	-11.666
▁축하하기	-11.6662
▁중심부에서	-11.6663
▁충격적	-11.6668
▁나빠	-11.6673
▁한국어	-11.6676
▁공약으로	-11.6676
탈루	-11.6676
▁트럭에	-11.6678
▁다양성	-11.6683
▁바꾸기	-11.6688
▁자동차회사	-11.6689
▁생사	-11.6691
▁생명에	-11.6694
▁통제하는	-11.6705
▁대미	-11.6708
▁철회할	-11.6715
▁떠나기	-11.6716
▁가루	-11.672
▁사령부	-11.6723
▁담당하	-11.6724
▁농구	-11.6725
▁농장에서	-11.6726
▁우주국	-11.6732
▁사라져	-11.6735
▁플로리다에서	-11.6741
▁주식시장에서	-11.6747
▁신뢰도	-11.6756
wi	-11.6759
▁생산성	-11.6762
▁타계했다	-11.6769
▁결정적	-11.6774
▁다녀	-11.6775
코브	-11.6775
하드	-11.6778
▁자백	-11.678
▁under	-11.6781
nts	-11.6784
▁컴	-11.6787
▁살아있다	-11.6788
▁부위에	-11.6791
▁베니스	-11.6792
▁관중들	-11.6793
▁화면에	-11.6797
워크	-11.6803
▁예루살렘에서	-11.6804
▁장애인	-11.6805
▁시신들	-11.6815
▁회사측	-11.6817
▁허가했다	-11.6818
▁합류했다	-11.6829
▁통신원	-11.6832
▁중심부에	-11.6833
▁참석자들	-11.6835
▁혁신적	-11.6839
▁그외	-11.6842
▁중단해야	-11.6847
상태에	-11.6847
▁당사자들	-11.6848
▁의대	-11.6848
▁블로거	-11.6859
▁팀장	-11.6861
▁협력해	-11.6864
▁way	-11.6864
▁웬	-11.6865
하든	-11.687
바오	-11.6873
▁흔적이	-11.6879
▁거점	-11.6881
▁개별	-11.6882
드미	-11.6885
▁폭도	-11.6887
▁자백했다	-11.6888
▁보니	-11.6891
▁환자에게	-11.6891
▁정부측	-11.6895
죽	-11.6896
▁회의적	-11.69
▁제공되	-11.6902
▁거주자	-11.6902
▁파티에	-11.6904
con	-11.6906
▁마련하고	-11.6906
space	-11.6907
랭킹	-11.6912
▁물자	-11.6912
검찰	-11.6913
▁납부	-11.6914
▁라만	-11.6914
▁지휘자	-11.6915
▁흥분한	-11.6918
업무	-11.6921
▁제한된	-11.6922
▁냈	-11.6923
ore	-11.6924
▁출연할	-11.6926
▁이해하는	-11.6926
집단	-11.6927
▁딸들	-11.6927
누르	-11.6928
라프	-11.6931
▁시작된다	-11.6932
▁존재하지	-11.6934
▁집권한	-11.6934
신청	-11.6937
▁전화기	-11.6941
원장	-11.6942
타스	-11.6952
▁사자	-11.6955
▁보장하	-11.6962
시절	-11.6963
중단	-11.6965
▁대중들	-11.697
▁pm	-11.6971
▁텐	-11.6972
▁신자들	-11.6976
▁감소하고	-11.6986
▁넘었다	-11.6991
▁전해진	-11.6996
중국	-11.7008
▁학자	-11.701
▁발사됐다	-11.7013
감시	-11.7014
ator	-11.7018
▁작동되	-11.7022
▁알았	-11.7029
▁보라	-11.7036
▁정해	-11.7044
▁적었다	-11.7045
▁일생	-11.7046
글판	-11.7047
운영	-11.7051
▁대항하는	-11.7051
▁경제학	-11.7056
보관소	-11.7058
▁취하기	-11.7059
▁유독	-11.706
▁다나	-11.7063
▁분리주의	-11.7078
▁나토군이	-11.7083
▁해변에	-11.7088
▁cas	-11.709
▁소실	-11.7091
받았	-11.7092
▁메디컬	-11.7099
▁주차장	-11.711
혁	-11.7111
▁미시건	-11.7112
▁브랜	-11.7115
▁이슬람교도들	-11.7115
▁준결승	-11.7116
▁오프	-11.7116
셉	-11.7121
둬	-11.7122
▁worker	-11.7123
륜	-11.7124
왓	-11.7124
툰	-11.7125
▁church	-11.7126
▁demand	-11.7126
▁eads	-11.7126
▁earth	-11.7126
▁industr	-11.7126
▁iwc	-11.7126
▁organization	-11.7126
▁program	-11.7126
▁unhcr	-11.7126
▁고르바초프	-11.7126
▁공상과학	-11.7126
▁구소련	-11.7126
▁뇌졸중	-11.7126
▁더글라스	-11.7126
▁듣게	-11.7126
▁리우데자네이루	-11.7126
▁메릴린치	-11.7126
▁몰랐다	-11.7126
▁미확인	-11.7126
▁민주노동당	-11.7126
▁바나프샤	-11.7126
▁볼티모어	-11.7126
▁블래터	-11.7126
▁빈민층	-11.7126
▁스필버그	-11.7126
▁시에라리온	-11.7126
▁식품의약국	-11.7126
▁신시내티	-11.7126
▁아디다스	-11.7126
▁암스테르담	-11.7126
▁여중생	-11.7126
▁예방접종	-11.7126
▁위태롭게	-11.7126
▁인신매매	-11.7126
▁정찰위성	-11.7126
▁조류독감	-11.7126
▁좁혀	-11.7126
▁준이치로	-11.7126
▁찍어	-11.7126
▁타이타닉	-11.7126
▁통합민주당	-11.7126
▁트러스트	-11.7126
▁트리폴리	-11.7126
▁포유류	-11.7126
▁햇빛	-11.7126
▁흩어져	-11.7126
띤	-11.7126
퐁	-11.7126
▁마스터즈	-11.7126
▁상무부	-11.7126
▁언젠가	-11.7126
▁자페타	-11.7126
▁정보통신부	-11.7126
▁항공모함	-11.7126
▁헤드폰	-11.7126
▁확립	-11.7126
샨	-11.7126
▁irna	-11.7126
▁kbs	-11.7126
▁낭독	-11.7126
▁사이언스	-11.7126
▁영업이익	-11.7126
▁존엄성	-11.7126
▁다이어트	-11.7126
▁메이도프	-11.7126
▁에스트라다	-11.7126
▁타디치	-11.7126
▁어울리	-11.7126
▁노던록	-11.7126
▁흥정	-11.7126
▁버나드	-11.7126
▁카펫	-11.7126
▁스틸러스	-11.7126
▁대성당	-11.7126
▁치뤄	-11.7126
▁놀이공원	-11.7126
▁쿼터백	-11.7126
▁버크헤드	-11.7126
▁사진작가	-11.7126
▁고등학생	-11.7126
▁강대국	-11.7126
▁패트로스	-11.7126
cross	-11.7126
▁검정색	-11.7126
▁senate	-11.7126
▁thai	-11.7126
▁슬픈	-11.7126
▁북아일랜드	-11.7126
▁경수로	-11.7126
▁트랙	-11.7126
▁작가조합	-11.7126
▁정착촌	-11.7126
▁고아원	-11.7126
▁출혈	-11.7126
▁국영언론	-11.7126
▁당뇨병	-11.7126
▁씨앗	-11.7126
▁도망쳤다	-11.7126
▁체험	-11.7126
▁블랙홀	-11.7126
▁gdp	-11.7127
▁클릭	-11.7127
▁휴전협정	-11.7127
▁검역	-11.7127
▁식별	-11.7127
▁볼드윈	-11.7127
▁극도로	-11.7127
▁헬렌	-11.7127
▁항의시위	-11.7128
▁총파업	-11.7128
▁십자가	-11.7128
▁리옹	-11.7128
▁tsa	-11.7128
▁유대교	-11.7128
▁출처	-11.7128
▁신흥	-11.7128
▁축복	-11.7128
▁키팅	-11.7128
▁계승	-11.7128
▁다저스	-11.7129
▁force	-11.7129
▁조세프	-11.7129
▁무효화	-11.7129
▁몰락	-11.7129
▁부활절	-11.7129
▁cru	-11.713
▁탄원서	-11.713
▁절망	-11.713
▁크랜	-11.713
▁연립	-11.713
▁무장조직	-11.713
▁살인사건	-11.713
무차관	-11.7131
▁내륙	-11.7131
▁용감	-11.7131
▁올라왔다	-11.7131
▁보건장관	-11.7131
▁mtv	-11.7131
▁ask	-11.7131
▁특혜	-11.7131
▁머무르	-11.7132
▁제휴	-11.7132
▁작위	-11.7132
▁완구	-11.7132
▁경쟁자들	-11.7132
▁엔론	-11.7132
▁프린트	-11.7133
▁최신작	-11.7133
▁흠	-11.7133
▁운용	-11.7133
▁야망	-11.7134
▁소년병	-11.7134
▁국민과	-11.7134
▁피켓	-11.7134
▁act	-11.7135
▁환경단체	-11.7135
▁청산	-11.7135
▁바다위	-11.7135
▁켄트	-11.7135
▁돌렸다	-11.7135
▁절정	-11.7136
▁종목	-11.7136
▁로리언	-11.7136
▁근방	-11.7136
▁물리학자	-11.7136
▁상환	-11.7137
▁견제	-11.7137
▁열광	-11.7137
▁죽어	-11.7138
▁최장	-11.7138
▁넘긴	-11.7138
▁최적	-11.7138
▁통신망	-11.7138
▁오델	-11.7138
▁폴락	-11.7139
▁할렘	-11.714
▁강탈	-11.7141
▁aids	-11.7142
▁귀중	-11.7142
▁국무회의	-11.7142
▁관제	-11.7143
▁years	-11.7143
▁차이점	-11.7144
▁공석	-11.7145
▁오찬	-11.7145
▁동점	-11.7145
▁황소	-11.7146
▁일부에서	-11.7146
▁결정하는	-11.7147
▁악수	-11.7149
▁휴전선	-11.7149
ird	-11.7151
▁경찰국장	-11.7151
▁배출량	-11.7151
▁밀크	-11.7152
▁타워	-11.7153
▁지상군	-11.7154
▁격전	-11.7154
▁테크	-11.7154
▁주의보	-11.7157
▁관점	-11.7157
▁결선	-11.7157
▁어조	-11.7157
▁배아줄기세포	-11.7159
▁인터내셔널	-11.7159
▁소포	-11.716
▁파란	-11.716
▁도보	-11.716
▁틸리	-11.7161
▁원석	-11.7161
ham	-11.7161
▁진술서	-11.7162
▁정문	-11.7162
▁관용	-11.7163
▁의장직	-11.7167
없	-11.7168
▁되도록	-11.7169
▁체력	-11.7169
▁실명	-11.717
▁중요하게	-11.717
▁보내졌다	-11.7171
▁부친	-11.7171
▁다량	-11.7172
▁캐시	-11.7173
▁실업자	-11.7173
▁메모리얼	-11.7173
▁쇼에서	-11.7175
▁기자실	-11.7175
▁찾아야	-11.7177
▁통과시키	-11.7178
▁희생된	-11.7178
학술	-11.7178
▁베일	-11.7178
▁내외	-11.7178
됐음	-11.7182
▁처사	-11.7182
▁천원	-11.7184
▁고객들에게	-11.7186
군사훈련	-11.7186
▁뻔	-11.7186
▁수천만	-11.7188
▁아마드	-11.7189
▁반대파	-11.7191
▁구조물	-11.7191
▁에너지부	-11.7191
행해진	-11.7192
▁마신	-11.7192
▁헌법상	-11.7195
투성이	-11.7195
▁넘쳐	-11.7196
▁사업체	-11.7197
▁불법적으로	-11.7198
▁숨어있	-11.72
▁노동조합	-11.72
ama	-11.7201
▁빛나	-11.7201
리프	-11.7201
▁마카	-11.7202
▁공동체	-11.7204
go	-11.7206
▁손잡	-11.7206
▁민주당원	-11.7207
▁양식	-11.7207
▁정찰기	-11.7209
▁이슬람교도	-11.721
▁부탁했다	-11.7213
▁소치	-11.7214
▁유지될	-11.7214
▁장르	-11.7219
▁교장	-11.7219
▁시급	-11.7223
▁딱	-11.7227
▁패했다	-11.7228
▁집계됐다	-11.7228
▁기지에서	-11.7233
▁급락했다	-11.7237
▁주었	-11.7238
운동단체	-11.7239
▁놈	-11.7241
▁세울	-11.7244
▁크리	-11.7246
▁말하자	-11.7246
▁부모님	-11.7246
▁범인들	-11.7246
▁영화계	-11.7247
▁미렌	-11.725
헌재	-11.725
▁오르지	-11.7252
▁피지	-11.7254
▁합의했	-11.7255
▁태워	-11.7256
▁억명	-11.7256
▁꼬	-11.7259
well	-11.7261
▁문화원	-11.7264
▁수염	-11.7264
▁맞이했다	-11.7265
▁개통	-11.7266
로윈	-11.7267
▁셈	-11.7268
▁묵인	-11.727
▁신청했다	-11.7271
▁자카르타에서	-11.7271
▁자동차업체	-11.7273
블라	-11.7274
롤라	-11.7274
▁당선되	-11.7275
사르	-11.7278
▁승리해야	-11.7278
▁후회	-11.7279
▁총리실	-11.728
▁볼트	-11.728
▁홀리	-11.7281
▁건물들이	-11.7282
때로	-11.7285
▁지역구	-11.7289
▁보석으로	-11.729
▁살기	-11.729
▁수출국	-11.7291
▁조니	-11.7294
▁대구	-11.7295
▁워싱턴주	-11.7299
▁자진	-11.7304
▁비슷하다	-11.7307
▁해안지역	-11.7309
▁깨어	-11.7311
▁향상시키	-11.7312
프레드	-11.7315
▁재개했다	-11.7317
▁gra	-11.7322
▁한동안	-11.7327
▁파장	-11.7328
▁개제	-11.7332
▁채워	-11.7334
▁대응하기	-11.7335
▁뷰	-11.7336
▁갖지	-11.7337
▁목장	-11.7341
▁않았었다	-11.7348
▁발견되었	-11.7352
▁왔었다	-11.7356
▁흥미로	-11.7356
베르트	-11.7358
▁지도부와	-11.736
▁뒷받침	-11.7375
▁일축	-11.7376
▁사망률	-11.7381
ash	-11.7388
▁정했다	-11.7389
담당자	-11.7393
▁장착한	-11.7394
인민당	-11.7399
▁유가족들	-11.74
▁전후	-11.7405
나단	-11.7406
▁이민자	-11.7407
▁수니파와	-11.7411
▁당사자	-11.7413
▁일으키고	-11.7415
▁월경	-11.7418
데라	-11.7419
▁누구에게	-11.742
▁장군과	-11.7422
▁모아이	-11.7424
▁위력	-11.7424
▁초까지	-11.7427
노동자당	-11.7428
호선	-11.7429
▁하늘에서	-11.7431
▁잠들	-11.7431
▁터지	-11.7433
대비	-11.7433
▁없다면	-11.7435
론자	-11.7441
▁도드	-11.7443
time	-11.7449
ube	-11.7451
▁패배한	-11.7453
▁올라와	-11.7456
▁보자	-11.7459
▁아들에게	-11.7462
▁천장	-11.7469
▁사라졌	-11.7472
▁경매에서	-11.7472
▁여러분이	-11.7481
▁임명됐다	-11.7488
▁생물학자	-11.7491
최	-11.7495
해냈다	-11.7502
▁보이기	-11.7507
▁str	-11.751
nois	-11.7511
정지	-11.7513
▁바라지	-11.7514
▁청년들	-11.7519
▁실시하고	-11.7519
꾸	-11.7526
▁대행	-11.7526
▁베니	-11.7529
▁지원자들	-11.753
▁사르	-11.753
틸	-11.753
뷰	-11.7531
▁인용했다	-11.7532
눈	-11.7532
프로그램	-11.7533
공화국	-11.7536
잘	-11.7537
▁타계	-11.7538
테니스	-11.7538
반응	-11.7539
처분	-11.7542
바라크	-11.7547
▁시작되었	-11.7548
▁실적이	-11.7561
▁조각들	-11.7564
방위	-11.7565
재정	-11.7566
tory	-11.7568
▁주도했다	-11.7569
▁영하	-11.757
▁토론회에	-11.7575
had	-11.7577
▁통상적	-11.7577
▁유명인사들	-11.7578
아래	-11.7583
▁폭도들	-11.7588
쿠르	-11.7588
▁만부	-11.7592
▁유튜브에	-11.7597
▁맺어	-11.7599
▁jon	-11.7603
▁강타했다	-11.7607
▁죽음으로	-11.7612
▁제압하	-11.7616
▁기여한	-11.7622
ble	-11.7627
▁해결되	-11.7628
▁사유	-11.7631
▁지장	-11.7638
▁바커	-11.7639
▁비공식적	-11.7645
▁라벨	-11.7646
▁힘들어	-11.7648
▁선보이	-11.7657
▁베드	-11.7657
▁정당한	-11.7664
▁come	-11.7667
▁않겠	-11.7673
▁불확실	-11.7673
▁생각했	-11.7675
▁다르지	-11.7675
▁태우	-11.7678
▁선호하	-11.7683
표한다	-11.7684
▁생중계	-11.7684
저널	-11.7686
▁베트남전	-11.7687
▁스타디움	-11.7688
rate	-11.7688
▁달링	-11.769
▁타마	-11.7692
▁시도했으	-11.7698
▁모국	-11.7708
▁관람객들	-11.7714
▁시위대들	-11.7714
▁거뒀	-11.7715
▁연구실	-11.7727
국적	-11.7729
▁빠졌	-11.773
▁알렉산드	-11.7733
▁천문학	-11.7734
▁전해드	-11.7735
▁팬이	-11.7737
금치	-11.7737
ana	-11.7742
dom	-11.7743
▁면역	-11.7745
own	-11.7749
▁불러일으	-11.7749
▁수마트라	-11.775
▁trans	-11.775
톡	-11.775
▁냉각	-11.775
▁academy	-11.7751
▁capital	-11.7751
▁christ	-11.7751
▁conference	-11.7751
▁country	-11.7751
▁institute	-11.7751
▁job	-11.7751
▁second	-11.7751
▁갤론	-11.7751
▁건강검진	-11.7751
▁국가평의회	-11.7751
▁나미비아	-11.7751
▁나폴리타노	-11.7751
▁남동생	-11.7751
▁냉장고	-11.7751
▁대검찰청	-11.7751
▁디카프리오	-11.7751
▁떠올랐다	-11.7751
▁래드클리프	-11.7751
▁리투아니아	-11.7751
▁멜버른	-11.7751
▁멤피스	-11.7751
▁모레스모	-11.7751
▁바랐다	-11.7751
▁밸리	-11.7751
▁부동층	-11.7751
▁부총재	-11.7751
▁불균형	-11.7751
▁불러일으켰다	-11.7751
▁블록버스터	-11.7751
▁사무차장	-11.7751
▁사이언톨로지	-11.7751
▁알츠하이머	-11.7751
▁알카티리	-11.7751
▁옥수수	-11.7751
▁옵션	-11.7751
▁이스마일	-11.7751
▁전자메일	-11.7751
▁찾으려	-11.7751
▁츠방기라이	-11.7751
▁카르발라	-11.7751
▁퀘벡	-11.7751
▁트레일러	-11.7751
▁프랑크푸르트	-11.7751
▁플레이스테이션	-11.7751
▁혹등고래	-11.7751
▁휠체어	-11.7751
▁흡입	-11.7751
랏	-11.7751
쑤	-11.7751
윅	-11.7751
팡	-11.7751
▁기울여야	-11.7751
▁매몰된	-11.7751
▁배트맨	-11.7751
▁볼리비아	-11.7751
▁재경부	-11.7751
▁헬만드	-11.7751
벵	-11.7751
▁구속영장	-11.7751
▁비무장지대	-11.7751
▁인수제안	-11.7751
▁리브니	-11.7751
▁사로잡	-11.7751
▁산악지대	-11.7751
▁레코드	-11.7751
▁서두르	-11.7751
▁wall	-11.7751
▁메케인	-11.7751
▁스콜스	-11.7751
▁자위대	-11.7751
▁중질유	-11.7751
▁산시성	-11.7751
▁원동력	-11.7751
▁따돌렸	-11.7751
▁로드아일랜드	-11.7751
▁불가사의	-11.7751
▁africa	-11.7751
▁수수료	-11.7751
▁희미	-11.7751
▁올림피	-11.7751
▁threaten	-11.7751
▁깨달았다	-11.7751
▁엘리엇	-11.7751
▁화학물질	-11.7751
▁train	-11.7751
▁bomb	-11.7751
▁압델	-11.7751
▁그래미	-11.7751
▁벗겨	-11.7751
▁메인주	-11.7752
▁철폐	-11.7752
▁레빈슨	-11.7752
▁변했다	-11.7752
▁교훈	-11.7752
▁국가안보회의	-11.7752
▁trial	-11.7752
▁watch	-11.7752
기동대	-11.7752
▁봉투	-11.7752
▁추억	-11.7752
▁헤엄	-11.7752
▁list	-11.7752
▁도서관	-11.7753
▁불륜	-11.7753
▁차량폭탄	-11.7753
▁당첨	-11.7753
▁abn	-11.7753
▁별칭	-11.7753
▁마피아	-11.7753
▁부대변인	-11.7753
▁숙박	-11.7753
▁슬림	-11.7753
▁멜론	-11.7753
▁그레그	-11.7753
▁killed	-11.7753
▁게시물	-11.7753
▁이루어졌	-11.7753
▁입후보	-11.7753
▁도둑	-11.7753
▁스튜	-11.7754
▁축구선수	-11.7754
▁우주여행	-11.7754
▁놀라움	-11.7754
▁장례	-11.7754
▁생애	-11.7754
▁대리모	-11.7754
▁정몽	-11.7754
▁예상됩니다	-11.7754
▁알라위	-11.7754
▁필름	-11.7754
▁지불했다	-11.7755
▁나눈	-11.7755
▁파키스탄인민당	-11.7755
▁벤처	-11.7756
▁케이프	-11.7756
▁청원서	-11.7756
▁대슐	-11.7756
▁제국주의	-11.7756
▁공헌	-11.7756
▁급증했다	-11.7756
▁로빈슨	-11.7756
▁집값	-11.7756
▁스토	-11.7756
▁태생	-11.7757
▁라마	-11.7757
▁신기록	-11.7757
▁우편물	-11.7757
▁범죄행위	-11.7757
▁출입국	-11.7757
▁프로스트	-11.7757
▁오웬	-11.7757
▁단결	-11.7757
▁생생	-11.7758
▁학계	-11.7758
▁누구인지	-11.7758
▁홀더	-11.7758
▁인권문제	-11.7758
▁단편	-11.7758
▁관통	-11.7758
▁공공연	-11.7758
▁증파	-11.7758
▁랜디	-11.7758
▁팻	-11.7759
▁절실	-11.7759
▁코웰	-11.7759
▁조롱	-11.776
▁불법행위	-11.776
▁대피시켰다	-11.776
▁지방정부	-11.776
▁법무상	-11.776
▁언니	-11.776
▁centr	-11.776
▁레빈	-11.776
▁자동차산업	-11.776
▁지명되기	-11.7761
▁아델	-11.7763
▁바꾼	-11.7764
▁이맘	-11.7764
▁골절	-11.7764
▁생체	-11.7764
▁조직위	-11.7765
▁물러났다	-11.7765
▁자폭	-11.7765
▁군사정부	-11.7765
▁허브	-11.7765
▁생계	-11.7765
▁od	-11.7765
▁팬더	-11.7766
▁흉내	-11.7766
▁신랑	-11.7766
▁신년	-11.7767
▁실망했다	-11.7767
▁포탄	-11.7767
▁왕관	-11.7767
▁증대	-11.7768
▁무력화	-11.7768
▁놓여있다	-11.7769
▁건축물	-11.7769
▁주연상	-11.7769
▁브라이언트	-11.7769
▁마술	-11.777
▁찾아온	-11.777
▁풀려나	-11.7771
▁루터	-11.7772
▁꾸며	-11.7772
▁해골	-11.7773
▁비축	-11.7774
▁호건	-11.7775
▁변명	-11.7775
▁발판	-11.7775
그너	-11.7776
▁감사원	-11.7777
▁우위	-11.7777
▁과오	-11.7778
▁거액	-11.7778
▁주일간	-11.7779
레이즈	-11.778
▁동의안	-11.778
▁중단시켰다	-11.7781
▁던졌	-11.7781
▁국회의장	-11.7782
▁부분적으로	-11.7782
▁부주의	-11.7782
▁우정	-11.7783
▁외국인들이	-11.7783
▁유실	-11.7784
▁times	-11.7784
▁유로화	-11.7785
펠드	-11.7785
▁찾아냈다	-11.7787
▁states	-11.7787
▁경미	-11.7788
▁there	-11.7788
▁모방	-11.779
▁남북간	-11.779
▁도출	-11.7792
▁궁지에	-11.7794
▁유니버	-11.7794
▁신씨	-11.7796
▁있냐	-11.78
▁궁전	-11.7801
▁깨진	-11.7802
▁반사	-11.7803
▁보았	-11.7803
▁당내	-11.7804
키마	-11.7805
▁차분	-11.7805
▁신차	-11.7805
▁상속	-11.7806
▁자리잡	-11.7807
▁말해주	-11.7809
▁벗기	-11.7809
▁아스	-11.7812
▁하나였다	-11.7812
▁친부	-11.7813
▁주립대학	-11.7815
▁당파	-11.7815
우트	-11.7815
▁등장한다	-11.7815
▁주범	-11.7817
▁박탈당	-11.7818
▁요리사	-11.7819
▁있었는데	-11.7826
▁순교자	-11.7826
▁소매업	-11.7827
▁생산업체	-11.7828
▁주최하	-11.7828
▁연상	-11.7829
▁페어	-11.783
▁정세	-11.7833
▁대금	-11.7833
보라	-11.7833
▁키트	-11.7835
▁소방대원들	-11.7837
▁대개	-11.7845
▁킴	-11.7845
▁정치인들이	-11.7845
▁유발할	-11.7846
공학	-11.7847
▁합쳐	-11.7848
▁east	-11.7852
▁살레	-11.7852
▁밝혀져	-11.7855
▁기뻐	-11.7856
▁섬에서	-11.7859
▁크라	-11.7864
▁경찰서로	-11.7865
▁오바	-11.7868
▁설명할	-11.7868
▁종업원	-11.7871
▁좋아지	-11.7872
▁xp	-11.7874
▁구매자	-11.7874
▁발표되었다	-11.7875
▁제출된	-11.7878
▁늘었다	-11.788
▁교대	-11.788
▁편리	-11.7883
▁개막식에	-11.7884
▁emi	-11.7885
▁의사회	-11.7886
교사	-11.789
▁예외	-11.789
▁펼쳐지	-11.789
▁가속	-11.789
▁위함	-11.7891
▁부모에게	-11.7894
▁죽어가	-11.7895
▁받아들이기	-11.7895
den	-11.79
▁입소	-11.79
▁비판하는	-11.7901
▁영국인들	-11.7902
▁art	-11.7903
렉스	-11.7907
▁코드	-11.791
▁애플사	-11.7911
▁정면	-11.7914
▁직원들에게	-11.7916
▁고민하	-11.7916
▁놓았	-11.7917
▁흙	-11.7917
▁주변국들	-11.7917
▁노르	-11.7917
브론	-11.7918
▁유지해	-11.7919
▁살해되	-11.792
▁dai	-11.7921
공유	-11.7924
▁돌아보	-11.7928
▁테러리스트들이	-11.7928
▁해당한다	-11.7929
키스	-11.793
▁쥐들	-11.7932
받지	-11.7942
▁결승에	-11.7948
▁장갑	-11.795
▁목록에서	-11.795
▁영국으로부터	-11.7951
rm	-11.7956
▁초고속	-11.7962
▁사이트에서	-11.7969
gle	-11.7969
버렸	-11.7972
▁유사하다	-11.7974
ek	-11.7975
▁rate	-11.7975
▁전락	-11.7978
▁올라갔	-11.798
▁남동부에서	-11.7986
▁감정적	-11.799
시피	-11.7995
분별	-11.7996
▁쓰여	-11.7997
▁축출된	-11.8001
▁축구팬들	-11.8005
▁안면	-11.8005
▁단원	-11.8018
▁위헌	-11.8025
▁특성	-11.8026
▁에드로	-11.8028
▁켜	-11.8035
war	-11.8038
버거	-11.804
▁상대적	-11.804
▁파라	-11.8047
▁착륙했다	-11.8048
키야	-11.8052
▁인부	-11.8052
▁탐험가	-11.8057
▁케인	-11.8058
▁죽인	-11.8059
▁베티	-11.8063
▁촉	-11.8067
저스	-11.8068
▁sur	-11.8076
▁아타	-11.8076
▁명중	-11.808
▁슬로	-11.8082
매장	-11.8088
▁나간다	-11.809
▁확산됐다	-11.8102
ague	-11.8103
ka	-11.811
▁yout	-11.8113
▁제조업체들	-11.8114
▁회복할	-11.8121
▁대비하고	-11.8123
늘	-11.8138
▁참석한다	-11.8143
끈	-11.8144
▁묘사한	-11.8146
▁폐쇄됐다	-11.815
▁정보통	-11.815
▁축구팬	-11.8153
▁알려왔	-11.8157
▁관계없	-11.8158
▁압박했다	-11.8159
▁교수들	-11.8167
회사들	-11.817
▁반기	-11.8173
▁인정한다	-11.8181
티브	-11.8182
혹	-11.8183
있게	-11.8184
▁월드컵에서	-11.8189
▁삼아	-11.8194
▁존재한다	-11.8196
사령부	-11.8198
끄	-11.8199
페이스	-11.82
칩	-11.82
엠	-11.82
쥐	-11.8202
잠	-11.8203
▁언론사	-11.8213
▁지나면	-11.8217
km	-11.822
워터	-11.8224
bra	-11.8226
기남	-11.8227
▁열정적	-11.8228
▁신문들	-11.8232
ger	-11.8234
▁딸에게	-11.8244
퍼트	-11.8245
▁방영되	-11.8254
▁전신	-11.8258
▁추진해	-11.8259
트너	-11.826
▁웨스	-11.826
▁연결된	-11.8269
행진	-11.8269
bel	-11.8285
▁나쁘	-11.8286
▁hel	-11.8287
▁인도주의	-11.8292
line	-11.8302
▁이외에	-11.8304
▁들지	-11.8307
연금	-11.8308
▁공적	-11.8309
▁남성에게	-11.8314
사미	-11.8316
▁sw	-11.8323
▁카바	-11.8332
▁경신	-11.8335
▁탈북자들	-11.8339
▁폐쇄하기	-11.8339
▁저질렀	-11.835
▁주마	-11.8351
▁매리	-11.8358
▁공개되	-11.8359
▁적합	-11.8361
▁vote	-11.8362
▁stop	-11.8362
▁순례	-11.8368
▁아파	-11.8371
▁걸렸	-11.8375
▁비싸	-11.8382
략	-11.8382
▁싶었	-11.8384
▁아니었	-11.8388
uch	-11.8396
▁입찰	-11.8397
▁마쳤	-11.8397
▁창립	-11.8397
객들	-11.84
랍	-11.8405
캣	-11.8409
얄	-11.841
홉	-11.8414
▁디스커버리	-11.8414
▁her	-11.8415
▁콜롬	-11.8415
▁마텔	-11.8415
▁도미니	-11.8415
콕	-11.8415
▁원정	-11.8417
▁part	-11.8417
궈	-11.8417
▁오피니언	-11.8417
갓	-11.8417
▁hyun	-11.8417
▁politic	-11.8417
▁alliance	-11.8417
▁depart	-11.8417
▁federal	-11.8417
▁invest	-11.8417
▁iucn	-11.8417
▁joint	-11.8417
▁problem	-11.8417
▁record	-11.8417
▁국제영화제	-11.8417
▁끊겼	-11.8417
▁남태평양	-11.8417
▁다비덴코	-11.8417
▁댓글	-11.8417
▁루고보이	-11.8417
▁만토바니	-11.8417
▁무기징역	-11.8417
▁미식축구	-11.8417
▁발렌시아	-11.8417
▁부드러운	-11.8417
▁세컨드라이프	-11.8417
▁슈퍼마켓	-11.8417
▁아르메니아	-11.8417
▁애틀랜틱	-11.8417
▁어소시에이션	-11.8417
▁유투브	-11.8417
▁잉그리드	-11.8417
▁출퇴근	-11.8417
▁칼데론	-11.8417
▁캠브리지	-11.8417
▁키프로스	-11.8417
▁타임스퀘어	-11.8417
▁티크리트	-11.8417
▁프랑수아	-11.8417
▁하르툼	-11.8417
▁해밀턴	-11.8417
긍	-11.8417
눕	-11.8417
덱	-11.8417
옴	-11.8417
쟈	-11.8417
줌	-11.8417
▁buy	-11.8417
▁major	-11.8417
▁견뎌	-11.8417
▁대배심	-11.8417
▁빈센트	-11.8417
▁서유럽	-11.8417
▁서포터	-11.8417
▁스타워즈	-11.8417
▁시트콤	-11.8417
▁전두환	-11.8417
▁크라이튼	-11.8417
▁파딜라	-11.8417
▁패터슨	-11.8417
wood	-11.8417
▁비정상적	-11.8417
▁아메바	-11.8417
▁어리석	-11.8417
▁즐긴다	-11.8417
▁테러리즘	-11.8417
▁핵폐기	-11.8417
▁georg	-11.8417
▁여기저기	-11.8417
▁은하계	-11.8417
▁dax	-11.8417
▁제레미	-11.8417
▁peta	-11.8417
▁보너스	-11.8417
▁돌려보내	-11.8417
▁바이에른	-11.8417
▁미생물	-11.8417
▁국가안보보좌관	-11.8417
▁유연한	-11.8417
▁종지부	-11.8417
▁금리인하	-11.8417
▁무언가	-11.8417
▁전비법안	-11.8417
▁어쩌	-11.8417
▁아스카리	-11.8417
▁뛰어넘	-11.8417
▁말리부	-11.8418
▁갑작스럽	-11.8418
▁구제금융법안	-11.8418
▁세르게이	-11.8418
▁부녀자	-11.8418
▁선거인단	-11.8418
▁알라스카	-11.8418
▁어둠	-11.8418
▁소비에트	-11.8418
▁벗어났다	-11.8418
▁some	-11.8418
▁산업자원부	-11.8418
▁얼룩말	-11.8418
▁베이징올림픽	-11.8418
▁마지드	-11.8418
▁용도로	-11.8418
▁탈옥	-11.8418
▁소방당국	-11.8418
도날드	-11.8418
▁just	-11.8418
▁작별	-11.8418
▁수감생활	-11.8418
▁낫다	-11.8418
▁thre	-11.8418
▁겨누	-11.8419
▁홈경기	-11.8419
▁건강보험	-11.8419
▁군사행동	-11.8419
▁폭발사고	-11.8419
▁미뤄	-11.8419
▁십먼	-11.8419
▁슈렉	-11.8419
▁포털	-11.8419
▁스마트	-11.8419
▁디즈니랜드	-11.8419
▁북극광	-11.8419
▁루시디	-11.8419
▁약물검사	-11.8419
▁층짜리	-11.842
▁우발적	-11.842
▁피난처	-11.842
▁압류	-11.842
▁날카로	-11.842
▁비밀요원	-11.842
▁콜롬보	-11.842
▁업종	-11.842
▁order	-11.842
▁봉급	-11.842
▁머독	-11.842
▁드럼	-11.842
▁보험회사	-11.842
▁부정행위	-11.842
▁meeting	-11.8421
▁복음	-11.8421
▁give	-11.8421
▁비웃	-11.8421
▁페드로	-11.8421
▁기관총	-11.8421
▁푸른	-11.8421
▁싸워	-11.8421
▁알렉	-11.8421
▁축구스타	-11.8422
▁스노우	-11.8422
▁형편	-11.8422
▁교각	-11.8422
▁근절	-11.8422
▁필사적	-11.8422
▁cac	-11.8422
▁간접	-11.8422
▁케이티	-11.8422
▁결말	-11.8422
▁윈터	-11.8423
▁편견	-11.8423
▁애견	-11.8423
▁투명성	-11.8423
▁무시했다	-11.8423
▁놀란	-11.8423
▁암살사건	-11.8423
▁자치권	-11.8423
▁마쓰	-11.8423
▁합작	-11.8424
▁today	-11.8424
▁로지스	-11.8424
▁하렐	-11.8424
▁짐작	-11.8424
▁아프리카연합	-11.8424
▁에베레스트산	-11.8424
▁반테러	-11.8424
▁girls	-11.8424
▁계급	-11.8424
▁애완용	-11.8424
▁경합	-11.8424
▁듀크	-11.8424
▁요한슨	-11.8425
▁휴회	-11.8426
▁선례	-11.8426
▁헝	-11.8426
▁사망원인	-11.8426
▁속편	-11.8426
▁가디언	-11.8426
랜스	-11.8426
▁소도시	-11.8427
▁주택시장	-11.8427
▁안타깝게	-11.8427
▁난입	-11.8428
▁폭력배	-11.8428
▁실천	-11.8428
▁연합정부	-11.8428
▁상향	-11.8428
▁무례	-11.8428
▁설전	-11.8428
▁발머	-11.8429
▁대국민	-11.8429
▁부시대통령	-11.8429
▁보스톤	-11.8429
▁해산시키기	-11.843
▁변함없	-11.843
▁투자은행	-11.843
▁uk	-11.843
▁평온	-11.8431
▁플래시	-11.8431
해준다	-11.8432
▁과연	-11.8432
▁설비	-11.8432
▁들어설	-11.8433
▁야유	-11.8433
▁버몬트주	-11.8434
▁무레이	-11.8434
▁상업용	-11.8435
▁결단	-11.8435
▁불확실성	-11.8436
▁입건	-11.8436
▁거머쥐었	-11.8437
▁음료수	-11.8437
▁국세청장	-11.8437
▁조엘	-11.8437
▁종교단체	-11.8438
▁org	-11.8438
▁용납하지	-11.8439
▁가장자리	-11.8439
▁당신들	-11.8439
▁매료	-11.844
▁공금	-11.8441
▁담요	-11.8441
▁메모	-11.8441
▁은둔	-11.8441
▁근본주의자들	-11.8442
▁역설했다	-11.8442
▁인권단체들	-11.8442
▁용량	-11.8442
▁속력	-11.8443
▁아샤	-11.8443
▁매복	-11.8445
▁위독	-11.8446
▁난방	-11.8446
▁유영	-11.8447
▁심각성	-11.8448
▁경계선	-11.8448
▁왕비	-11.8448
▁토미	-11.8449
▁천여	-11.8449
▁꺼리	-11.8449
▁요크	-11.845
▁군사위원회	-11.845
▁토레스	-11.845
▁싶었다	-11.8451
▁골드만	-11.8451
스쿨	-11.8452
▁검찰청	-11.8453
▁아쉬	-11.8453
▁mon	-11.8455
▁것인데	-11.8455
▁서점	-11.8455
▁호스트	-11.8455
ior	-11.8455
▁시립	-11.8456
▁커뮤니케이션	-11.8456
▁동부지역	-11.8458
▁로빈	-11.8458
▁펼쳐진	-11.8458
▁거품	-11.846
▁고의적으로	-11.846
▁리츠	-11.846
▁번복	-11.8462
▁소모	-11.8464
▁당부	-11.8465
▁매직	-11.8466
먼트	-11.8466
▁뉴햄프셔주	-11.847
▁관장	-11.8471
▁정치국	-11.8471
▁교리	-11.8471
▁수감돼	-11.8471
▁게르	-11.8471
▁페니	-11.8472
▁money	-11.8472
정규직	-11.8473
▁거주민	-11.8475
▁요구했었다	-11.8476
▁유출된	-11.8477
▁등장했다	-11.848
▁나오기	-11.848
▁설사	-11.848
▁보물	-11.8481
▁메르	-11.8482
▁끝내기	-11.8482
▁오버	-11.8484
▁엄청나	-11.8485
▁함대	-11.8485
▁간직	-11.8486
▁기울이지	-11.8486
▁성범죄자	-11.8486
▁잠재	-11.8489
▁소실됐다	-11.8491
▁기자단	-11.8491
▁옹호하	-11.8492
▁국어	-11.8495
▁나누어	-11.8495
▁로케	-11.8495
▁속해	-11.8499
▁불안해	-11.85
▁외화	-11.85
▁해역에서	-11.8501
▁청장	-11.8501
▁전반전	-11.8502
▁이윤	-11.8503
▁원내	-11.8504
▁구성원들	-11.8505
▁주의회	-11.8507
▁지형	-11.8512
▁알바로	-11.8514
▁기미	-11.8518
▁간주되	-11.8518
▁지원국	-11.8521
▁분단	-11.8527
▁조치들	-11.8527
▁수혈	-11.8529
▁기자였	-11.853
ous	-11.853
▁피랍됐	-11.8531
▁헨	-11.8533
▁밝혀졌	-11.8533
▁기숙사에서	-11.8535
▁키니	-11.8538
▁추적하	-11.8538
▁이루기	-11.8543
ang	-11.8544
▁맛봤	-11.8549
▁건강상	-11.855
▁과학기술	-11.8551
▁채용	-11.8551
▁안정화	-11.8553
▁안정성	-11.8553
▁사육사들	-11.8554
▁크레인	-11.8555
▁야스	-11.8555
▁거기에	-11.8556
▁출동했다	-11.8559
np	-11.8569
▁뒤진	-11.857
▁등반	-11.857
▁다크	-11.8573
▁도하	-11.8574
▁용지	-11.8578
▁투표자	-11.8588
▁활동가들	-11.859
▁환경적	-11.8594
▁같지	-11.8597
▁시차	-11.8598
투스	-11.8602
▁저서	-11.8603
▁가문	-11.8608
▁보수주의	-11.8608
▁버렸	-11.8612
▁여자친구와	-11.8619
▁고심하	-11.862
▁제출해야	-11.8621
▁유나이티드와	-11.8621
▁김만	-11.8623
▁인류학	-11.8625
▁유서	-11.8626
▁선수들에게	-11.863
셰르	-11.8632
person	-11.8633
tan	-11.8633
dy	-11.8642
▁각료들	-11.8642
▁line	-11.8643
성분	-11.8644
▁상하이에서	-11.8644
▁적용할	-11.8653
▁납세자들	-11.8653
▁접어	-11.8654
▁경제팀	-11.8659
▁봉인	-11.8664
▁los	-11.8665
▁안전성	-11.8667
▁구사하	-11.8671
▁더위	-11.8673
▁직면하	-11.8674
ino	-11.8681
▁피난민	-11.8684
환자	-11.8685
▁출발했다	-11.8685
lb	-11.8686
▁헤리	-11.8687
▁선출됐다	-11.8692
▁공직자	-11.8693
▁초소	-11.8695
hoo	-11.8696
▁부패와	-11.8699
였음	-11.8703
▁레스토랑에서	-11.8704
▁계획안	-11.8706
▁거절한	-11.8708
▁구리	-11.8712
▁표현할	-11.8719
ray	-11.8723
▁추산되	-11.8726
▁상인들	-11.8729
▁근대	-11.8736
▁팔린	-11.8737
▁bl	-11.8738
▁자비	-11.8739
▁끝나면	-11.8741
해주기	-11.8749
▁나일	-11.8752
▁특파원들	-11.8753
▁강화하	-11.8754
▁월급	-11.8757
▁일쯤	-11.8758
▁발전기	-11.8758
▁생산되	-11.8766
타그	-11.8771
eve	-11.8779
▁무능	-11.8787
부장관	-11.8789
▁경쟁사	-11.8793
봤	-11.8794
란드	-11.8794
블러	-11.8796
히코	-11.8797
▁사망자들	-11.8807
▁대피하	-11.881
▁비서	-11.8811
▁통과되	-11.8812
▁장악했다	-11.8814
▁sup	-11.8816
ast	-11.8821
▁제소	-11.8828
▁미대사	-11.8838
▁빠	-11.8839
▁메카	-11.8844
▁상징인	-11.885
▁우려된다	-11.8852
▁모기	-11.8853
▁버려	-11.886
▁인물들	-11.8862
▁인도적	-11.8871
by	-11.8884
▁보리	-11.8892
▁비난한다	-11.8893
나갔다	-11.8898
▁싶어하지	-11.8898
▁도발	-11.8902
활	-11.8903
▁약화시키	-11.8905
잡지	-11.8906
▁성대	-11.8909
▁요인들	-11.891
봐	-11.8911
폭탄	-11.8914
▁전사자	-11.8914
보험	-11.8914
춤	-11.8915
▁구매자들	-11.8916
잇	-11.8917
월드컵	-11.8917
▁india	-11.8921
▁개최국	-11.8925
모델	-11.8926
하듯	-11.893
제조	-11.8933
물라	-11.8933
열차	-11.8935
장애	-11.8937
계약	-11.8939
소득	-11.894
▁그러면	-11.8942
대결	-11.8946
모건	-11.8947
▁블리	-11.8949
집회	-11.8964
▁생물학	-11.8965
▁당혹	-11.8968
▁거론되	-11.897
▁중단하겠다	-11.8985
▁모욕적	-11.8987
▁전장에	-11.8989
일본	-11.8991
▁mc	-11.9003
포르	-11.9007
▁참여하기	-11.9013
▁수감됐	-11.9017
▁제시하지	-11.902
▁성교	-11.9034
▁자행한	-11.9036
식품	-11.9037
nsc	-11.9037
▁미성년	-11.9039
ina	-11.9039
▁공정하	-11.9041
▁재기	-11.9041
▁나타낸	-11.9044
▁무차별	-11.905
▁확보하고	-11.9056
▁후보간	-11.9057
▁패트	-11.9067
nel	-11.9067
▁rai	-11.9069
▁높았	-11.908
쿨	-11.9084
aba	-11.9085
side	-11.9088
▁상승했	-11.9088
aut	-11.909
▁강조하는	-11.9093
성명	-11.9108
▁조종사들	-11.9112
자격	-11.9112
요리	-11.9113
▁안타깝	-11.9121
▁참모총장	-11.9121
▁곤란	-11.9121
▁터무니	-11.9124
슐	-11.9125
둑	-11.9125
▁환경부	-11.9127
슬라브	-11.9129
▁프란시스	-11.9129
▁lead	-11.913
▁경기부양	-11.9131
궐	-11.9131
▁솔로몬	-11.9131
팽	-11.9131
▁campaign	-11.9131
▁unveil	-11.9131
▁withdraw	-11.9131
▁뉴욕타임즈	-11.9131
▁독립선언	-11.9131
▁사우스다코타	-11.9131
▁아름답	-11.9131
▁아쿠아리움	-11.9131
▁울프위츠	-11.9131
▁워싱턴포스트	-11.9131
▁컨소시엄	-11.9131
▁클랩튼	-11.9131
껴	-11.9131
륨	-11.9131
륭	-11.9131
through	-11.9131
▁council	-11.9131
▁crisis	-11.9131
▁envoy	-11.9131
▁europe	-11.9131
▁great	-11.9131
▁illegal	-11.9131
▁john	-11.9131
▁kkk	-11.9131
▁microsoft	-11.9131
▁number	-11.9131
▁refugee	-11.9131
▁safe	-11.9131
▁sncf	-11.9131
▁고혈압	-11.9131
▁나스랄라	-11.9131
▁네브라스카	-11.9131
▁다녔다	-11.9131
▁대기오염	-11.9131
▁대선예비후보	-11.9131
▁델라웨어	-11.9131
▁뒷좌석	-11.9131
▁드림라이너	-11.9131
▁레오나르도	-11.9131
▁루프트한	-11.9131
▁마르세유	-11.9131
▁만파운드	-11.9131
▁머물렀다	-11.9131
▁먹었다	-11.9131
▁메탄가스	-11.9131
▁믿어지	-11.9131
▁바예스테로스	-11.9131
▁박스오피스	-11.9131
▁발렌타인	-11.9131
▁북방한계선	-11.9131
▁분리독립	-11.9131
▁비디오테이프	-11.9131
▁스머프	-11.9131
▁스테로이드	-11.9131
▁스프린트	-11.9131
▁시니오라	-11.9131
▁쓰러진	-11.9131
▁아리조나	-11.9131
▁애국전선	-11.9131
▁에메랄드	-11.9131
▁오마이뉴스	-11.9131
▁와코비아	-11.9131
▁인공심장	-11.9131
▁자와히리	-11.9131
▁조기총선	-11.9131
▁최연소	-11.9131
▁카메룬	-11.9131
▁카스파로프	-11.9131
▁클리닉	-11.9131
▁펠릭스	-11.9131
▁폴란스키	-11.9131
▁현충일	-11.9131
▁홀로코스트	-11.9131
▁히말라야	-11.9131
뚱	-11.9131
뭘	-11.9131
프로농구	-11.9131
▁prevent	-11.9131
▁공청회	-11.9131
▁극단적인	-11.9131
▁다빈치	-11.9131
▁라말라	-11.9131
▁모토로라	-11.9131
▁스릴러	-11.9131
▁시베리아	-11.9131
▁알레르기	-11.9131
▁외할머니	-11.9131
▁크로포드	-11.9131
▁rbs	-11.9132
▁목걸이	-11.9132
▁부끄러	-11.9132
▁빔보	-11.9132
▁에버튼	-11.9132
▁카제미	-11.9132
어느때보다	-11.9132
▁우체국	-11.9132
▁현기증	-11.9132
▁direct	-11.9132
▁산티아고	-11.9132
▁아세안	-11.9132
▁카우치	-11.9132
▁허덕이	-11.9132
▁omx	-11.9132
▁분화구	-11.9132
▁어둡	-11.9132
▁엘비스	-11.9132
▁알메이다	-11.9132
▁퇴근	-11.9132
▁퇴출	-11.9132
▁김일성	-11.9132
▁임상실험	-11.9132
▁삼성전자	-11.9132
▁트레이드	-11.9132
▁불도저	-11.9132
▁오피스	-11.9132
▁떠다니	-11.9132
▁민주변화	-11.9132
▁아침식사	-11.9132
▁스프링스틴	-11.9132
▁공동기자회견에	-11.9132
▁세비르	-11.9132
▁트레이시	-11.9132
▁메세지	-11.9132
▁etc	-11.9132
▁손가락	-11.9132
▁stock	-11.9132
▁리프트	-11.9132
▁행정명령	-11.9132
▁추도식	-11.9132
▁디아즈	-11.9132
▁니가타	-11.9132
▁듀프레	-11.9132
▁현명한	-11.9132
▁버핏	-11.9132
▁민주변화운동	-11.9132
▁월경작전	-11.9132
▁가오리	-11.9132
▁엔터프라이즈	-11.9132
▁히트곡	-11.9132
▁탐지기	-11.9132
▁종합병원	-11.9132
▁재가동	-11.9132
▁빠져나갔다	-11.9132
▁불상사	-11.9132
▁슬럼	-11.9132
▁결론지었다	-11.9132
▁히잡	-11.9132
▁헐값	-11.9132
▁missile	-11.9132
▁적임자	-11.9132
▁홍보담당자	-11.9132
▁슬램	-11.9132
▁구급차	-11.9132
▁출몰	-11.9132
▁골드버그	-11.9132
▁블랙베리	-11.9132
▁데이비스컵	-11.9133
▁쥐스틴	-11.9133
▁완패	-11.9133
▁평의회	-11.9133
▁constitutional	-11.9133
▁바꿨	-11.9133
▁강제진압	-11.9133
▁올라간다	-11.9133
▁천수이	-11.9133
▁사기꾼	-11.9133
▁겸손	-11.9133
로프트	-11.9133
▁놀이기구	-11.9133
▁아름다움	-11.9133
▁용암	-11.9133
▁베풀	-11.9133
▁감기약	-11.9133
▁마샬	-11.9133
▁선거운동본부	-11.9133
▁enter	-11.9133
▁스페이스	-11.9133
▁유니티	-11.9133
▁동북	-11.9134
▁목욕	-11.9134
▁패션쇼	-11.9134
홍색	-11.9134
▁청취	-11.9134
▁폭염	-11.9134
▁노골적	-11.9134
▁남아시아	-11.9134
▁비겁	-11.9134
▁수세기	-11.9134
▁fight	-11.9134
▁출근	-11.9134
▁갈망하	-11.9134
▁금전적	-11.9135
▁달려있다	-11.9135
▁옐로	-11.9135
▁사형제도	-11.9135
▁검은색	-11.9135
▁night	-11.9135
▁육류	-11.9135
▁라디오뉴스	-11.9135
phone	-11.9135
▁주모자	-11.9136
▁완강	-11.9136
▁가져온	-11.9136
▁관습	-11.9136
less	-11.9136
▁베이커	-11.9136
▁숙박비	-11.9136
▁입혔다	-11.9136
▁도와준	-11.9136
▁뉴먼	-11.9137
▁tam	-11.9137
▁응급실	-11.9137
▁실용적	-11.9137
▁산업지수	-11.9138
▁올리버	-11.9138
▁축구협회	-11.9138
▁채굴	-11.9138
▁상무위원	-11.9138
리포트	-11.9138
▁잠입	-11.9138
other	-11.9138
▁담합	-11.9139
▁유명해졌다	-11.9139
▁성폭행범	-11.9139
▁아이콘	-11.9139
▁과열	-11.9139
▁사무국	-11.9139
▁임시정부	-11.914
▁auto	-11.914
▁처방전	-11.914
▁검시	-11.914
▁화산재	-11.9141
▁sola	-11.9141
▁열악	-11.9141
▁자궁	-11.9141
▁어두	-11.9141
▁청원	-11.9141
▁터졌다	-11.9141
▁스토리	-11.9141
▁모스크	-11.9142
디언	-11.9142
▁하향	-11.9143
▁west	-11.9143
▁wta	-11.9143
▁에릭슨	-11.9143
▁소득세	-11.9143
▁잠복	-11.9143
▁신랄	-11.9144
프로축구	-11.9144
▁교신	-11.9144
▁회생	-11.9144
▁구슬	-11.9145
▁떼어	-11.9145
▁담았다	-11.9145
▁정치활동	-11.9145
▁수상작	-11.9145
▁독려	-11.9145
▁변종	-11.9146
▁양빈	-11.9146
▁경영자들	-11.9147
▁모빌	-11.9147
▁즉석	-11.9147
▁통치권	-11.9148
▁털어	-11.9148
▁성취	-11.9148
▁장시간	-11.9149
▁축적	-11.9149
▁감형	-11.9149
▁진학	-11.915
▁벗어나지	-11.915
▁거칠	-11.9151
even	-11.9152
▁행보	-11.9152
▁칼리드	-11.9152
▁친교	-11.9153
▁추위	-11.9153
▁간격	-11.9153
▁혼자서	-11.9153
▁계절	-11.9153
▁응용	-11.9154
▁친지들	-11.9154
▁일기장	-11.9154
▁usb	-11.9154
▁제마	-11.9155
▁의향	-11.9155
▁연주자	-11.9155
▁파탄	-11.9156
ready	-11.9156
▁칭하며	-11.9156
▁표출	-11.9156
▁자율	-11.9157
▁월터스	-11.9158
▁아예	-11.9158
▁돌발	-11.9158
▁석권	-11.9158
▁경고문	-11.9159
▁동조	-11.9159
▁단단	-11.916
▁도매	-11.916
▁국정원장	-11.9161
▁없어질	-11.9162
▁재연	-11.9163
▁propos	-11.9163
▁인도양	-11.9164
▁보수주의자들	-11.9164
▁실체	-11.9164
▁않음	-11.9165
▁카본	-11.9166
▁영구적	-11.9166
▁형법	-11.9166
pass	-11.9166
▁쓰러졌다	-11.9167
▁모친	-11.9168
툴라	-11.9168
▁별명	-11.9168
▁회복되	-11.9168
▁증명서	-11.9169
▁islami	-11.9169
▁나빠지	-11.9169
▁위스콘신주	-11.9169
▁그라이브	-11.9169
▁달아나	-11.9169
▁nations	-11.9169
▁오메	-11.9169
▁상류	-11.9169
▁세월	-11.917
▁그렇지만	-11.9171
▁만들어낸	-11.9171
▁의문사	-11.9171
▁아래서	-11.9171
▁인출	-11.9171
▁유형	-11.9172
▁atp	-11.9175
▁소중	-11.9176
▁영국항공	-11.9177
▁농성	-11.9177
▁공단	-11.9178
▁보고됐다	-11.918
▁폰다	-11.9181
▁시작하자	-11.9182
▁아론	-11.9183
▁피력	-11.9183
▁저조	-11.9184
▁병원측	-11.9185
▁특권	-11.9185
▁동화	-11.9185
▁사본	-11.9186
lum	-11.9186
▁건전	-11.9186
▁연비	-11.9186
▁원정경기에서	-11.9187
▁이민국	-11.9187
▁올림픽위원회	-11.9187
▁저지대	-11.919
▁맘	-11.919
▁배신	-11.9195
▁중학교	-11.9195
광장	-11.9196
▁초보	-11.9197
퍼드	-11.9198
▁푸드	-11.9198
▁보장받	-11.92
거래소에서	-11.9203
▁주거지	-11.9204
▁불타	-11.9208
▁강행할	-11.9209
▁정당성	-11.9211
▁뉴욕시장	-11.9211
▁실시간	-11.9211
▁녹스	-11.9211
▁부호	-11.9211
▁동부지역에서	-11.9212
▁신청자	-11.9212
▁낙관	-11.9215
▁피랍됐다	-11.9216
▁얻어야	-11.9216
▁기법	-11.9218
▁감독관	-11.9218
▁받아들여지	-11.922
▁나타낸다	-11.922
▁소비량	-11.9222
▁시에나	-11.9222
▁입성	-11.9224
▁최소화	-11.9225
▁선진	-11.9228
▁호르	-11.9231
▁맞서기	-11.9235
▁오노	-11.9236
▁무시한	-11.9236
▁설치했다	-11.9237
▁통과시킨	-11.9238
▁마우	-11.9239
▁국가대표팀	-11.9241
▁모가디슈에서	-11.9242
▁공급하기	-11.9243
▁거주지역	-11.9244
▁들어간다	-11.9245
▁거미	-11.9247
▁만족할	-11.9251
▁캘	-11.9257
▁이루어지지	-11.9259
▁제외됐다	-11.9262
▁확보하기	-11.9267
▁잡히	-11.927
▁분산	-11.9271
▁로키	-11.9272
▁노력해야	-11.9272
▁개종	-11.9273
▁프라하	-11.9274
▁제거하는	-11.9275
▁마시지	-11.9278
▁충분하다	-11.9279
▁멜로	-11.9286
▁무성	-11.9287
주민들	-11.9291
우먼	-11.9292
▁분파	-11.9292
▁비명	-11.9293
▁스키장	-11.9296
▁발사해	-11.9298
▁resign	-11.9299
▁조언했다	-11.9306
이었기	-11.9307
▁살았다	-11.9309
▁가설	-11.9316
▁취지	-11.9316
▁행해졌	-11.9321
▁정하지	-11.9322
▁사죄	-11.9324
▁보여주었다	-11.9324
플랜	-11.9327
▁모술에서	-11.9327
▁사랑한다	-11.9331
▁페러	-11.9333
▁제안했	-11.9333
▁신고서	-11.9334
슈아	-11.9337
▁샤리	-11.9338
▁안치	-11.9339
▁cl	-11.9339
▁입게	-11.9341
했어야	-11.9342
▁갑작스러	-11.9345
▁가든	-11.9346
▁발견하게	-11.9353
▁작품들	-11.9362
끌어냈다	-11.9365
▁디나	-11.9366
▁고소했다	-11.9371
▁석방되	-11.9376
웃	-11.9384
▁고려해야	-11.9385
극적으로	-11.9387
▁구성했다	-11.9387
▁벤와	-11.9388
gy	-11.9389
dp	-11.9393
▁메이어	-11.9395
▁전달하는	-11.9396
▁제조업자	-11.9397
ada	-11.9399
▁도서	-11.9411
▁연안에서	-11.9427
▁자료들	-11.9429
▁변기	-11.9429
▁작성했다	-11.943
▁물려	-11.9432
▁필리	-11.9439
▁알레	-11.9441
▁구역에서	-11.9446
▁무장괴한들	-11.9462
보르	-11.9465
▁어부들	-11.9469
▁재정비	-11.947
▁배심원들	-11.9476
▁알프레	-11.9476
인구가	-11.948
▁기소장	-11.9483
치오	-11.9483
▁인하했다	-11.9484
▁돌아가기	-11.9486
▁취했	-11.9486
블리	-11.9486
▁배치되어	-11.9492
▁mac	-11.9506
▁평화롭	-11.9527
▁지상에서	-11.9532
▁가파	-11.9537
재산권	-11.9538
▁도슨	-11.9552
▁일본측	-11.9562
그라	-11.9563
▁사퇴했다	-11.9565
▁보행	-11.9575
▁보수적	-11.9579
▁부정했다	-11.959
▁봉쇄했다	-11.9593
▁검사들	-11.9595
▁포착했다	-11.9596
▁수행하기	-11.9599
▁표준시	-11.9603
젤리	-11.9603
대장	-11.9605
▁사망하기	-11.9632
▁보안국	-11.9651
▁슈퍼대의원들	-11.9657
▁두려워하	-11.9658
▁확정했다	-11.9663
▁시설들	-11.9664
▁구입했다	-11.967
테오	-11.9674
▁인기있	-11.9675
ago	-11.9675
큐	-11.9676
보좌관	-11.9676
싸	-11.9676
▁기장	-11.9678
켄	-11.9682
▁나와있	-11.9682
행동	-11.9682
졸	-11.9683
듀	-11.9684
낙	-11.9684
기상청	-11.9685
빅	-11.9686
평균	-11.9686
미사일	-11.9687
리서치	-11.9688
▁연행했다	-11.9689
축구	-11.9689
워졌다	-11.9692
포인트	-11.9692
▁추측되	-11.9695
▁원만	-11.9695
조합	-11.9698
▁제작됐다	-11.9698
평화	-11.9698
등록	-11.9699
소송	-11.97
결정	-11.9702
▁멀어	-11.9705
보낼	-11.9707
조각	-11.9707
▁지휘관들	-11.9709
다닐	-11.9715
▁전해왔	-11.9721
nc	-11.9724
▁포로로	-11.9724
▁회피	-11.9727
증세	-11.9729
불안	-11.9733
▁붕괴됐다	-11.9737
세워	-11.9739
술라	-11.9743
수익	-11.9748
▁warn	-11.9749
▁둔화되	-11.975
cle	-11.9753
드윈	-11.9756
rry	-11.9759
▁마련하는	-11.9765
▁정당들	-11.9766
▁안전하다	-11.9774
쳐야	-11.9782
▁전달하기	-11.9798
무대	-11.9819
▁환호하	-11.982
▁부과했다	-11.9821
▁서적	-11.9829
▁끝났	-11.9834
▁행성들	-11.9836
▁배치된	-11.984
▁남았	-11.9851
▁준결승전	-11.9852
오브	-11.9855
하원	-11.9858
▁쫓아	-11.9859
▁윌리암	-11.9863
▁제거했다	-11.9868
▁드러냈	-11.9875
공간	-11.9877
▁빠뜨	-11.9878
노브	-11.9887
▁알래스카주	-11.9888
▁price	-11.9889
▁떨어뜨	-11.9889
reme	-11.9889
▁붙어	-11.989
▁늘려	-11.9891
▁절대적	-11.9891
▁실시됐	-11.9895
옐	-11.9897
뇨	-11.9899
ween	-11.99
▁elect	-11.99
벳	-11.99
▁트래	-11.99
놔	-11.9901
ould	-11.9901
쿼	-11.9901
▁critic	-11.9901
▁push	-11.9901
▁french	-11.9901
▁intelligen	-11.9901
▁investigation	-11.9901
▁israel	-11.9901
▁launch	-11.9901
▁nhk	-11.9901
▁radio	-11.9901
▁toward	-11.9901
▁ucla	-11.9901
▁가깝다	-11.9901
▁광저우	-11.9901
▁국제통화기금	-11.9901
▁나뭇가지	-11.9901
▁노스다코타	-11.9901
▁닫았	-11.9901
▁대북제재	-11.9901
▁댕기열	-11.9901
▁데이터베이스	-11.9901
▁도마뱀	-11.9901
▁동아시아	-11.9901
▁롤러코스터	-11.9901
▁맨하탄	-11.9901
▁명확하지	-11.9901
▁무사콸라	-11.9901
▁밀워키	-11.9901
▁보궐선거	-11.9901
▁불공평	-11.9901
▁브래들리	-11.9901
▁비무장	-11.9901
▁사파테로	-11.9901
▁선글라스	-11.9901
▁선덜랜드	-11.9901
▁성폭력	-11.9901
▁세계경제포럼	-11.9901
▁스펙터	-11.9901
▁스폰서	-11.9901
▁아틀레티코	-11.9901
▁에두아르	-11.9901
▁여우주연상	-11.9901
▁연방준비은행	-11.9901
▁유럽중앙은행	-11.9901
▁융통성	-11.9901
▁이슬라미야	-11.9901
▁인수합병	-11.9901
▁족자카르타	-11.9901
▁차이나데일리	-11.9901
▁츠요시	-11.9901
▁캄푸쉬	-11.9901
▁캐시미르	-11.9901
▁코리아타임즈	-11.9901
▁코뿔소	-11.9901
▁코펜하겐	-11.9901
▁콴타스	-11.9901
▁클래식	-11.9901
▁클리브랜드	-11.9901
▁통합러시아당	-11.9901
▁트랜스포머	-11.9901
▁트럼프	-11.9901
▁파라마운트	-11.9901
▁파르베즈	-11.9901
▁프리미엄	-11.9901
▁휘두르	-11.9901
▁흘렀	-11.9901
뎀	-11.9901
샷	-11.9901
싹	-11.9901
쥔	-11.9901
퀘	-11.9901
텔레그래프	-11.9901
퍽	-11.9901
▁children	-11.9901
▁credit	-11.9901
▁snl	-11.9901
▁노란색	-11.9901
▁만배럴	-11.9901
▁심사숙고	-11.9901
▁쌓아	-11.9901
▁애국심	-11.9901
▁주일미군	-11.9901
▁천안문	-11.9901
축구대표팀	-11.9901
▁terror	-11.9901
▁마들렌	-11.9901
▁무작위	-11.9901
▁배기가스	-11.9901
▁복부비만	-11.9901
▁유니폼	-11.9901
▁친인척	-11.9901
간담회에서	-11.9901
▁강렬한	-11.9901
▁냉소적	-11.9901
▁카밀라	-11.9901
▁나르기스	-11.9901
▁쓰러지	-11.9901
▁의사소통	-11.9901
▁조연상	-11.9901
▁짐바브웨아프리카민족	-11.9901
▁트레이너	-11.9901
▁레예스	-11.9901
▁클래스	-11.9901
▁flu	-11.9901
▁안테나	-11.9901
▁좌초	-11.9901
▁백만장자	-11.9901
▁고프섬	-11.9901
▁왓슨	-11.9901
▁끼치지	-11.9901
▁의정서	-11.9901
▁헬멧	-11.9901
▁욕실	-11.9901
▁구덩이	-11.9901
▁에볼라	-11.9901
▁스트립	-11.9901
▁한계선	-11.9901
▁grand	-11.9901
▁리스본	-11.9901
▁붐비는	-11.9901
▁그랜트	-11.9901
▁서부텍사스산	-11.9901
프로야구	-11.9901
▁need	-11.9901
▁foundation	-11.9901
▁만수르	-11.9901
▁이스트우드	-11.9901
▁marine	-11.9901
▁sars	-11.9901
▁장래에	-11.9901
▁클라우디	-11.9901
▁발리우드	-11.9901
▁선두주자	-11.9901
▁트루먼	-11.9901
▁물고문	-11.9901
▁혈압	-11.9901
▁에어컨	-11.9901
▁현존하	-11.9901
▁컨트리	-11.9901
▁징수	-11.9901
▁board	-11.9901
▁추락사고	-11.9901
▁내보내	-11.9901
▁폭죽	-11.9901
▁휘둘	-11.9901
▁펠트	-11.9901
▁악몽	-11.9901
▁집주인	-11.9902
resume	-11.9902
▁다이빙	-11.9902
▁곤봉	-11.9902
▁billion	-11.9902
▁로하스	-11.9902
▁제주도	-11.9902
▁깨뜨	-11.9902
▁압축	-11.9902
▁gold	-11.9902
▁internet	-11.9902
▁hill	-11.9902
▁혈통	-11.9902
▁착각	-11.9903
▁flight	-11.9903
▁전자제품	-11.9903
▁과격단체	-11.9903
▁세계무역센터	-11.9903
▁장병들	-11.9903
▁경범죄	-11.9903
▁차량폭탄테러	-11.9903
▁언더파	-11.9903
▁니켈	-11.9903
operation	-11.9903
▁학습	-11.9903
▁station	-11.9903
▁비서관	-11.9903
▁dur	-11.9903
▁rall	-11.9903
▁행정장관	-11.9904
▁바이올	-11.9904
▁타깃	-11.9904
▁권좌	-11.9904
▁움직여	-11.9904
▁브랜슨	-11.9904
▁글로브	-11.9904
▁출품	-11.9904
▁라마디	-11.9904
▁보호구역	-11.9904
▁기반시설	-11.9904
▁클로버	-11.9904
▁독살	-11.9904
첸코	-11.9904
▁지켜볼	-11.9905
▁음란	-11.9905
▁심각해지	-11.9905
▁왕립	-11.9905
▁행해지	-11.9905
▁충실	-11.9905
▁교도관	-11.9905
▁상여금	-11.9905
▁주가지수	-11.9905
▁부흥	-11.9905
▁미시시피강	-11.9906
▁가리키	-11.9906
▁특별검사	-11.9906
▁자금지원	-11.9906
▁관절	-11.9906
▁붉은색	-11.9906
닥친	-11.9906
▁스몰	-11.9906
▁치욕	-11.9907
▁신탁	-11.9907
▁아시안	-11.9907
▁mls	-11.9907
▁사흘	-11.9907
▁유로스타	-11.9908
▁낙타	-11.9908
▁특검	-11.9908
▁휩쓸려	-11.9908
▁평화회담	-11.9908
▁떠올리	-11.9908
▁출구	-11.9908
▁올라있다	-11.9909
▁헬러	-11.9909
▁소멸	-11.9909
▁도킹	-11.9909
▁계란	-11.991
▁대선결과	-11.991
▁적합하지	-11.991
▁삼판	-11.991
▁피해규모	-11.991
▁구걸	-11.991
▁샹	-11.9911
▁쿡	-11.9911
▁쏘아	-11.9911
▁소방서장	-11.9911
▁목재	-11.9911
▁선거결과	-11.9911
▁솔라나	-11.9911
▁도망치	-11.9911
▁cre	-11.9912
▁항목	-11.9912
▁능가	-11.9912
▁채팅	-11.9913
▁메릴랜드주	-11.9913
▁테너	-11.9913
느린	-11.9914
▁양봉	-11.9914
▁변함	-11.9914
▁종족	-11.9914
▁태형	-11.9914
▁소변	-11.9915
▁갈색	-11.9915
▁청구했다	-11.9915
▁조별	-11.9915
▁오존	-11.9916
▁영공	-11.9916
▁드물게	-11.9916
▁신변	-11.9917
▁길거리	-11.9917
▁친근	-11.9917
▁로이드	-11.9918
▁세르비아계	-11.9918
▁dra	-11.9918
▁천만원	-11.9918
▁파열	-11.9919
▁쇼핑센터	-11.9919
▁다수당	-11.992
▁집행위원회	-11.992
▁코메	-11.992
▁커져	-11.992
▁외교위원회	-11.9921
▁온건	-11.9921
▁실험실	-11.9922
▁전국위원회	-11.9922
▁열망	-11.9922
▁우울	-11.9922
▁무관	-11.9923
▁앉아서	-11.9924
▁김양	-11.9925
▁성전환	-11.9927
▁소탕하기	-11.9927
▁댄스	-11.9928
▁클린트	-11.9928
▁버티	-11.9928
▁셸	-11.9928
▁치유	-11.9928
▁동계	-11.9928
▁유래	-11.9928
▁군당국	-11.9929
▁청구서	-11.9929
▁우유	-11.993
▁테러사건	-11.993
▁확고히	-11.993
▁파병군	-11.993
▁바람직하다	-11.993
▁산출	-11.9932
▁구입하는	-11.9934
▁실형	-11.9934
▁반입	-11.9934
▁지낼	-11.9934
▁내몰	-11.9934
▁특유	-11.9935
▁철수시킬	-11.9935
▁led	-11.9936
▁합성	-11.9937
▁방중	-11.9937
▁돌봐	-11.9937
▁총탄	-11.9938
▁시설물	-11.9938
▁헤비	-11.9938
▁near	-11.9939
▁추측된다	-11.9939
▁논리	-11.9939
▁현명하	-11.994
▁백명	-11.994
▁모터스	-11.994
▁뒷받침할	-11.9941
▁싸운	-11.9941
▁원료	-11.9943
▁쫓아내	-11.9943
▁천체	-11.9943
▁버니	-11.9944
▁석방하라	-11.9944
▁보내야	-11.9945
▁국교	-11.9945
▁가르쳐	-11.9945
▁건국	-11.9946
▁되어있다	-11.9947
▁원작	-11.9948
▁우선시	-11.9951
▁담보	-11.9951
▁넘치	-11.9953
▁far	-11.9953
▁미끄러지	-11.9953
▁웬디	-11.9955
▁불신	-11.9956
▁카라다	-11.9956
▁모리스	-11.9958
▁탄력	-11.9959
▁피랍자	-11.9962
▁날조	-11.9964
▁니콜슨	-11.9964
▁여신	-11.9964
▁마련됐다	-11.9964
▁유린	-11.9968
▁훔쳤	-11.9969
▁안경	-11.9969
▁도처에	-11.9969
▁있으면	-11.9971
▁road	-11.9971
▁찬스	-11.9972
▁정해졌	-11.9973
큐리	-11.9973
▁개입하지	-11.9973
ball	-11.9974
▁원더	-11.9975
▁선거위원회	-11.9976
▁인신	-11.9978
▁밝혀내지	-11.9979
▁검찰관	-11.998
▁기뻐했다	-11.998
▁전망된다	-11.9982
▁마리오	-11.9982
▁불확실한	-11.9982
▁실시하는	-11.9983
▁함자	-11.9983
▁게재했다	-11.9985
▁기조	-11.9985
▁추측했다	-11.9987
▁흥미롭	-11.9988
▁알약	-11.9991
▁외곽지역	-11.9993
▁화학적	-11.9997
소식	-11.9998
▁맺었	-11.9998
▁중부지역	-12.0002
▁후송됐다	-12.0004
▁방일	-12.0007
▁인디애나주	-12.0009
▁예측하기	-12.0009
▁공보	-12.001
▁기본스	-12.0015
타이거	-12.0015
▁주장하면서	-12.0016
▁기여했다	-12.0017
드리스	-12.0021
▁풀기	-12.0022
▁쏟아지	-12.0022
▁취급하	-12.0022
▁발생했었다	-12.0023
▁회복하기	-12.0024
▁유명해	-12.0026
▁농지	-12.0027
▁다투	-12.0028
▁마디	-12.003
첼로	-12.0031
▁경신했다	-12.0032
▁중추	-12.0032
▁솔로	-12.0036
▁방법이라고	-12.0037
▁묘사하고	-12.004
▁보고타	-12.0042
▁현재로서	-12.0042
▁만두	-12.0042
▁후원자	-12.0043
▁중독자	-12.0043
전문가들	-12.0047
▁코스타	-12.0049
▁기상학자	-12.0051
▁살펴보	-12.0052
▁맥스	-12.0053
▁말하면	-12.0054
▁나쁘지	-12.0055
▁배치했다	-12.0056
▁바꾸어	-12.006
▁상징하	-12.0063
▁사바	-12.0065
▁연구센터	-12.0069
▁육박	-12.0071
오차	-12.0077
anger	-12.0078
▁공제	-12.008
▁통근자들	-12.0086
▁확실시되	-12.0088
▁제명	-12.0089
▁선사	-12.009
▁오래전	-12.009
▁이둘	-12.0091
▁생산국	-12.0095
▁체포되	-12.0096
▁타오	-12.0097
▁오크	-12.0102
▁공판에서	-12.0114
▁촉발됐다	-12.0115
▁가담했다	-12.0117
▁사회자	-12.0117
pet	-12.0117
▁달성하기	-12.0119
▁경제학자인	-12.0122
▁잠정적	-12.0129
▁골프장	-12.0139
▁사람이었다	-12.0145
▁회기	-12.0145
▁만들려	-12.0146
▁막사	-12.0162
스버그	-12.0162
▁치르기	-12.0167
▁주중	-12.0168
테드	-12.017
▁기관사	-12.0176
▁피살됐다	-12.0182
달아	-12.0182
▁드러	-12.0186
▁질문들	-12.0187
▁팔기	-12.0189
▁if	-12.0195
▁내린다	-12.0203
▁오염된	-12.0212
하더라	-12.0215
▁이슬람인들	-12.0218
▁개발도상국들	-12.0223
▁선생님	-12.0225
폴리스	-12.0225
uit	-12.0225
▁환경운동	-12.0227
coming	-12.0231
▁jer	-12.0236
▁출두했다	-12.0242
▁마니	-12.0242
▁학교측	-12.0248
▁금융기관	-12.0254
▁ten	-12.0256
▁개별적	-12.026
▁허락했다	-12.026
▁학부모	-12.0263
▁블로거들	-12.0264
▁ji	-12.0266
통계국	-12.0276
▁마린	-12.0285
▁지불해야	-12.029
▁혁신	-12.0292
▁올리기	-12.0292
▁엔지니어들	-12.0295
ung	-12.0297
▁세워졌	-12.0298
▁루시	-12.0303
▁대항해	-12.0305
해발	-12.0305
▁사과한다	-12.0306
추어	-12.031
▁훈련시키	-12.0314
▁소비자에게	-12.0315
라이츠	-12.032
▁위주	-12.0321
▁중단한다	-12.0334
▁연결되	-12.0336
▁지정했다	-12.0339
▁용이하	-12.0341
▁투입되	-12.0358
▁세무	-12.0364
▁가수들	-12.0364
▁ev	-12.0365
▁발효된	-12.0369
▁조합원들	-12.0374
▁순찰차	-12.0383
▁tru	-12.0388
▁보유자	-12.0408
▁자랑스럽	-12.0409
▁피난민들	-12.0413
▁돌려받	-12.0418
연일	-12.0423
▁문화부	-12.0424
▁도착하기	-12.0425
▁서머	-12.0438
▁개발자들	-12.0439
▁거라	-12.0462
▁예일대	-12.0463
▁납치하려	-12.0468
▁장갑차	-12.0481
▁무기들	-12.0486
놓는다	-12.0486
▁간호사들	-12.0486
▁로비스트	-12.0488
르모	-12.0497
▁타자	-12.05
▁청중들	-12.0504
신형	-12.051
▁del	-12.0511
흙	-12.0513
아버지	-12.0514
따	-12.0514
▁잠정	-12.0516
덜	-12.0518
헬	-12.0518
쓸	-12.0519
딸	-12.0519
싸움	-12.052
끝	-12.052
오바마	-12.0521
hp	-12.0522
검색	-12.0522
▁증명했다	-12.0527
▁동의하지	-12.0531
라디오	-12.0534
분석	-12.0535
교류	-12.0535
나이트	-12.0536
공연	-12.054
▁대변하는	-12.0541
예산	-12.0541
쉽게	-12.0544
▁트랜	-12.0544
▁시민단체들	-12.0544
명령	-12.0545
성향	-12.0545
공개	-12.0547
▁연결시키	-12.0548
출신	-12.0553
파업	-12.0553
▁스파	-12.0555
▁이용되	-12.0556
oman	-12.056
방문	-12.0562
대변인	-12.0564
▁순례객	-12.0578
▁late	-12.0578
▁도착한다	-12.059
었었다	-12.0594
▁중소기업	-12.0594
▁취하겠다	-12.0594
ami	-12.0603
▁스캔	-12.0607
수입	-12.0608
ida	-12.0617
▁양심	-12.0621
국제	-12.0623
▁안토니	-12.0623
▁수행한다	-12.0629
▁간주하	-12.0633
▁흑인들	-12.0644
카노	-12.0649
▁진행됐	-12.0656
▁ben	-12.0661
▁반대자들	-12.0661
▁옮겨졌	-12.0664
▁자원봉사	-12.0665
클라라	-12.0672
▁추종	-12.0672
▁멀지	-12.0673
▁예정됐	-12.0686
▁기쁘	-12.0701
dle	-12.0714
▁노렸	-12.0718
▁attack	-12.0722
▁외무	-12.0722
▁틀림없	-12.0725
봇	-12.0728
붕	-12.0728
▁봉사단	-12.0731
▁증권거래	-12.0731
▁jun	-12.0731
늄	-12.0732
▁악화시키	-12.0732
섹	-12.0733
▁수십년	-12.0733
▁여학생들	-12.0733
▁프리미어	-12.0734
횡	-12.0734
▁little	-12.0734
▁prison	-12.0734
▁tgv	-12.0734
▁낮출	-12.0734
▁네델란드	-12.0734
▁보디가드	-12.0734
▁콜럼버스	-12.0734
▁쿠알라룸푸르	-12.0734
삐	-12.0734
엣	-12.0734
줍	-12.0734
츄	-12.0734
▁ambassador	-12.0734
▁announce	-12.0734
▁beach	-12.0734
▁clinton	-12.0734
▁detain	-12.0734
▁dispute	-12.0734
▁half	-12.0734
▁ipcc	-12.0734
▁kcna	-12.0734
▁memorial	-12.0734
▁play	-12.0734
▁release	-12.0734
▁royal	-12.0734
▁women	-12.0734
▁가브리엘	-12.0734
▁공영방송	-12.0734
▁구테레스	-12.0734
▁굶주림	-12.0734
▁까다로운	-12.0734
▁꺾었다	-12.0734
▁나노튜브	-12.0734
▁난투극	-12.0734
▁남아메리카	-12.0734
▁네브래스카	-12.0734
▁노벨평화상	-12.0734
▁노스웨스트	-12.0734
▁뇌종양	-12.0734
▁라이베리아	-12.0734
▁레슬링	-12.0734
▁레터맨	-12.0734
▁록펠러	-12.0734
▁맥코넬	-12.0734
▁맥클라렌	-12.0734
▁메디슨	-12.0734
▁바뀌었다	-12.0734
▁바리케이드	-12.0734
▁반독점	-12.0734
▁버밍엄	-12.0734
▁부에노스아이레스	-12.0734
▁브란카토	-12.0734
▁뿌려	-12.0734
▁살인혐의	-12.0734
▁삽입	-12.0734
▁수족구병	-12.0734
▁스트라이커	-12.0734
▁스피커	-12.0734
▁시앙시앙	-12.0734
▁아인슈타인	-12.0734
▁앓았	-12.0734
▁앞질렀	-12.0734
▁억파운드	-12.0734
▁얻으려	-12.0734
▁업데이트	-12.0734
▁에스판디아리	-12.0734
▁옛날	-12.0734
▁오랑우탄	-12.0734
▁윈스턴	-12.0734
▁죄책감	-12.0734
▁카디널스	-12.0734
▁카트만두	-12.0734
▁컨텐츠	-12.0734
▁코카콜라	-12.0734
▁콜럼비아	-12.0734
▁큐레이터	-12.0734
▁크루그먼	-12.0734
▁테스토스테론	-12.0734
▁팽창	-12.0734
▁펀자브	-12.0734
▁페르시아만	-12.0734
▁펜타곤	-12.0734
▁풍력발전기	-12.0734
▁플랫폼	-12.0734
▁플레임	-12.0734
▁피츠제럴드	-12.0734
▁핵사찰단	-12.0734
▁행방불명	-12.0734
▁헨더슨	-12.0734
▁호나우지뉴	-12.0734
▁휴먼라이츠워치	-12.0734
교통안전위원회	-12.0734
넛	-12.0734
쉘	-12.0734
엉	-12.0734
젼	-12.0734
쿵	-12.0734
▁hotel	-12.0734
▁가비알	-12.0734
▁거식증	-12.0734
▁더블린	-12.0734
▁로버츠	-12.0734
▁불태우	-12.0734
▁수뇌부	-12.0734
▁십자군	-12.0734
▁저질러	-12.0734
▁트레제게	-12.0734
▁포레스트	-12.0734
▁회계연도	-12.0734
▁울타리	-12.0734
▁이병헌	-12.0734
▁멜리사	-12.0734
▁모니카	-12.0734
▁물대포	-12.0734
▁고래상어	-12.0734
▁내버려	-12.0734
▁불사조	-12.0734
▁징집	-12.0734
▁개회식	-12.0734
▁양조장	-12.0734
▁제노아	-12.0734
▁동물보호	-12.0734
▁빌라로사	-12.0734
▁오스본	-12.0734
▁오피니언리서치	-12.0734
▁비엔나	-12.0734
▁순조롭	-12.0734
▁인권운동가	-12.0734
▁주경기장	-12.0734
▁튜브	-12.0734
▁불어넣	-12.0734
▁오마하	-12.0734
▁이정표	-12.0734
▁congress	-12.0734
▁갑판	-12.0734
▁욕설	-12.0734
▁산유국	-12.0734
▁유니버셜	-12.0734
▁놔두	-12.0734
▁흉선	-12.0734
▁로보트	-12.0734
▁템파베이	-12.0734
▁너머	-12.0734
▁메트로폴리	-12.0734
▁징크	-12.0734
▁와이먼	-12.0734
▁운전기사	-12.0734
▁플로렌스	-12.0734
▁유원지	-12.0734
▁자랑스러워	-12.0734
▁맹렬	-12.0734
▁마운트	-12.0734
▁솔로몬제도	-12.0734
▁미립자	-12.0734
▁메이저리그	-12.0734
▁플래카드	-12.0735
▁십억	-12.0735
▁hand	-12.0735
▁언쟁	-12.0735
▁캐스팅	-12.0735
▁이라와디	-12.0735
▁flor	-12.0735
▁끼치는	-12.0735
▁셀틱	-12.0735
▁파라과이	-12.0735
▁탁자	-12.0735
▁burma	-12.0735
▁서면으로	-12.0735
▁호프만	-12.0735
▁팩스	-12.0735
▁율법	-12.0735
▁안와르	-12.0735
▁무리뉴	-12.0735
▁세부사항	-12.0735
▁대명사	-12.0735
▁불명예	-12.0735
▁종합지수	-12.0735
▁강국	-12.0735
▁교묘	-12.0735
▁유대관계	-12.0735
▁월드뉴스	-12.0735
▁만유로	-12.0735
▁파키스탄무슬림리그	-12.0735
▁비상대책	-12.0735
▁사무엘	-12.0736
▁터뜨렸다	-12.0736
▁swee	-12.0736
▁풍습	-12.0736
▁마이어스	-12.0736
▁묵살	-12.0736
▁long	-12.0736
▁체스판	-12.0736
▁drm	-12.0736
▁랄리	-12.0736
▁arrested	-12.0736
hen	-12.0736
▁보컬	-12.0736
▁오빠	-12.0736
▁브릿	-12.0736
▁자연보호	-12.0736
▁결탁	-12.0736
▁폰테	-12.0736
▁슈웨	-12.0737
▁관중석	-12.0737
▁island	-12.0737
▁hong	-12.0737
▁염증	-12.0737
▁납품	-12.0737
▁넘어갔다	-12.0737
▁휩싸여	-12.0737
▁잠겼다	-12.0737
▁cell	-12.0737
▁일어났는지	-12.0737
▁치와와	-12.0737
▁따냈다	-12.0737
▁처해있다	-12.0737
▁인수가격	-12.0737
▁다가왔다	-12.0738
▁크리스탈	-12.0738
▁높아져	-12.0738
▁크리스마스트리	-12.0738
▁윈저	-12.0738
▁깊숙	-12.0738
▁험난	-12.0738
▁권익	-12.0738
▁풍속	-12.0738
▁마약거래	-12.0738
▁혈관	-12.0738
▁이해관계	-12.0738
▁멕시코시티	-12.0738
▁동결자금	-12.0738
▁예보관	-12.0738
▁폭력시위	-12.0739
▁거둬	-12.0739
▁라이플	-12.0739
▁베넷	-12.0739
▁충동	-12.0739
▁레슬리	-12.0739
▁바에즈	-12.0739
▁화살	-12.0739
▁nld	-12.0739
[...]
